{
  "version": "1.0",
  "truncation": null,
  "padding": null,
  "added_tokens": [
    {
      "id": 0,
      "content": "<s>",
      "single_word": false,
      "lstrip": false,
      "rstrip": false,
      "normalized": false,
      "special": true
    },
    {
      "id": 1,
      "content": "<pad>",
      "single_word": false,
      "lstrip": false,
      "rstrip": false,
      "normalized": false,
      "special": true
    },
    {
      "id": 2,
      "content": "</s>",
      "single_word": false,
      "lstrip": false,
      "rstrip": false,
      "normalized": false,
      "special": true
    },
    {
      "id": 3,
      "content": "<unk>",
      "single_word": false,
      "lstrip": false,
      "rstrip": false,
      "normalized": false,
      "special": true
    }
  ],
  "normalizer": null,
  "pre_tokenizer": {
    "type": "Metaspace",
    "replacement": "_",
    "prepend_scheme": "always",
    "split": true
  },
  "post_processor": {
    "type": "TemplateProcessing",
    "single": [
      {
        "SpecialToken": {
          "id": "<s>",
          "type_id": 0
        }
      },
      {
        "Sequence": {
          "id": "A",
          "type_id": 0
        }
      },
      {
        "SpecialToken": {
          "id": "</s>",
          "type_id": 0
        }
      }
    ],
    "pair": [
      {
        "SpecialToken": {
          "id": "<s>",
          "type_id": 0
        }
      },
      {
        "Sequence": {
          "id": "A",
          "type_id": 0
        }
      },
      {
        "SpecialToken": {
          "id": "</s>",
          "type_id": 0
        }
      },
      {
        "Sequence": {
          "id": "B",
          "type_id": 1
        }
      },
      {
        "SpecialToken": {
          "id": "</s>",
          "type_id": 1
        }
      }
    ],
    "special_tokens": {
      "</s>": {
        "id": "</s>",
        "ids": [
          2
        ],
        "tokens": [
          "</s>"
        ]
      },
      "<s>": {
        "id": "<s>",
        "ids": [
          0
        ],
        "tokens": [
          "<s>"
        ]
      }
    }
  },
  "decoder": {
    "type": "Metaspace",
    "replacement": "_",
    "prepend_scheme": "always",
    "split": true
  },
  "model": {
    "type": "BPE",
    "dropout": null,
    "unk_token": "<unk>",
    "continuing_subword_prefix": null,
    "end_of_word_suffix": null,
    "fuse_unk": false,
    "byte_fallback": false,
    "ignore_merges": false,
    "vocab": {
      "<s>": 0,
      "<pad>": 1,
      "</s>": 2,
      "<unk>": 3,
      "!": 4,
      "\"": 5,
      "%": 6,
      "&": 7,
      "'": 8,
      "(": 9,
      ")": 10,
      "*": 11,
      "+": 12,
      ",": 13,
      "-": 14,
      ".": 15,
      "/": 16,
      "0": 17,
      "1": 18,
      "2": 19,
      "3": 20,
      "4": 21,
      "5": 22,
      "6": 23,
      "7": 24,
      "8": 25,
      "9": 26,
      ":": 27,
      ";": 28,
      "=": 29,
      "?": 30,
      "@": 31,
      "A": 32,
      "B": 33,
      "C": 34,
      "D": 35,
      "E": 36,
      "F": 37,
      "G": 38,
      "H": 39,
      "I": 40,
      "J": 41,
      "K": 42,
      "L": 43,
      "M": 44,
      "N": 45,
      "O": 46,
      "P": 47,
      "Q": 48,
      "R": 49,
      "S": 50,
      "T": 51,
      "U": 52,
      "V": 53,
      "W": 54,
      "X": 55,
      "Y": 56,
      "Z": 57,
      "[": 58,
      "\\": 59,
      "]": 60,
      "_": 61,
      "a": 62,
      "b": 63,
      "c": 64,
      "d": 65,
      "e": 66,
      "f": 67,
      "g": 68,
      "h": 69,
      "i": 70,
      "j": 71,
      "k": 72,
      "l": 73,
      "m": 74,
      "n": 75,
      "o": 76,
      "p": 77,
      "q": 78,
      "r": 79,
      "s": 80,
      "t": 81,
      "u": 82,
      "v": 83,
      "w": 84,
      "x": 85,
      "y": 86,
      "z": 87,
      " ": 88,
      "¡": 89,
      "£": 90,
      "§": 91,
      "«": 92,
      "­": 93,
      "°": 94,
      "±": 95,
      "²": 96,
      "³": 97,
      "´": 98,
      "µ": 99,
      "·": 100,
      "¸": 101,
      "º": 102,
      "»": 103,
      "¿": 104,
      "À": 105,
      "Á": 106,
      "Â": 107,
      "Å": 108,
      "Æ": 109,
      "Ç": 110,
      "È": 111,
      "É": 112,
      "Ê": 113,
      "Ì": 114,
      "Í": 115,
      "Î": 116,
      "Ï": 117,
      "Ó": 118,
      "Ö": 119,
      "Ø": 120,
      "Ù": 121,
      "Ü": 122,
      "Ý": 123,
      "ß": 124,
      "à": 125,
      "á": 126,
      "â": 127,
      "ã": 128,
      "ä": 129,
      "å": 130,
      "æ": 131,
      "ç": 132,
      "è": 133,
      "é": 134,
      "ê": 135,
      "ë": 136,
      "ì": 137,
      "í": 138,
      "î": 139,
      "ï": 140,
      "ð": 141,
      "ñ": 142,
      "ò": 143,
      "ó": 144,
      "ô": 145,
      "õ": 146,
      "ö": 147,
      "ø": 148,
      "ù": 149,
      "ú": 150,
      "û": 151,
      "ü": 152,
      "ý": 153,
      "þ": 154,
      "ă": 155,
      "ą": 156,
      "ć": 157,
      "Č": 158,
      "č": 159,
      "ė": 160,
      "ę": 161,
      "ļ": 162,
      "ł": 163,
      "ń": 164,
      "ő": 165,
      "Œ": 166,
      "œ": 167,
      "ŕ": 168,
      "Ś": 169,
      "ś": 170,
      "ş": 171,
      "Š": 172,
      "š": 173,
      "ů": 174,
      "ź": 175,
      "Ż": 176,
      "Ž": 177,
      "Α": 178,
      "Β": 179,
      "Ι": 180,
      "Κ": 181,
      "Μ": 182,
      "Ν": 183,
      "Ο": 184,
      "Ρ": 185,
      "Τ": 186,
      "ί": 187,
      "ο": 188,
      "Є": 189,
      "У": 190,
      "а": 191,
      "в": 192,
      "д": 193,
      "е": 194,
      "и": 195,
      "й": 196,
      "к": 197,
      "л": 198,
      "м": 199,
      "н": 200,
      "о": 201,
      "п": 202,
      "р": 203,
      "с": 204,
      "т": 205,
      "ъ": 206,
      "ю": 207,
      "є": 208,
      "і": 209,
      "ї": 210,
      "–": 211,
      "‘": 212,
      "’": 213,
      "“": 214,
      "”": 215,
      "•": 216,
      "…": 217,
      "″": 218,
      "€": 219,
      "�": 220,
      "_d": 221,
      "es": 222,
      "on": 223,
      "_l": 224,
      "en": 225,
      "_p": 226,
      "_c": 227,
      "ti": 228,
      "_de": 229,
      "ou": 230,
      "qu": 231,
      "re": 232,
      "_s": 233,
      "_a": 234,
      "ent": 235,
      "er": 236,
      "is": 237,
      "an": 238,
      "_e": 239,
      "_qu": 240,
      "in": 241,
      "it": 242,
      "_la": 243,
      "ur": 244,
      "tion": 245,
      "_n": 246,
      "le": 247,
      "_m": 248,
      "ra": 249,
      "ment": 250,
      "si": 251,
      "un": 252,
      "ar": 253,
      "_le": 254,
      "_et": 255,
      "om": 256,
      "or": 257,
      "te": 258,
      "_pr": 259,
      "_t": 260,
      "_à": 261,
      "_les": 262,
      "_des": 263,
      "ons": 264,
      "_f": 265,
      "il": 266,
      "_l'": 267,
      "_que": 268,
      "_en": 269,
      "_r": 270,
      "ous": 271,
      "our": 272,
      "_un": 273,
      "op": 274,
      "_v": 275,
      "_au": 276,
      "_ce": 277,
      "me": 278,
      "ation": 279,
      "ont": 280,
      "_C": 281,
      "ant": 282,
      "ai": 283,
      "_é": 284,
      "li": 285,
      "ce": 286,
      "_d'": 287,
      "ans": 288,
      "ve": 289,
      "_dé": 290,
      "est": 291,
      "_par": 292,
      "us": 293,
      "_pa": 294,
      "que": 295,
      "és": 296,
      "ta": 297,
      "ne": 298,
      "omm": 299,
      "_pour": 300,
      "_du": 301,
      "ci": 302,
      "au": 303,
      "_j": 304,
      "res": 305,
      "al": 306,
      "ri": 307,
      "té": 308,
      "_in": 309,
      "_nous": 310,
      "_dans": 311,
      "_qui": 312,
      "tre": 313,
      "_con": 314,
      "_M": 315,
      "lement": 316,
      "oi": 317,
      "_re": 318,
      "_pro": 319,
      "_b": 320,
      "_P": 321,
      "_une": 322,
      "_L": 323,
      "pp": 324,
      "_ré": 325,
      "os": 326,
      "_pas": 327,
      "ch": 328,
      "eu": 329,
      "ité": 330,
      "_est": 331,
      "el": 332,
      "sion": 333,
      "_g": 334,
      "urop": 335,
      "mp": 336,
      "_sur": 337,
      "ort": 338,
      "_pl": 339,
      "de": 340,
      "ais": 341,
      "aire": 342,
      "se": 343,
      "_com": 344,
      "les": 345,
      "tu": 346,
      "ro": 347,
      "_ne": 348,
      "ts": 349,
      "ré": 350,
      "di": 351,
      "ait": 352,
      "ommis": 353,
      "_l’": 354,
      "ff": 355,
      "_po": 356,
      "éen": 357,
      "ni": 358,
      "uropéen": 359,
      "tte": 360,
      "_ra": 361,
      "_européen": 362,
      "eur": 363,
      "_se": 364,
      "ère": 365,
      "_di": 366,
      "ter": 367,
      "ag": 368,
      "ol": 369,
      "_J": 370,
      "ab": 371,
      "ée": 372,
      "end": 373,
      "sid": 374,
      "_je": 375,
      "mb": 376,
      "ces": 377,
      "ir": 378,
      "_ex": 379,
      "tions": 380,
      "ommission": 381,
      "_plus": 382,
      "_su": 383,
      "_qu'": 384,
      "_tou": 385,
      "pe": 386,
      "ers": 387,
      "ouv": 388,
      "ac": 389,
      "_tr": 390,
      "_il": 391,
      "_ac": 392,
      "_av": 393,
      "_me": 394,
      "_i": 395,
      "s,": 396,
      "_d’": 397,
      "_pré": 398,
      "_N": 399,
      "ain": 400,
      "ati": 401,
      "_ch": 402,
      "ques": 403,
      "_cons": 404,
      "_cette": 405,
      "lle": 406,
      "mes": 407,
      "pr": 408,
      "ul": 409,
      "_E": 410,
      "ès": 411,
      "_Je": 412,
      "_aux": 413,
      "_rapp": 414,
      "_Commission": 415,
      "_tra": 416,
      "sieur": 417,
      "ence": 418,
      "_o": 419,
      "_cont": 420,
      "_I": 421,
      "_mo": 422,
      "une": 423,
      "fi": 424,
      "_ca": 425,
      "ys": 426,
      "ens": 427,
      "_-": 428,
      "gi": 429,
      "tique": 430,
      "_dev": 431,
      "_conc": 432,
      "_si": 433,
      "_sou": 434,
      "sident": 435,
      "_prop": 436,
      "_ave": 437,
      "être": 438,
      "teur": 439,
      "av": 440,
      "ées": 441,
      "ux": 442,
      "_sont": 443,
      "e,": 444,
      "ord": 445,
      "ations": 446,
      "_poli": 447,
      "du": 448,
      "oir": 449,
      "tes": 450,
      "ten": 451,
      "oit": 452,
      "_li": 453,
      "_Mon": 454,
      "at": 455,
      "_avec": 456,
      "_européenne": 457,
      "'est": 458,
      "cti": 459,
      "aut": 460,
      "_peu": 461,
      "ge": 462,
      "_ent": 463,
      "ance": 464,
      "_Il": 465,
      "onn": 466,
      "and": 467,
      "je": 468,
      "Éta": 469,
      "ale": 470,
      "_comm": 471,
      "_Par": 472,
      "_Monsieur": 473,
      "_h": 474,
      "ér": 475,
      "eil": 476,
      "Uni": 477,
      "aux": 478,
      "cu": 479,
      "_Nous": 480,
      "éra": 481,
      "_parti": 482,
      "_mais": 483,
      "_imp": 484,
      "Union": 485,
      "_ser": 486,
      "vi": 487,
      "résident": 488,
      "_ces": 489,
      "_gr": 490,
      "_Président": 491,
      "am": 492,
      "tr": 493,
      "lè": 494,
      "_no": 495,
      "_être": 496,
      "ins": 497,
      "_te": 498,
      "_S": 499,
      "_dis": 500,
      "ments": 501,
      "_app": 502,
      "_fait": 503,
      "_comp": 504,
      "ien": 505,
      "00": 506,
      "_Éta": 507,
      "_ou": 508,
      "ue": 509,
      "_D": 510,
      "ction": 511,
      "aires": 512,
      "ui": 513,
      "_rapport": 514,
      "oc": 515,
      "_été": 516,
      "_Cons": 517,
      "ég": 518,
      "_Parlement": 519,
      "_pays": 520,
      "_ont": 521,
      "_A": 522,
      "rer": 523,
      "ois": 524,
      "_res": 525,
      "for": 526,
      "alement": 527,
      "_ég": 528,
      "osi": 529,
      "_La": 530,
      "oci": 531,
      "_ques": 532,
      "ouve": 533,
      "la": 534,
      "_dire": 535,
      "_leur": 536,
      "_Conseil": 537,
      "roit": 538,
      "_vous": 539,
      "_politique": 540,
      "onne": 541,
      "_s'": 542,
      "_États": 543,
      "elle": 544,
      "e.": 545,
      "mi": 546,
      "_Le": 547,
      "_comme": 548,
      "ven": 549,
      "ême": 550,
      "_pu": 551,
      "titu": 552,
      "da": 553,
      "_an": 554,
      "_vi": 555,
      "_memb": 556,
      "es,": 557,
      "_n'": 558,
      "ésent": 559,
      "_tout": 560,
      "ail": 561,
      "_1": 562,
      "as": 563,
      "_droit": 564,
      "_trav": 565,
      "_mon": 566,
      "_Président,": 567,
      "_entre": 568,
      "ors": 569,
      "bli": 570,
      "_2": 571,
      "én": 572,
      "_déc": 573,
      "_également": 574,
      "ouver": 575,
      "fin": 576,
      "oy": 577,
      "éri": 578,
      "_vou": 579,
      "_eff": 580,
      "ture": 581,
      "che": 582,
      "es.": 583,
      "ble": 584,
      "ssi": 585,
      "_T": 586,
      "_rés": 587,
      "_qu'il": 588,
      "_co": 589,
      "_mes": 590,
      "_membres": 591,
      "lles": 592,
      "isi": 593,
      "_inter": 594,
      "_aussi": 595,
      "gra": 596,
      "_En": 597,
      "con": 598,
      "s.": 599,
      "_B": 600,
      "_nom": 601,
      "_concer": 602,
      "ités": 603,
      "lé": 604,
      "cess": 605,
      "_fin": 606,
      "_M.": 607,
      "_cer": 608,
      "_nouve": 609,
      "dre": 610,
      "bre": 611,
      "_notre": 612,
      "_per": 613,
      "ite": 614,
      "_fon": 615,
      "ut": 616,
      "_proposi": 617,
      "_travail": 618,
      "vent": 619,
      "_faire": 620,
      "_y": 621,
      "_aut": 622,
      "_dép": 623,
      "ment,": 624,
      "_Ce": 625,
      "_ins": 626,
      "_vo": 627,
      "age": 628,
      "_bien": 629,
      "ex": 630,
      "_pos": 631,
      "co": 632,
      "_ter": 633,
      "ise": 634,
      "_import": 635,
      "jour": 636,
      "_mar": 637,
      "able": 638,
      "_question": 639,
      "gu": 640,
      "_es": 641,
      "gn": 642,
      "_acc": 643,
      "ani": 644,
      "ist": 645,
      "_pers": 646,
      "_tous": 647,
      "_certa": 648,
      "ème": 649,
      "_l'Union": 650,
      "_avons": 651,
      "ique": 652,
      "_am": 653,
      "ande": 654,
      "iss": 655,
      "ct": 656,
      "olu": 657,
      "_dem": 658,
      "_même": 659,
      "_commun": 660,
      "_doit": 661,
      "dra": 662,
      "ét": 663,
      "_soci": 664,
      "ense": 665,
      "_son": 666,
      "_d'une": 667,
      "_ad": 668,
      "onc": 669,
      "_très": 670,
      "_for": 671,
      "endre": 672,
      "mer": 673,
      "_trans": 674,
      "min": 675,
      "_peut": 676,
      "cation": 677,
      "ves": 678,
      "_prob": 679,
      "tiques": 680,
      "rai": 681,
      "éc": 682,
      "ilité": 683,
      "_Les": 684,
      "lu": 685,
      "lis": 686,
      "_ob": 687,
      "_présent": 688,
      "_déb": 689,
      "_poin": 690,
      "met": 691,
      "ace": 692,
      "ères": 693,
      "_né": 694,
      "vel": 695,
      "_diff": 696,
      "velop": 697,
      "_as": 698,
      "eux": 699,
      "conom": 700,
      "_deux": 701,
      "jet": 702,
      "ures": 703,
      "cé": 704,
      "alis": 705,
      "_qu’": 706,
      "_dévelop": 707,
      "vre": 708,
      "_problè": 709,
      "_col": 710,
      "_d'un": 711,
      "_cl": 712,
      "_:": 713,
      "ler": 714,
      "tru": 715,
      "rait": 716,
      "ants": 717,
      "_voudra": 718,
      "_lors": 719,
      "ende": 720,
      "_ni": 721,
      "ctive": 722,
      "enti": 723,
      "_contre": 724,
      "app": 725,
      "teurs": 726,
      "_devons": 727,
      "_pouv": 728,
      "_rép": 729,
      "_régi": 730,
      "_voudrais": 731,
      "emp": 732,
      "ine": 733,
      "_nos": 734,
      "ommiss": 735,
      "_exp": 736,
      "ard": 737,
      "_inté": 738,
      "t,": 739,
      "_pre": 740,
      "_nombre": 741,
      "_l'é": 742,
      "ie": 743,
      "_cela": 744,
      "_ti": 745,
      "_seu": 746,
      "èg": 747,
      "itu": 748,
      "_droits": 749,
      "_non": 750,
      "_dém": 751,
      "_sa": 752,
      "_proposition": 753,
      "_jus": 754,
      "_at": 755,
      "tin": 756,
      "alité": 757,
      "cip": 758,
      "cep": 759,
      "_nécess": 760,
      "ad": 761,
      "iter": 762,
      "éli": 763,
      "_pri": 764,
      "ctif": 765,
      "ud": 766,
      "_al": 767,
      "_mati": 768,
      "_?": 769,
      "_rec": 770,
      "_l'in": 771,
      "insi": 772,
      "_mani": 773,
      "core": 774,
      "ommissaire": 775,
      "_règ": 776,
      "_économ": 777,
      "_\"": 778,
      "_dont": 779,
      "urope": 780,
      "_donc": 781,
      "_encore": 782,
      "_disp": 783,
      "ille": 784,
      "acc": 785,
      "_grou": 786,
      "ante": 787,
      "uti": 788,
      "_soit": 789,
      "_R": 790,
      "ération": 791,
      "_200": 792,
      "_commission": 793,
      "_prin": 794,
      "_rel": 795,
      "tra": 796,
      "_développe": 797,
      "form": 798,
      "_der": 799,
      "_produ": 800,
      "ales": 801,
      "ure": 802,
      "_propos": 803,
      "_particu": 804,
      "écur": 805,
      "_ma": 806,
      "_march": 807,
      "isse": 808,
      "_sans": 809,
      "_particuli": 810,
      "ob": 811,
      "_fa": 812,
      "_j'": 813,
      "_ses": 814,
      "_ar": 815,
      "écurité": 816,
      "_éta": 817,
      "use": 818,
      "er,": 819,
      "’est": 820,
      "ora": 821,
      "_ann": 822,
      "pris": 823,
      "olution": 824,
      "_possi": 825,
      "um": 826,
      "nement": 827,
      "_donn": 828,
      "_ainsi": 829,
      "_quel": 830,
      "_L'": 831,
      "_effe": 832,
      "_derni": 833,
      "itoy": 834,
      "ommes": 835,
      "_sécurité": 836,
      "_publi": 837,
      "ic": 838,
      "_dom": 839,
      "jourd": 840,
      "omme": 841,
      "_situ": 842,
      "_posi": 843,
      "_ab": 844,
      "_(": 845,
      "aine": 846,
      "_toute": 847,
      "jectif": 848,
      "sions": 849,
      "_débat": 850,
      "_matière": 851,
      "ig": 852,
      "tant": 853,
      "ôle": 854,
      "_faut": 855,
      "_ag": 856,
      "urs": 857,
      "cou": 858,
      "_c'est": 859,
      "_elle": 860,
      "_lég": 861,
      "_citoy": 862,
      "enir": 863,
      "oin": 864,
      "_ren": 865,
      "ang": 866,
      "_premi": 867,
      "sse": 868,
      "_cré": 869,
      "aient": 870,
      "_important": 871,
      "iste": 872,
      "_rais": 873,
      "anti": 874,
      "mble": 875,
      "_or": 876,
      "_car": 877,
      "_développement": 878,
      "uer": 879,
      "ision": 880,
      "hui": 881,
      "_point": 882,
      "ocra": 883,
      "cher": 884,
      "bilité": 885,
      "_mil": 886,
      "_C'est": 887,
      "mment": 888,
      "_accord": 889,
      "iti": 890,
      "rib": 891,
      "_gén": 892,
      "rois": 893,
      "vir": 894,
      "_gouver": 895,
      "ca": 896,
      "_constitu": 897,
      "anis": 898,
      "_déj": 899,
      "_suis": 900,
      "_consid": 901,
      "_sav": 902,
      "_déjà": 903,
      "_V": 904,
      "équ": 905,
      "_min": 906,
      "eure": 907,
      "_manière": 908,
      "_bud": 909,
      "_O": 910,
      "dé": 911,
      "ative": 912,
      "_concern": 913,
      "_afin": 914,
      "_ai": 915,
      "ver": 916,
      "_situation": 917,
      "_on": 918,
      "oivent": 919,
      "cer": 920,
      "port": 921,
      "gram": 922,
      "arg": 923,
      "_sommes": 924,
      "_op": 925,
      "_F": 926,
      "_sys": 927,
      "_souh": 928,
      "_év": 929,
      "orte": 930,
      "_concerne": 931,
      "_program": 932,
      "_repr": 933,
      "ser": 934,
      "vention": 935,
      "_conf": 936,
      "_où": 937,
      "UE": 938,
      "_pense": 939,
      "_lib": 940,
      "_cet": 941,
      "_jour": 942,
      "_doivent": 943,
      "_collè": 944,
      "_groupe": 945,
      "eau": 946,
      "_aff": 947,
      "ls": 948,
      "_G": 949,
      "_nive": 950,
      "_cadre": 951,
      "nation": 952,
      "_démocra": 953,
      "_nation": 954,
      "_directive": 955,
      "_n'est": 956,
      "bles": 957,
      "elles": 958,
      "_ ": 959,
      "_tant": 960,
      "_amende": 961,
      "_main": 962,
      "_respe": 963,
      "_ass": 964,
      "_politiques": 965,
      "_aujourd": 966,
      "_souhait": 967,
      "_leurs": 968,
      "_  ": 969,
      "rit": 970,
      "_cour": 971,
      "rê": 972,
      "_Mes": 973,
      "_permet": 974,
      "_actu": 975,
      "_temp": 976,
      "_finan": 977,
      "_Ma": 978,
      "_syst": 979,
      "uvre": 980,
      "autres": 981,
      "_mesures": 982,
      "ences": 983,
      "_J'": 984,
      "_sec": 985,
      "_gar": 986,
      "onnes": 987,
      "oris": 988,
      "_dit": 989,
      "pons": 990,
      "_différ": 991,
      "endant": 992,
      "_met": 993,
      "pu": 994,
      "_légis": 995,
      "_men": 996,
      "utilis": 997,
      "_aur": 998,
      "_procé": 999,
      "_demand": 1000,
      "_sera": 1001,
      "_marché": 1002,
      "_Pour": 1003,
      "imp": 1004,
      "_souti": 1005,
      "_l'h": 1006,
      "mbl": 1007,
      "_vis": 1008,
      "près": 1009,
      "_internation": 1010,
      "_cas": 1011,
      "_sein": 1012,
      "vironne": 1013,
      "ellement": 1014,
      "_objectif": 1015,
      "ganis": 1016,
      "_grand": 1017,
      "-m": 1018,
      "le,": 1019,
      "mis": 1020,
      "ents": 1021,
      "quer": 1022,
      "oire": 1023,
      "Un": 1024,
      "_autres": 1025,
      "_problème": 1026,
      "_questions": 1027,
      "_respons": 1028,
      "ables": 1029,
      "des": 1030,
      "its": 1031,
      "tement": 1032,
      "_d'in": 1033,
      " -": 1034,
      "_niveau": 1035,
      "_et,": 1036,
      "_législ": 1037,
      "_citoyens": 1038,
      "_avant": 1039,
      "_contr": 1040,
      "pé": 1041,
      "_rappor": 1042,
      "ili": 1043,
      "_adop": 1044,
      "fois": 1045,
      "_servi": 1046,
      "erci": 1047,
      "_nég": 1048,
      "tri": 1049,
      "Europe": 1050,
      "_sta": 1051,
      "der": 1052,
      "agit": 1053,
      "_Mme": 1054,
      "ass": 1055,
      "tif": 1056,
      "_représent": 1057,
      "out": 1058,
      "_garanti": 1059,
      "ront": 1060,
      "_fois": 1061,
      "quoi": 1062,
      "_généra": 1063,
      "gie": 1064,
      "em": 1065,
      "oute": 1066,
      "ali": 1067,
      "_Dans": 1068,
      "par": 1069,
      "_déf": 1070,
      "_parce": 1071,
      "_ba": 1072,
      "_auc": 1073,
      "_coop": 1074,
      "_soi": 1075,
      "_vue": 1076,
      "_réf": 1077,
      "ong": 1078,
      "_communaut": 1079,
      "_économique": 1080,
      "_éle": 1081,
      "_mal": 1082,
      "_toutes": 1083,
      "'hui": 1084,
      "hé": 1085,
      "merci": 1086,
      "_remerci": 1087,
      "dame": 1088,
      "cul": 1089,
      "_Madame": 1090,
      "_que,": 1091,
      "99": 1092,
      "_certains": 1093,
      "pi": 1094,
      "_s’": 1095,
      "_collègu": 1096,
      "accord": 1097,
      "_ess": 1098,
      "_prof": 1099,
      "_chos": 1100,
      "_personnes": 1101,
      "_rapporteur": 1102,
      "nes": 1103,
      "orité": 1104,
      "_exemp": 1105,
      "lons": 1106,
      "_compr": 1107,
      "_qu’il": 1108,
      "qui": 1109,
      "_financi": 1110,
      "_l’Union": 1111,
      "_certain": 1112,
      "édi": 1113,
      "_savoir": 1114,
      "uri": 1115,
      "im": 1116,
      "ner": 1117,
      "_n’": 1118,
      "_monde": 1119,
      "dent": 1120,
      "_président": 1121,
      "_fer": 1122,
      "_Mais": 1123,
      "_ceux": 1124,
      "_règlement": 1125,
      "_seulement": 1126,
      "_fr": 1127,
      "_présid": 1128,
      "_disc": 1129,
      "_institu": 1130,
      "ctions": 1131,
      "_Commissaire": 1132,
      "cessus": 1133,
      "é,": 1134,
      "_processus": 1135,
      "_conséqu": 1136,
      "rieur": 1137,
      "mblée": 1138,
      "_cha": 1139,
      "_cap": 1140,
      "_grande": 1141,
      "_lieu": 1142,
      "_sub": 1143,
      "tenir": 1144,
      "_moins": 1145,
      "vers": 1146,
      "èrement": 1147,
      "_avoir": 1148,
      "_système": 1149,
      "_;": 1150,
      "vironnement": 1151,
      "tiv": 1152,
      "_princip": 1153,
      "_pouvoir": 1154,
      "_problèmes": 1155,
      "ara": 1156,
      "_pourquoi": 1157,
      "_gouvernement": 1158,
      "_européenne.": 1159,
      "érence": 1160,
      "_concernant": 1161,
      "_raison": 1162,
      "_coopération": 1163,
      "_demande": 1164,
      "és.": 1165,
      "_compte": 1166,
      "esp": 1167,
      "_fi": 1168,
      "coup": 1169,
      "ds": 1170,
      "_À": 1171,
      "_sous": 1172,
      "_contin": 1173,
      "_milli": 1174,
      "_mis": 1175,
      "_contrib": 1176,
      "eaucoup": 1177,
      "_Si": 1178,
      "_toujour": 1179,
      "_moy": 1180,
      "quelle": 1181,
      "orités": 1182,
      "_laquelle": 1183,
      "_l'ex": 1184,
      "olo": 1185,
      "ent,": 1186,
      "_sui": 1187,
      "_propositions": 1188,
      "ances": 1189,
      "_prote": 1190,
      "_région": 1191,
      "_préc": 1192,
      "_mettre": 1193,
      "és,": 1194,
      "cle": 1195,
      "_amendements": 1196,
      "ph": 1197,
      "_commune": 1198,
      "qu'": 1199,
      "_base": 1200,
      "_autre": 1201,
      "_prév": 1202,
      "_fem": 1203,
      "_mont": 1204,
      "_pris": 1205,
      "_bes": 1206,
      "_eng": 1207,
      "xte": 1208,
      "_Cel": 1209,
      "ange": 1210,
      "_ju": 1211,
      "_beaucoup": 1212,
      "_possible": 1213,
      "ari": 1214,
      "_Q": 1215,
      "_protection": 1216,
      "_toujours": 1217,
      "_présidence": 1218,
      "ssemblée": 1219,
      "_position": 1220,
      "puis": 1221,
      "ions": 1222,
      "_condi": 1223,
      "_programme": 1224,
      "ente": 1225,
      "ation,": 1226,
      "_d'autres": 1227,
      "tention": 1228,
      "200": 1229,
      "er.": 1230,
      "_d’une": 1231,
      "vis": 1232,
      "elon": 1233,
      "_mise": 1234,
      "_budge": 1235,
      "_conn": 1236,
      "uridi": 1237,
      "_sujet": 1238,
      "tamment": 1239,
      "ième": 1240,
      "_juridi": 1241,
      "_réalis": 1242,
      "gue": 1243,
      "_esp": 1244,
      "_fonda": 1245,
      "_emp": 1246,
      "gr": 1247,
      "_renfor": 1248,
      "_d'é": 1249,
      "loi": 1250,
      "tionne": 1251,
      "_Cela": 1252,
      "_résul": 1253,
      "_souli": 1254,
      "re,": 1255,
      "_part": 1256,
      "_vote": 1257,
      "_négoci": 1258,
      "_3": 1259,
      "ion": 1260,
      "ici": 1261,
      "_claire": 1262,
      "_supp": 1263,
      "_aujourd'hui": 1264,
      "_fondament": 1265,
      "_form": 1266,
      "_résolution": 1267,
      "_simp": 1268,
      "_secteur": 1269,
      "_s'agit": 1270,
      "_soutien": 1271,
      "_serait": 1272,
      "_partie": 1273,
      "_prendre": 1274,
      "abilité": 1275,
      "arti": 1276,
      "aiss": 1277,
      "_pe": 1278,
      "_inc": 1279,
      "_votre": 1280,
      "_organis": 1281,
      "_Cette": 1282,
      "atif": 1283,
      "aines": 1284,
      "_lu": 1285,
      "_cri": 1286,
      "_appr": 1287,
      "ation.": 1288,
      "_entrepris": 1289,
      "é.": 1290,
      "_services": 1291,
      "cture": 1292,
      "_temps": 1293,
      "lab": 1294,
      "t-": 1295,
      "_pouvons": 1296,
      "_décision": 1297,
      "_commissaire": 1298,
      "hésion": 1299,
      "_devrait": 1300,
      "ée.": 1301,
      "enne": 1302,
      "_années": 1303,
      "_personne": 1304,
      "uses": 1305,
      "_défin": 1306,
      "_soient": 1307,
      "_domaine": 1308,
      "péci": 1309,
      "_spéci": 1310,
      "_n'a": 1311,
      "ire": 1312,
      "_rest": 1313,
      "_consomm": 1314,
      "_nécessaire": 1315,
      "_l'en": 1316,
      "_fonction": 1317,
      "oli": 1318,
      "_ils": 1319,
      "_long": 1320,
      "ger": 1321,
      "_essenti": 1322,
      "fication": 1323,
      "_pai": 1324,
      "_public": 1325,
      "_conclu": 1326,
      "_dur": 1327,
      "_utilis": 1328,
      "_hum": 1329,
      "_rédu": 1330,
      "_accep": 1331,
      "_plan": 1332,
      "_l'av": 1333,
      "_était": 1334,
      "_crois": 1335,
      "_voi": 1336,
      "_l'A": 1337,
      "_ét": 1338,
      "opul": 1339,
      "_rôle": 1340,
      "_mesure": 1341,
      "_reconn": 1342,
      "_nouvelle": 1343,
      "larg": 1344,
      "_ici": 1345,
      "iques": 1346,
      "_lui": 1347,
      "_justi": 1348,
      "_première": 1349,
      "_l'a": 1350,
      "_cent": 1351,
      "lément": 1352,
      "_transport": 1353,
      "_cours": 1354,
      "_réfor": 1355,
      "_contrôle": 1356,
      "ota": 1357,
      "_Commissaire,": 1358,
      "els": 1359,
      "pendant": 1360,
      "lication": 1361,
      "cipe": 1362,
      "_nouveau": 1363,
      "_ress": 1364,
      "_popul": 1365,
      "quel": 1366,
      "_recher": 1367,
      "_femmes": 1368,
      "été": 1369,
      "_rég": 1370,
      "_notamment": 1371,
      "_De": 1372,
      "que,": 1373,
      "atives": 1374,
      "_Ch": 1375,
      "_proch": 1376,
      "dus": 1377,
      "_Au": 1378,
      "_d’un": 1379,
      "_européenne,": 1380,
      "-ci": 1381,
      "_moi": 1382,
      "_pê": 1383,
      "ment.": 1384,
      "omp": 1385,
      "_cr": 1386,
      "tive": 1387,
      "_après": 1388,
      "_décla": 1389,
      "_indi": 1390,
      "_Commission,": 1391,
      "_H": 1392,
      "tés": 1393,
      "éd": 1394,
      "_K": 1395,
      "_peuvent": 1396,
      "_plu": 1397,
      "_sant": 1398,
      "çon": 1399,
      "_résulta": 1400,
      "_Con": 1401,
      "_l'on": 1402,
      "_j'ai": 1403,
      "traté": 1404,
      "sieurs": 1405,
      "fic": 1406,
      "tent": 1407,
      "gne": 1408,
      "_pass": 1409,
      "_quelques": 1410,
      "endu": 1411,
      "_pra": 1412,
      "oration": 1413,
      "action": 1414,
      "_ris": 1415,
      "_principe": 1416,
      "_straté": 1417,
      "_soulign": 1418,
      "_prom": 1419,
      "veur": 1420,
      "ée,": 1421,
      "gration": 1422,
      "_cel": 1423,
      "_dispos": 1424,
      "_tech": 1425,
      "raient": 1426,
      "_depuis": 1427,
      "_cor": 1428,
      "_effic": 1429,
      "ration": 1430,
      "_parlement": 1431,
      "ément": 1432,
      "_qu'elle": 1433,
      "_déput": 1434,
      "ale.": 1435,
      "orer": 1436,
      "Unis": 1437,
      "_terr": 1438,
      "-Unis": 1439,
      "_alors": 1440,
      "_faveur": 1441,
      "_particip": 1442,
      "_port": 1443,
      "_place": 1444,
      "nent": 1445,
      "_liber": 1446,
      "_respect": 1447,
      "venir": 1448,
      "_lim": 1449,
      "_para": 1450,
      "_maj": 1451,
      "largisse": 1452,
      "_agri": 1453,
      "_besoin": 1454,
      "_États-Unis": 1455,
      "_sé": 1456,
      "_qui,": 1457,
      "_cul": 1458,
      "cup": 1459,
      "_l'UE": 1460,
      "ature": 1461,
      "_évi": 1462,
      "_façon": 1463,
      "_uni": 1464,
      "élic": 1465,
      "_rem": 1466,
      "ateur": 1467,
      "ale,": 1468,
      "_mondi": 1469,
      "andi": 1470,
      "_dès": 1471,
      "lent": 1472,
      "liqu": 1473,
      "dustri": 1474,
      "_dél": 1475,
      "ann": 1476,
      "_Qu": 1477,
      "gment": 1478,
      "_bi": 1479,
      "_félic": 1480,
      "_conditions": 1481,
      "_selon": 1482,
      "_l’in": 1483,
      "aire.": 1484,
      "_projet": 1485,
      "_décisi": 1486,
      "_vol": 1487,
      "_Europe": 1488,
      "jou": 1489,
      "ordre": 1490,
      "ôt": 1491,
      "fier": 1492,
      "_procédu": 1493,
      "pos": 1494,
      "_cro": 1495,
      "tenant": 1496,
      "_U": 1497,
      "_là": 1498,
      "_vrai": 1499,
      "_pres": 1500,
      "_eu": 1501,
      "aire,": 1502,
      "lo": 1503,
      "_dés": 1504,
      "_séri": 1505,
      "_régions": 1506,
      "_mi": 1507,
      "_bonne": 1508,
      "urr": 1509,
      "rodu": 1510,
      "tée": 1511,
      "_meille": 1512,
      "_budget": 1513,
      "_modi": 1514,
      "_do": 1515,
      "_199": 1516,
      "_ten": 1517,
      "_initi": 1518,
      "le.": 1519,
      "_Assemblée": 1520,
      "_unique": 1521,
      "_sign": 1522,
      "_règles": 1523,
      "_disposi": 1524,
      "_celui": 1525,
      "_objectifs": 1526,
      "_inform": 1527,
      "_trois": 1528,
      "ez": 1529,
      "urer": 1530,
      "_Union": 1531,
      "érit": 1532,
      "_rapi": 1533,
      "_M. ": 1534,
      "_oc": 1535,
      "_institutions": 1536,
      "espère": 1537,
      "rions": 1538,
      "_terroris": 1539,
      "_celle": 1540,
      "_puis": 1541,
      "_ci": 1542,
      "rons": 1543,
      "_démocrati": 1544,
      "era": 1545,
      "_précis": 1546,
      "_va": 1547,
      "_l’é": 1548,
      "_vers": 1549,
      "_répons": 1550,
      "rêt": 1551,
      "_procédure": 1552,
      "_nor": 1553,
      "ode": 1554,
      "_points": 1555,
      "_im": 1556,
      "_particulier": 1557,
      "avant": 1558,
      "abord": 1559,
      "_effort": 1560,
      "_stru": 1561,
      "_lutte": 1562,
      "auté": 1563,
      "_abs": 1564,
      "_mois": 1565,
      "érer": 1566,
      "_l'O": 1567,
      "que.": 1568,
      "dames": 1569,
      "anc": 1570,
      "_sû": 1571,
      "atis": 1572,
      "_Mesdames": 1573,
      "_off": 1574,
      "/200": 1575,
      "_améli": 1576,
      "ologi": 1577,
      "_pourrait": 1578,
      "ttein": 1579,
      "_trop": 1580,
      "_députés": 1581,
      "_4": 1582,
      "_tota": 1583,
      "_bon": 1584,
      "al,": 1585,
      "pes": 1586,
      "_m'": 1587,
      "vé": 1588,
      "_.": 1589,
      "_seront": 1590,
      "_santé": 1591,
      "lex": 1592,
      "_nouveaux": 1593,
      "_chaque": 1594,
      "_5": 1595,
      "_qu'ils": 1596,
      "_particulièrement": 1597,
      "_répon": 1598,
      "_réun": 1599,
      "_l'homme": 1600,
      "_contribu": 1601,
      "al.": 1602,
      "amende": 1603,
      "issent": 1604,
      "_aucun": 1605,
      "acité": 1606,
      "_nombreux": 1607,
      "_traité": 1608,
      "_clairement": 1609,
      "_nature": 1610,
      "ateurs": 1611,
      "entre": 1612,
      "_pay": 1613,
      "air": 1614,
      "ussi": 1615,
      "entes": 1616,
      "_l'Europe": 1617,
      "_qualité": 1618,
      "_appro": 1619,
      "_gra": 1620,
      "_suff": 1621,
      "alu": 1622,
      "_Conseil,": 1623,
      "_discus": 1624,
      "ress": 1625,
      "rent": 1626,
      "_jou": 1627,
      "_pours": 1628,
      "_garantir": 1629,
      "cte": 1630,
      "5-": 1631,
      "_concurr": 1632,
      "_législation": 1633,
      "éné": 1634,
      "me,": 1635,
      "_att": 1636,
      "rée": 1637,
      "_nouvelles": 1638,
      "_viol": 1639,
      "_d'ex": 1640,
      "ées.": 1641,
      "_rapide": 1642,
      "_peti": 1643,
      "nements": 1644,
      "ill": 1645,
      "leurs": 1646,
      "-être": 1647,
      "llement": 1648,
      "_four": 1649,
      "_budg": 1650,
      "_entreprises": 1651,
      "_surt": 1652,
      "_maintenant": 1653,
      "_paix": 1654,
      "tre,": 1655,
      "vant": 1656,
      "_convi": 1657,
      "_j’": 1658,
      "gni": 1659,
      "_elles": 1660,
      "_ph": 1661,
      "_semble": 1662,
      "ources": 1663,
      "_remercier": 1664,
      "_ret": 1665,
      "_L’": 1666,
      "_nécessité": 1667,
      "_produits": 1668,
      "_éc": 1669,
      "per": 1670,
      "ouvent": 1671,
      "_budgét": 1672,
      "_avez": 1673,
      "_sens": 1674,
      "_certaines": 1675,
      "jets": 1676,
      "_société": 1677,
      "_premier": 1678,
      "oins": 1679,
      "ole": 1680,
      "_expri": 1681,
      "_responsabilité": 1682,
      "_reste": 1683,
      "_millions": 1684,
      "_fav": 1685,
      "inement": 1686,
      "agne": 1687,
      "_voulons": 1688,
      "emploi": 1689,
      "_visant": 1690,
      "_ali": 1691,
      "estion": 1692,
      "_inf": 1693,
      "lar": 1694,
      "_médi": 1695,
      "ient": 1696,
      "_ref": 1697,
      "_%": 1698,
      "_signi": 1699,
      "aide": 1700,
      "_culture": 1701,
      "ss": 1702,
      "_pens": 1703,
      "rè": 1704,
      "_déci": 1705,
      "_autorités": 1706,
      "_béné": 1707,
      "occup": 1708,
      "bil": 1709,
      "blig": 1710,
      "_consta": 1711,
      "_intérieur": 1712,
      "trodu": 1713,
      "mbre": 1714,
      "_plusieurs": 1715,
      "vesti": 1716,
      "éta": 1717,
      "_fais": 1718,
      "_veu": 1719,
      "_Ces": 1720,
      "_compé": 1721,
      "aî": 1722,
      "_lar": 1723,
      "_européens": 1724,
      "_croiss": 1725,
      "_donner": 1726,
      "ages": 1727,
      "_reg": 1728,
      "_Une": 1729,
      "_s'est": 1730,
      "uit": 1731,
      "ression": 1732,
      "_Présidente,": 1733,
      "_voir": 1734,
      "ctu": 1735,
      "_vale": 1736,
      "_vie": 1737,
      "ence,": 1738,
      "aires.": 1739,
      "_deuxième": 1740,
      "_On": 1741,
      "_remar": 1742,
      "trang": 1743,
      "_bénéfi": 1744,
      "time": 1745,
      "fin,": 1746,
      "_dernière": 1747,
      "_fonds": 1748,
      "_négociations": 1749,
      "amin": 1750,
      "à-": 1751,
      "_Elle": 1752,
      "_c’est": 1753,
      "_davant": 1754,
      "_environnement": 1755,
      "_juridique": 1756,
      "ensemble": 1757,
      "Europ": 1758,
      "-à-": 1759,
      "_décisions": 1760,
      "_contrai": 1761,
      "_Comme": 1762,
      "_vérit": 1763,
      "tim": 1764,
      "_volont": 1765,
      "_constitue": 1766,
      "graph": 1767,
      "_peup": 1768,
      "_cou": 1769,
      "_l'imp": 1770,
      "_comment": 1771,
      "État": 1772,
      "_attein": 1773,
      "_candi": 1774,
      "_comb": 1775,
      "_recherche": 1776,
      "_z": 1777,
      "_tiens": 1778,
      "_État": 1779,
      "casion": 1780,
      "_solution": 1781,
      "rain": 1782,
      "ens,": 1783,
      "eff": 1784,
      "autre": 1785,
      "_européen,": 1786,
      "isation": 1787,
      "_Tur": 1788,
      "_communi": 1789,
      "aux.": 1790,
      "aires,": 1791,
      "_moment": 1792,
      "amendement": 1793,
      "_péri": 1794,
      "_telle": 1795,
      "_aucune": 1796,
      "_lorsque": 1797,
      "_efficace": 1798,
      "_avait": 1799,
      "_man": 1800,
      "pec": 1801,
      "_sem": 1802,
      "atisf": 1803,
      "_parten": 1804,
      "_ver": 1805,
      "_toutefois": 1806,
      "_C’est": 1807,
      "tage": 1808,
      "_liberté": 1809,
      "_rappel": 1810,
      "cel": 1811,
      "_lesque": 1812,
      "_importante": 1813,
      "_face": 1814,
      "_id": 1815,
      "_ense": 1816,
      "tes,": 1817,
      "urg": 1818,
      "heure": 1819,
      "ats": 1820,
      "lic": 1821,
      "\".": 1822,
      "ils": 1823,
      "_donné": 1824,
      "_sorte": 1825,
      "_d'a": 1826,
      "te,": 1827,
      "_Commission.": 1828,
      "_existe": 1829,
      "article": 1830,
      "ommun": 1831,
      "_équ": 1832,
      "_justice": 1833,
      "_l'ob": 1834,
      "_lequel": 1835,
      "ablement": 1836,
      "_relations": 1837,
      "_l'app": 1838,
      "_coû": 1839,
      "_Messieur": 1840,
      "vo": 1841,
      "ées,": 1842,
      "_davantage": 1843,
      "mette": 1844,
      "_gestion": 1845,
      "_aura": 1846,
      "gré": 1847,
      "table": 1848,
      "_rien": 1849,
      "liquer": 1850,
      "_avis": 1851,
      "_fra": 1852,
      "_texte": 1853,
      "usement": 1854,
      "_progr": 1855,
      "_stratégie": 1856,
      "_docu": 1857,
      "_Messieurs,": 1858,
      "_ressources": 1859,
      "omb": 1860,
      "_Convention": 1861,
      "arité": 1862,
      "_large": 1863,
      "_étrang": 1864,
      "ran": 1865,
      "-même": 1866,
      "_peut-être": 1867,
      "dam": 1868,
      "_libéra": 1869,
      "ordin": 1870,
      "_collègues,": 1871,
      "_général": 1872,
      "_demander": 1873,
      "onti": 1874,
      "_satisf": 1875,
      "_réglement": 1876,
      "ing": 1877,
      "_Et": 1878,
      "me.": 1879,
      "alo": 1880,
      "-t-": 1881,
      "_égard": 1882,
      "_activ": 1883,
      "_impos": 1884,
      "aux,": 1885,
      "_efforts": 1886,
      "_effet": 1887,
      "ommet": 1888,
      "_cir": 1889,
      "_Europ": 1890,
      "_fix": 1891,
      "_n’est": 1892,
      "êmes": 1893,
      "_affaires": 1894,
      "_transpar": 1895,
      "_exig": 1896,
      "_sûr": 1897,
      "_Toute": 1898,
      "_ait": 1899,
      "térieur": 1900,
      "_l'ad": 1901,
      "ercice": 1902,
      "arm": 1903,
      "minist": 1904,
      "_Un": 1905,
      "_membres.": 1906,
      "_spécifi": 1907,
      "cont": 1908,
      "_quant": 1909,
      "_étant": 1910,
      "_éch": 1911,
      "_sus": 1912,
      "_guer": 1913,
      "_surtout": 1914,
      "mati": 1915,
      "ches": 1916,
      "_souhaite": 1917,
      "_série": 1918,
      "erce": 1919,
      "_abord": 1920,
      "titution": 1921,
      "_clair": 1922,
      "_quelque": 1923,
      "dats": 1924,
      "_augment": 1925,
      "_structure": 1926,
      "_progrès": 1927,
      "rak": 1928,
      "_ty": 1929,
      "_majorité": 1930,
      "_agrico": 1931,
      "_comprom": 1932,
      "èmes": 1933,
      "_adopté": 1934,
      "_chose": 1935,
      "_réc": 1936,
      "_prix": 1937,
      "éré": 1938,
      "_part,": 1939,
      "_traite": 1940,
      "_actuellement": 1941,
      "dis": 1942,
      "_économiques": 1943,
      "_collègues": 1944,
      "_engage": 1945,
      "trême": 1946,
      "_concurrence": 1947,
      "_instru": 1948,
      "_fac": 1949,
      "ance,": 1950,
      "fois,": 1951,
      "_sal": 1952,
      "_mieux": 1953,
      "lus": 1954,
      "_possibilité": 1955,
      "st": 1956,
      "5-0": 1957,
      "_dialo": 1958,
      "_européen.": 1959,
      "_préoccup": 1960,
      "rêts": 1961,
      "largissement": 1962,
      "_compris": 1963,
      "_relative": 1964,
      "_soutenir": 1965,
      "_ple": 1966,
      "_enf": 1967,
      "_moyens": 1968,
      "sive": 1969,
      "id": 1970,
      "ctives": 1971,
      "_ani": 1972,
      "_d'abord": 1973,
      "_d’in": 1974,
      "termin": 1975,
      "_prés": 1976,
      "_communautaire": 1977,
      "_membre": 1978,
      "_arri": 1979,
      "fie": 1980,
      "_d'en": 1981,
      "istre": 1982,
      "_!": 1983,
      "_différents": 1984,
      "_priv": 1985,
      "_vu": 1986,
      "_aliment": 1987,
      "truction": 1988,
      "laboration": 1989,
      "_anim": 1990,
      "ond": 1991,
      "_commen": 1992,
      "_oblig": 1993,
      "ot": 1994,
      "_Parlement,": 1995,
      "_jusqu'": 1996,
      "_commerci": 1997,
      "_création": 1998,
      "_zon": 1999,
      "_programmes": 2000,
      "lit": 2001,
      "urs,": 2002,
      "_cô": 2003,
      "_exemple,": 2004,
      "_J’": 2005,
      "_termes": 2006,
      "coura": 2007,
      "_réponse": 2008,
      "_trouver": 2009,
      "_Enfin,": 2010,
      "_démocratique": 2011,
      "_effet,": 2012,
      "_l'avenir": 2013,
      "_tel": 2014,
      "ours": 2015,
      "_connaiss": 2016,
      "_diffic": 2017,
      "oph": 2018,
      "_finance": 2019,
      "texte": 2020,
      "ent.": 2021,
      "_pêche": 2022,
      "_compromis": 2023,
      "_suffis": 2024,
      "_bas": 2025,
      "_moyen": 2026,
      "éric": 2027,
      "_centra": 2028,
      "_dou": 2029,
      "_d'accord": 2030,
      "_preu": 2031,
      "_change": 2032,
      "_souligner": 2033,
      "_entendu": 2034,
      "-moi": 2035,
      "_ensemble": 2036,
      "itaire": 2037,
      "téri": 2038,
      "o,": 2039,
      "éth": 2040,
      "cès": 2041,
      "_poursui": 2042,
      "_pays,": 2043,
      "_aille": 2044,
      "_communication": 2045,
      "_extrême": 2046,
      "_soli": 2047,
      "_Toutefois,": 2048,
      "’hui": 2049,
      "_J'ai": 2050,
      "_résultats": 2051,
      "antes": 2052,
      "toc": 2053,
      "clu": 2054,
      "_respec": 2055,
      "land": 2056,
      "tons": 2057,
      "man": 2058,
      "_actuelle": 2059,
      "_stabilité": 2060,
      "ay": 2061,
      "z-moi": 2062,
      "tenu": 2063,
      "ru": 2064,
      "_précé": 2065,
      "_6": 2066,
      "_tent": 2067,
      "_réforme": 2068,
      "_eux": 2069,
      "vestisse": 2070,
      "_Nations": 2071,
      "_humain": 2072,
      "_commerce": 2073,
      "_ir": 2074,
      "_tour": 2075,
      "mé": 2076,
      "_raisons": 2077,
      "vez": 2078,
      "able.": 2079,
      "_exemple": 2080,
      "_d'av": 2081,
      "te.": 2082,
      "orter": 2083,
      "_che": 2084,
      "_membres,": 2085,
      "_candidats": 2086,
      "_ouver": 2087,
      "_propre": 2088,
      "_recomm": 2089,
      "ensi": 2090,
      "_destin": 2091,
      "_devrions": 2092,
      "euros": 2093,
      "ement": 2094,
      "_techni": 2095,
      "_souvent": 2096,
      "_enti": 2097,
      "_diffici": 2098,
      "_fau": 2099,
      "_chers": 2100,
      "_voté": 2101,
      "_nombreuses": 2102,
      "_mod": 2103,
      "_détermin": 2104,
      "_fronti": 2105,
      "_dialogue": 2106,
      "_défense": 2107,
      "_qu'une": 2108,
      "agn": 2109,
      "_l’h": 2110,
      "_voie": 2111,
      "_fond": 2112,
      "ug": 2113,
      "qué": 2114,
      "écu": 2115,
      "amais": 2116,
      "_exist": 2117,
      "lob": 2118,
      "_devant": 2119,
      "_renforcer": 2120,
      "_doute": 2121,
      "_Commun": 2122,
      "_té": 2123,
      "_sociale": 2124,
      "_essentiel": 2125,
      "_simplement": 2126,
      "_considéra": 2127,
      "_confi": 2128,
      "ori": 2129,
      "_l'I": 2130,
      "_réalité": 2131,
      "tation": 2132,
      "_dépens": 2133,
      "yp": 2134,
      "_pratique": 2135,
      "_groupes": 2136,
      "_perspe": 2137,
      "_jamais": 2138,
      "_période": 2139,
      "_juste": 2140,
      "_intérêts": 2141,
      "_celles": 2142,
      "_croissance": 2143,
      "_Vous": 2144,
      "vision": 2145,
      "ques,": 2146,
      "t.": 2147,
      "_dispositions": 2148,
      "_puisse": 2149,
      "_suc": 2150,
      "ennent": 2151,
      "_ri": 2152,
      "_continuer": 2153,
      "ales,": 2154,
      "_l’UE": 2155,
      "_tiers": 2156,
      "tis": 2157,
      "roisi": 2158,
      "_déclaration": 2159,
      "_d'app": 2160,
      "roisième": 2161,
      "_divers": 2162,
      "enu": 2163,
      "_libre": 2164,
      "_forme": 2165,
      "ension": 2166,
      "_sais": 2167,
      "_Cour": 2168,
      "_projets": 2169,
      "_contrô": 2170,
      "a,": 2171,
      "_terme": 2172,
      "para": 2173,
      "unes": 2174,
      "formation": 2175,
      "tifs": 2176,
      "_fut": 2177,
      "tionn": 2178,
      "_bénéfici": 2179,
      "dire": 2180,
      "_cara": 2181,
      "_normes": 2182,
      "_méth": 2183,
      "_ans": 2184,
      "_devraient": 2185,
      "_fam": 2186,
      "_peux": 2187,
      "tes.": 2188,
      "_créer": 2189,
      "_permettre": 2190,
      "_parler": 2191,
      "_th": 2192,
      "ites": 2193,
      "_convient": 2194,
      "endra": 2195,
      "_quand": 2196,
      "-n": 2197,
      "_capit": 2198,
      "_cependant": 2199,
      "che,": 2200,
      "_discu": 2201,
      "_production": 2202,
      "année": 2203,
      "mettez-moi": 2204,
      "_actions": 2205,
      "_extrêmement": 2206,
      "temp": 2207,
      "_appel": 2208,
      "_font": 2209,
      "_voter": 2210,
      "_remercie": 2211,
      "_plut": 2212,
      "_dernières": 2213,
      "culture": 2214,
      "ant,": 2215,
      "_demain": 2216,
      "_pays.": 2217,
      "_domain": 2218,
      "pl": 2219,
      "_rev": 2220,
      "_crit": 2221,
      "pects": 2222,
      "_territ": 2223,
      "quie": 2224,
      "_défini": 2225,
      "outi": 2226,
      "ager": 2227,
      "_choses": 2228,
      "_guerre": 2229,
      "_procéd": 2230,
      "ales.": 2231,
      "ête": 2232,
      "_consci": 2233,
      "gé": 2234,
      "_formul": 2235,
      "_accords": 2236,
      "eurs": 2237,
      "_uvre": 2238,
      "_lan": 2239,
      "_veil": 2240,
      "osition": 2241,
      "-nous": 2242,
      "_population": 2243,
      "oni": 2244,
      "_sommet": 2245,
      "_rendre": 2246,
      "_condu": 2247,
      "_loc": 2248,
      "_indé": 2249,
      "_fran": 2250,
      "_démocratie": 2251,
      "et": 2252,
      "_d’autres": 2253,
      "gueur": 2254,
      "_domaines": 2255,
      "_seule": 2256,
      "ventions": 2257,
      "év": 2258,
      "_étu": 2259,
      "_qua": 2260,
      "_contexte": 2261,
      "\",": 2262,
      "tionnel": 2263,
      "_l'article": 2264,
      "ortance": 2265,
      "_plutôt": 2266,
      "_volonté": 2267,
      "issant": 2268,
      "ène": 2269,
      "_cin": 2270,
      "_d'être": 2271,
      "_exercice": 2272,
      "accep": 2273,
      "_qu'un": 2274,
      "_aide": 2275,
      "_nu": 2276,
      "âce": 2277,
      "migration": 2278,
      "_proté": 2279,
      "améli": 2280,
      "_publique": 2281,
      "_Tra": 2282,
      "orable": 2283,
      "_san": 2284,
      "_l'ensemble": 2285,
      "ister": 2286,
      "_accomp": 2287,
      "égi": 2288,
      "0,": 2289,
      "ques.": 2290,
      "érons": 2291,
      "_prog": 2292,
      "_7": 2293,
      "_principes": 2294,
      "ité,": 2295,
      "_européennes": 2296,
      "_vraiment": 2297,
      "_compét": 2298,
      "_trouve": 2299,
      "_industri": 2300,
      "_dernier": 2301,
      "_supplément": 2302,
      "_discussion": 2303,
      "rir": 2304,
      "_appelle": 2305,
      "_aspects": 2306,
      "_Parlement.": 2307,
      "ité.": 2308,
      "_Tout": 2309,
      "_preuve": 2310,
      "ov": 2311,
      "_mul": 2312,
      "_profes": 2313,
      "remi": 2314,
      "ate": 2315,
      "_Communauté": 2316,
      "ras": 2317,
      "uite": 2318,
      "_amendement": 2319,
      "_réjou": 2320,
      "_(A": 2321,
      "_consommateur": 2322,
      "_activités": 2323,
      "-il": 2324,
      "_savons": 2325,
      "_victi": 2326,
      "_remp": 2327,
      "_rapport.": 2328,
      "_conséquences": 2329,
      "_glob": 2330,
      "_n'y": 2331,
      "_établi": 2332,
      "_répondre": 2333,
      "titude": 2334,
      "prit": 2335,
      "ret": 2336,
      "_consul": 2337,
      "_recommand": 2338,
      "_aurait": 2339,
      "aluation": 2340,
      "_l'un": 2341,
      "_gouvernements": 2342,
      "léments": 2343,
      "_tels": 2344,
      "_type": 2345,
      "yn": 2346,
      "_-,": 2347,
      "_l'emploi": 2348,
      "entifi": 2349,
      "_techn": 2350,
      "rec": 2351,
      "_sci": 2352,
      "aise": 2353,
      "olutions": 2354,
      "_Premi": 2355,
      "_sep": 2356,
      "mettre": 2357,
      "gique": 2358,
      "_rapport,": 2359,
      "_nav": 2360,
      "_systèmes": 2361,
      "asse": 2362,
      "_importance": 2363,
      "_D'": 2364,
      "_frontières": 2365,
      "_encoura": 2366,
      "_entra": 2367,
      "_heure": 2368,
      "_seul": 2369,
      "oires": 2370,
      "fs": 2371,
      "égalité": 2372,
      "_prochain": 2373,
      "anm": 2374,
      "_travailleurs": 2375,
      "_uniquement": 2376,
      "sp": 2377,
      "bonne": 2378,
      "_cas,": 2379,
      "_risque": 2380,
      "_informations": 2381,
      "_féliciter": 2382,
      "_conv": 2383,
      "_internationale": 2384,
      "_8": 2385,
      "_fourni": 2386,
      "pend": 2387,
      "isbonne": 2388,
      "_faudra": 2389,
      "_statu": 2390,
      "lique": 2391,
      "_suite": 2392,
      "_administ": 2393,
      "_Lisbonne": 2394,
      "_solid": 2395,
      "_transf": 2396,
      "_ay": 2397,
      "_financement": 2398,
      "_telles": 2399,
      "_produit": 2400,
      "_référence": 2401,
      "êt": 2402,
      "_titre": 2403,
      "_19": 2404,
      "_inv": 2405,
      "_accepter": 2406,
      "_direc": 2407,
      "ub": 2408,
      "_certainement": 2409,
      "_orient": 2410,
      "_dit,": 2411,
      "_l’Europe": 2412,
      "dici": 2413,
      "_n'ont": 2414,
      "_Ils": 2415,
      "_réser": 2416,
      "_Constitution": 2417,
      "_11": 2418,
      "té,": 2419,
      "ché": 2420,
      "_9": 2421,
      "_aujourd’hui": 2422,
      "utilisation": 2423,
      "_déta": 2424,
      "_rapports": 2425,
      "_l'environnement": 2426,
      "olument": 2427,
      "_Deux": 2428,
      "_attention": 2429,
      "_véritable": 2430,
      "llem": 2431,
      "pens": 2432,
      "_réellement": 2433,
      "_cher": 2434,
      "_souhaiter": 2435,
      "_minist": 2436,
      "_reconnaiss": 2437,
      "_introdu": 2438,
      "_examin": 2439,
      "_difficul": 2440,
      "_20": 2441,
      "_fort": 2442,
      "_l'amendement": 2443,
      "éricain": 2444,
      "_pendant": 2445,
      "_affir": 2446,
      "_partage": 2447,
      "fri": 2448,
      "rations": 2449,
      "térêt": 2450,
      "_pén": 2451,
      "_données": 2452,
      "_manif": 2453,
      "médi": 2454,
      "_meilleure": 2455,
      "_évide": 2456,
      "_W": 2457,
      "_différentes": 2458,
      "_paragraph": 2459,
      "-v": 2460,
      "act": 2461,
      "_eur": 2462,
      "_relatif": 2463,
      "_équili": 2464,
      "_convain": 2465,
      "_parvenir": 2466,
      "_subst": 2467,
      "_vois": 2468,
      "_asse": 2469,
      "_loin": 2470,
      "_coordin": 2471,
      "_résultat": 2472,
      "_nécessaires": 2473,
      "_l'oc": 2474,
      "_participation": 2475,
      "ends": 2476,
      "_concrè": 2477,
      "_sc": 2478,
      "_fai": 2479,
      "_pourra": 2480,
      "_Turquie": 2481,
      "_critères": 2482,
      "_ministre": 2483,
      "_l’ex": 2484,
      "_rapporteur,": 2485,
      "att": 2486,
      "_régime": 2487,
      "_consommateurs": 2488,
      "auc": 2489,
      "auv": 2490,
      "sement": 2491,
      "éner": 2492,
      "_déclar": 2493,
      "_présenter": 2494,
      "_amb": 2495,
      "ence.": 2496,
      "_veut": 2497,
      "_organisations": 2498,
      "_No": 2499,
      "péri": 2500,
      "pendant,": 2501,
      "_contra": 2502,
      "_envis": 2503,
      "_conséquent,": 2504,
      "_porte": 2505,
      "uv": 2506,
      "çu": 2507,
      "_prise": 2508,
      "_chi": 2509,
      "ice": 2510,
      "_c'": 2511,
      "ossi": 2512,
      "ris": 2513,
      "_dépos": 2514,
      "venu": 2515,
      "_grâce": 2516,
      "serv": 2517,
      "_assurer": 2518,
      "_signifie": 2519,
      "_approche": 2520,
      "_2001": 2521,
      "_signal": 2522,
      "_d'ass": 2523,
      "_approuv": 2524,
      "_uti": 2525,
      "téra": 2526,
      "_l’a": 2527,
      "_rappeler": 2528,
      "tini": 2529,
      "en,": 2530,
      "_j’ai": 2531,
      "_l'ins": 2532,
      "abil": 2533,
      "_vigueur": 2534,
      "armon": 2535,
      "_outre,": 2536,
      "_réunion": 2537,
      "cueil": 2538,
      "_2002": 2539,
      "immigration": 2540,
      "-d": 2541,
      "arge": 2542,
      "_rapidement": 2543,
      "orti": 2544,
      "_Cependant,": 2545,
      "alisation": 2546,
      "_n’a": 2547,
      "_sensi": 2548,
      "adi": 2549,
      "resser": 2550,
      "_victimes": 2551,
      "_effective": 2552,
      "_aéri": 2553,
      "_présente": 2554,
      "_Russi": 2555,
      "opri": 2556,
      "_pauvre": 2557,
      "_l’A": 2558,
      "_dois": 2559,
      "_cause": 2560,
      "000": 2561,
      "_élections": 2562,
      "_autant": 2563,
      "_2003": 2564,
      "_grandes": 2565,
      "_empl": 2566,
      "accès": 2567,
      "venus": 2568,
      "_dési": 2569,
      "dap": 2570,
      "lande": 2571,
      "on,": 2572,
      "_?uvre": 2573,
      "_tenir": 2574,
      "_judici": 2575,
      "_manque": 2576,
      "vement": 2577,
      "_heur": 2578,
      "_libéralis": 2579,
      "_procédures": 2580,
      "ducation": 2581,
      "_tâ": 2582,
      "_action": 2583,
      "œuvre": 2584,
      "inion": 2585,
      "rimin": 2586,
      "_début": 2587,
      "_relatives": 2588,
      "isme": 2589,
      "tal": 2590,
      "agri": 2591,
      "_jeunes": 2592,
      "_Des": 2593,
      "_compéti": 2594,
      "re.": 2595,
      "_lecture": 2596,
      "_éléments": 2597,
      "_12": 2598,
      "all": 2599,
      "_réformes": 2600,
      "tégration": 2601,
      "able,": 2602,
      "cement": 2603,
      "ts,": 2604,
      "_lorsqu'": 2605,
      "_dix": 2606,
      "_absolument": 2607,
      "_l'accord": 2608,
      "les,": 2609,
      "-à-dire": 2610,
      "_respecter": 2611,
      "_marchés": 2612,
      "_considération": 2613,
      "hi": 2614,
      "option": 2615,
      "_financières": 2616,
      "était": 2617,
      "eng": 2618,
      "_condam": 2619,
      "_prises": 2620,
      "_collègue": 2621,
      "_dist": 2622,
      "_15": 2623,
      "adhésion": 2624,
      "_priorités": 2625,
      "_représente": 2626,
      "_parties": 2627,
      "_contribuer": 2628,
      "_confiance": 2629,
      "_étaient": 2630,
      "_quoi": 2631,
      "orm": 2632,
      "uel": 2633,
      "isc": 2634,
      "_propose": 2635,
      "_travers": 2636,
      "_aides": 2637,
      "_laiss": 2638,
      "aître": 2639,
      "han": 2640,
      "cident": 2641,
      "_l’av": 2642,
      "_d'euros": 2643,
      "_s’agit": 2644,
      "_propres": 2645,
      "_promouv": 2646,
      "_indis": 2647,
      "-t-il": 2648,
      "_d'entre": 2649,
      "ze": 2650,
      "èle": 2651,
      "_personnel": 2652,
      "_qu'à": 2653,
      "_délég": 2654,
      "_Deuxième": 2655,
      "_Mal": 2656,
      "_évo": 2657,
      "_Conseil.": 2658,
      "_légi": 2659,
      "_scientifi": 2660,
      "qu’": 2661,
      "_d'ac": 2662,
      "_formation": 2663,
      "orté": 2664,
      "_inqui": 2665,
      "_valeurs": 2666,
      "blis": 2667,
      "_conflit": 2668,
      "uss": 2669,
      "_C'": 2670,
      "_l'aide": 2671,
      "_bl": 2672,
      "_refus": 2673,
      "_is": 2674,
      "_trouv": 2675,
      "_méc": 2676,
      "_priorité": 2677,
      "_mort": 2678,
      "_difficile": 2679,
      "_cla": 2680,
      "_tenu": 2681,
      "_travailler": 2682,
      "_crimin": 2683,
      "_solidarité": 2684,
      "_pas,": 2685,
      "_service": 2686,
      "_profession": 2687,
      "_initiative": 2688,
      "oix": 2689,
      "organis": 2690,
      "_chac": 2691,
      "_paragraphe": 2692,
      "_coh": 2693,
      "_totalement": 2694,
      "_présenté": 2695,
      "_nationaux": 2696,
      "_dû": 2697,
      "_malheure": 2698,
      "_financiers": 2699,
      "_année": 2700,
      "-vous": 2701,
      "agriculture": 2702,
      "_collaboration": 2703,
      "_ministres": 2704,
      "_éner": 2705,
      "_précédent": 2706,
      "_l'année": 2707,
      "_maladi": 2708,
      "clé": 2709,
      "ère,": 2710,
      "conomie": 2711,
      "ons,": 2712,
      "_partis": 2713,
      "_vient": 2714,
      "_pol": 2715,
      "_hist": 2716,
      "_passer": 2717,
      "les.": 2718,
      "_l'Europ": 2719,
      "_réduire": 2720,
      "ants.": 2721,
      "-p": 2722,
      "_veiller": 2723,
      "amment": 2724,
      "_force": 2725,
      "ess": 2726,
      "ît": 2727,
      "_concep": 2728,
      "_s'il": 2729,
      "_lesquels": 2730,
      "_én": 2731,
      "_termin": 2732,
      "erre": 2733,
      "_but": 2734,
      "_plus,": 2735,
      "_terrorisme": 2736,
      "_quatre": 2737,
      "_investisse": 2738,
      "_précisément": 2739,
      "_appliqu": 2740,
      "_contribution": 2741,
      "tas": 2742,
      "_qu'en": 2743,
      "_arti": 2744,
      "_réduction": 2745,
      "ribu": 2746,
      "_cal": 2747,
      "itiative": 2748,
      "_indispens": 2749,
      "_statut": 2750,
      "_promouvoir": 2751,
      "_conser": 2752,
      "oncer": 2753,
      "_parmi": 2754,
      "_commencer": 2755,
      "_secon": 2756,
      "_all": 2757,
      "itaires": 2758,
      "_concent": 2759,
      "_évident": 2760,
      "_améliorer": 2761,
      "_ens": 2762,
      "_appropri": 2763,
      "_Notre": 2764,
      "_rencont": 2765,
      "cev": 2766,
      "rimer": 2767,
      "_Bien": 2768,
      "_budgétaire": 2769,
      "ère.": 2770,
      "férence": 2771,
      "_conform": 2772,
      "atri": 2773,
      "_Lors": 2774,
      "_convention": 2775,
      "tences": 2776,
      "_suivi": 2777,
      "_oppos": 2778,
      "bilités": 2779,
      "istance": 2780,
      "_demandé": 2781,
      "_grands": 2782,
      "_J'espère": 2783,
      "_É": 2784,
      "lam": 2785,
      "_exigences": 2786,
      "_traitement": 2787,
      "_compétences": 2788,
      "_yeux": 2789,
      "pect": 2790,
      "_élément": 2791,
      "de,": 2792,
      "_rend": 2793,
      "_intéress": 2794,
      "_excel": 2795,
      "_temps,": 2796,
      "anger": 2797,
      "_venir": 2798,
      "ors,": 2799,
      "_dossi": 2800,
      "_camp": 2801,
      "portun": 2802,
      "_suiv": 2803,
      "rement": 2804,
      "_assez": 2805,
      "diction": 2806,
      "_civi": 2807,
      "rez": 2808,
      "_mé": 2809,
      "ations.": 2810,
      "_l'inter": 2811,
      "_capacité": 2812,
      "_vos": 2813,
      "ants,": 2814,
      "_n'av": 2815,
      "_œuvre": 2816,
      "_éviter": 2817,
      "_social": 2818,
      "_taux": 2819,
      "_Li": 2820,
      "_Bar": 2821,
      "_passe": 2822,
      "_circul": 2823,
      "_atta": 2824,
      "_Vo": 2825,
      "CE": 2826,
      "_évidemment": 2827,
      "_consac": 2828,
      "troph": 2829,
      "th": 2830,
      "_confir": 2831,
      "ations,": 2832,
      "_nous,": 2833,
      "ards": 2834,
      "_devoir": 2835,
      "_cohésion": 2836,
      "ariat": 2837,
      "ines": 2838,
      "_qu'on": 2839,
      "ose": 2840,
      "aces": 2841,
      "_mand": 2842,
      "sra": 2843,
      "_diri": 2844,
      "_l'E": 2845,
      "_prévu": 2846,
      "_troisième": 2847,
      "onds": 2848,
      "_document": 2849,
      "ts.": 2850,
      "_l'objet": 2851,
      "_l'op": 2852,
      "_l’homme": 2853,
      "_cinq": 2854,
      "gues": 2855,
      "_attend": 2856,
      "ilà": 2857,
      "tastroph": 2858,
      "_ajou": 2859,
      "_Al": 2860,
      "_Pro": 2861,
      "_coordination": 2862,
      "_extérieur": 2863,
      "_puissent": 2864,
      "_Per": 2865,
      "_technologi": 2866,
      "cteurs": 2867,
      "_devra": 2868,
      "_permettant": 2869,
      "_soule": 2870,
      "ancer": 2871,
      "_communauté": 2872,
      "fait": 2873,
      "_Pa": 2874,
      "_2000": 2875,
      "_biais": 2876,
      "_fisc": 2877,
      "_actuel": 2878,
      "che.": 2879,
      "_discussions": 2880,
      "_catastroph": 2881,
      "_dépl": 2882,
      "_2004": 2883,
      "cap": 2884,
      "_évé": 2885,
      "estime": 2886,
      "dustrie": 2887,
      "_positif": 2888,
      "_ferme": 2889,
      "_peuple": 2890,
      "_quelle": 2891,
      "_auxque": 2892,
      "_dépenses": 2893,
      "_considère": 2894,
      "_proposé": 2895,
      "vironnement,": 2896,
      "_fondamentaux": 2897,
      "_intervention": 2898,
      "usement,": 2899,
      "_vont": 2900,
      "_possibilités": 2901,
      "_déce": 2902,
      "_choix": 2903,
      "_Sch": 2904,
      "cri": 2905,
      "_cli": 2906,
      "_entraî": 2907,
      "_résou": 2908,
      "_qu’elle": 2909,
      "_conclusions": 2910,
      "ël": 2911,
      "orig": 2912,
      "_travaux": 2913,
      "éditer": 2914,
      "_unies": 2915,
      "_charg": 2916,
      "étu": 2917,
      "_moi,": 2918,
      "_transparence": 2919,
      "_nuclé": 2920,
      "arte": 2921,
      "_pratiques": 2922,
      "_multi": 2923,
      "landais": 2924,
      "_élev": 2925,
      "_équi": 2926,
      "_Fr": 2927,
      "_lo": 2928,
      "_10": 2929,
      "_discrimin": 2930,
      "_repris": 2931,
      "ailleurs": 2932,
      "_valeur": 2933,
      "anni": 2934,
      "mment,": 2935,
      "tion,": 2936,
      "égard": 2937,
      "_effectu": 2938,
      "éditerran": 2939,
      "_l'heure": 2940,
      "_Cer": 2941,
      "_prochaine": 2942,
      "_professionne": 2943,
      "_direction": 2944,
      "_ora": 2945,
      "_d'A": 2946,
      "_hab": 2947,
      "ître": 2948,
      "_jusqu'à": 2949,
      "_derniers": 2950,
      "_bre": 2951,
      "_crise": 2952,
      "_succès": 2953,
      "matique": 2954,
      "_poursuivre": 2955,
      "_Or": 2956,
      "_comprendre": 2957,
      "_civ": 2958,
      "_liste": 2959,
      "quis": 2960,
      "-B": 2961,
      "_lesquelles": 2962,
      "tern": 2963,
      "dit": 2964,
      "_nationales": 2965,
      "ctri": 2966,
      "_représentants": 2967,
      "tivité": 2968,
      "_qu'elles": 2969,
      "_conclusion": 2970,
      "mil": 2971,
      "_travail.": 2972,
      "_caract": 2973,
      "_chacun": 2974,
      "_certaine": 2975,
      "_longtemp": 2976,
      "gence": 2977,
      "_pourraient": 2978,
      "lexi": 2979,
      "_enfants": 2980,
      "_voul": 2981,
      "voy": 2982,
      "gg": 2983,
      "_lut": 2984,
      "alités": 2985,
      "_conférence": 2986,
      "_l'ac": 2987,
      "_modifi": 2988,
      "_responsabil": 2989,
      "_engag": 2990,
      "ira": 2991,
      "_empê": 2992,
      "_quali": 2993,
      "_fait,": 2994,
      "_contenu": 2995,
      "_télé": 2996,
      "_expl": 2997,
      "_adéqu": 2998,
      "_urg": 2999,
      "_veux": 3000,
      "_transports": 3001,
      "_hau": 3002,
      "_donne": 3003,
      "_révision": 3004,
      "_impliqu": 3005,
      "_estim": 3006,
      "_adopter": 3007,
      "_aussi,": 3008,
      "êtes": 3009,
      "ant.": 3010,
      "exp": 3011,
      "istan": 3012,
      "tég": 3013,
      "_Br": 3014,
      "_caractère": 3015,
      "blement": 3016,
      "_ailleurs,": 3017,
      "_voy": 3018,
      "_six": 3019,
      "gan": 3020,
      "_souten": 3021,
      "_mandat": 3022,
      "_prévention": 3023,
      "ert": 3024,
      "_anal": 3025,
      "_mécanis": 3026,
      "_d'action": 3027,
      "_espagn": 3028,
      "-mêmes": 3029,
      "position": 3030,
      "_In": 3031,
      "andis": 3032,
      "cadre": 3033,
      "_pleinement": 3034,
      "arder": 3035,
      "_profon": 3036,
      "_décidé": 3037,
      "_mêmes": 3038,
      "_reje": 3039,
      "_occasion": 3040,
      "_résoudre": 3041,
      "_enfin": 3042,
      "_outre": 3043,
      "_confront": 3044,
      "_soumis": 3045,
      "po": 3046,
      "_l’en": 3047,
      "_septe": 3048,
      "ctures": 3049,
      "_constru": 3050,
      "_souhaiterais": 3051,
      "jourd'hui": 3052,
      "_constater": 3053,
      "_gens": 3054,
      "_ayant": 3055,
      "_fourn": 3056,
      "_continu": 3057,
      "_Roy": 3058,
      "erc": 3059,
      "_dépu": 3060,
      "rage": 3061,
      "_constituent": 3062,
      "_flexi": 3063,
      "èrement,": 3064,
      "_25": 3065,
      "iser": 3066,
      "tion.": 3067,
      "_franç": 3068,
      "_associ": 3069,
      "sible": 3070,
      "tant,": 3071,
      "_international": 3072,
      "esprit": 3073,
      "_fu": 3074,
      "_pensons": 3075,
      "_sin": 3076,
      "aume": 3077,
      "_politique.": 3078,
      "ires": 3079,
      "_rep": 3080,
      "_revi": 3081,
      "_autoris": 3082,
      "_prépara": 3083,
      "_clos": 3084,
      "_années,": 3085,
      "_félicite": 3086,
      "_renforcement": 3087,
      "_Com": 3088,
      "cté": 3089,
      "_réfu": 3090,
      "_pollu": 3091,
      "_trafic": 3092,
      "_américain": 3093,
      "_politique,": 3094,
      "_permis": 3095,
      "_responsabilités": 3096,
      "_coûts": 3097,
      "_européenn": 3098,
      "_Deuxièmement,": 3099,
      "/2001": 3100,
      "CO": 3101,
      "cons": 3102,
      "anim": 3103,
      "_cru": 3104,
      "_l'élargissement": 3105,
      "_déclaré": 3106,
      "jus": 3107,
      "lin": 3108,
      "_pression": 3109,
      "éni": 3110,
      "_Mar": 3111,
      "resse": 3112,
      "_anti": 3113,
      "ritanni": 3114,
      "_mauv": 3115,
      "_apporter": 3116,
      "_hommes": 3117,
      "_1999": 3118,
      "_développer": 3119,
      "_minim": 3120,
      "_human": 3121,
      "uvres": 3122,
      "_risques": 3123,
      "_zones": 3124,
      "_Sur": 3125,
      "_souff": 3126,
      "_assur": 3127,
      "idée": 3128,
      "_complè": 3129,
      "_importants": 3130,
      "_Royaume": 3131,
      "_territoire": 3132,
      "ourg": 3133,
      "_conseil": 3134,
      "_concili": 3135,
      "_modèle": 3136,
      "_protéger": 3137,
      "_déche": 3138,
      "abs": 3139,
      "_Europe.": 3140,
      "épu": 3141,
      "_durable": 3142,
      "_exclu": 3143,
      "-cadre": 3144,
      "_pas.": 3145,
      "_rati": 3146,
      "sraël": 3147,
      "_administra": 3148,
      "orique": 3149,
      "_immédi": 3150,
      "_étrangères": 3151,
      "_conformément": 3152,
      "_Conférence": 3153,
      "_plupar": 3154,
      "_promo": 3155,
      "_l'importance": 3156,
      "tien": 3157,
      "_monét": 3158,
      "_initiatives": 3159,
      "-à-vis": 3160,
      "_sau": 3161,
      "lir": 3162,
      "_pauvreté": 3163,
      "_l'év": 3164,
      "_d'avoir": 3165,
      "_évent": 3166,
      "_vis-à-vis": 3167,
      "_instruments": 3168,
      "_avanc": 3169,
      "_montre": 3170,
      "az": 3171,
      "_difficultés": 3172,
      "ne,": 3173,
      "_question.": 3174,
      "_d'imp": 3175,
      "_élab": 3176,
      "_oubli": 3177,
      "_besoins": 3178,
      "_dim": 3179,
      "_législatif": 3180,
      "rou": 3181,
      "_rur": 3182,
      "ance.": 3183,
      "_positive": 3184,
      "_simple": 3185,
      "tock": 3186,
      "_méthode": 3187,
      "_l'occasion": 3188,
      "_reli": 3189,
      "_savez": 3190,
      "_mener": 3191,
      "_qu’ils": 3192,
      "_responsables": 3193,
      "_Fonds": 3194,
      "leur": 3195,
      "_l'État": 3196,
      "effic": 3197,
      "rier": 3198,
      "_obs": 3199,
      "cles": 3200,
      "_émis": 3201,
      "_ligne": 3202,
      "_mentionn": 3203,
      "_agricole": 3204,
      "tives": 3205,
      "_bure": 3206,
      "_Permettez-moi": 3207,
      "_pen": 3208,
      "tirer": 3209,
      "uxelles": 3210,
      "_partir": 3211,
      "_secteurs": 3212,
      "_application": 3213,
      "_colle": 3214,
      "pa": 3215,
      "_vise": 3216,
      "_mess": 3217,
      "_fonctionnement": 3218,
      "_petites": 3219,
      "_coup": 3220,
      "_étroit": 3221,
      "_sérieux": 3222,
      "_réfugi": 3223,
      "_expéri": 3224,
      "_plupart": 3225,
      "agement": 3226,
      "_démont": 3227,
      "_sex": 3228,
      "attention": 3229,
      "_lign": 3230,
      "_cela,": 3231,
      "_moin": 3232,
      "_Bruxelles": 3233,
      "se,": 3234,
      "_allons": 3235,
      "_surve": 3236,
      "_train": 3237,
      "ouverture": 3238,
      "-O": 3239,
      "prise": 3240,
      "_13": 3241,
      "gent": 3242,
      "_mission": 3243,
      "_parlementaire": 3244,
      "_ensuite": 3245,
      "-del": 3246,
      "_d'év": 3247,
      "_peine": 3248,
      "_mondiale": 3249,
      "_réce": 3250,
      "_définition": 3251,
      "-delà": 3252,
      "_observ": 3253,
      "_l'agriculture": 3254,
      "_engagement": 3255,
      "_loi": 3256,
      "_pron": 3257,
      "_reçu": 3258,
      "_forces": 3259,
      "_déclarations": 3260,
      "forme": 3261,
      "_mariti": 3262,
      "_britanni": 3263,
      "amen": 3264,
      "_jouer": 3265,
      "lan": 3266,
      "rontali": 3267,
      "_s’est": 3268,
      "_br": 3269,
      "-Uni": 3270,
      "_prê": 3271,
      "_l'ordre": 3272,
      "roche": 3273,
      "_perspectives": 3274,
      "o.": 3275,
      "agni": 3276,
      "ante.": 3277,
      "_naturellement": 3278,
      "_chois": 3279,
      "_rester": 3280,
      "_Royaume-Uni": 3281,
      "_pales": 3282,
      "_moder": 3283,
      "_libéralisation": 3284,
      "xim": 3285,
      "blique": 3286,
      "_aller": 3287,
      "_palestini": 3288,
      "gouver": 3289,
      "_chiff": 3290,
      "_monde.": 3291,
      "tionnelle": 3292,
      "_favorable": 3293,
      "_débats": 3294,
      "_profit": 3295,
      "_parfait": 3296,
      "tenti": 3297,
      "cid": 3298,
      "_indivi": 3299,
      "_manifest": 3300,
      "rlande": 3301,
      "_effets": 3302,
      "anque": 3303,
      "a.": 3304,
      "tient": 3305,
      "lég": 3306,
      "_puisque": 3307,
      "_commis": 3308,
      "_malgré": 3309,
      "_suivre": 3310,
      "èrent": 3311,
      "_c'est-à-dire": 3312,
      "_sugg": 3313,
      "_journ": 3314,
      "_sol": 3315,
      "_oct": 3316,
      "_consiste": 3317,
      "_tard": 3318,
      "_documents": 3319,
      "_animaux": 3320,
      "augment": 3321,
      "_auquel": 3322,
      "réci": 3323,
      "itali": 3324,
      "_effectivement": 3325,
      "_inaccep": 3326,
      "_sait": 3327,
      "_instrument": 3328,
      "énergie": 3329,
      "gouvernement": 3330,
      "_tradi": 3331,
      "ormais": 3332,
      "_l'utilisation": 3333,
      "_Merci": 3334,
      "_près": 3335,
      "_libertés": 3336,
      "_atteindre": 3337,
      "_réjouis": 3338,
      "_parle": 3339,
      "_indépend": 3340,
      "_l'objectif": 3341,
      "_ans,": 3342,
      "_circons": 3343,
      "join": 3344,
      "_sociaux": 3345,
      "bles.": 3346,
      "_disponi": 3347,
      "_engagements": 3348,
      "_Voilà": 3349,
      "_radi": 3350,
      "_parfois": 3351,
      "emb": 3352,
      "ède": 3353,
      "_semaine": 3354,
      "_présence": 3355,
      "fg": 3356,
      "ox": 3357,
      "_ceci": 3358,
      "_dimin": 3359,
      "_sanctions": 3360,
      "_parole": 3361,
      "argent": 3362,
      "_emploi": 3363,
      "_agricul": 3364,
      "_dég": 3365,
      "_exprim": 3366,
      "_aider": 3367,
      "aud": 3368,
      "_combat": 3369,
      "angere": 3370,
      "MC": 3371,
      "_partenaires": 3372,
      "eaux": 3373,
      "_dangere": 3374,
      "former": 3375,
      "_permettra": 3376,
      "_prévoit": 3377,
      "istes": 3378,
      "_ven": 3379,
      "_égard,": 3380,
      "_partenariat": 3381,
      "_itali": 3382,
      "_senti": 3383,
      "rées": 3384,
      "ore": 3385,
      "_construction": 3386,
      "_intérêt": 3387,
      "_promotion": 3388,
      "_Europe,": 3389,
      "_inten": 3390,
      "_sociét": 3391,
      "_�": 3392,
      "_grave": 3393,
      "_travail,": 3394,
      "_por": 3395,
      "_(L": 3396,
      "c.": 3397,
      "_m’": 3398,
      "_gen": 3399,
      "_préf": 3400,
      "érique": 3401,
      "_perman": 3402,
      "_voix": 3403,
      "usse": 3404,
      "_jeu": 3405,
      "_intergouvernement": 3406,
      "_dépend": 3407,
      "_zone": 3408,
      "_lutter": 3409,
      "rog": 3410,
      "_désormais": 3411,
      "sile": 3412,
      "blir": 3413,
      "_000": 3414,
      "_déli": 3415,
      "_favoris": 3416,
      "_réglementation": 3417,
      "_ta": 3418,
      "_est,": 3419,
      "_complex": 3420,
      "_socialis": 3421,
      "erait": 3422,
      "-Ori": 3423,
      "_communautaires": 3424,
      "_l'Union.": 3425,
      "_exploit": 3426,
      "agir": 3427,
      "_l’imp": 3428,
      "ila": 3429,
      "_d'ailleurs": 3430,
      "_passé": 3431,
      "ies": 3432,
      "_pauvres": 3433,
      "_potenti": 3434,
      "odes": 3435,
      "_celle-ci": 3436,
      "_pacte": 3437,
      "_protoc": 3438,
      "aît": 3439,
      "_Su": 3440,
      "_avenir": 3441,
      "_juin": 3442,
      "oss": 3443,
      "_décembre": 3444,
      "od": 3445,
      "aff": 3446,
      "_espérons": 3447,
      "_offici": 3448,
      "_pourrons": 3449,
      "quent": 3450,
      "_fournir": 3451,
      "_Nice": 3452,
      "_développement.": 3453,
      "yse": 3454,
      "lève": 3455,
      "_opportun": 3456,
      "l,": 3457,
      "ograph": 3458,
      "_rele": 3459,
      ").": 3460,
      "_l'an": 3461,
      "_géné": 3462,
      "_J’ai": 3463,
      "cl": 3464,
      "dits": 3465,
      "objectif": 3466,
      "_veulent": 3467,
      "_dimension": 3468,
      "rastru": 3469,
      "_décou": 3470,
      "ige": 3471,
      "resp": 3472,
      "_néanm": 3473,
      "_centrale": 3474,
      "_traiter": 3475,
      "_â": 3476,
      "_citoyens,": 3477,
      "_personn": 3478,
      "_essay": 3479,
      "_spécifique": 3480,
      "_suffisamment": 3481,
      "_haut": 3482,
      "_sous-": 3483,
      "_comité": 3484,
      "vée": 3485,
      "ges": 3486,
      "_parlé": 3487,
      "tionnelles": 3488,
      "_d'ins": 3489,
      "_maintenir": 3490,
      "ouvrir": 3491,
      "efficacité": 3492,
      "ilatéra": 3493,
      "_directement": 3494,
      "_hi": 3495,
      "_Mme ": 3496,
      "_repos": 3497,
      "_stri": 3498,
      "_devenir": 3499,
      "ologie": 3500,
      "_poser": 3501,
      "_condition": 3502,
      "_opéra": 3503,
      "illes": 3504,
      "_générale": 3505,
      "_mai": 3506,
      "_obtenir": 3507,
      "llemagne": 3508,
      "_événements": 3509,
      "_publics": 3510,
      "_l'adhésion": 3511,
      "_val": 3512,
      "_perspective": 3513,
      "_sp": 3514,
      "atoire": 3515,
      "tat": 3516,
      "_solutions": 3517,
      "_délégation": 3518,
      "vec": 3519,
      "_parta": 3520,
      "_Russie": 3521,
      "_armes": 3522,
      "uelle": 3523,
      "_illég": 3524,
      "_agir": 3525,
      "_importantes": 3526,
      "_aérien": 3527,
      "_civil": 3528,
      "uff": 3529,
      "_adap": 3530,
      "_grec": 3531,
      "ue.": 3532,
      "erts": 3533,
      "_prend": 3534,
      "fghan": 3535,
      "off": 3536,
      "_hui": 3537,
      "_malheureusement": 3538,
      "_d'ad": 3539,
      "_fonctionn": 3540,
      "lli": 3541,
      "_financière": 3542,
      "itation": 3543,
      "_exprimer": 3544,
      "_Sud": 3545,
      "_14": 3546,
      "_défi": 3547,
      "léch": 3548,
      "_l'application": 3549,
      "age,": 3550,
      "issons": 3551,
      "_l’O": 3552,
      "_député": 3553,
      "_violence": 3554,
      "_lors,": 3555,
      "fications": 3556,
      "_dén": 3557,
      "origine": 3558,
      "_norm": 3559,
      "_pose": 3560,
      "terne": 3561,
      "_équilib": 3562,
      "_d'ar": 3563,
      "_recons": 3564,
      "_lignes": 3565,
      "_sens,": 3566,
      "ctiv": 3567,
      "_An": 3568,
      "_réseau": 3569,
      "_l’app": 3570,
      "contre": 3571,
      "_navires": 3572,
      "_citoyens.": 3573,
      "_facil": 3574,
      "_Ceci": 3575,
      "_pléni": 3576,
      "_procéder": 3577,
      "_changements": 3578,
      "_d'inter": 3579,
      "_préser": 3580,
      "_excep": 3581,
      "_médica": 3582,
      "_septembre": 3583,
      "este": 3584,
      "tron": 3585,
      "_récemment": 3586,
      "roy": 3587,
      "_devront": 3588,
      "tances": 3589,
      "_chô": 3590,
      "_Ber": 3591,
      "_UE": 3592,
      "réh": 3593,
      "_vit": 3594,
      "_tradu": 3595,
      "_financier": 3596,
      "_reconnaissance": 3597,
      "_excellent": 3598,
      "E,": 3599,
      "_déch": 3600,
      "_accès": 3601,
      "_côté": 3602,
      "_d'autre": 3603,
      "_européens.": 3604,
      "_même,": 3605,
      "fon": 3606,
      "_l'aut": 3607,
      "étro": 3608,
      "_participer": 3609,
      "_inquiétu": 3610,
      "NU": 3611,
      "lant": 3612,
      "_stratégi": 3613,
      "_Am": 3614,
      "_pourront": 3615,
      "_meilleur": 3616,
      "_distin": 3617,
      "_corresp": 3618,
      "_Répu": 3619,
      "_question,": 3620,
      "_charge": 3621,
      "_conséquent": 3622,
      "térieure": 3623,
      "acer": 3624,
      "_j'espère": 3625,
      "_européens,": 3626,
      "_Ainsi": 3627,
      "_harmon": 3628,
      "art": 3629,
      "_s'ag": 3630,
      "_siè": 3631,
      "_touch": 3632,
      "de.": 3633,
      "_avions": 3634,
      "_défendre": 3635,
      "_mer": 3636,
      "_Premièrement,": 3637,
      "_circulation": 3638,
      "_élec": 3639,
      "_suivant": 3640,
      "_déchets": 3641,
      "_néanmoins": 3642,
      "_«": 3643,
      "_l'Assemblée": 3644,
      "_pi": 3645,
      "_entend": 3646,
      "_importe": 3647,
      "ète": 3648,
      "_Nord": 3649,
      "_total": 3650,
      "_changement": 3651,
      "_directives": 3652,
      "_l'économie": 3653,
      "_l'industrie": 3654,
      "_estime": 3655,
      "_discuter": 3656,
      "_au-delà": 3657,
      "ne.": 3658,
      "_bonnes": 3659,
      "_chez": 3660,
      "_compagni": 3661,
      "_regret": 3662,
      "_République": 3663,
      "_qu'a": 3664,
      "_active": 3665,
      "_s'app": 3666,
      "_Chyp": 3667,
      "améliorer": 3668,
      "_réseaux": 3669,
      "blissement": 3670,
      "_dirige": 3671,
      "_référ": 3672,
      "_comporte": 3673,
      "_tur": 3674,
      "_caus": 3675,
      "_laisser": 3676,
      "_adoptée": 3677,
      "reg": 3678,
      "_retra": 3679,
      "_thème": 3680,
      "_menace": 3681,
      "_sy": 3682,
      "),": 3683,
      "_mas": 3684,
      "_matin": 3685,
      "_sûr,": 3686,
      "_Certa": 3687,
      "_séance": 3688,
      "_pétro": 3689,
      "ables.": 3690,
      "_écou": 3691,
      "spagne": 3692,
      "_qu'au": 3693,
      "_présent,": 3694,
      "_Gr": 3695,
      "_démocratiques": 3696,
      "_permettez-moi": 3697,
      "-elle": 3698,
      "_catég": 3699,
      "_peuples": 3700,
      "_mu": 3701,
      "çons": 3702,
      "_Messieurs": 3703,
      "_diver": 3704,
      "_consens": 3705,
      "_n'en": 3706,
      "_us": 3707,
      "sidi": 3708,
      "_particulier,": 3709,
      "_soutiens": 3710,
      "_retard": 3711,
      "_français": 3712,
      "_clos.": 3713,
      "_sembl": 3714,
      "_disposer": 3715,
      "_souligné": 3716,
      "_(A5-0": 3717,
      "_convaincu": 3718,
      "_démar": 3719,
      "_agit": 3720,
      "rant": 3721,
      "_dérou": 3722,
      "_souhaitons": 3723,
      "ap": 3724,
      "_tend": 3725,
      "_session": 3726,
      "_inacceptable": 3727,
      "_retr": 3728,
      "_recev": 3729,
      "_modification": 3730,
      "_n'avons": 3731,
      "tées": 3732,
      "_mais,": 3733,
      "_augmentation": 3734,
      "_quanti": 3735,
      "_l'égard": 3736,
      "_aujourd'hui,": 3737,
      "_exige": 3738,
      "..": 3739,
      "_liés": 3740,
      "_dire,": 3741,
      "_l’on": 3742,
      "réti": 3743,
      "_disposition": 3744,
      "_tax": 3745,
      "_Banque": 3746,
      "_voit": 3747,
      "_Ne": 3748,
      "_spécifiques": 3749,
      "_L'Union": 3750,
      "_faudrait": 3751,
      "crit": 3752,
      "_faci": 3753,
      "_investissements": 3754,
      "_Bal": 3755,
      "rim": 3756,
      "_continue": 3757,
      "_réaliser": 3758,
      "_préoccupations": 3759,
      "_l'accès": 3760,
      "_critique": 3761,
      "_attent": 3762,
      "_route": 3763,
      "_avaient": 3764,
      "_l'adoption": 3765,
      "_sociétés": 3766,
      "age.": 3767,
      "_États-Unis,": 3768,
      "oso": 3769,
      "_envers": 3770,
      "_point,": 3771,
      "_message": 3772,
      "/0": 3773,
      "né": 3774,
      "_rac": 3775,
      "_sociales": 3776,
      "_reconnaître": 3777,
      "_sujet.": 3778,
      "_différent": 3779,
      "_celui-ci": 3780,
      "rét": 3781,
      "_développ": 3782,
      "_date": 3783,
      "us.": 3784,
      "_crédits": 3785,
      "_Dé": 3786,
      "_d'h": 3787,
      "_indispensable": 3788,
      "_contrôles": 3789,
      "_affe": 3790,
      "_économique,": 3791,
      "édois": 3792,
      "_satisfait": 3793,
      "nant": 3794,
      "onner": 3795,
      "amélioration": 3796,
      "_réussi": 3797,
      "ctur": 3798,
      "_réfléch": 3799,
      "_définiti": 3800,
      "TA": 3801,
      "_utiliser": 3802,
      "ju": 3803,
      "-t-elle": 3804,
      "_cruci": 3805,
      "tali": 3806,
      "ers,": 3807,
      "anvi": 3808,
      "guli": 3809,
      "_tab": 3810,
      "_l'élargisse": 3811,
      "_aient": 3812,
      "_Né": 3813,
      "ble.": 3814,
      "_maxim": 3815,
      "_Or,": 3816,
      "_réflex": 3817,
      "_univers": 3818,
      "éditerranéen": 3819,
      "rais": 3820,
      "_national": 3821,
      "_pha": 3822,
      "_Port": 3823,
      "oins,": 3824,
      "_individu": 3825,
      "rés": 3826,
      "rovi": 3827,
      "_tém": 3828,
      "enant": 3829,
      "_heureux": 3830,
      "CP": 3831,
      "oyen": 3832,
      "_pouvoirs": 3833,
      "_d’é": 3834,
      "_tâche": 3835,
      "_proven": 3836,
      "anie": 3837,
      "_champ": 3838,
      "_Prodi": 3839,
      "_obsta": 3840,
      "omati": 3841,
      "_protocole": 3842,
      "_etc.": 3843,
      "_emb": 3844,
      "_procès": 3845,
      "_civile": 3846,
      "esti": 3847,
      "_mér": 3848,
      "_presque": 3849,
      "ine,": 3850,
      "_vais": 3851,
      "_responsable": 3852,
      "_domaine.": 3853,
      "_d’ex": 3854,
      "_soutenu": 3855,
      "_cris": 3856,
      "_flexibilité": 3857,
      "oti": 3858,
      "one": 3859,
      "_longtemps": 3860,
      "_l'esp": 3861,
      "_l'environnement,": 3862,
      "_décider": 3863,
      "_Après": 3864,
      "_parlements": 3865,
      "_contraire": 3866,
      "_raisonn": 3867,
      "_milliards": 3868,
      "_faisons": 3869,
      "o-": 3870,
      "_longue": 3871,
      "_finalement": 3872,
      "_montrer": 3873,
      "ge,": 3874,
      "_maintien": 3875,
      "_énor": 3876,
      "_Z": 3877,
      "_Européen": 3878,
      "_futur": 3879,
      "oles": 3880,
      "aille": 3881,
      "ante,": 3882,
      "_développement,": 3883,
      "_autres,": 3884,
      "_recours": 3885,
      "_définir": 3886,
      "_compétence": 3887,
      "_organ": 3888,
      "_bel": 3889,
      "_Bel": 3890,
      "_critiques": 3891,
      "_connaissance": 3892,
      "arb": 3893,
      "_aspect": 3894,
      "_crédi": 3895,
      "_d'aut": 3896,
      "_Rapp": 3897,
      "_niveaux": 3898,
      "PE": 3899,
      "_proposer": 3900,
      "_30": 3901,
      "_largement": 3902,
      "écution": 3903,
      "7,": 3904,
      "_l’I": 3905,
      "out,": 3906,
      "_l’avenir": 3907,
      "nov": 3908,
      "_Moyen": 3909,
      "_Elles": 3910,
      "_calend": 3911,
      "_dro": 3912,
      "_évaluation": 3913,
      "_étudi": 3914,
      "_plans": 3915,
      "_seraient": 3916,
      "_pie": 3917,
      "_positions": 3918,
      "_surveill": 3919,
      "i,": 3920,
      "_exac": 3921,
      "_substances": 3922,
      "_erre": 3923,
      "_suédois": 3924,
      "_ordre": 3925,
      "lits": 3926,
      "_appara": 3927,
      "_équit": 3928,
      "_faire.": 3929,
      "rein": 3930,
      "_traités": 3931,
      "_Turqui": 3932,
      "_milit": 3933,
      "_qu’une": 3934,
      "sivement": 3935,
      "_let": 3936,
      "_expos": 3937,
      "_L'ordre": 3938,
      "_aujourd'": 3939,
      "_conflits": 3940,
      "absence": 3941,
      "uire": 3942,
      "_abouti": 3943,
      "_encore,": 3944,
      "_subsidi": 3945,
      "uffis": 3946,
      "_stock": 3947,
      "_ferrovi": 3948,
      "_l'OMC": 3949,
      "limin": 3950,
      "_18": 3951,
      "_militaire": 3952,
      "tall": 3953,
      "_possible.": 3954,
      "_homme": 3955,
      "_monde,": 3956,
      "_parfaitement": 3957,
      "_sport": 3958,
      "_Selon": 3959,
      "_jours": 3960,
      "_aborder": 3961,
      "ie,": 3962,
      "_Que": 3963,
      "en.": 3964,
      "_forte": 3965,
      "_économie": 3966,
      "_convainc": 3967,
      "_handi": 3968,
      "_complément": 3969,
      "_retour": 3970,
      "_syn": 3971,
      "_souv": 3972,
      "_l'ai": 3973,
      "_tirer": 3974,
      "_durant": 3975,
      "_chôm": 3976,
      "_exer": 3977,
      "_compos": 3978,
      "z-vous": 3979,
      "enda": 3980,
      "ers.": 3981,
      "_employ": 3982,
      "_second": 3983,
      "tres": 3984,
      "opter": 3985,
      "_alimentaire": 3986,
      "_techniques": 3987,
      "_opération": 3988,
      "_restri": 3989,
      "_limiter": 3990,
      "_l'autre": 3991,
      "_argu": 3992,
      "_garantie": 3993,
      "_graves": 3994,
      "_faisant": 3995,
      "_arrê": 3996,
      "_dispose": 3997,
      "_ailleurs": 3998,
      "orde": 3999,
      "_simpli": 4000,
      "_petits": 4001,
      "bles,": 4002,
      "are": 4003,
      "_famille": 4004,
      "oure": 4005,
      "_provo": 4006,
      "_orig": 4007,
      "_justifi": 4008,
      "_principaux": 4009,
      "_comptes": 4010,
      "_phase": 4011,
      "_Car": 4012,
      "_gé": 4013,
      "_d’être": 4014,
      "_poss": 4015,
      "_clari": 4016,
      "umer": 4017,
      "_janvi": 4018,
      "_rejet": 4019,
      "_emplois": 4020,
      "organisation": 4021,
      "_auprès": 4022,
      "us,": 4023,
      "_anci": 4024,
      "_regre": 4025,
      "_paque": 4026,
      "rèce": 4027,
      "_entièrement": 4028,
      "_trib": 4029,
      "tait": 4030,
      "_années.": 4031,
      "_handicap": 4032,
      "_d’av": 4033,
      "utri": 4034,
      "_Grèce": 4035,
      "_lui-même": 4036,
      "_l'égalité": 4037,
      "_chance": 4038,
      "_mora": 4039,
      "troduction": 4040,
      "_chefs": 4041,
      "_soir": 4042,
      "NG": 4043,
      "frique": 4044,
      "visi": 4045,
      "_politiques,": 4046,
      "_caracté": 4047,
      "_ul": 4048,
      "_mouve": 4049,
      "_fl": 4050,
      "_liées": 4051,
      "ign": 4052,
      "_probablement": 4053,
      "_historique": 4054,
      "fghanistan": 4055,
      "_l'Union,": 4056,
      "_défis": 4057,
      "_électron": 4058,
      "_lour": 4059,
      "_réalisé": 4060,
      "_signific": 4061,
      "_l'Europe.": 4062,
      "6,": 4063,
      "_d’accord": 4064,
      "_hon": 4065,
      "_demandons": 4066,
      "_renouve": 4067,
      "_médicaments": 4068,
      "cent": 4069,
      "_Irak": 4070,
      "_domm": 4071,
      "_genre": 4072,
      "_Pourquoi": 4073,
      "_problème.": 4074,
      "quête": 4075,
      "_influ": 4076,
      "_Moyen-Ori": 4077,
      "_dra": 4078,
      "_chances": 4079,
      "issement": 4080,
      "_1,": 4081,
      "bourg": 4082,
      "teurs,": 4083,
      "ploit": 4084,
      "llè": 4085,
      "itant": 4086,
      "_Dès": 4087,
      "_rédi": 4088,
      "_gu": 4089,
      "_tran": 4090,
      "_mot": 4091,
      "_qualifi": 4092,
      "_rou": 4093,
      "obre": 4094,
      "_Charte": 4095,
      "_publiques": 4096,
      "_l'homme,": 4097,
      "_ambi": 4098,
      "_Y": 4099,
      "_communautaire.": 4100,
      "_l’Europ": 4101,
      "_accueil": 4102,
      "_accompli": 4103,
      "_occup": 4104,
      "_criminalité": 4105,
      "_moi-même": 4106,
      "_contraire,": 4107,
      "_supplémentaires": 4108,
      "ha": 4109,
      "_étrangère": 4110,
      "_l'immigration": 4111,
      "_fera": 4112,
      "_cohér": 4113,
      "_prim": 4114,
      "issements": 4115,
      "_conserv": 4116,
      "_breve": 4117,
      "_mutu": 4118,
      "_auxquels": 4119,
      "_altern": 4120,
      "_d’abord": 4121,
      "_susc": 4122,
      "_Portug": 4123,
      "_explic": 4124,
      "_juge": 4125,
      "k,": 4126,
      "ons.": 4127,
      "_l'idée": 4128,
      "_encourager": 4129,
      "_ajouter": 4130,
      "_lang": 4131,
      "_implique": 4132,
      "_délais": 4133,
      "_véri": 4134,
      "_entendu,": 4135,
      "_transfrontali": 4136,
      "_équilibre": 4137,
      "_milliers": 4138,
      "érés": 4139,
      "_nove": 4140,
      "_fondamental": 4141,
      "_établir": 4142,
      "_prépa": 4143,
      "_adress": 4144,
      "_prochaines": 4145,
      "_Cet": 4146,
      "_dernier,": 4147,
      "_retrait": 4148,
      "_semain": 4149,
      "ption": 4150,
      "_deme": 4151,
      "_quelles": 4152,
      "_Israël": 4153,
      "_sécurité,": 4154,
      "_détail": 4155,
      "_sour": 4156,
      "chét": 4157,
      "_montant": 4158,
      "_modifier": 4159,
      "_possible,": 4160,
      "_fois,": 4161,
      "_orientations": 4162,
      "_50": 4163,
      "_technique": 4164,
      "_elle-même": 4165,
      "_prét": 4166,
      "istence": 4167,
      "_favora": 4168,
      "_d'ob": 4169,
      "_super": 4170,
      "cepti": 4171,
      "_Assemblée,": 4172,
      "_espace": 4173,
      "urgence": 4174,
      "_isra": 4175,
      "_Pays": 4176,
      "érant": 4177,
      "_lumi": 4178,
      "l.": 4179,
      "_envoy": 4180,
      "elle.": 4181,
      "_directive.": 4182,
      "sif": 4183,
      "_voire": 4184,
      "_efficaces": 4185,
      "_contrain": 4186,
      "tique,": 4187,
      "_qu’un": 4188,
      "_représentant": 4189,
      "_pied": 4190,
      "_appliquer": 4191,
      "bl": 4192,
      "_populations": 4193,
      "_corre": 4194,
      "_ambiti": 4195,
      "_agriculteurs": 4196,
      "_parlons": 4197,
      "_actes": 4198,
      "_intég": 4199,
      "_attitude": 4200,
      "_l'initiative": 4201,
      "_limité": 4202,
      "_avis,": 4203,
      "_Ainsi,": 4204,
      "trait": 4205,
      "_vé": 4206,
      "_paci": 4207,
      "_juridiques": 4208,
      "uite,": 4209,
      "_Néanm": 4210,
      "_sujets": 4211,
      "_applic": 4212,
      "_obtenu": 4213,
      "_Livre": 4214,
      "_police": 4215,
      "_Se": 4216,
      "mat": 4217,
      "ienne": 4218,
      "_puiss": 4219,
      "_réalisation": 4220,
      "_mondial": 4221,
      "_exprimé": 4222,
      "_approuvé": 4223,
      "ctora": 4224,
      "_flo": 4225,
      "fondi": 4226,
      "_d'État": 4227,
      "aisse": 4228,
      "nie": 4229,
      "ministration": 4230,
      "_subsidiarité": 4231,
      "_Troisième": 4232,
      "istoire": 4233,
      "oré": 4234,
      "empl": 4235,
      "_constituer": 4236,
      "_accepté": 4237,
      "_extra": 4238,
      "_d’en": 4239,
      "_chemin": 4240,
      "_l'esprit": 4241,
      "_d’a": 4242,
      "_réparti": 4243,
      "_impossible": 4244,
      "AC": 4245,
      "_parvi": 4246,
      "_état": 4247,
      "_penser": 4248,
      "_rempl": 4249,
      "_Néanmoins,": 4250,
      "_souligne": 4251,
      "_concept": 4252,
      "_rappelle": 4253,
      "_non-": 4254,
      "_subs": 4255,
      "_principalement": 4256,
      "_remarque": 4257,
      "_Traité": 4258,
      "_tient": 4259,
      "_nationale": 4260,
      "_féd": 4261,
      "_mérite": 4262,
      "enh": 4263,
      "_Cor": 4264,
      "aie": 4265,
      "_d'au": 4266,
      "tablissement": 4267,
      "nex": 4268,
      "_communes": 4269,
      "_délai": 4270,
      "_médias": 4271,
      "_1er": 4272,
      "_subventions": 4273,
      "jourd'hui,": 4274,
      "_tex": 4275,
      "_terrain": 4276,
      "arde": 4277,
      "_conscience": 4278,
      "_élar": 4279,
      "_ans.": 4280,
      "ynam": 4281,
      "_Premier": 4282,
      "_sinc": 4283,
      "déc": 4284,
      "_disposons": 4285,
      "on.": 4286,
      "pré": 4287,
      "éter": 4288,
      "M.": 4289,
      "_sécurité.": 4290,
      "_l'éch": 4291,
      "_matéri": 4292,
      "we": 4293,
      "_Balk": 4294,
      "_revenir": 4295,
      "_d'ent": 4296,
      "_supéri": 4297,
      "_soutient": 4298,
      "_atteint": 4299,
      "endum": 4300,
      "_réguli": 4301,
      "_apporté": 4302,
      "_crain": 4303,
      "chè": 4304,
      "_ici,": 4305,
      "êtres": 4306,
      "_l’ensemble": 4307,
      "iennent": 4308,
      "_nouvel": 4309,
      "_formes": 4310,
      "_considérer": 4311,
      "_méthodes": 4312,
      "_article": 4313,
      "_entam": 4314,
      "_ceux-ci": 4315,
      "_dossier": 4316,
      "ulation": 4317,
      "truire": 4318,
      "_inclu": 4319,
      "_particulière": 4320,
      "orai": 4321,
      "_d’app": 4322,
      "_devrons": 4323,
      "_année,": 4324,
      "_demandes": 4325,
      "ble,": 4326,
      "_débat,": 4327,
      "/2002": 4328,
      "_pertin": 4329,
      "_remarques": 4330,
      "_l’un": 4331,
      "_Eur": 4332,
      "ilibre": 4333,
      "pit": 4334,
      "_Même": 4335,
      "chi": 4336,
      "_évid": 4337,
      "_important,": 4338,
      "_poi": 4339,
      "_pili": 4340,
      "is,": 4341,
      "_l'intérêt": 4342,
      "_lumière": 4343,
      "mun": 4344,
      "_faire,": 4345,
      "_Balkans": 4346,
      "ril": 4347,
      "_utile": 4348,
      "uy": 4349,
      "_devait": 4350,
      "_réfugiés": 4351,
      "_regrette": 4352,
      "euse": 4353,
      "migr": 4354,
      "_l'UE.": 4355,
      "_infrastru": 4356,
      "_n'ex": 4357,
      "_collab": 4358,
      "_bénéficier": 4359,
      "atta": 4360,
      "ote": 4361,
      "_jour,": 4362,
      "_dynam": 4363,
      "_connu": 4364,
      "_diversité": 4365,
      "_correspond": 4366,
      "_immédia": 4367,
      "_référendum": 4368,
      "_l'eur": 4369,
      "_pourtant": 4370,
      "atten": 4371,
      "_17": 4372,
      "_mauvais": 4373,
      "_moindre": 4374,
      "TAN": 4375,
      "aluer": 4376,
      "_mises": 4377,
      "_blanc": 4378,
      "aur": 4379,
      "_justement": 4380,
      "_lieu,": 4381,
      "/2000": 4382,
      "_réuss": 4383,
      "_insuffis": 4384,
      "_l'éducation": 4385,
      "_l'Irak": 4386,
      "_mécanismes": 4387,
      "_populaire": 4388,
      "_salue": 4389,
      "_actuelle,": 4390,
      "_circonstances": 4391,
      "_gaz": 4392,
      "_Fin": 4393,
      "mission": 4394,
      "clusion": 4395,
      "_compagnies": 4396,
      "érité": 4397,
      "DE": 4398,
      "enons": 4399,
      "_Re": 4400,
      "osovo": 4401,
      "_l'ont": 4402,
      "_dipl": 4403,
      "_ressorti": 4404,
      "_l'attention": 4405,
      "_Pales": 4406,
      "_Kosovo": 4407,
      "_empêcher": 4408,
      "cupe": 4409,
      "_l'information": 4410,
      "_important.": 4411,
      "_idée": 4412,
      "_riches": 4413,
      "roître": 4414,
      "_s'en": 4415,
      "_accé": 4416,
      "mocra": 4417,
      "_consensus": 4418,
      "_ign": 4419,
      "_insta": 4420,
      "_examiner": 4421,
      "isent": 4422,
      "_politiques.": 4423,
      "_limite": 4424,
      "_structures": 4425,
      "_véritablement": 4426,
      "_routi": 4427,
      "_inte": 4428,
      "_débat.": 4429,
      "_mention": 4430,
      "_garanties": 4431,
      "_avancer": 4432,
      "_diminu": 4433,
      "tablir": 4434,
      "_pourrions": 4435,
      "chent": 4436,
      "_n'ai": 4437,
      "_progres": 4438,
      "usion": 4439,
      "_auront": 4440,
      "_estimons": 4441,
      "ron": 4442,
      "_neu": 4443,
      "_appréci": 4444,
      "_l'intégration": 4445,
      "el,": 4446,
      "_appar": 4447,
      "_budgétaires": 4448,
      "ribution": 4449,
      "let": 4450,
      "rière": 4451,
      "_faite": 4452,
      "_tout,": 4453,
      "_Malheure": 4454,
      "_Comment": 4455,
      "viron": 4456,
      "_constitution": 4457,
      "_consultation": 4458,
      "5,": 4459,
      "abri": 4460,
      "_commiss": 4461,
      "_atten": 4462,
      "_producteurs": 4463,
      "_Depuis": 4464,
      "_oublier": 4465,
      "aucra": 4466,
      "_PPE": 4467,
      "_sociale,": 4468,
      "_réserve": 4469,
      "_discrimination": 4470,
      "tique.": 4471,
      "_discours": 4472,
      "_fasse": 4473,
      "lions": 4474,
      "_campagne": 4475,
      "_future": 4476,
      "éti": 4477,
      "_minu": 4478,
      "_attendre": 4479,
      "_viens": 4480,
      "_profiter": 4481,
      "_Assemblée.": 4482,
      "_tabac": 4483,
      "bation": 4484,
      "_portant": 4485,
      "_(Le": 4486,
      "iles": 4487,
      "oncé": 4488,
      "_court": 4489,
      "_aurons": 4490,
      "_émissions": 4491,
      "_jusqu’": 4492,
      "_terroristes": 4493,
      "_soutenons": 4494,
      "_sociale.": 4495,
      "_parlementaires": 4496,
      "_servir": 4497,
      "_l'intention": 4498,
      "_frau": 4499,
      "_lois": 4500,
      "_acteurs": 4501,
      "_irlandais": 4502,
      "ttes": 4503,
      "_rendu": 4504,
      "_faites": 4505,
      "_chiffres": 4506,
      "_israéli": 4507,
      "_arm": 4508,
      "_maladies": 4509,
      "_l'Europe,": 4510,
      "_satisfais": 4511,
      "ociation": 4512,
      "_contexte,": 4513,
      "_législative": 4514,
      "_bureaucra": 4515,
      "_l'acc": 4516,
      "_famili": 4517,
      "_européennes.": 4518,
      "enhag": 4519,
      "ek": 4520,
      "_fins": 4521,
      "_compréh": 4522,
      "_élevé": 4523,
      "_principal": 4524,
      "_d'application": 4525,
      "augmentation": 4526,
      "_rév": 4527,
      "_logique": 4528,
      "_modern": 4529,
      "_déterminer": 4530,
      "_compétitivité": 4531,
      "ie.": 4532,
      "_citoyen": 4533,
      "_accorder": 4534,
      "_allem": 4535,
      "_Malheureusement,": 4536,
      "sbourg": 4537,
      "_information": 4538,
      "_obligations": 4539,
      "_lorsqu'il": 4540,
      "_concentrer": 4541,
      "_caractéris": 4542,
      "_cy": 4543,
      "-ils": 4544,
      "tions,": 4545,
      "_prêts": 4546,
      "_âg": 4547,
      "_limites": 4548,
      "_propri": 4549,
      "_juille": 4550,
      "_conclure": 4551,
      "_surtout,": 4552,
      "_eaux": 4553,
      "_test": 4554,
      "_encourage": 4555,
      "_représentent": 4556,
      "_Lorsque": 4557,
      "_Certains": 4558,
      "_adhésion": 4559,
      "_commune.": 4560,
      "_France": 4561,
      "_relation": 4562,
      "_quota": 4563,
      "_ban": 4564,
      "_affaire": 4565,
      "_approfondi": 4566,
      "enci": 4567,
      "itent": 4568,
      "_vision": 4569,
      "_témoi": 4570,
      "urait": 4571,
      "_renforc": 4572,
      "_puissions": 4573,
      "_souver": 4574,
      "elle,": 4575,
      "hicu": 4576,
      "anois": 4577,
      "_pêch": 4578,
      "_recommandations": 4579,
      "_Ky": 4580,
      "_16": 4581,
      "oum": 4582,
      "_faits": 4583,
      "_figu": 4584,
      "_dign": 4585,
      "_suivante": 4586,
      "_surveillance": 4587,
      "_plais": 4588,
      "_portug": 4589,
      "_internationales": 4590,
      "_suffit": 4591,
      "_petit": 4592,
      "_tous,": 4593,
      "enseig": 4594,
      "anges": 4595,
      "isté": 4596,
      "_porter": 4597,
      "_contraign": 4598,
      "_pacifi": 4599,
      "_bou": 4600,
      "_suit": 4601,
      "_mobil": 4602,
      "teurs.": 4603,
      "_cesse": 4604,
      "_reconnu": 4605,
      "_reconstruction": 4606,
      "_paquet": 4607,
      "_novembre": 4608,
      "ine.": 4609,
      "_monn": 4610,
      "_reti": 4611,
      "_véhicu": 4612,
      "_vas": 4613,
      "_S'": 4614,
      "_insister": 4615,
      "_mois,": 4616,
      "ception": 4617,
      "_reprises": 4618,
      "européen": 4619,
      "_exécu": 4620,
      "_apport": 4621,
      "_2,": 4622,
      "_humains": 4623,
      "_heures.": 4624,
      "_Patten": 4625,
      "_esprit": 4626,
      "5-00": 4627,
      "_réaction": 4628,
      "_groupe,": 4629,
      "_écologi": 4630,
      "_euros": 4631,
      "ève": 4632,
      "_préal": 4633,
      "_privil": 4634,
      "ativ": 4635,
      "z,": 4636,
      "_den": 4637,
      "_entendre": 4638,
      "_Stra": 4639,
      "_fédéra": 4640,
      "_inuti": 4641,
      "_compara": 4642,
      "énom": 4643,
      "_électora": 4644,
      "ique,": 4645,
      "_situations": 4646,
      "décision": 4647,
      "_citer": 4648,
      "_budgets": 4649,
      "_Cop": 4650,
      "_montré": 4651,
      "_diverses": 4652,
      "_supplémentaire": 4653,
      "_savez,": 4654,
      "_décharge": 4655,
      "3,": 4656,
      "_Barcel": 4657,
      "inze": 4658,
      "_parvenus": 4659,
      "_d’euros": 4660,
      "_arriver": 4661,
      "_relatifs": 4662,
      "là": 4663,
      "_comprends": 4664,
      "_d'abord,": 4665,
      "_ouverte": 4666,
      "be": 4667,
      "ourir": 4668,
      "_fonde": 4669,
      "_directive,": 4670,
      "ombe": 4671,
      "_via": 4672,
      "_phénom": 4673,
      "_pla": 4674,
      "_d’entre": 4675,
      "onnement": 4676,
      "_interventions": 4677,
      "dem": 4678,
      "_l’ins": 4679,
      "_install": 4680,
      "_stric": 4681,
      "_note": 4682,
      "_avantages": 4683,
      "_consommation": 4684,
      "_structurels": 4685,
      "_considéré": 4686,
      "_Ob": 4687,
      "_économique.": 4688,
      "_courage": 4689,
      "_consoli": 4690,
      "_terme,": 4691,
      "_Quant": 4692,
      "_combien": 4693,
      "_l'évolution": 4694,
      "_tort": 4695,
      "_résolutions": 4696,
      "_coût": 4697,
      "troi": 4698,
      "_marchandis": 4699,
      "_évolution": 4700,
      "_paie": 4701,
      "put": 4702,
      "_centre": 4703,
      "tures": 4704,
      "_progresser": 4705,
      "_préparation": 4706,
      "_Sa": 4707,
      "aliser": 4708,
      "formations": 4709,
      "_presse": 4710,
      "_contrôler": 4711,
      "_calendrier": 4712,
      "_lettre": 4713,
      "laud": 4714,
      "_somme": 4715,
      "_souci": 4716,
      "otidi": 4717,
      "_compens": 4718,
      "_destinés": 4719,
      "_codécision": 4720,
      "_éventu": 4721,
      "_Strasbourg": 4722,
      "_M. B": 4723,
      "_quotidi": 4724,
      "issait": 4725,
      "_eux-mêmes": 4726,
      "_faciliter": 4727,
      "_dirigeants": 4728,
      "_Copenhag": 4729,
      "oblig": 4730,
      "_écrit": 4731,
      "_envisag": 4732,
      "_ang": 4733,
      "_viande": 4734,
      "_proposition.": 4735,
      "_constitutionnel": 4736,
      "_capital": 4737,
      "_défic": 4738,
      "_multip": 4739,
      "mbre,": 4740,
      "ka": 4741,
      "_États-Unis.": 4742,
      "_technologies": 4743,
      "_heures": 4744,
      "_monétaire": 4745,
      "èces": 4746,
      "chec": 4747,
      "_différences": 4748,
      "_janvier": 4749,
      "_frapp": 4750,
      "_l'ar": 4751,
      "_enreg": 4752,
      "_ép": 4753,
      "_remarqu": 4754,
      "_d'aide": 4755,
      "_réalisés": 4756,
      "_étape": 4757,
      "_point.": 4758,
      "_espagnol": 4759,
      "_21": 4760,
      "_double": 4761,
      "_travaille": 4762,
      "_négociation": 4763,
      "_essentiellement": 4764,
      "té.": 4765,
      "_mots": 4766,
      "_Avec": 4767,
      "gie,": 4768,
      "_paraît": 4769,
      "_félicit": 4770,
      "_suscepti": 4771,
      "_réflexion": 4772,
      "8,": 4773,
      "_vaut": 4774,
      "_C5-0": 4775,
      "_vivre": 4776,
      "_statis": 4777,
      "_totale": 4778,
      "_profonde": 4779,
      "_danois": 4780,
      "_d'information": 4781,
      "_l'avis": 4782,
      "_iss": 4783,
      "_contient": 4784,
      "endrons": 4785,
      "ès,": 4786,
      "_également,": 4787,
      "_matières": 4788,
      "_sujet,": 4789,
      "_lancer": 4790,
      "_agricoles": 4791,
      "_hier": 4792,
      "acités": 4793,
      "_coord": 4794,
      "démocra": 4795,
      "_plein": 4796,
      "ala": 4797,
      "_bri": 4798,
      "_attirer": 4799,
      "_amélioration": 4800,
      "_culturelle": 4801,
      "_l'opinion": 4802,
      "_fabri": 4803,
      "_l’ad": 4804,
      "_bien,": 4805,
      "_femmes,": 4806,
      "_k": 4807,
      "ables,": 4808,
      "_occident": 4809,
      "tar": 4810,
      "_bar": 4811,
      "_collègue,": 4812,
      "_aujourd'hui.": 4813,
      "érée": 4814,
      "lement,": 4815,
      "_systé": 4816,
      "_extérieure": 4817,
      "_réalité,": 4818,
      "_réfléchir": 4819,
      "_idé": 4820,
      "gner": 4821,
      "_minorités": 4822,
      "_démocratie,": 4823,
      "_signaler": 4824,
      "_table": 4825,
      "_offre": 4826,
      "_irré": 4827,
      "_source": 4828,
      "tions.": 4829,
      "_annuel": 4830,
      "_êtes": 4831,
      "vés": 4832,
      "_tol": 4833,
      "ons-nous": 4834,
      "_femme": 4835,
      "_réunions": 4836,
      "_sentiment": 4837,
      "_Rapport": 4838,
      "_Tchét": 4839,
      "_mars": 4840,
      "appr": 4841,
      "_compte,": 4842,
      "_judiciaire": 4843,
      "quée": 4844,
      "_agences": 4845,
      "_recommandation": 4846,
      "_Déput": 4847,
      "_énergé": 4848,
      "ry": 4849,
      "_nour": 4850,
      "_cohérence": 4851,
      "-là": 4852,
      "0.": 4853,
      "agner": 4854,
      "fric": 4855,
      "_seuls": 4856,
      "_opinion": 4857,
      "_utilisation": 4858,
      "_langues": 4859,
      "ieu": 4860,
      "_durée": 4861,
      "hors": 4862,
      "pression": 4863,
      "_prosp": 4864,
      "_m'a": 4865,
      "_religi": 4866,
      "cin": 4867,
      "alistes": 4868,
      "_confrontés": 4869,
      "_correc": 4870,
      "_consommateurs,": 4871,
      "_professionnelle": 4872,
      "laudissements": 4873,
      "_l'encontre": 4874,
      "_l'eau": 4875,
      "_concrètes": 4876,
      "mérique": 4877,
      "_Tous": 4878,
      "aucun": 4879,
      "_ACP": 4880,
      "entrée": 4881,
      "use.": 4882,
      "_Sommet": 4883,
      " -,": 4884,
      "_n’ont": 4885,
      "_d’ass": 4886,
      "_CI": 4887,
      "_capacités": 4888,
      "_Bus": 4889,
      "_sort": 4890,
      "_vouloir": 4891,
      "_analyse": 4892,
      "ES": 4893,
      "ich": 4894,
      "_simil": 4895,
      "_négli": 4896,
      "cidents": 4897,
      "_ressortiss": 4898,
      "_fortement": 4899,
      "_laisse": 4900,
      "2,": 4901,
      "_d'améliorer": 4902,
      "tenus": 4903,
      "_soins": 4904,
      "_bâ": 4905,
      "_communautaire,": 4906,
      "_moyennes": 4907,
      "_modifications": 4908,
      "_envisage": 4909,
      "_immédiatement": 4910,
      "_destruction": 4911,
      "_vertu": 4912,
      "_II": 4913,
      "_trou": 4914,
      "_premières": 4915,
      "pérer": 4916,
      "_l'ONU": 4917,
      "_constate": 4918,
      "_voulu": 4919,
      "_secrét": 4920,
      "_scientifique": 4921,
      "_opérationne": 4922,
      "amp": 4923,
      "_trouvent": 4924,
      "_concre": 4925,
      "_militaires": 4926,
      "_celles-ci": 4927,
      "_Chine": 4928,
      "_d'asile": 4929,
      "_poids": 4930,
      "_dernière,": 4931,
      "_faibles": 4932,
      "-ce": 4933,
      "_l'ass": 4934,
      "_d'ici": 4935,
      "_plain": 4936,
      "_Roum": 4937,
      "_moiti": 4938,
      "_l'UE,": 4939,
      "_préoccupation": 4940,
      "emplois": 4941,
      "_obje": 4942,
      "_octobre": 4943,
      "ffaires": 4944,
      "_violation": 4945,
      "ouvre": 4946,
      "_auxquelles": 4947,
      "_l’accord": 4948,
      "agin": 4949,
      "uler": 4950,
      "_menac": 4951,
      "_organisation": 4952,
      "_globale": 4953,
      "_d'al": 4954,
      "alisme": 4955,
      "_acceptable": 4956,
      "_mérit": 4957,
      "_l'une": 4958,
      "_tous.": 4959,
      "_voisins": 4960,
      "ux,": 4961,
      "_entrer": 4962,
      "_Pays-B": 4963,
      "_pous": 4964,
      "og": 4965,
      "voi": 4966,
      "oppos": 4967,
      "_fonctionne": 4968,
      "_préparer": 4969,
      "_jour.": 4970,
      "_n’y": 4971,
      "_l'homme.": 4972,
      "_idées": 4973,
      "_conduite": 4974,
      "_erreur": 4975,
      "_Députés,": 4976,
      "_supprimer": 4977,
      "_nécessaire.": 4978,
      "_sti": 4979,
      "_reflè": 4980,
      "identi": 4981,
      "_condamn": 4982,
      "_radic": 4983,
      "ére": 4984,
      "_conjoin": 4985,
      "_réelle": 4986,
      "ique.": 4987,
      "_rapporteurs": 4988,
      "_tenter": 4989,
      "_domaine,": 4990,
      "_consommateurs.": 4991,
      "_attendons": 4992,
      "lais": 4993,
      "onom": 4994,
      "_région.": 4995,
      "_humaine": 4996,
      "_fil": 4997,
      "_dic": 4998,
      "ains": 4999,
      "_chang": 5000,
      "venue": 5001,
      "_amélior": 5002,
      "_favoriser": 5003,
      "M(": 5004,
      "_l'action": 5005,
      "_mesur": 5006,
      "_pêche,": 5007,
      "_revenus": 5008,
      "_liv": 5009,
      "_Troisièmement,": 5010,
      "_prud": 5011,
      "_situation.": 5012,
      "_réponses": 5013,
      "_humanitaire": 5014,
      "émi": 5015,
      "_investi": 5016,
      "_changer": 5017,
      "_concernent": 5018,
      "_réduit": 5019,
      "_étude": 5020,
      "_catastrophe": 5021,
      "affir": 5022,
      "oyons": 5023,
      "_revient": 5024,
      "_l’oc": 5025,
      "_bien-être": 5026,
      "_analys": 5027,
      "AF": 5028,
      "ens.": 5029,
      "vie": 5030,
      "_car,": 5031,
      "_201": 5032,
      "inter": 5033,
      "_sens.": 5034,
      "ban": 5035,
      "ps": 5036,
      "_déposé": 5037,
      "ctrices": 5038,
      "oul": 5039,
      "_ache": 5040,
      "_soit,": 5041,
      "ton": 5042,
      "enn": 5043,
      "terdam": 5044,
      "_évalu": 5045,
      "_terrorisme,": 5046,
      "_d'I": 5047,
      "_Mac": 5048,
      "_B5-0": 5049,
      "_considérable": 5050,
      "_entraîner": 5051,
      "_habit": 5052,
      "orient": 5053,
      "_continent": 5054,
      "_suppression": 5055,
      "_voisin": 5056,
      "_Kyot": 5057,
      "_passag": 5058,
      "_injus": 5059,
      "_adopte": 5060,
      "animité": 5061,
      "_combattre": 5062,
      "va": 5063,
      "_produire": 5064,
      "_commune,": 5065,
      "çant": 5066,
      "_cas.": 5067,
      "toire": 5068,
      "_danger": 5069,
      "_trait": 5070,
      "_euro": 5071,
      "_d'éviter": 5072,
      "uis": 5073,
      "_homm": 5074,
      "_répéter": 5075,
      "_matière.": 5076,
      "_proposition,": 5077,
      "_fonctionnaires": 5078,
      "_tandis": 5079,
      "_l'absence": 5080,
      "_Peu": 5081,
      "_sud": 5082,
      "ganisation": 5083,
      "_défend": 5084,
      "poque": 5085,
      "_Rom": 5086,
      "_terrorisme.": 5087,
      "_pollution": 5088,
      "_exactement": 5089,
      "_méditerranéen": 5090,
      "_poursuite": 5091,
      "_portée": 5092,
      "_meilleures": 5093,
      "_Traités": 5094,
      "_potentiel": 5095,
      "_reprise": 5096,
      "val": 5097,
      "antes.": 5098,
      "institu": 5099,
      "_intégr": 5100,
      "_maritime": 5101,
      "_reç": 5102,
      "_si,": 5103,
      "_s'av": 5104,
      "_perdu": 5105,
      "_autour": 5106,
      "_règle": 5107,
      "_pouvait": 5108,
      "_Tchétché": 5109,
      "_export": 5110,
      "_prior": 5111,
      "_scientifiques": 5112,
      "_personnellement": 5113,
      "_l'aff": 5114,
      "exprimer": 5115,
      "_ving": 5116,
      "res,": 5117,
      "_acte": 5118,
      "_transit": 5119,
      "_européennes,": 5120,
      "dation": 5121,
      "orie": 5122,
      "_lien": 5123,
      "_démocrates": 5124,
      "_financer": 5125,
      "_prison": 5126,
      "COM(": 5127,
      "erb": 5128,
      "_préserver": 5129,
      "_prot": 5130,
      "_intervenir": 5131,
      "iller": 5132,
      "_paix,": 5133,
      "_langue": 5134,
      "_lac": 5135,
      "_bilatéra": 5136,
      "_essentielle": 5137,
      "_l'environnement.": 5138,
      "oser": 5139,
      "_J’espère": 5140,
      "_tribun": 5141,
      "_Mais,": 5142,
      "_fondamentales": 5143,
      "_majeur": 5144,
      "_thèmes": 5145,
      "mation": 5146,
      "_chômage": 5147,
      "ments.": 5148,
      "_sorti": 5149,
      "anci": 5150,
      "ulg": 5151,
      "_immigr": 5152,
      "_n'était": 5153,
      "_gouvern": 5154,
      "_actuelles": 5155,
      "_activité": 5156,
      "_substanti": 5157,
      "_moitié": 5158,
      "_relativement": 5159,
      "atrième": 5160,
      "_restent": 5161,
      "_l'efficacité": 5162,
      "_détaill": 5163,
      "_scand": 5164,
      "_compter": 5165,
      "_donc,": 5166,
      "_internationale.": 5167,
      "_général,": 5168,
      "inions": 5169,
      "_accr": 5170,
      "_problé": 5171,
      "_ONG": 5172,
      "_répond": 5173,
      "as,": 5174,
      "_commissions": 5175,
      "_opérations": 5176,
      "_irak": 5177,
      "tension": 5178,
      "_intégré": 5179,
      "_permettent": 5180,
      "_conséquence": 5181,
      "_capable": 5182,
      "oth": 5183,
      "_relever": 5184,
      "ennes": 5185,
      "once": 5186,
      "_quels": 5187,
      "_connaître": 5188,
      "_entreprises,": 5189,
      "_.-": 5190,
      "mise": 5191,
      "_lic": 5192,
      "_temporai": 5193,
      "_liberté,": 5194,
      "_augmenter": 5195,
      "obligation": 5196,
      "mo": 5197,
      "onorable": 5198,
      "_obligatoire": 5199,
      "_cland": 5200,
      "_utilisé": 5201,
      "_fixer": 5202,
      "_plaisir": 5203,
      "_thé": 5204,
      "_vous,": 5205,
      "_législa": 5206,
      "_crédibilité": 5207,
      "_vieil": 5208,
      "_fru": 5209,
      "ow": 5210,
      "_connaît": 5211,
      "atifs": 5212,
      "_imposer": 5213,
      "_mécanisme": 5214,
      "gée": 5215,
      "sie": 5216,
      "_relève": 5217,
      "_croy": 5218,
      "_amen": 5219,
      "utiliser": 5220,
      "_violations": 5221,
      "_faible": 5222,
      "y,": 5223,
      "_l'énergie": 5224,
      "_entreprise": 5225,
      "_croire": 5226,
      "_40": 5227,
      "ms": 5228,
      "_content": 5229,
      "_marge": 5230,
      "_garder": 5231,
      "_obser": 5232,
      "_chapit": 5233,
      "_ru": 5234,
      "_d’ac": 5235,
      "_dehors": 5236,
      "in,": 5237,
      "_seconde": 5238,
      "gagement": 5239,
      "endrait": 5240,
      "aminer": 5241,
      "périence": 5242,
      "_préju": 5243,
      "_moment,": 5244,
      "_Dan": 5245,
      "ule": 5246,
      "_visi": 5247,
      "fié": 5248,
      "aï": 5249,
      "use,": 5250,
      "cessi": 5251,
      "merais": 5252,
      "_qu’à": 5253,
      "_ratification": 5254,
      "_d'E": 5255,
      "_conver": 5256,
      "_intergouvernementale": 5257,
      "_tôt": 5258,
      "change": 5259,
      "_approuver": 5260,
      "_entreprises.": 5261,
      "_génétique": 5262,
      "ploitation": 5263,
      "_red": 5264,
      "_débattre": 5265,
      "aliment": 5266,
      "_règlement,": 5267,
      "_règlement.": 5268,
      "qués": 5269,
      "_Cub": 5270,
      "latéra": 5271,
      "_aér": 5272,
      "urent": 5273,
      "(CO": 5274,
      "ersonne": 5275,
      "_prépar": 5276,
      "ancement": 5277,
      "_introduit": 5278,
      "hni": 5279,
      "entra": 5280,
      "_quinze": 5281,
      "_propor": 5282,
      "_plénière": 5283,
      "_feu": 5284,
      "_sauve": 5285,
      "_l’ob": 5286,
      "_dépit": 5287,
      "_étrangères,": 5288,
      "demn": 5289,
      "auche": 5290,
      "_efficacité": 5291,
      "_préciser": 5292,
      "_octroy": 5293,
      "_fré": 5294,
      "_vite": 5295,
      "chant": 5296,
      "_avril": 5297,
      "_ressort": 5298,
      "_Aujourd'hui,": 5299,
      "armonisation": 5300,
      "_prol": 5301,
      "_adoptées": 5302,
      "_l’article": 5303,
      "_l'espace": 5304,
      "_origin": 5305,
      "20": 5306,
      "_parallè": 5307,
      "_sûre": 5308,
      "GM": 5309,
      "reur": 5310,
      "_end": 5311,
      "_commissaires": 5312,
      "har": 5313,
      "économ": 5314,
      "_qu’en": 5315,
      "_garde": 5316,
      "_organismes": 5317,
      "_essentiels": 5318,
      "_équilibré": 5319,
      "_l'argent": 5320,
      "_motion": 5321,
      "_travaillé": 5322,
      "_marché.": 5323,
      "_urgent": 5324,
      "org": 5325,
      "_l'amélioration": 5326,
      "se.": 5327,
      "/2001)": 5328,
      "commun": 5329,
      "imb": 5330,
      "_l’emploi": 5331,
      "_Es": 5332,
      "jourd’hui": 5333,
      "_internationaux": 5334,
      "tie": 5335,
      "_néer": 5336,
      "_contribué": 5337,
      "_beaucoup,": 5338,
      "ana": 5339,
      "_élargissement": 5340,
      "lité": 5341,
      "_lin": 5342,
      "_accus": 5343,
      "_2003,": 5344,
      "_semblent": 5345,
      "_réel": 5346,
      "ux.": 5347,
      "_24": 5348,
      "_2000,": 5349,
      "_2001,": 5350,
      "_dette": 5351,
      "empê": 5352,
      "_satisfaction": 5353,
      "_frais": 5354,
      "_mauvaise": 5355,
      "_italienne": 5356,
      "_proc": 5357,
      "_directrices": 5358,
      "_espoir": 5359,
      "_alimentaires": 5360,
      "ordi": 5361,
      "rich": 5362,
      "_chale": 5363,
      "_qu’elles": 5364,
      "_cur": 5365,
      "_couver": 5366,
      "_fig": 5367,
      "_interne": 5368,
      "_revêt": 5369,
      "_monnaie": 5370,
      "_considérons": 5371,
      "_problème,": 5372,
      "_péti": 5373,
      "ination": 5374,
      "_élimin": 5375,
      "_criti": 5376,
      "_destinées": 5377,
      "_l’environnement": 5378,
      "_dét": 5379,
      "ollar": 5380,
      "_stratégique": 5381,
      "_indépendant": 5382,
      "amb": 5383,
      "_int": 5384,
      "_PM": 5385,
      "_Th": 5386,
      "_présentée": 5387,
      "f,": 5388,
      "_proposée": 5389,
      "_auraient": 5390,
      "_comprend": 5391,
      "_fermement": 5392,
      " mil": 5393,
      "_final": 5394,
      "_départ": 5395,
      "_remarquer": 5396,
      "_réclam": 5397,
      "_l'avenir.": 5398,
      "_recevoir": 5399,
      "tiques.": 5400,
      "entiel": 5401,
      "_n’av": 5402,
      "_semaines": 5403,
      "_conciliation": 5404,
      "_enfin,": 5405,
      "_l’adhésion": 5406,
      "_utilisés": 5407,
      "tteindre": 5408,
      "_salu": 5409,
      "_intention": 5410,
      "_Plus": 5411,
      "_Ens": 5412,
      "_sév": 5413,
      "effort": 5414,
      "tur": 5415,
      "oport": 5416,
      "_différence": 5417,
      "_petite": 5418,
      "_identi": 5419,
      "_arrive": 5420,
      "_diplomati": 5421,
      "_multilatéra": 5422,
      "_a,": 5423,
      "_apparti": 5424,
      "_questions.": 5425,
      "_Aussi": 5426,
      "_générales": 5427,
      "_espère": 5428,
      "_conclure,": 5429,
      "_Étant": 5430,
      "_habitu": 5431,
      "_commission,": 5432,
      "dépend": 5433,
      "_bient": 5434,
      "_Sol": 5435,
      "_résolution,": 5436,
      "_nécessaire,": 5437,
      "krain": 5438,
      "_don": 5439,
      "_conduit": 5440,
      "_évoqué": 5441,
      "_nord": 5442,
      "_Jo": 5443,
      "_temps.": 5444,
      "_complètement": 5445,
      "/CE": 5446,
      "_sources": 5447,
      "_régimes": 5448,
      "_international.": 5449,
      "_pêche.": 5450,
      "_légitim": 5451,
      "_assumer": 5452,
      "_majeure": 5453,
      "_termes,": 5454,
      "_déploy": 5455,
      "_répartition": 5456,
      "_d'adhésion": 5457,
      "_directe": 5458,
      "_Ver": 5459,
      "_principales": 5460,
      "_chimi": 5461,
      "_serons": 5462,
      "_interinstitu": 5463,
      "_(E": 5464,
      "_santé,": 5465,
      "_complète": 5466,
      "_ambitieux": 5467,
      "bit": 5468,
      "_demi": 5469,
      "_payer": 5470,
      "rganisation": 5471,
      "endi": 5472,
      "di,": 5473,
      "ications": 5474,
      "_visite": 5475,
      "_femmes.": 5476,
      "_sérieusement": 5477,
      "H-": 5478,
      "_nº": 5479,
      "_prest": 5480,
      "_environ": 5481,
      "_acquis": 5482,
      "_code": 5483,
      "_l'élaboration": 5484,
      "iez": 5485,
      "paravant": 5486,
      "quant": 5487,
      "isme,": 5488,
      "_l'introduction": 5489,
      "_indiqué": 5490,
      "_paix.": 5491,
      "_soup": 5492,
      "_ressortissants": 5493,
      "ber": 5494,
      "_révé": 5495,
      "_médiateur": 5496,
      "_étroite": 5497,
      "imbab": 5498,
      "_l’op": 5499,
      "_salari": 5500,
      "gés": 5501,
      "_l'au": 5502,
      "lée": 5503,
      "_(App": 5504,
      "_britannique": 5505,
      "gie.": 5506,
      "tine": 5507,
      "_convenu": 5508,
      "_règlements": 5509,
      "_missions": 5510,
      "_2002,": 5511,
      "_expérience": 5512,
      "_contac": 5513,
      "_impact": 5514,
      "_D’": 5515,
      "_s’il": 5516,
      "_regard": 5517,
      "_obstacles": 5518,
      "_dépass": 5519,
      "landaise": 5520,
      "_tentative": 5521,
      "_correctement": 5522,
      "_mobilité": 5523,
      "_interdiction": 5524,
      "_terme.": 5525,
      "_aurions": 5526,
      "_souveraine": 5527,
      "_êtres": 5528,
      "tiques,": 5529,
      "_J'estime": 5530,
      "_minimum": 5531,
      "_transi": 5532,
      "_rent": 5533,
      "_améric": 5534,
      "_mentionné": 5535,
      "_(Applaudissements": 5536,
      "_(H-": 5537,
      "_fondée": 5538,
      "_extraordin": 5539,
      "_fév": 5540,
      "tables": 5541,
      "mpleur": 5542,
      "_Sans": 5543,
      "_monop": 5544,
      "_conscients": 5545,
      "_tâches": 5546,
      "_entrepr": 5547,
      "née": 5548,
      "_souhaitent": 5549,
      "_trouvé": 5550,
      "_Chypre": 5551,
      "_allemand": 5552,
      "199": 5553,
      "_plac": 5554,
      "ath": 5555,
      "_opinions": 5556,
      "_structurel": 5557,
      "_l'avenir,": 5558,
      "_Objet": 5559,
      "_Col": 5560,
      "_types": 5561,
      "vestissement": 5562,
      "LAF": 5563,
      "_cé": 5564,
      "_l’État": 5565,
      "_d'op": 5566,
      "_commentaires": 5567,
      "_formuler": 5568,
      "_l'élargissement.": 5569,
      "isant": 5570,
      "_précise": 5571,
      "_concitoy": 5572,
      "_Gali": 5573,
      "_respecte": 5574,
      "_commencé": 5575,
      "_inquiétudes": 5576,
      "_soumettre": 5577,
      "accepter": 5578,
      "jouter": 5579,
      "_pleine": 5580,
      "tic": 5581,
      "_lorsqu’": 5582,
      "_Peut-": 5583,
      "-f": 5584,
      "_rési": 5585,
      "_géograph": 5586,
      "ologne": 5587,
      "_durable.": 5588,
      "_puisqu'": 5589,
      "_Lisbonne,": 5590,
      "_année.": 5591,
      "assin": 5592,
      "-président": 5593,
      "ombre": 5594,
      "_j'estime": 5595,
      "_stade": 5596,
      "_juillet": 5597,
      "_véhicules": 5598,
      "_envisager": 5599,
      "_duquel": 5600,
      "_bout": 5601,
      "_visent": 5602,
      "_haute": 5603,
      "_d’action": 5604,
      "_pourquoi,": 5605,
      "grou": 5606,
      "_facteur": 5607,
      "_côté,": 5608,
      "_Ensuite,": 5609,
      "conque": 5610,
      "_cela.": 5611,
      "_établis": 5612,
      "_Pourtant,": 5613,
      "_dignité": 5614,
      "cy": 5615,
      "ki": 5616,
      "_prévue": 5617,
      "_reprodu": 5618,
      "_économies": 5619,
      "_capables": 5620,
      "_adéqua": 5621,
      "_d'adopter": 5622,
      "mont": 5623,
      "_tomb": 5624,
      "noc": 5625,
      "où": 5626,
      "_conventions": 5627,
      "S)": 5628,
      "_rub": 5629,
      "États": 5630,
      "_proposés": 5631,
      "_communautés": 5632,
      "_chaî": 5633,
      "_raison,": 5634,
      "_l'im": 5635,
      "_l’aide": 5636,
      "_principale": 5637,
      "phéri": 5638,
      "_l'appro": 5639,
      "matiques": 5640,
      "_pêcheurs": 5641,
      "1)": 5642,
      "_afric": 5643,
      "_perdre": 5644,
      "_inscrit": 5645,
      "_premiers": 5646,
      "_Commissaire.": 5647,
      "_l'In": 5648,
      "_France,": 5649,
      "_organes": 5650,
      "_plaf": 5651,
      "_Laek": 5652,
      "_industrie": 5653,
      "_nucléaire": 5654,
      "_phénomène": 5655,
      "_CE": 5656,
      "_actuels": 5657,
      "_joue": 5658,
      "_vaste": 5659,
      "_rubri": 5660,
      "_est-il": 5661,
      "_intégration": 5662,
      "utorité": 5663,
      "_\"p": 5664,
      "verb": 5665,
      "_pénale": 5666,
      "_bâti": 5667,
      "_dérog": 5668,
      "orations": 5669,
      "_après-": 5670,
      "_égard.": 5671,
      "_textes": 5672,
      "enseignement": 5673,
      "ères.": 5674,
      "emar": 5675,
      "_sépar": 5676,
      "_climat": 5677,
      "_bientôt": 5678,
      "_audi": 5679,
      "_régler": 5680,
      "_stocks": 5681,
      "_flotte": 5682,
      "vons": 5683,
      "_viennent": 5684,
      "_exc": 5685,
      "_l'état": 5686,
      "_aliments": 5687,
      "_ouvert": 5688,
      "_pensions": 5689,
      "_dommages": 5690,
      "_systématique": 5691,
      "_tellement": 5692,
      "_décid": 5693,
      "_locales": 5694,
      "_études": 5695,
      "_fonctionner": 5696,
      "_ports": 5697,
      "/2003": 5698,
      "_l’importance": 5699,
      "1,": 5700,
      "_résid": 5701,
      "_aband": 5702,
      "_reprendre": 5703,
      "_garantiss": 5704,
      "_susp": 5705,
      "_plani": 5706,
      "_l'évaluation": 5707,
      "_pouve": 5708,
      "_d'Europe": 5709,
      "_d'emploi": 5710,
      "quement": 5711,
      "_allou": 5712,
      "_tendance": 5713,
      "_déficit": 5714,
      "_contre,": 5715,
      "_num": 5716,
      "_l’ac": 5717,
      "_Jus": 5718,
      "_générale,": 5719,
      "_essentielles": 5720,
      "_Bush": 5721,
      "_compati": 5722,
      "_d'inf": 5723,
      "_Turquie,": 5724,
      "_installations": 5725,
      "uxemb": 5726,
      "_offrir": 5727,
      "_économiques,": 5728,
      "_maladie": 5729,
      "_regrettable": 5730,
      "_paro": 5731,
      "pement": 5732,
      "_préoc": 5733,
      "_alli": 5734,
      "_lancé": 5735,
      "urance": 5736,
      "_gérer": 5737,
      "_institution": 5738,
      "_partout": 5739,
      "_Quel": 5740,
      "bilisation": 5741,
      "_Comité": 5742,
      "_quotas": 5743,
      "_Danemar": 5744,
      "erai": 5745,
      "_prévenir": 5746,
      "_concernés": 5747,
      "COM(200": 5748,
      "dité": 5749,
      "_stim": 5750,
      "_Irlande": 5751,
      "_déclarer": 5752,
      "_figure": 5753,
      "_100": 5754,
      "-verb": 5755,
      "_éco": 5756,
      "tront": 5757,
      "_diss": 5758,
      "_vivent": 5759,
      "_unies,": 5760,
      "_extérieures": 5761,
      "_n'existe": 5762,
      "is.": 5763,
      "_excell": 5764,
      "_procès-verb": 5765,
      "atlan": 5766,
      "_souha": 5767,
      "_vert": 5768,
      "_concurrence.": 5769,
      "_revan": 5770,
      "_turc": 5771,
      "olue": 5772,
      "_menée": 5773,
      "DA": 5774,
      "gos": 5775,
      "_MM.": 5776,
      "_Gen": 5777,
      "_Scheng": 5778,
      "_Suède": 5779,
      "_prennent": 5780,
      "_Méditerran": 5781,
      "_liée": 5782,
      "_fondamentale": 5783,
      "_fixé": 5784,
      "_renouvel": 5785,
      "_l’Europe.": 5786,
      "ente.": 5787,
      "_l'organisation": 5788,
      "_construire": 5789,
      "tiquetage": 5790,
      "_s'a": 5791,
      "_territoires": 5792,
      "uration": 5793,
      "asser": 5794,
      "_démocratie.": 5795,
      "_global": 5796,
      "_conclusion,": 5797,
      "_ethni": 5798,
      "_touche": 5799,
      "guis": 5800,
      "_environnementale": 5801,
      "_demain,": 5802,
      "_efficacement": 5803,
      "_1999,": 5804,
      "_vacc": 5805,
      "_élu": 5806,
      "_s'ils": 5807,
      "_198": 5808,
      "_provenant": 5809,
      "_Avant": 5810,
      "_expliqu": 5811,
      "_internationale,": 5812,
      "_institutionnel": 5813,
      "_disposent": 5814,
      "_conserver": 5815,
      "_syndi": 5816,
      "mul": 5817,
      "_mode": 5818,
      "_s'ins": 5819,
      "lérer": 5820,
      "_d'établir": 5821,
      "_débou": 5822,
      "_l'OTAN": 5823,
      "_abordé": 5824,
      "_Malgré": 5825,
      "_sauveg": 5826,
      "arités": 5827,
      "_23": 5828,
      "_permettrait": 5829,
      "_restru": 5830,
      "_concrète": 5831,
      "_profondé": 5832,
      "_d’avoir": 5833,
      "orisation": 5834,
      "lez": 5835,
      "_l'engagement": 5836,
      "_d'assurer": 5837,
      "_Zimbab": 5838,
      "_chaleure": 5839,
      "_éché": 5840,
      "_diverg": 5841,
      "_jusqu’à": 5842,
      "èvement": 5843,
      "esse": 5844,
      "_Sad": 5845,
      "_menées": 5846,
      "_montrent": 5847,
      "_réglementations": 5848,
      "_échanges": 5849,
      "_restrictions": 5850,
      "_problèmes.": 5851,
      "_chef": 5852,
      "lation": 5853,
      "_vari": 5854,
      "_télévision": 5855,
      "_évidence": 5856,
      "_CIG": 5857,
      "uad": 5858,
      "_tari": 5859,
      "urant": 5860,
      "_énorme": 5861,
      "ck": 5862,
      "res.": 5863,
      "_rappro": 5864,
      "_vivement": 5865,
      "_droit,": 5866,
      "_phy": 5867,
      "_socialiste": 5868,
      "_intérieur.": 5869,
      "_favorables": 5870,
      "_Saddam": 5871,
      "_Ceux": 5872,
      "_nous.": 5873,
      "_Lam": 5874,
      "_bases": 5875,
      "_pratiquement": 5876,
      "_mentionner": 5877,
      "odi": 5878,
      "_lon": 5879,
      "_modes": 5880,
      "_bate": 5881,
      "_mois.": 5882,
      "_facteurs": 5883,
      "_considérablement": 5884,
      "_orateurs": 5885,
      "_primordi": 5886,
      "_sincèrement": 5887,
      "_reven": 5888,
      "_certes": 5889,
      "_votes": 5890,
      "_Verts": 5891,
      "_déclare": 5892,
      "_technologie": 5893,
      "_réserves": 5894,
      "ctric": 5895,
      "_continuent": 5896,
      "isch": 5897,
      "aider": 5898,
      "gue,": 5899,
      "_s'y": 5900,
      "_permette": 5901,
      "_autom": 5902,
      "_région,": 5903,
      "-ch": 5904,
      "ougos": 5905,
      "_réperc": 5906,
      "llement,": 5907,
      "_commerciales": 5908,
      "_retraite": 5909,
      "_répercus": 5910,
      "nes,": 5911,
      "toires": 5912,
      "_sang": 5913,
      "_Allemagne": 5914,
      "_s'imp": 5915,
      "_vote.": 5916,
      "_familles": 5917,
      "_ayons": 5918,
      "-je": 5919,
      "onneur": 5920,
      "ères,": 5921,
      "_expliquer": 5922,
      "_introduire": 5923,
      "_l'euro": 5924,
      "_brièvement": 5925,
      "_l’heure": 5926,
      "_causes": 5927,
      "_marché,": 5928,
      "_régionale": 5929,
      "lair": 5930,
      "lection": 5931,
      "_dirais": 5932,
      "_pense,": 5933,
      "_prévoir": 5934,
      "_définitive": 5935,
      "_fraude": 5936,
      "_Est-": 5937,
      "ènes": 5938,
      "raine": 5939,
      "_Gö": 5940,
      "_3,": 5941,
      "_marchandises": 5942,
      "_remettre": 5943,
      "_rejoin": 5944,
      "_l’année": 5945,
      "_interpré": 5946,
      "_présents": 5947,
      "iture": 5948,
      "_saluer": 5949,
      "_apparaît": 5950,
      "_examen": 5951,
      "léter": 5952,
      "_séjour": 5953,
      "_trouvons": 5954,
      "_pétroli": 5955,
      "_l’objet": 5956,
      "_l'augmentation": 5957,
      "aliste": 5958,
      "_2005": 5959,
      "_PPE-": 5960,
      "inv": 5961,
      "_d’A": 5962,
      "_présidents": 5963,
      "_juridique.": 5964,
      "_incomp": 5965,
      "_rejeter": 5966,
      "hér": 5967,
      "alement,": 5968,
      "_meur": 5969,
      "ores": 5970,
      "_décen": 5971,
      "_facile": 5972,
      "-200": 5973,
      "_clé": 5974,
      "_transmis": 5975,
      "_derrière": 5976,
      "_nationaux.": 5977,
      "_J'en": 5978,
      "_2003.": 5979,
      "_[": 5980,
      "outes": 5981,
      "_illus": 5982,
      "_infrastructures": 5983,
      "_tu": 5984,
      "endront": 5985,
      "mid": 5986,
      "_autres.": 5987,
      "_détermination": 5988,
      "_portugais": 5989,
      "_devient": 5990,
      "_l'avons": 5991,
      "_cellu": 5992,
      "_imm": 5993,
      "_joué": 5994,
      "_Américain": 5995,
      "reta": 5996,
      "_d’imp": 5997,
      "_Afghanistan": 5998,
      "_meilleurs": 5999,
      "_Lisbonne.": 6000,
      "_bloc": 6001,
      "_j'en": 6002,
      "_débattu": 6003,
      "_mené": 6004,
      "_unies.": 6005,
      "crire": 6006,
      "oubli": 6007,
      "_outi": 6008,
      "_régionale,": 6009,
      "_structurelles": 6010,
      "_existent": 6011,
      "_affirm": 6012,
      "_Grande": 6013,
      "_ferroviaire": 6014,
      "_(H-0": 6015,
      "bi": 6016,
      "èvre": 6017,
      "_vig": 6018,
      "_l'exercice": 6019,
      "_reconnaît": 6020,
      "_connaissons": 6021,
      "_confirmer": 6022,
      "_maximum": 6023,
      "_accrue": 6024,
      "kistan": 6025,
      "_l'ouverture": 6026,
      "_clar": 6027,
      "_intérieures": 6028,
      "retagne": 6029,
      "_présentation": 6030,
      "_passé,": 6031,
      "_ami": 6032,
      "an,": 6033,
      "_tiers.": 6034,
      "_supérieur": 6035,
      "_Itali": 6036,
      "_vice": 6037,
      "_l'histoire": 6038,
      "_transfert": 6039,
      "_affirmer": 6040,
      "_légitime": 6041,
      "_intégrer": 6042,
      "_dollar": 6043,
      "_recherche,": 6044,
      "_intérieur,": 6045,
      "_2004.": 6046,
      "_demeure": 6047,
      "kraine": 6048,
      "tabilité": 6049,
      "_informer": 6050,
      "_transatlan": 6051,
      "_prati": 6052,
      "_constructive": 6053,
      "_voud": 6054,
      "lusion": 6055,
      "_précau": 6056,
      "_Palestini": 6057,
      "_patri": 6058,
      "_plus.": 6059,
      "gement": 6060,
      "_22": 6061,
      "_international,": 6062,
      "_incont": 6063,
      "_public.": 6064,
      "_sil": 6065,
      "_bat": 6066,
      "_tenue": 6067,
      "ents.": 6068,
      "_auparavant": 6069,
      "_l’égard": 6070,
      "_chercher": 6071,
      "_équipe": 6072,
      "_choisir": 6073,
      "SE": 6074,
      "éro": 6075,
      "_pension": 6076,
      "_venu": 6077,
      "_concurrence,": 6078,
      "_invite": 6079,
      "_arguments": 6080,
      "_reflète": 6081,
      "_prisonni": 6082,
      "_d'acc": 6083,
      "mbler": 6084,
      "_milieu": 6085,
      "_Gu": 6086,
      "pule": 6087,
      "aucune": 6088,
      "_irakien": 6089,
      "dat": 6090,
      "_prête": 6091,
      "_forum": 6092,
      "_citoyenne": 6093,
      "dustrie,": 6094,
      "_1998": 6095,
      "_l'interdiction": 6096,
      "_Genève": 6097,
      "_cab": 6098,
      "_juridique,": 6099,
      "_terminer,": 6100,
      "_Merci,": 6101,
      "_repose": 6102,
      "_d'autant": 6103,
      "_l'accent": 6104,
      "ège": 6105,
      "_lié": 6106,
      "_autorité": 6107,
      "_contribue": 6108,
      "_corps": 6109,
      "_tourisme": 6110,
      "_PAC": 6111,
      "_ensemble.": 6112,
      "_clause": 6113,
      "_exercer": 6114,
      "_profondément": 6115,
      "_gros": 6116,
      "_minis": 6117,
      "_d'informations": 6118,
      "_cultures": 6119,
      "_importante.": 6120,
      "_l’UE.": 6121,
      "_Personne": 6122,
      "_mains": 6123,
      "_incl": 6124,
      "_disponibles": 6125,
      "_diminution": 6126,
      "_restructur": 6127,
      "èse": 6128,
      "_l'intérieur": 6129,
      "_proposées": 6130,
      "_inféri": 6131,
      "_d'urgence": 6132,
      "_incon": 6133,
      "_d’ad": 6134,
      "_désire": 6135,
      "_personnes,": 6136,
      "ternet": 6137,
      "_distinction": 6138,
      "-par": 6139,
      "oh": 6140,
      "_soyons": 6141,
      "_ax": 6142,
      "erti": 6143,
      "_bal": 6144,
      "_réagir": 6145,
      "_courant": 6146,
      "_d'obtenir": 6147,
      "_répercussions": 6148,
      "_a-t-il": 6149,
      "_nations": 6150,
      "_fièvre": 6151,
      "_régionales": 6152,
      "_incombe": 6153,
      "_X": 6154,
      "_détri": 6155,
      "_retirer": 6156,
      "_gouverne": 6157,
      "_centaines": 6158,
      "_retraités": 6159,
      "borg": 6160,
      "pul": 6161,
      "_Européens": 6162,
      "_équitable": 6163,
      "_unilatéra": 6164,
      "_travaillent": 6165,
      "_adresser": 6166,
      "_activement": 6167,
      "_rapporteur.": 6168,
      "_considérables": 6169,
      "_prolong": 6170,
      "ce,": 6171,
      "atoires": 6172,
      "guer": 6173,
      "_aph": 6174,
      "_requi": 6175,
      "_nette": 6176,
      "_Nos": 6177,
      "_programme-cadre": 6178,
      "_paiement": 6179,
      "_combin": 6180,
      "_mouvement": 6181,
      "_explicite": 6182,
      "_vendre": 6183,
      "_ville": 6184,
      "_réaffir": 6185,
      "_notion": 6186,
      "_avancées": 6187,
      "teborg": 6188,
      "uses.": 6189,
      "avais": 6190,
      "_soulevé": 6191,
      "_après-mi": 6192,
      "_d'immigration": 6193,
      "_éth": 6194,
      "tivement": 6195,
      "_respecté": 6196,
      "_Macéd": 6197,
      "_aéroport": 6198,
      "_degré": 6199,
      "_rig": 6200,
      "_bil": 6201,
      "_résolu": 6202,
      "_d'intérêt": 6203,
      "_moyenne": 6204,
      "_résolution.": 6205,
      "_poursuit": 6206,
      "_2004,": 6207,
      "_essayer": 6208,
      "_prétend": 6209,
      "_linguis": 6210,
      "_d'y": 6211,
      "_d'emplois": 6212,
      "_Ni": 6213,
      "_deven": 6214,
      "_Ou": 6215,
      "_démocratique.": 6216,
      "_dynamique": 6217,
      "_Göteborg": 6218,
      "_aphte": 6219,
      "èlement": 6220,
      "tiennent": 6221,
      "_sac": 6222,
      "_s'eng": 6223,
      "_droit.": 6224,
      "_quasi": 6225,
      "_paiements": 6226,
      "_Peut-être": 6227,
      "uels": 6228,
      "_devenu": 6229,
      "_postes": 6230,
      "istant": 6231,
      "_l’inter": 6232,
      "_articles": 6233,
      "_influence": 6234,
      "cter": 6235,
      "actions": 6236,
      "_nécessaires.": 6237,
      "_limit": 6238,
      "_Donc": 6239,
      "_financ": 6240,
      "_représentation": 6241,
      "_s’app": 6242,
      "_corru": 6243,
      "_l’amendement": 6244,
      "_améliorations": 6245,
      "_répondu": 6246,
      "_efficace.": 6247,
      "_massive": 6248,
      "rétiens": 6249,
      "_l'élargissement,": 6250,
      "_inclure": 6251,
      "_compréhension": 6252,
      "4,": 6253,
      "_nul": 6254,
      "_\"s": 6255,
      "_L'in": 6256,
      "_réussite": 6257,
      "_l'établissement": 6258,
      "uman": 6259,
      "_donnée": 6260,
      "_justifier": 6261,
      "_rigoure": 6262,
      "_Concer": 6263,
      "_Tr": 6264,
      "_législatives": 6265,
      "_60": 6266,
      "_pencher": 6267,
      "_l'autorité": 6268,
      "_réside": 6269,
      "_dang": 6270,
      "_exces": 6271,
      "_autonom": 6272,
      "_suppose": 6273,
      "_consult": 6274,
      "_paroles": 6275,
      "_généralement": 6276,
      "_crimes": 6277,
      "_prononc": 6278,
      "_palestinienne": 6279,
      "_purement": 6280,
      "_l'équ": 6281,
      "_recourir": 6282,
      "_l'existence": 6283,
      "_territori": 6284,
      "_propriété": 6285,
      "_Concernant": 6286,
      "6.": 6287,
      "_l'obligation": 6288,
      "_candidat": 6289,
      "_Alors": 6290,
      "-Bretagne": 6291,
      "ente,": 6292,
      "_préci": 6293,
      "érance": 6294,
      "_yeux,": 6295,
      "_dicta": 6296,
      "_Grande-Bretagne": 6297,
      "_desque": 6298,
      "_l'ab": 6299,
      "_polici": 6300,
      "_publique.": 6301,
      "ssement": 6302,
      "_députés,": 6303,
      "_pressions": 6304,
      "_génétiquement": 6305,
      "yth": 6306,
      "_ara": 6307,
      "di.": 6308,
      "_fonctions": 6309,
      "_législations": 6310,
      "_grav": 6311,
      "_désign": 6312,
      "_catastrophes": 6313,
      "_catégori": 6314,
      "gédi": 6315,
      "arc": 6316,
      "dess": 6317,
      "_budgétaire,": 6318,
      "_Convention,": 6319,
      "ade": 6320,
      "rite": 6321,
      "istent": 6322,
      "_passage": 6323,
      "_satisfaire": 6324,
      "_l’adoption": 6325,
      "_innov": 6326,
      "assurer": 6327,
      "_déposés": 6328,
      "_quit": 6329,
      "attitude": 6330,
      "_Quand": 6331,
      "_d'avis": 6332,
      "_histoire": 6333,
      "_hors": 6334,
      "_apporte": 6335,
      "_accroître": 6336,
      "_rencontre": 6337,
      "_surmont": 6338,
      "_Tamp": 6339,
      "_posé": 6340,
      "_mettent": 6341,
      "_statistiques": 6342,
      "9,": 6343,
      "rie": 6344,
      "_tragédi": 6345,
      "_évaluer": 6346,
      "_Cha": 6347,
      "_corri": 6348,
      "_quantité": 6349,
      "_porté": 6350,
      "_préven": 6351,
      "_chose,": 6352,
      "_désas": 6353,
      "_détriment": 6354,
      "_ha": 6355,
      "_procédure.": 6356,
      "_2002.": 6357,
      "_privilégi": 6358,
      "_requis": 6359,
      "eux.": 6360,
      "_Auc": 6361,
      "_raisonnable": 6362,
      "anal": 6363,
      "arme": 6364,
      "_tri": 6365,
      "_sont,": 6366,
      "_27": 6367,
      "_Fisch": 6368,
      "_intéressant": 6369,
      "aurais": 6370,
      "_amis": 6371,
      "_transeuropéen": 6372,
      "_établ": 6373,
      "_Tampe": 6374,
      "oû": 6375,
      "_d'Europ": 6376,
      "_positifs": 6377,
      "_constitutionnelles": 6378,
      "_évolu": 6379,
      "_M. P": 6380,
      "_l'administration": 6381,
      "_futurs": 6382,
      "_progress": 6383,
      "_bruit": 6384,
      "_st": 6385,
      "_Pologne": 6386,
      "agenda": 6387,
      "alité,": 6388,
      "_commission.": 6389,
      "arition": 6390,
      "_bénéfices": 6391,
      "effe": 6392,
      "_justice.": 6393,
      "_provenance": 6394,
      " 200": 6395,
      "_revenu": 6396,
      "_Bos": 6397,
      "_général.": 6398,
      "_basée": 6399,
      "_élabor": 6400,
      "_élaborer": 6401,
      "_cycle": 6402,
      "_souhaité": 6403,
      "-c": 6404,
      "_rece": 6405,
      "_disant": 6406,
      "_s'in": 6407,
      "_santé.": 6408,
      "_l’économie": 6409,
      "_catégorie": 6410,
      "_l’occasion": 6411,
      "_report": 6412,
      "_hom": 6413,
      "_nationaux,": 6414,
      "_défaut": 6415,
      "_engend": 6416,
      "_passagers": 6417,
      "hol": 6418,
      "_pil": 6419,
      "_contradi": 6420,
      "_Turquie.": 6421,
      "_Roumanie": 6422,
      "-dess": 6423,
      "fe": 6424,
      "_d'agir": 6425,
      "_déri": 6426,
      "_bons": 6427,
      "_conten": 6428,
      "_appuy": 6429,
      "_prévues": 6430,
      "_l’objectif": 6431,
      "_sept": 6432,
      "_stratégies": 6433,
      "_souveraineté": 6434,
      "in.": 6435,
      "arie": 6436,
      "oriste": 6437,
      "_d’év": 6438,
      "_carb": 6439,
      "_actuelle.": 6440,
      "_discuté": 6441,
      "_pouvez": 6442,
      "uses,": 6443,
      "_Du": 6444,
      "_titre,": 6445,
      "_l'impact": 6446,
      "_demain.": 6447,
      "évit": 6448,
      "_hauteur": 6449,
      "_Qui": 6450,
      "_signé": 6451,
      "_PME": 6452,
      "_direct": 6453,
      "équilibre": 6454,
      "_concernées": 6455,
      "portation": 6456,
      "_premièrement,": 6457,
      "_maintenant,": 6458,
      "_j’espère": 6459,
      "_véritables": 6460,
      "_candidats.": 6461,
      "_Maroc": 6462,
      "_belge": 6463,
      "hou": 6464,
      "_défav": 6465,
      "_humanit": 6466,
      "eront": 6467,
      "_fal": 6468,
      "_consenti": 6469,
      "_livre": 6470,
      "tination": 6471,
      "_printemp": 6472,
      "espoir": 6473,
      "_affirmé": 6474,
      "_flux": 6475,
      "m,": 6476,
      "nes.": 6477,
      "ues": 6478,
      "nel": 6479,
      "_s'é": 6480,
      "_effor": 6481,
      "étais": 6482,
      "_l'approche": 6483,
      "_symb": 6484,
      "_contacts": 6485,
      "_devi": 6486,
      "_finances": 6487,
      "_biens": 6488,
      "_budgétaire.": 6489,
      "_venir.": 6490,
      "_î": 6491,
      "rains": 6492,
      "orise": 6493,
      "ctifs": 6494,
      "troduire": 6495,
      "_saisir": 6496,
      "_manifes": 6497,
      "_honn": 6498,
      "_travailleur": 6499,
      "_médic": 6500,
      "_cherch": 6501,
      "_prononcer": 6502,
      "_complexe": 6503,
      "_Pr": 6504,
      "_Espagne": 6505,
      "érable": 6506,
      "_télécommun": 6507,
      "_religie": 6508,
      "visionnement": 6509,
      "_Fischler": 6510,
      "_da": 6511,
      "_unani": 6512,
      "mets": 6513,
      "_d'amende": 6514,
      "_parc": 6515,
      "_conforme": 6516,
      "_version": 6517,
      "_existant": 6518,
      "_conception": 6519,
      "_calcul": 6520,
      "_pes": 6521,
      "_Bulg": 6522,
      "_participé": 6523,
      "_environnementaux": 6524,
      "_souffr": 6525,
      "_choisi": 6526,
      "_comportement": 6527,
      "msterdam": 6528,
      "D)": 6529,
      "at,": 6530,
      "_exclusivement": 6531,
      "_significative": 6532,
      "_inad": 6533,
      "_incap": 6534,
      "_BCE": 6535,
      "_l'impression": 6536,
      "_interinstitutionnel": 6537,
      "_nuit": 6538,
      "_levée": 6539,
      "gnent": 6540,
      "trument": 6541,
      "_jours,": 6542,
      "_mondialisation": 6543,
      "_nucléaires": 6544,
      "_d'origine": 6545,
      "_persuad": 6546,
      "_rasse": 6547,
      "_hyp": 6548,
      "_recy": 6549,
      "_créé": 6550,
      "_naturelles": 6551,
      "_refuser": 6552,
      "_Johan": 6553,
      "_nota": 6554,
      "étaient": 6555,
      "_dispara": 6556,
      "_accordée": 6557,
      "_environnementales": 6558,
      "_iden": 6559,
      "_vue,": 6560,
      "_administrative": 6561,
      "_voudrions": 6562,
      "tés.": 6563,
      "ancé": 6564,
      "_n°": 6565,
      "uni": 6566,
      "_contact": 6567,
      "_mini": 6568,
      "_public,": 6569,
      "_L’Union": 6570,
      "_lecture,": 6571,
      "?ur": 6572,
      "men": 6573,
      "_van": 6574,
      "_élus": 6575,
      "_procu": 6576,
      "lèvent": 6577,
      "_possibles": 6578,
      "_négatif": 6579,
      "_Quoi": 6580,
      "lectric": 6581,
      "_mè": 6582,
      "_gagner": 6583,
      "_exerc": 6584,
      "_prétexte": 6585,
      "_impéra": 6586,
      "_objet": 6587,
      "_claires": 6588,
      "alité.": 6589,
      "_l’Union.": 6590,
      "_Moyen-Orient": 6591,
      "_ouv": 6592,
      "_fall": 6593,
      "_situation,": 6594,
      "_31": 6595,
      "_conviction": 6596,
      "_revoir": 6597,
      "_formulées": 6598,
      "_rural": 6599,
      "21": 6600,
      "émin": 6601,
      "cein": 6602,
      "_l’esprit": 6603,
      "_précon": 6604,
      "_fait.": 6605,
      "_crois,": 6606,
      "oriz": 6607,
      "_franch": 6608,
      "_adéquate": 6609,
      "_rubrique": 6610,
      "_cens": 6611,
      "_l'entrée": 6612,
      "_encein": 6613,
      "_Di": 6614,
      "cool": 6615,
      "eux,": 6616,
      "_autrement": 6617,
      "_islam": 6618,
      "_légitimité": 6619,
      "des,": 6620,
      "_\"n": 6621,
      "_manière,": 6622,
      "_prévisi": 6623,
      "_engager": 6624,
      "_difficiles": 6625,
      "_formulation": 6626,
      "_détails": 6627,
      "_attentats": 6628,
      "_préalable": 6629,
      "_regrou": 6630,
      "_Luxemb": 6631,
      "_l’égalité": 6632,
      "_appare": 6633,
      "_espèces": 6634,
      "_points.": 6635,
      "_atteinte": 6636,
      "_connaissances": 6637,
      "_ensemble,": 6638,
      "cle,": 6639,
      "tel": 6640,
      "_ou,": 6641,
      "emple": 6642,
      "_pratique,": 6643,
      "_expériences": 6644,
      "_moins,": 6645,
      "_crises": 6646,
      "_parvenu": 6647,
      "_Affaires": 6648,
      "_espérer": 6649,
      "_institutions.": 6650,
      "_siècle": 6651,
      "_susceptibles": 6652,
      "lise": 6653,
      "_d'ab": 6654,
      "_Toutes": 6655,
      "_intégra": 6656,
      "_néerlandais": 6657,
      "invite": 6658,
      "lés": 6659,
      "ura": 6660,
      "_contro": 6661,
      "_seuil": 6662,
      "_amendements.": 6663,
      "_constaté": 6664,
      "_malheureusement,": 6665,
      "empêcher": 6666,
      "tés,": 6667,
      "_inévit": 6668,
      "elles.": 6669,
      "_amendements,": 6670,
      "_clarifier": 6671,
      "_revanche,": 6672,
      "_lanc": 6673,
      "_spec": 6674,
      "_ce,": 6675,
      "_mesure,": 6676,
      "_portent": 6677,
      "_décisionne": 6678,
      "cellent": 6679,
      "_précéde": 6680,
      "énergie,": 6681,
      "_aujourd’hui,": 6682,
      "_d'association": 6683,
      "_légiti": 6684,
      "_démontré": 6685,
      "_l'échelle": 6686,
      "_transition": 6687,
      "_Donc,": 6688,
      "sias": 6689,
      "gies": 6690,
      "_L'é": 6691,
      "_opposition": 6692,
      "_effectué": 6693,
      "_démarche": 6694,
      "_scandale": 6695,
      "_physi": 6696,
      "_détru": 6697,
      "_OGM": 6698,
      "_Convention.": 6699,
      "_récente": 6700,
      "_obligation": 6701,
      "_Pays-Bas": 6702,
      "ents,": 6703,
      "mes,": 6704,
      "_conséquence,": 6705,
      "_commissaire,": 6706,
      "_Finlande": 6707,
      "_frontali": 6708,
      "_également.": 6709,
      "_exemples": 6710,
      "_4,": 6711,
      "_(Applaudissements)": 6712,
      " 000": 6713,
      "adresse": 6714,
      "_réuni": 6715,
      "_considérations": 6716,
      "_évidemment,": 6717,
      "_avancée": 6718,
      "utriche": 6719,
      "_mutuelle": 6720,
      "_cellules": 6721,
      "_Johannes": 6722,
      "ed": 6723,
      "_motifs": 6724,
      "_28": 6725,
      "_présentés": 6726,
      "_propos,": 6727,
      "ellement,": 6728,
      "_secrétaire": 6729,
      "_préjudi": 6730,
      "quées": 6731,
      "_marque": 6732,
      "_affect": 6733,
      "dépendance": 6734,
      "_Luxembourg": 6735,
      "riez": 6736,
      "_pouvant": 6737,
      "formation,": 6738,
      "_Van": 6739,
      "_nationales.": 6740,
      "_culturel": 6741,
      "_navig": 6742,
      "_étroitement": 6743,
      "_protest": 6744,
      "_dév": 6745,
      "_accident": 6746,
      "_sert": 6747,
      "_interdit": 6748,
      "_atti": 6749,
      "_d'exp": 6750,
      "_accomplis": 6751,
      "_chargé": 6752,
      "_Verh": 6753,
      "-elles": 6754,
      "_l'al": 6755,
      "_provi": 6756,
      "_ici.": 6757,
      "_Husse": 6758,
      "_destiné": 6759,
      "_simplification": 6760,
      "el.": 6761,
      "_survi": 6762,
      "_motiv": 6763,
      "_poste": 6764,
      "_l'honorable": 6765,
      "_questions,": 6766,
      "_l’élargissement": 6767,
      "_l'Organisation": 6768,
      "démocrates": 6769,
      "oet": 6770,
      "isé": 6771,
      "_agriculture": 6772,
      "_fixés": 6773,
      "_Royaume-Uni,": 6774,
      "_crucial": 6775,
      "_rédigé": 6776,
      "_nomm": 6777,
      "_vie.": 6778,
      "_abus": 6779,
      "_exemple.": 6780,
      "_durable,": 6781,
      "_infra": 6782,
      "_commerciaux": 6783,
      "_remplir": 6784,
      "_l'emploi.": 6785,
      "_contrats": 6786,
      "_distribution": 6787,
      "_0,": 6788,
      "_enqu": 6789,
      "teur,": 6790,
      "_vivant": 6791,
      "_dernier.": 6792,
      "usses": 6793,
      "_aboutir": 6794,
      "mar": 6795,
      "_Présidente": 6796,
      "_Serb": 6797,
      "chement": 6798,
      "_biologi": 6799,
      "_là,": 6800,
      "_l’Assemblée": 6801,
      "_d'aujourd'hui": 6802,
      "_eau": 6803,
      "_liens": 6804,
      "_huit": 6805,
      "_crédit": 6806,
      "_menaces": 6807,
      "_prévoy": 6808,
      "_présidence,": 6809,
      "_harmonisation": 6810,
      "_correcte": 6811,
      " millions": 6812,
      "géri": 6813,
      "_l'inf": 6814,
      "_crime": 6815,
      "_principe,": 6816,
      "_engagés": 6817,
      "_coordonn": 6818,
      "1999": 6819,
      "_décenni": 6820,
      "SB": 6821,
      "tan": 6822,
      "_rapproche": 6823,
      "_continuera": 6824,
      "_intensi": 6825,
      "_Berlin": 6826,
      "_lou": 6827,
      "_lit": 6828,
      "_éloi": 6829,
      "_informe": 6830,
      "_montants": 6831,
      "_spécialement": 6832,
      "courager": 6833,
      "_multination": 6834,
      "_exportations": 6835,
      "_forê": 6836,
      "_institutions,": 6837,
      "_attribu": 6838,
      "_défense,": 6839,
      "_consacré": 6840,
      "_pacifique": 6841,
      "housias": 6842,
      "-on": 6843,
      "_d’ar": 6844,
      "_sanction": 6845,
      "_extérieur,": 6846,
      "_vérifier": 6847,
      "_d'organis": 6848,
      "_Stock": 6849,
      "_social,": 6850,
      "_domin": 6851,
      "_l'emploi,": 6852,
      "_voyons": 6853,
      "_notamment,": 6854,
      "_lab": 6855,
      "_prêt": 6856,
      "_éman": 6857,
      "_Mad": 6858,
      "_recon": 6859,
      "_l’U": 6860,
      "_exiger": 6861,
      "_80": 6862,
      "_scène": 6863,
      "_Russie,": 6864,
      "cription": 6865,
      "_remplacer": 6866,
      "_intelli": 6867,
      "_bilan": 6868,
      "_vites": 6869,
      "_rémun": 6870,
      "_signe": 6871,
      "_impliquer": 6872,
      "_intéri": 6873,
      "_connaissent": 6874,
      "_administration": 6875,
      "_2000.": 6876,
      "émicy": 6877,
      "_gouvernance": 6878,
      "_revendi": 6879,
      "olk": 6880,
      "_adhé": 6881,
      "_chiffre": 6882,
      "_Portugal": 6883,
      "_extraordinaire": 6884,
      "uré": 6885,
      "_répète": 6886,
      "_démocratique,": 6887,
      "_Certes,": 6888,
      "_élaboré": 6889,
      "_opérateurs": 6890,
      "_régulièrement": 6891,
      "curr": 6892,
      "des.": 6893,
      "_blo": 6894,
      "_l’intérêt": 6895,
      "vées": 6896,
      "_rende": 6897,
      "_plur": 6898,
      "aison": 6899,
      "_présentent": 6900,
      "_savent": 6901,
      "_fondamentaux.": 6902,
      "_imagin": 6903,
      "_justice,": 6904,
      "_direction.": 6905,
      "ailleurs,": 6906,
      "_guère": 6907,
      "_modernisation": 6908,
      "_l'équilibre": 6909,
      "_tenus": 6910,
      "_contributions": 6911,
      "_d'atteindre": 6912,
      "_espagnole": 6913,
      "_d'import": 6914,
      "_retrouver": 6915,
      "alimentation": 6916,
      "_tête": 6917,
      "_nous-mêmes": 6918,
      "_volontaire": 6919,
      "_sensible": 6920,
      "_intérieure": 6921,
      "_c?ur": 6922,
      "_vir": 6923,
      "_bru": 6924,
      "_d’ins": 6925,
      "_annoncé": 6926,
      "_passé.": 6927,
      "_candidats,": 6928,
      "_remerciements": 6929,
      "_vice-président": 6930,
      "/00": 6931,
      "_Cas": 6932,
      "_accidents": 6933,
      "_impression": 6934,
      "_communs": 6935,
      "quième": 6936,
      "_budget,": 6937,
      "_coûte": 6938,
      "_administratives": 6939,
      "_l’application": 6940,
      "orientation": 6941,
      "urs.": 6942,
      "_baisse": 6943,
      "_soumise": 6944,
      "_matière,": 6945,
      "_processus.": 6946,
      "_société.": 6947,
      "_rappelé": 6948,
      "_destinée": 6949,
      "_événement": 6950,
      "_mus": 6951,
      "_prenne": 6952,
      "_l’E": 6953,
      "_commence": 6954,
      "largir": 6955,
      "_importante,": 6956,
      "_distribu": 6957,
      "_appropriée": 6958,
      "_convaincre": 6959,
      "_problématique": 6960,
      "_proche": 6961,
      "uln": 6962,
      "_argent": 6963,
      "_preuves": 6964,
      "_drogue": 6965,
      "_culture,": 6966,
      "_denrées": 6967,
      "_Mont": 6968,
      "ami": 6969,
      "_tiers,": 6970,
      "_mouvements": 6971,
      "_habitants": 6972,
      "otes": 6973,
      "_rê": 6974,
      "_requ": 6975,
      "_plai": 6976,
      "_d’État": 6977,
      "_présentées": 6978,
      "_échange": 6979,
      "_tenté": 6980,
      "itor": 6981,
      "_charte": 6982,
      "_budget.": 6983,
      "_distor": 6984,
      "_siège": 6985,
      "_symp": 6986,
      "_chaleureusement": 6987,
      "_l'éc": 6988,
      "_divis": 6989,
      "llectu": 6990,
      "_L'Europe": 6991,
      "_revê": 6992,
      "_concrètement": 6993,
      "_sortir": 6994,
      "_recycl": 6995,
      "_doi": 6996,
      "_tox": 6997,
      "_l'ess": 6998,
      "_concréti": 6999,
      "_sociales,": 7000,
      "_s’ag": 7001,
      "_l’intégration": 7002,
      "_bénéficient": 7003,
      "_logi": 7004,
      "lav": 7005,
      "_actif": 7006,
      "_2001.": 7007,
      "éla": 7008,
      "_vuln": 7009,
      "tégrer": 7010,
      "ses": 7011,
      "_l’aut": 7012,
      "_d’au": 7013,
      "_appui": 7014,
      "_n'ait": 7015,
      "_classi": 7016,
      "_attentes": 7017,
      "_progressive": 7018,
      "d,": 7019,
      "gées": 7020,
      "ais,": 7021,
      "_l’ordre": 7022,
      "_addi": 7023,
      "appelle": 7024,
      "_rejeté": 7025,
      "_délib": 7026,
      "_pétrole": 7027,
      "_manifestement": 7028,
      "por": 7029,
      "érences": 7030,
      "_secteur.": 7031,
      "_enfants,": 7032,
      "_privatis": 7033,
      "_s'agissait": 7034,
      "_usage": 7035,
      "_(A5-01": 7036,
      "50": 7037,
      "h3": 7038,
      "_l'origine": 7039,
      "_enquête": 7040,
      "_lire": 7041,
      "_signature": 7042,
      "AL": 7043,
      "ak": 7044,
      "_égalité": 7045,
      "_importations": 7046,
      "_transmettre": 7047,
      "_demandent": 7048,
      "_publicité": 7049,
      "_l’év": 7050,
      "ophob": 7051,
      "_Barcelone": 7052,
      "_prendra": 7053,
      "rime": 7054,
      "ell": 7055,
      "_acqu": 7056,
      "_proposons": 7057,
      "ing,": 7058,
      "_février": 7059,
      "_étions": 7060,
      "_cess": 7061,
      "ocation": 7062,
      "_l'examen": 7063,
      "_pensent": 7064,
      "_échou": 7065,
      "_(A5-00": 7066,
      "_française": 7067,
      "_aériennes": 7068,
      "tré": 7069,
      "_d’autre": 7070,
      "_centres": 7071,
      "_transparence,": 7072,
      "_inquiétude": 7073,
      "_alternative": 7074,
      "_nourr": 7075,
      "_détour": 7076,
      "roc": 7077,
      "démi": 7078,
      "_organisé": 7079,
      "_voient": 7080,
      "_M. S": 7081,
      "_capitaux": 7082,
      "_socialistes": 7083,
      "rin": 7084,
      "_crains": 7085,
      "eug": 7086,
      "_d’h": 7087,
      "_Seu": 7088,
      "_États,": 7089,
      "cateurs": 7090,
      "assent": 7091,
      "_coopérer": 7092,
      "_chose.": 7093,
      "_remédi": 7094,
      "_tenant": 7095,
      "_enfants.": 7096,
      "_modalités": 7097,
      "_cherche": 7098,
      "_britanniques": 7099,
      "_chaîne": 7100,
      "_clarté": 7101,
      "tifi": 7102,
      "_%.": 7103,
      "_minimales": 7104,
      "_intellectu": 7105,
      "_fallait": 7106,
      "_peur": 7107,
      "_adoptés": 7108,
      "_entière": 7109,
      "_cohérente": 7110,
      "_élargie": 7111,
      "(COD)": 7112,
      "_ordin": 7113,
      "oct": 7114,
      "_vie,": 7115,
      "étendre": 7116,
      "nexe": 7117,
      "_automob": 7118,
      "itorin": 7119,
      "ments,": 7120,
      "_propag": 7121,
      "_coopération,": 7122,
      "_contradiction": 7123,
      "_travailleurs,": 7124,
      "_prisonniers": 7125,
      "anie,": 7126,
      "_demandeurs": 7127,
      "_discutons": 7128,
      "_invité": 7129,
      "_inquiét": 7130,
      "_l'Espagne": 7131,
      "augmenter": 7132,
      "_clandesti": 7133,
      "_chapitre": 7134,
      "_x": 7135,
      "_d'utiliser": 7136,
      "_Afrique": 7137,
      "_For": 7138,
      "_coloni": 7139,
      "_affai": 7140,
      "_organisée": 7141,
      "_place,": 7142,
      "_prochains": 7143,
      "_d'Amsterdam": 7144,
      "_radio": 7145,
      "_désastre": 7146,
      "olé": 7147,
      "_discip": 7148,
      "_perform": 7149,
      "_confusion": 7150,
      "_choses.": 7151,
      "_identifi": 7152,
      "_futures": 7153,
      "_dangereux": 7154,
      "_prospérité": 7155,
      "_endroit": 7156,
      "mes.": 7157,
      "_perte": 7158,
      "_feront": 7159,
      "tionnels": 7160,
      "_utilisées": 7161,
      "_élevés": 7162,
      "_quatrième": 7163,
      "_bord": 7164,
      "_Para": 7165,
      "endrai": 7166,
      "_experts": 7167,
      "_affirme": 7168,
      "_internes": 7169,
      "_quelconque": 7170,
      "_main-d": 7171,
      "_lecture.": 7172,
      "_approprié": 7173,
      "_sexuelle": 7174,
      "_législature": 7175,
      "zo": 7176,
      "_Cong": 7177,
      "_disent": 7178,
      "_communautaires.": 7179,
      "_Quelle": 7180,
      "_l’Europe,": 7181,
      "_l'ann": 7182,
      "_inég": 7183,
      "_permettront": 7184,
      "importe": 7185,
      "_présidente": 7186,
      "_décision.": 7187,
      "_réponse.": 7188,
      "_d'aff": 7189,
      "_domaines,": 7190,
      "_Pakistan": 7191,
      "_Stockhol": 7192,
      "_,": 7193,
      "_ryth": 7194,
      "ctoire": 7195,
      "_promess": 7196,
      "_respectent": 7197,
      "_déplac": 7198,
      "_matin,": 7199,
      "_tente": 7200,
      "_dirai": 7201,
      "_accordé": 7202,
      "_précisé": 7203,
      "_réalité.": 7204,
      "_Corée": 7205,
      "do": 7206,
      "chn": 7207,
      "_pluri": 7208,
      "ureau": 7209,
      "_débattons": 7210,
      "_rejette": 7211,
      "_exprimées": 7212,
      "offre": 7213,
      "_facilement": 7214,
      "blit": 7215,
      "iques,": 7216,
      "_eux,": 7217,
      "_veille": 7218,
      "_suivants": 7219,
      "_vag": 7220,
      "_parven": 7221,
      "_join": 7222,
      "_absur": 7223,
      "_Prodi,": 7224,
      "_possède": 7225,
      "_Barcelon": 7226,
      "-é": 7227,
      "après": 7228,
      "_PI": 7229,
      "ter,": 7230,
      "_devaient": 7231,
      "_Bureau": 7232,
      "_publique,": 7233,
      "_optim": 7234,
      "lications": 7235,
      "_partageons": 7236,
      "_ur": 7237,
      "irait": 7238,
      "_d'O": 7239,
      "_pati": 7240,
      "_l’utilisation": 7241,
      "énophob": 7242,
      "_restrein": 7243,
      "_utilisée": 7244,
      "_indiquer": 7245,
      "_pénal": 7246,
      "_souvent,": 7247,
      "_xénophob": 7248,
      "-le": 7249,
      "_vente": 7250,
      "_26": 7251,
      "_instamment": 7252,
      "_généralis": 7253,
      "espace": 7254,
      "_civils": 7255,
      "_l'anci": 7256,
      "_appartient": 7257,
      "_Danemark": 7258,
      "bes": 7259,
      "tt": 7260,
      "eurs,": 7261,
      "_sixième": 7262,
      "_personnes.": 7263,
      "_procès-verbal": 7264,
      "_échec": 7265,
      "fici": 7266,
      "_s'oppos": 7267,
      "laborer": 7268,
      "animaux": 7269,
      "_contamin": 7270,
      "_interven": 7271,
      "_esti": 7272,
      "_nationales,": 7273,
      "_population.": 7274,
      "_mondiale.": 7275,
      "_Qu'": 7276,
      "_pharm": 7277,
      "_l'Irlande": 7278,
      "ypri": 7279,
      "_méde": 7280,
      "_consacrer": 7281,
      "_âgées": 7282,
      "_recti": 7283,
      "_assistance": 7284,
      "alaci": 7285,
      "_dess": 7286,
      "_l'É": 7287,
      "osta": 7288,
      "sements": 7289,
      "_social.": 7290,
      "_crée": 7291,
      "_génération": 7292,
      "_soutien.": 7293,
      "_observations": 7294,
      "_intégrée": 7295,
      "cations": 7296,
      "os,": 7297,
      "_supr": 7298,
      "_dépar": 7299,
      "_privé": 7300,
      "_allusion": 7301,
      "_central": 7302,
      "_faute": 7303,
      "_voulais": 7304,
      "euses": 7305,
      "oient": 7306,
      "_devienne": 7307,
      "_Ti": 7308,
      "_directive-cadre": 7309,
      "_différente": 7310,
      "_locaux": 7311,
      "_attaques": 7312,
      "_l’homme,": 7313,
      "_tard,": 7314,
      "_prie": 7315,
      "ce.": 7316,
      "_d'égalité": 7317,
      "_l’immigration": 7318,
      "_minorité": 7319,
      "_dites": 7320,
      "_partager": 7321,
      "_électronique": 7322,
      "ète,": 7323,
      "_d'accès": 7324,
      "_pourcent": 7325,
      "_socio-": 7326,
      "_considérée": 7327,
      "_500": 7328,
      "_collaborer": 7329,
      "_Copenhague": 7330,
      "_prenons": 7331,
      "cession": 7332,
      "_débu": 7333,
      "_savoir,": 7334,
      "_dégâ": 7335,
      "_Chaque": 7336,
      "_gauche": 7337,
      "_chu": 7338,
      "_nécessite": 7339,
      "_indique": 7340,
      "_deuxièmement,": 7341,
      "_centralis": 7342,
      "-R": 7343,
      "lées": 7344,
      "_stu": 7345,
      "_révis": 7346,
      "_poiss": 7347,
      "_obli": 7348,
      "_accorde": 7349,
      "_négociations.": 7350,
      "_commerciale": 7351,
      "_compromis.": 7352,
      "_précéd": 7353,
      "_planification": 7354,
      "_excellente": 7355,
      "_atte": 7356,
      "_cesser": 7357,
      "_compliqu": 7358,
      "_automati": 7359,
      "_unique,": 7360,
      "_libéraux": 7361,
      "_recommande": 7362,
      "/2000)": 7363,
      "approuve": 7364,
      "_énergétique": 7365,
      "he": 7366,
      "vation": 7367,
      "_ap": 7368,
      "_récon": 7369,
      "_réex": 7370,
      "at.": 7371,
      "_développements": 7372,
      "_obstacle": 7373,
      "olkeste": 7374,
      "DR": 7375,
      "ón": 7376,
      "_recueil": 7377,
      "_motif": 7378,
      "_présent.": 7379,
      "_l'industrie,": 7380,
      "_Autre": 7381,
      "_domaines.": 7382,
      "_l'intervention": 7383,
      "_puissance": 7384,
      "_concrets": 7385,
      "_perd": 7386,
      "_qu’au": 7387,
      "_express": 7388,
      "_humaines": 7389,
      "_l'Allemagne": 7390,
      "_Quelles": 7391,
      "voquer": 7392,
      "_197": 7393,
      "_conseils": 7394,
      "_conservation": 7395,
      "ros": 7396,
      "_insiste": 7397,
      "elles,": 7398,
      "_place.": 7399,
      "_migra": 7400,
      "_entraîne": 7401,
      "_lacunes": 7402,
      "_rapprocher": 7403,
      "_catégories": 7404,
      "_vulnéra": 7405,
      "cteur": 7406,
      "èdent": 7407,
      "_tchè": 7408,
      "_Mc": 7409,
      "tenue": 7410,
      "_constatons": 7411,
      "_pire": 7412,
      "_l’idée": 7413,
      "_finale": 7414,
      "_organiser": 7415,
      "_diminuer": 7416,
      "jourd’hui,": 7417,
      "_fassent": 7418,
      "_d’adhésion": 7419,
      "_partie,": 7420,
      "_aspi": 7421,
      "_choses,": 7422,
      "ateurs,": 7423,
      "_occupe": 7424,
      "_frontière": 7425,
      "_pratique.": 7426,
      "-pro": 7427,
      "_concentration": 7428,
      "_engagée": 7429,
      "_venons": 7430,
      "oetter": 7431,
      "ulsion": 7432,
      "_importants.": 7433,
      "_Vitorin": 7434,
      "_où,": 7435,
      "emins": 7436,
      "elsin": 7437,
      "clure": 7438,
      "médiaire": 7439,
      "_l'activité": 7440,
      "_neuf": 7441,
      "_citoyenneté": 7442,
      "_mac": 7443,
      "_l'est": 7444,
      "_d'énergie": 7445,
      "_Palaci": 7446,
      "chés": 7447,
      "dez": 7448,
      "_chypri": 7449,
      "_tiendra": 7450,
      "_Traité.": 7451,
      "_bureau": 7452,
      "_Est-ce": 7453,
      "ves,": 7454,
      "ém": 7455,
      "_pan": 7456,
      "ane": 7457,
      "entiss": 7458,
      "_efficace,": 7459,
      "_fiscale": 7460,
      "_poissons": 7461,
      "_d’ob": 7462,
      "_composition": 7463,
      "_recherche.": 7464,
      "largissement,": 7465,
      "_difficulté": 7466,
      "_scru": 7467,
      "_(La": 7468,
      "_n’avons": 7469,
      "-b": 7470,
      "âge": 7471,
      "_provis": 7472,
      "els,": 7473,
      "_\"L": 7474,
      "_l’industrie": 7475,
      "_l’éducation": 7476,
      "_critère": 7477,
      "_pouss": 7478,
      "_Cro": 7479,
      "_pros": 7480,
      "_insisté": 7481,
      "_répression": 7482,
      "_fondamentaux,": 7483,
      "iques.": 7484,
      "_récla": 7485,
      "_soulever": 7486,
      "_pilier": 7487,
      "_divergences": 7488,
      "_socio-économ": 7489,
      "N)": 7490,
      "_couvrir": 7491,
      "_tun": 7492,
      "_jeun": 7493,
      "lle,": 7494,
      "lle.": 7495,
      "_entrée": 7496,
      "_accro": 7497,
      "lissement": 7498,
      "_M. M": 7499,
      "_Europol": 7500,
      "_démontre": 7501,
      "_leçons": 7502,
      "_bomb": 7503,
      "_chemins": 7504,
      "_Son": 7505,
      "_vote,": 7506,
      "_conduire": 7507,
      "_pauvreté,": 7508,
      "_suédoise": 7509,
      "_banques": 7510,
      "cili": 7511,
      "_pér": 7512,
      "_conven": 7513,
      "_terre": 7514,
      "issue": 7515,
      "_d'intégration": 7516,
      "_désaccord": 7517,
      "_l'unanimité": 7518,
      "_sauf": 7519,
      "entralis": 7520,
      "_PIB": 7521,
      "présent": 7522,
      "_terri": 7523,
      "igence": 7524,
      "_assist": 7525,
      "_demande,": 7526,
      "...": 7527,
      "_racisme": 7528,
      "yer": 7529,
      "_volu": 7530,
      "_moment.": 7531,
      "_assure": 7532,
      "_part.": 7533,
      "_modè": 7534,
      "_grecque": 7535,
      "LDR": 7536,
      "_dépasse": 7537,
      "_accru": 7538,
      "casions": 7539,
      "_problèmes,": 7540,
      "_partenaire": 7541,
      "_c'était": 7542,
      "_confirmé": 7543,
      "_engagé": 7544,
      "_Nice,": 7545,
      "_tests": 7546,
      "_Kyoto": 7547,
      "_préoccupe": 7548,
      "user": 7549,
      "_gui": 7550,
      "_concré": 7551,
      "_Parmi": 7552,
      "_Ri": 7553,
      "_donnent": 7554,
      "_L'objectif": 7555,
      "_considérant": 7556,
      "_spécial": 7557,
      "_d'euros.": 7558,
      "_évoquer": 7559,
      "_suivantes": 7560,
      "_Belar": 7561,
      "_drogues": 7562,
      "_applicables": 7563,
      "_croyons": 7564,
      "oud": 7565,
      "_diz": 7566,
      "_résol": 7567,
      "_communiste": 7568,
      "équi": 7569,
      "_animaux.": 7570,
      "_70": 7571,
      "_compétitive": 7572,
      "_constructif": 7573,
      "_naiss": 7574,
      "_rang": 7575,
      "oie": 7576,
      "_ravi": 7577,
      "_s'acc": 7578,
      "_décentralis": 7579,
      "_posent": 7580,
      "_appris": 7581,
      "_plafond": 7582,
      "_hausse": 7583,
      "_enj": 7584,
      "_uns": 7585,
      "_Bro": 7586,
      "_maî": 7587,
      "_aggra": 7588,
      "_négocier": 7589,
      "_retards": 7590,
      "_écar": 7591,
      "_d'asi": 7592,
      "_centrales": 7593,
      "_l’UE,": 7594,
      "_énergie": 7595,
      "_er": 7596,
      "isme.": 7597,
      "ilos": 7598,
      "_gard": 7599,
      "_5,": 7600,
      "_impose": 7601,
      "_libre-é": 7602,
      "_fournisse": 7603,
      "_semaines,": 7604,
      "_concrétis": 7605,
      "_bu": 7606,
      "_irlandaise": 7607,
      "_blan": 7608,
      "_anciens": 7609,
      "_stipule": 7610,
      "_(EN)": 7611,
      "_concrétiser": 7612,
      "_(B": 7613,
      "_électeurs": 7614,
      "_l'octroi": 7615,
      "_ajoutée": 7616,
      "poque,": 7617,
      "_délica": 7618,
      "_Tchétchéni": 7619,
      "_feuille": 7620,
      "romp": 7621,
      "ur,": 7622,
      "_fas": 7623,
      "_épr": 7624,
      "érations": 7625,
      "formes": 7626,
      "_communications": 7627,
      "formation.": 7628,
      "_déjà,": 7629,
      "_supprim": 7630,
      "_permanent": 7631,
      "_américaine": 7632,
      "ougoslav": 7633,
      "run": 7634,
      "inois": 7635,
      "agnes": 7636,
      "_inclus": 7637,
      "effor": 7638,
      "novation": 7639,
      "_Américains": 7640,
      "_requiert": 7641,
      "els.": 7642,
      "ages,": 7643,
      "agissant": 7644,
      "_choc": 7645,
      "_traç": 7646,
      "_impati": 7647,
      "_dissi": 7648,
      "_approuve": 7649,
      "_Communauté.": 7650,
      "_associations": 7651,
      "_Cuba": 7652,
      "2)": 7653,
      "_ouvrir": 7654,
      "ume": 7655,
      "_l'entre": 7656,
      "_d'amendement": 7657,
      "duc": 7658,
      "iger": 7659,
      "_publics,": 7660,
      "_décide": 7661,
      "_solide": 7662,
      "_dossiers": 7663,
      "tige": 7664,
      "_agi": 7665,
      "_Pres": 7666,
      "pidémi": 7667,
      "_prévus": 7668,
      "_limitation": 7669,
      "_l’initiative": 7670,
      "_démocratis": 7671,
      "_Russie.": 7672,
      "_monétaire,": 7673,
      "_équilibrée": 7674,
      "_accord.": 7675,
      "_ouverture": 7676,
      "_existantes": 7677,
      "_appelé": 7678,
      "_septembre,": 7679,
      "_collective": 7680,
      "otechn": 7681,
      "nés": 7682,
      "enez": 7683,
      "_indemn": 7684,
      "_réd": 7685,
      "_l’ai": 7686,
      "_Bolkeste": 7687,
      "_bien.": 7688,
      "_recherches": 7689,
      "_clairs": 7690,
      "_rempla": 7691,
      "_allant": 7692,
      "_taxe": 7693,
      "_instaurer": 7694,
      "_fructu": 7695,
      "_maîtr": 7696,
      "_bov": 7697,
      "_contest": 7698,
      "_Slo": 7699,
      "_terroriste": 7700,
      "_sensibles": 7701,
      "_expressément": 7702,
      "ètres": 7703,
      "itons": 7704,
      "_Pré": 7705,
      "_Non": 7706,
      "_Tel": 7707,
      "_Telle": 7708,
      "_contribuent": 7709,
      "_fournit": 7710,
      "_Grâce": 7711,
      "_argument": 7712,
      "_S'il": 7713,
      "-temp": 7714,
      " 1": 7715,
      "_merci": 7716,
      "organ": 7717,
      "rég": 7718,
      "endue": 7719,
      "geant": 7720,
      "ui,": 7721,
      "_s'atta": 7722,
      "_esc": 7723,
      "_mondiale,": 7724,
      "_reste,": 7725,
      "_toutefois,": 7726,
      "_membre.": 7727,
      "_fond,": 7728,
      "_accompagn": 7729,
      "engagement": 7730,
      "_Verheug": 7731,
      "irm": 7732,
      "_commun.": 7733,
      "_prends": 7734,
      "_politiquement": 7735,
      "_publié": 7736,
      "_l'exécution": 7737,
      "_renforcé": 7738,
      "_jeudi": 7739,
      "_harmonis": 7740,
      "_garantissant": 7741,
      "».": 7742,
      "_mène": 7743,
      "_CO": 7744,
      "ro-": 7745,
      "_portu": 7746,
      "_désir": 7747,
      "_banc": 7748,
      "_conclus": 7749,
      "_transpos": 7750,
      "_diffusion": 7751,
      "_respectu": 7752,
      "_durabilité": 7753,
      "érées": 7754,
      "disant": 7755,
      "_inviter": 7756,
      "_90": 7757,
      "_impliquant": 7758,
      "_ultra": 7759,
      "_convergence": 7760,
      "_d'ordre": 7761,
      "_rej": 7762,
      "_exam": 7763,
      "_ELDR": 7764,
      "_instant": 7765,
      "_voudrait": 7766,
      "_accord,": 7767,
      "_occasions": 7768,
      "_entamer": 7769,
      "_méritent": 7770,
      "_Palestiniens": 7771,
      "_d'amendements": 7772,
      "dition": 7773,
      "_d’aut": 7774,
      "_inspec": 7775,
      "_justifie": 7776,
      "_l'avez": 7777,
      "_doter": 7778,
      "_périodes": 7779,
      "_économiques.": 7780,
      "cevoir": 7781,
      "_New": 7782,
      "_unanime": 7783,
      "7.": 7784,
      "SA": 7785,
      "_Président.": 7786,
      "_fruit": 7787,
      "largissement.": 7788,
      "_contrairement": 7789,
      "_enseig": 7790,
      "_cite": 7791,
      "_foss": 7792,
      "_voilà": 7793,
      "_agence": 7794,
      "_VI": 7795,
      "_subvention": 7796,
      "_régional": 7797,
      "_l’intention": 7798,
      "_voterons": 7799,
      "_accomplir": 7800,
      "_contribuera": 7801,
      "voyer": 7802,
      "haus": 7803,
      "_renforcée": 7804,
      "_temporaire": 7805,
      "_surmonter": 7806,
      "-dessus": 7807,
      "istait": 7808,
      "_brè": 7809,
      "_transformation": 7810,
      "_maintes": 7811,
      "_milliard": 7812,
      "_régions,": 7813,
      "_refuse": 7814,
      "_partisans": 7815,
      "_promis": 7816,
      "_condamner": 7817,
      "_fondement": 7818,
      "_éventuellement": 7819,
      "_préjudice": 7820,
      "_vété": 7821,
      "insiste": 7822,
      "_incendi": 7823,
      "_d'appliquer": 7824,
      "_industries": 7825,
      "_d'entrepris": 7826,
      "joute": 7827,
      "_tonnes": 7828,
      "_prov": 7829,
      "_division": 7830,
      "ribuer": 7831,
      "_n’en": 7832,
      "_biotechn": 7833,
      "_jusqu'ici": 7834,
      "_vingt": 7835,
      "_licenci": 7836,
      "yr": 7837,
      "tification": 7838,
      "_constamment": 7839,
      "_communautaires,": 7840,
      "_privée": 7841,
      "_douze": 7842,
      "_poursuivi": 7843,
      "_appliquée": 7844,
      "_propriét": 7845,
      "main": 7846,
      "trés": 7847,
      "_dépla": 7848,
      "aceu": 7849,
      "_cœ": 7850,
      "_taille": 7851,
      "_indu": 7852,
      "_Pe": 7853,
      "_29": 7854,
      "_entier": 7855,
      "crip": 7856,
      "_qualifiée": 7857,
      "_compréhensi": 7858,
      "ondre": 7859,
      "tice": 7860,
      "_dégra": 7861,
      "_libération": 7862,
      "_national,": 7863,
      "_conscient": 7864,
      "_manifeste": 7865,
      "_appliquées": 7866,
      "_traçabilité": 7867,
      "_imparti": 7868,
      "da,": 7869,
      "_objectif.": 7870,
      "_coopération.": 7871,
      "_c’est-à-dire": 7872,
      "_eux.": 7873,
      "_intentions": 7874,
      "_remplac": 7875,
      "moine": 7876,
      "ony": 7877,
      "_(P": 7878,
      "_propositions.": 7879,
      "_commercialisation": 7880,
      "_concitoyens": 7881,
      "_établissant": 7882,
      "oz": 7883,
      "_répu": 7884,
      "_Hong": 7885,
      "_mondial.": 7886,
      "_compromis,": 7887,
      "_couv": 7888,
      "tauration": 7889,
      "trö": 7890,
      "_(COM(200": 7891,
      "_qualité,": 7892,
      "_commercial": 7893,
      "_D'autre": 7894,
      "_exposé": 7895,
      "_jugement": 7896,
      "son": 7897,
      "_Traité,": 7898,
      "_illégale": 7899,
      "_patrimoine": 7900,
      "bet": 7901,
      "ve,": 7902,
      "_const": 7903,
      "_l'exploitation": 7904,
      "_L’ordre": 7905,
      "_sérieuse": 7906,
      "_difficile.": 7907,
      "_torture": 7908,
      "_remarquable": 7909,
      "_prouv": 7910,
      "fiée": 7911,
      "_cad": 7912,
      "_Vi": 7913,
      "_juger": 7914,
      "_l'instar": 7915,
      "_indépendamment": 7916,
      "burg": 7917,
      "_d'im": 7918,
      "_d'argent": 7919,
      "_autrich": 7920,
      "_group": 7921,
      "_risquent": 7922,
      "_guerre,": 7923,
      "_heureuse": 7924,
      "_dégager": 7925,
      "_réconcili": 7926,
      "quons": 7927,
      "ite,": 7928,
      "_découver": 7929,
      "_non,": 7930,
      "_annonc": 7931,
      "_mondialis": 7932,
      "_intérieures,": 7933,
      "_récent": 7934,
      "_cependant,": 7935,
      "_inacceptable.": 7936,
      "_remis": 7937,
      "_Jap": 7938,
      "_encore.": 7939,
      "_formule": 7940,
      "_étonn": 7941,
      "_d'appr": 7942,
      "_Bruxelles,": 7943,
      "_vétérin": 7944,
      "_sent": 7945,
      "ardi": 7946,
      "_l’autre": 7947,
      "_Sév": 7948,
      "_compléter": 7949,
      "aill": 7950,
      "_droite": 7951,
      "_règne": 7952,
      "_adoption": 7953,
      "_attendent": 7954,
      "_Parallè": 7955,
      "g,": 7956,
      "_enc": 7957,
      "_remet": 7958,
      "_d’I": 7959,
      "_hy": 7960,
      "_disons": 7961,
      "aspect": 7962,
      "_institutionnelle": 7963,
      "_accepte": 7964,
      "_voies": 7965,
      "effet": 7966,
      "_aujourd’hui.": 7967,
      "_condamnation": 7968,
      "_opposés": 7969,
      "_éventuelle": 7970,
      "_Tchétchénie": 7971,
      "_Séville": 7972,
      "onie": 7973,
      "lier": 7974,
      "auff": 7975,
      "alit": 7976,
      "_membre,": 7977,
      "_unique.": 7978,
      "_privés": 7979,
      "_pauvreté.": 7980,
      "_cabill": 7981,
      "_rythme": 7982,
      "_dégâts": 7983,
      "_qu'aux": 7984,
      "_disait": 7985,
      "_transformer": 7986,
      "élimin": 7987,
      "_particulier.": 7988,
      "_suppos": 7989,
      "_laissé": 7990,
      "_appliqué": 7991,
      "_défavoris": 7992,
      "encer": 7993,
      "ortée": 7994,
      "pection": 7995,
      "_avancé": 7996,
      "_travaillons": 7997,
      "_qu’on": 7998,
      "_\"l": 7999,
      "_dégag": 8000,
      "respons": 8001,
      "_réform": 8002,
      "_an,": 8003,
      "_décrit": 8004,
      "_isol": 8005,
      "ves.": 8006,
      "_bles": 8007,
      "_surpris": 8008,
      "_sociaux,": 8009,
      "_services.": 8010,
      "_croissance,": 8011,
      "_d'apporter": 8012,
      "_librement": 8013,
      "_terminer": 8014,
      "_immédiate": 8015,
      "_attentivement": 8016,
      "_d'États": 8017,
      "_l’une": 8018,
      "_transposition": 8019,
      "_avantage": 8020,
      "_publics.": 8021,
      "_l'avant": 8022,
      "_informé": 8023,
      "_alimentaire,": 8024,
      "_équival": 8025,
      "_Inter": 8026,
      "_réité": 8027,
      "_l’accès": 8028,
      "_n'app": 8029,
      "_seules": 8030,
      "_arr": 8031,
      "_positives": 8032,
      "_souhaitable": 8033,
      "_soutiennent": 8034,
      "_côti": 8035,
      "_qu'avec": 8036,
      "atives.": 8037,
      "_félicitations": 8038,
      "_sacri": 8039,
      "_fallu": 8040,
      "_éloign": 8041,
      "iens": 8042,
      "no": 8043,
      "tro": 8044,
      "_rass": 8045,
      "_législation.": 8046,
      "_l’Union,": 8047,
      "_propositions,": 8048,
      "_combler": 8049,
      "_l'Itali": 8050,
      "_rendent": 8051,
      "_Portugal,": 8052,
      "_accélérer": 8053,
      "_l'alimentation": 8054,
      "_Pas": 8055,
      "diquer": 8056,
      "_d’ent": 8057,
      "_finir": 8058,
      "_l'Afghanistan": 8059,
      "_transports,": 8060,
      "_l'acquis": 8061,
      "_téléph": 8062,
      "_ignor": 8063,
      "_retire": 8064,
      "_hommage": 8065,
      "_gouvernement,": 8066,
      "ier": 8067,
      "timis": 8068,
      "_Comp": 8069,
      "_TV": 8070,
      "_commun,": 8071,
      "_sépara": 8072,
      "uvrer": 8073,
      "_rencontrer": 8074,
      "_l’homme.": 8075,
      "_permanente": 8076,
      "_comparais": 8077,
      "ovi": 8078,
      "_pav": 8079,
      "_d’ici": 8080,
      "énor": 8081,
      "_intervi": 8082,
      "missible": 8083,
      "lore": 8084,
      "_l’aff": 8085,
      "portunité": 8086,
      "_consolider": 8087,
      "_pluriann": 8088,
      "_loy": 8089,
      "_russe": 8090,
      "orables": 8091,
      "_national.": 8092,
      "_décision,": 8093,
      "_tentatives": 8094,
      "_difficile,": 8095,
      "_spor": 8096,
      "/2002)": 8097,
      "oût": 8098,
      "_travailleurs.": 8099,
      "_Johannesburg": 8100,
      "_objectifs.": 8101,
      "_volonti": 8102,
      "_financières.": 8103,
      "_reçoivent": 8104,
      "_nettement": 8105,
      "ilosoph": 8106,
      "don": 8107,
      "_cité": 8108,
      "_sit": 8109,
      "_héla": 8110,
      "_Tant": 8111,
      "_mettant": 8112,
      "_ferons": 8113,
      "_morts": 8114,
      "_Verts/": 8115,
      "_promesses": 8116,
      "_pharmaceu": 8117,
      "_concentre": 8118,
      "_États.": 8119,
      "_tenons": 8120,
      "_jouent": 8121,
      "_rigi": 8122,
      "_soldats": 8123,
      "_organe": 8124,
      "_suscité": 8125,
      "_s'avère": 8126,
      "_vigil": 8127,
      "lev": 8128,
      "alon": 8129,
      "dication": 8130,
      "amer": 8131,
      "_perç": 8132,
      "_amend": 8133,
      "_renvoi": 8134,
      "_incor": 8135,
      "_d’intérêt": 8136,
      "_conciliation,": 8137,
      "_convaincus": 8138,
      "_progressivement": 8139,
      "atives,": 8140,
      "_longues": 8141,
      "_erron": 8142,
      "_comit": 8143,
      "autés": 8144,
      "_régul": 8145,
      "illage": 8146,
      "_philosoph": 8147,
      "_américains": 8148,
      "_favorablement": 8149,
      "effectu": 8150,
      "entissage": 8151,
      "_serais": 8152,
      "_tiennent": 8153,
      "_représenter": 8154,
      "_renforce": 8155,
      "_capitale": 8156,
      "_judiciaires": 8157,
      "_révolution": 8158,
      "?uvre": 8159,
      "CH": 8160,
      "ouer": 8161,
      "_concertation": 8162,
      "tives.": 8163,
      "_d'examiner": 8164,
      "_culturelles": 8165,
      "_Constitution.": 8166,
      "_ensuite,": 8167,
      "ctives.": 8168,
      "_enregist": 8169,
      "_troupes": 8170,
      "_ord": 8171,
      "undi": 8172,
      "_vain": 8173,
      "_d'off": 8174,
      "_jur": 8175,
      "_l’attention": 8176,
      "_oui": 8177,
      "_BE": 8178,
      "_s’en": 8179,
      "_absence": 8180,
      "_raisons,": 8181,
      "_réjouir": 8182,
      "_l’avis": 8183,
      "_l'ESB": 8184,
      "_succès.": 8185,
      "_l’encontre": 8186,
      "_profondeur": 8187,
      "_tragédie": 8188,
      "_fo": 8189,
      "tuelle": 8190,
      "érir": 8191,
      "_négociations,": 8192,
      "_anticip": 8193,
      "_soir,": 8194,
      "_honte": 8195,
      "_Bulgarie": 8196,
      "_remb": 8197,
      "_Plu": 8198,
      "_complet": 8199,
      "_Afin": 8200,
      "ités,": 8201,
      "_posée": 8202,
      "_d'initiative": 8203,
      "_l'Autorité": 8204,
      "_étendu": 8205,
      "_guerre.": 8206,
      "_signalé": 8207,
      "_idéologi": 8208,
      "_chimiques": 8209,
      "_Colomb": 8210,
      "_Niels": 8211,
      "cos": 8212,
      "ercer": 8213,
      "_Shar": 8214,
      "_Celui": 8215,
      "_étendre": 8216,
      "_participent": 8217,
      "_alimentaire.": 8218,
      "_administrations": 8219,
      "_effectuer": 8220,
      "_can": 8221,
      "_sain": 8222,
      "_qu'est": 8223,
      "_viv": 8224,
      "_carte": 8225,
      "_négative": 8226,
      "_autre,": 8227,
      "_l'Amérique": 8228,
      "_offer": 8229,
      "_compétente": 8230,
      "attends": 8231,
      "_précédente": 8232,
      "_mém": 8233,
      "_brevets": 8234,
      "_outil": 8235,
      "_XX": 8236,
      "jout": 8237,
      "_devez": 8238,
      "_sauv": 8239,
      "_mur": 8240,
      "raf": 8241,
      "_ME": 8242,
      "ages.": 8243,
      "_jeune": 8244,
      "giques": 8245,
      "_considérés": 8246,
      "enne.": 8247,
      "_d'accueil": 8248,
      "_impliqués": 8249,
      "_génére": 8250,
      "_Plusieurs": 8251,
      "AR": 8252,
      "_PES": 8253,
      "ulture": 8254,
      "_\"d": 8255,
      "_assassin": 8256,
      "_régionaux": 8257,
      "_échapp": 8258,
      "_examiné": 8259,
      "_ministéri": 8260,
      "_Madri": 8261,
      "_assisté": 8262,
      "_demandant": 8263,
      "_nécessairement": 8264,
      "_réunir": 8265,
      "_récents": 8266,
      "_suffisante": 8267,
      "_énergies": 8268,
      "_rencontré": 8269,
      "_Bruxelles.": 8270,
      "_Grèce,": 8271,
      "_PPE-DE": 8272,
      "_printemps": 8273,
      "lectricité": 8274,
      "ou,": 8275,
      "_l’ont": 8276,
      "_horiz": 8277,
      "_instances": 8278,
      "_admettre": 8279,
      "_garantit": 8280,
      "_l’Irak": 8281,
      "_rapprochement": 8282,
      "_fossé": 8283,
      "_foi": 8284,
      "_vérité": 8285,
      "_établit": 8286,
      "_%,": 8287,
      "_d'aborder": 8288,
      "_doutes": 8289,
      "_campagnes": 8290,
      "_modifiant": 8291,
      "_témoign": 8292,
      "_Galile": 8293,
      "_papi": 8294,
      "_rail": 8295,
      "_explication": 8296,
      "_\"C": 8297,
      "_l'exclusion": 8298,
      "_services,": 8299,
      "_transparence.": 8300,
      "_récentes": 8301,
      "_significatif": 8302,
      "_brevet": 8303,
      "_écologique": 8304,
      "_systématiquement": 8305,
      "I,": 8306,
      "_l'U": 8307,
      "_d'éc": 8308,
      "_récip": 8309,
      "_affront": 8310,
      "_stabilisation": 8311,
      "_soumises": 8312,
      "_alternatives": 8313,
      "_caractéristiques": 8314,
      "_entreprendre": 8315,
      "_Schengen": 8316,
      "_aphteuse": 8317,
      "nier": 8318,
      "_démograph": 8319,
      "_constitué": 8320,
      "_n’ai": 8321,
      "_l'expérience": 8322,
      "_façon,": 8323,
      "_humains.": 8324,
      "_cinquième": 8325,
      "_dommage": 8326,
      "_compensation": 8327,
      "_coordonner": 8328,
      "_bois": 8329,
      "_concl": 8330,
      "_L'UE": 8331,
      "_Fe": 8332,
      "_précision": 8333,
      "_personnelles": 8334,
      "_bénéfice": 8335,
      "_d’inter": 8336,
      "_histor": 8337,
      "ctivité": 8338,
      "_explications": 8339,
      "_envoyer": 8340,
      "_immigrés": 8341,
      "_fruits": 8342,
      "_pourcentage": 8343,
      "_cœur": 8344,
      "_incer": 8345,
      "osti": 8346,
      "tera": 8347,
      "abit": 8348,
      "_concret": 8349,
      "qu'un": 8350,
      "armée": 8351,
      "_faim": 8352,
      "_approuvée": 8353,
      "_saluons": 8354,
      "_s'impos": 8355,
      "_controvers": 8356,
      "_musul": 8357,
      "ik": 8358,
      "_prenant": 8359,
      "abitu": 8360,
      "_secteur,": 8361,
      "_Wal": 8362,
      "_confirme": 8363,
      "_embry": 8364,
      "_applicable": 8365,
      "_danoise": 8366,
      "_tribunaux": 8367,
      "_tre": 8368,
      "opoul": 8369,
      "rika": 8370,
      "_Puis": 8371,
      "_L'ex": 8372,
      "_spécialis": 8373,
      "_dernière.": 8374,
      "oton": 8375,
      "_d'appro": 8376,
      "_loin.": 8377,
      "_délégations": 8378,
      "_d'évaluation": 8379,
      "_Zimbabwe": 8380,
      "_corruption": 8381,
      "_specta": 8382,
      "_Celle": 8383,
      "taurer": 8384,
      "rières": 8385,
      "_l’acc": 8386,
      "_d’améliorer": 8387,
      "_coali": 8388,
      "_l'époque": 8389,
      "_ferai": 8390,
      "_programme.": 8391,
      "_d'étu": 8392,
      "_Chine,": 8393,
      "_besoin,": 8394,
      "_m'ont": 8395,
      "_combus": 8396,
      "_indispensables": 8397,
      "_sollic": 8398,
      "_s'agisse": 8399,
      "_inutile": 8400,
      "_îles": 8401,
      "_dizaines": 8402,
      "_TVA": 8403,
      "lor": 8404,
      "_est-elle": 8405,
      "_l’agriculture": 8406,
      "_exister": 8407,
      "cupé": 8408,
      "_arbit": 8409,
      "argo": 8410,
      "_l'extérieur": 8411,
      "_autre.": 8412,
      "_décision-cadre": 8413,
      "enne,": 8414,
      "_qualité.": 8415,
      "_côtés": 8416,
      "_l'opposition": 8417,
      "_handicapées": 8418,
      "_ambigu": 8419,
      "-chrétiens": 8420,
      "_incontest": 8421,
      "_cabillaud": 8422,
      "CHO": 8423,
      "by": 8424,
      "_simul": 8425,
      "_Sy": 8426,
      "_Ar": 8427,
      "_ferait": 8428,
      "_rapidement.": 8429,
      "_directeur": 8430,
      "_individus": 8431,
      "_énormes": 8432,
      "_ultérieure": 8433,
      "_pétitions": 8434,
      "_bateaux": 8435,
      "_provisoire": 8436,
      "antes,": 8437,
      "_hor": 8438,
      "trons": 8439,
      "_reconnaissant": 8440,
      "_substance": 8441,
      "_fermeture": 8442,
      "_charges": 8443,
      "_exprimée": 8444,
      "_l'approbation": 8445,
      "_Laeken": 8446,
      "_syndica": 8447,
      "_adhérer": 8448,
      "_l'effort": 8449,
      "_due": 8450,
      "_l’éch": 8451,
      "_solution.": 8452,
      "_agricole,": 8453,
      "_défense.": 8454,
      "_bénéficie": 8455,
      "ormément": 8456,
      "_urgence": 8457,
      "_palestinien": 8458,
      "_suggère": 8459,
      "_indépendants": 8460,
      "_Aussi,": 8461,
      "_inférieur": 8462,
      "_devenue": 8463,
      "CN": 8464,
      "arer": 8465,
      "_mass": 8466,
      "_far": 8467,
      "opéra": 8468,
      "_consistant": 8469,
      "_deviennent": 8470,
      "_posta": 8471,
      "espère,": 8472,
      "_6,": 8473,
      "dapter": 8474,
      "_sinon": 8475,
      "_moratoire": 8476,
      "_susceptible": 8477,
      "férer": 8478,
      "_couvre": 8479,
      "_rétablir": 8480,
      "_L'amendement": 8481,
      "_l'harmonisation": 8482,
      "_n’ex": 8483,
      "_quelques-": 8484,
      "_salaires": 8485,
      "_appeler": 8486,
      "_criminels": 8487,
      "_civile,": 8488,
      "_plaintes": 8489,
      "_l'affaire": 8490,
      "eb": 8491,
      "_réels": 8492,
      "_averti": 8493,
      "_fin,": 8494,
      "_35": 8495,
      "_réformer": 8496,
      "_contrôle.": 8497,
      "otb": 8498,
      "_tourisme,": 8499,
      "_procédur": 8500,
      "_l'Est": 8501,
      "_professionnels": 8502,
      "_démontrer": 8503,
      "_silence": 8504,
      "_précédemment": 8505,
      "_bless": 8506,
      "UR": 8507,
      "trai": 8508,
      "_s'assurer": 8509,
      "_coex": 8510,
      "_dépasser": 8511,
      "_saurait": 8512,
      "_Oui,": 8513,
      "_réductions": 8514,
      "_professe": 8515,
      "_écouté": 8516,
      "_Jusqu'": 8517,
      "arri": 8518,
      "_lead": 8519,
      "_chinois": 8520,
      "_implications": 8521,
      "_ainsi,": 8522,
      "verse": 8523,
      "_initiale": 8524,
      "_tradition": 8525,
      "_matériel": 8526,
      "_volume": 8527,
      "estions": 8528,
      "omin": 8529,
      "olition": 8530,
      "_absolue": 8531,
      "_signifier": 8532,
      "_environnemental": 8533,
      "_exigence": 8534,
      "_arrivé": 8535,
      "_sensiblement": 8536,
      "_figurent": 8537,
      "_déployés": 8538,
      "_primordial": 8539,
      "_explicitement": 8540,
      "_ps": 8541,
      "_cub": 8542,
      "_qualit": 8543,
      "_éducation": 8544,
      "_ration": 8545,
      "_enthousias": 8546,
      "_pertes": 8547,
      "_transpor": 8548,
      "_Proche": 8549,
      "_voyage": 8550,
      "_spécifiquement": 8551,
      "émicycle": 8552,
      "opor": 8553,
      "ve.": 8554,
      "tatif": 8555,
      "_aussi.": 8556,
      "_recul": 8557,
      "_j'avais": 8558,
      "quiétu": 8559,
      "_Aujourd’hui,": 8560,
      "_immigration": 8561,
      "_énormément": 8562,
      "_normal": 8563,
      "_strictes": 8564,
      "_Stockholm": 8565,
      "_we": 8566,
      "_sites": 8567,
      "_d'ai": 8568,
      "auf": 8569,
      "_réin": 8570,
      "_soumet": 8571,
      "_S’": 8572,
      "_Sta": 8573,
      "_inspi": 8574,
      "_nationale.": 8575,
      "_remercie,": 8576,
      "_profite": 8577,
      "_n'aur": 8578,
      "_sélection": 8579,
      "_d’information": 8580,
      "_longtemps.": 8581,
      "_brut": 8582,
      "_exploitations": 8583,
      "_convaincue": 8584,
      "_portugaise": 8585,
      "_contenter": 8586,
      "CNS)": 8587,
      "_l'attitude": 8588,
      "_Coton": 8589,
      "_digne": 8590,
      "_rigueur": 8591,
      "_utiles": 8592,
      "_professionnelles": 8593,
      "_sérieux.": 8594,
      "_taxes": 8595,
      "_écoles": 8596,
      "-M": 8597,
      "_faux": 8598,
      "tégr": 8599,
      "_Min": 8600,
      "mbi": 8601,
      "_trente": 8602,
      "_SI": 8603,
      "_artis": 8604,
      "_conditions,": 8605,
      "_faisant,": 8606,
      "_l'import": 8607,
      "cell": 8608,
      "_financiers.": 8609,
      "_surveiller": 8610,
      "_fréqu": 8611,
      "_Hussein": 8612,
      "gle": 8613,
      "mos": 8614,
      "_gagn": 8615,
      "_propos.": 8616,
      "_population,": 8617,
      "_éclair": 8618,
      "_agricole.": 8619,
      "_obligatoires": 8620,
      "_basé": 8621,
      "_mépris": 8622,
      "_spati": 8623,
      "_d'intervention": 8624,
      "_erreurs": 8625,
      "_minute": 8626,
      "rom": 8627,
      "ôts": 8628,
      "_d'augmenter": 8629,
      "estre": 8630,
      "_contenant": 8631,
      "_\"A": 8632,
      "_renoncer": 8633,
      "_procédé": 8634,
      "_objectif,": 8635,
      "_institutionnelles": 8636,
      "_Haut": 8637,
      "_l'OLAF": 8638,
      "_hui,": 8639,
      "_quotidien": 8640,
      "_sûreté": 8641,
      "_rejoindre": 8642,
      "_muni": 8643,
      "ustra": 8644,
      "_Pendant": 8645,
      "chons": 8646,
      "_Fran": 8647,
      "_généraux": 8648,
      "_compte.": 8649,
      "_texte.": 8650,
      "_stabilité,": 8651,
      "_existants": 8652,
      "_ministère": 8653,
      "_1999.": 8654,
      "_minutes": 8655,
      "_cop": 8656,
      "_merc": 8657,
      "arisation": 8658,
      "_époque": 8659,
      "_impu": 8660,
      "_bienvenue": 8661,
      "_programmation": 8662,
      "_internationales.": 8663,
      "_d'introduire": 8664,
      "ilib": 8665,
      "_d'élaborer": 8666,
      "luscon": 8667,
      "_doute,": 8668,
      "pir": 8669,
      "tance": 8670,
      "_lancement": 8671,
      "it,": 8672,
      "_Pac": 8673,
      "_avéré": 8674,
      "_dispar": 8675,
      "_considèrent": 8676,
      "_l'human": 8677,
      "_l'Agence": 8678,
      "_députés.": 8679,
      "_respectant": 8680,
      "_communiquer": 8681,
      "_d'après": 8682,
      "_libéral": 8683,
      "_réjouissons": 8684,
      "_vigueur.": 8685,
      "_d'armes": 8686,
      "_simplifier": 8687,
      "_d'aller": 8688,
      "_recettes": 8689,
      "_footb": 8690,
      "_Celle-ci": 8691,
      "22": 8692,
      "_mille": 8693,
      "ffice": 8694,
      "_développé": 8695,
      "_Ré": 8696,
      "_l'An": 8697,
      "_fixe": 8698,
      "_arrêter": 8699,
      "_lourde": 8700,
      "munité": 8701,
      "_navigation": 8702,
      "(CNS)": 8703,
      "_soin": 8704,
      "ern": 8705,
      "_mor": 8706,
      "_l'être": 8707,
      "_villes": 8708,
      "_éduc": 8709,
      "térêts": 8710,
      "_moteur": 8711,
      "_lieux": 8712,
      "ash": 8713,
      "_\"c": 8714,
      "_simples": 8715,
      "_rechercher": 8716,
      "édération": 8717,
      "_civile.": 8718,
      "_chargée": 8719,
      "_réflexions": 8720,
      "_Moyen-Orient.": 8721,
      "_anglais": 8722,
      "fants": 8723,
      "_exhaus": 8724,
      "_Entre": 8725,
      "_répété": 8726,
      "_maintenu": 8727,
      "tives,": 8728,
      "_l'Afrique": 8729,
      "_disposés": 8730,
      "_décisif": 8731,
      "voque": 8732,
      "_prochaine,": 8733,
      "_Constitution,": 8734,
      "_financières,": 8735,
      "_essayé": 8736,
      "ède,": 8737,
      "_latine": 8738,
      "_d'ann": 8739,
      "État,": 8740,
      "énagement": 8741,
      "_interdire": 8742,
      "_clon": 8743,
      "_Val": 8744,
      "équilib": 8745,
      "_million": 8746,
      "_responsabilité.": 8747,
      "_faisait": 8748,
      "matique.": 8749,
      "_côtes": 8750,
      "_(A5-03": 8751,
      "_investir": 8752,
      "_d'Israël": 8753,
      "oine": 8754,
      "_Fra": 8755,
      "_emprun": 8756,
      "_Kin": 8757,
      "_structur": 8758,
      "_réglementaire": 8759,
      "_entraîné": 8760,
      "_officielle": 8761,
      "_expliqué": 8762,
      "urants": 8763,
      "_résistance": 8764,
      "entement": 8765,
      "_spécific": 8766,
      "_indicateurs": 8767,
      "_mi-par": 8768,
      "_difficil": 8769,
      "_assemblée": 8770,
      "_indépendante": 8771,
      "ctives,": 8772,
      "_d’abord,": 8773,
      "_abandonn": 8774,
      "_d’adopter": 8775,
      "_dictature": 8776,
      "_mi-parc": 8777,
      "_conj": 8778,
      "_réag": 8779,
      "_bref": 8780,
      "exprime": 8781,
      "_fourniture": 8782,
      "_m’a": 8783,
      "_Certaines": 8784,
      "_observer": 8785,
      "_remédier": 8786,
      "_main-d'": 8787,
      "_ç": 8788,
      "tensi": 8789,
      "ités.": 8790,
      "_tiss": 8791,
      "_régions.": 8792,
      "_croissante": 8793,
      "_navire": 8794,
      "_class": 8795,
      "_prouver": 8796,
      "_Main": 8797,
      "_Et,": 8798,
      "_impéri": 8799,
      "_recour": 8800,
      "_publication": 8801,
      "_(CE": 8802,
      "_différenci": 8803,
[...]
