{
  "version": "1.0",
  "truncation": null,
  "padding": null,
  "added_tokens": [
    {
      "id": 0,
      "content": "<s>",
      "single_word": false,
      "lstrip": false,
      "rstrip": false,
      "normalized": false,
      "special": true
    },
    {
      "id": 1,
      "content": "<pad>",
      "single_word": false,
      "lstrip": false,
      "rstrip": false,
      "normalized": false,
      "special": true
    },
    {
      "id": 2,
      "content": "</s>",
      "single_word": false,
      "lstrip": false,
      "rstrip": false,
      "normalized": false,
      "special": true
    },
    {
      "id": 3,
      "content": "<unk>",
      "single_word": false,
      "lstrip": false,
      "rstrip": false,
      "normalized": false,
      "special": true
    }
  ],
  "normalizer": null,
  "pre_tokenizer": {
    "type": "Metaspace",
    "replacement": "_",
    "prepend_scheme": "always",
    "split": true
  },
  "post_processor": {
    "type": "TemplateProcessing",
    "single": [
      {
        "SpecialToken": {
          "id": "<s>",
          "type_id": 0
        }
      },
      {
        "Sequence": {
          "id": "A",
          "type_id": 0
        }
      },
      {
        "SpecialToken": {
          "id": "</s>",
          "type_id": 0
        }
      }
    ],
    "pair": [
      {
        "SpecialToken": {
          "id": "<s>",
          "type_id": 0
        }
      },
      {
        "Sequence": {
          "id": "A",
          "type_id": 0
        }
      },
      {
        "SpecialToken": {
          "id": "</s>",
          "type_id": 0
        }
      },
      {
        "Sequence": {
          "id": "B",
          "type_id": 1
        }
      },
      {
        "SpecialToken": {
          "id": "</s>",
          "type_id": 1
        }
      }
    ],
    "special_tokens": {
      "</s>": {
        "id": "</s>",
        "ids": [
          2
        ],
        "tokens": [
          "</s>"
        ]
      },
      "<s>": {
        "id": "<s>",
        "ids": [
          0
        ],
        "tokens": [
          "<s>"
        ]
      }
    }
  },
  "decoder": {
    "type": "Metaspace",
    "replacement": "_",
    "prepend_scheme": "always",
    "split": true
  },
  "model": {
    "type": "BPE",
    "dropout": null,
    "unk_token": "<unk>",
    "continuing_subword_prefix": null,
    "end_of_word_suffix": null,
    "fuse_unk": false,
    "byte_fallback": false,
    "ignore_merges": false,
    "vocab": {
      "<s>": 0,
      "<pad>": 1,
      "</s>": 2,
      "<unk>": 3,
      "!": 4,
      "\"": 5,
      "$": 6,
      "%": 7,
      "&": 8,
      "'": 9,
      "(": 10,
      ")": 11,
      "*": 12,
      "+": 13,
      ",": 14,
      "-": 15,
      ".": 16,
      "/": 17,
      "0": 18,
      "1": 19,
      "2": 20,
      "3": 21,
      "4": 22,
      "5": 23,
      "6": 24,
      "7": 25,
      "8": 26,
      "9": 27,
      ":": 28,
      ";": 29,
      "=": 30,
      "?": 31,
      "@": 32,
      "A": 33,
      "B": 34,
      "C": 35,
      "D": 36,
      "E": 37,
      "F": 38,
      "G": 39,
      "H": 40,
      "I": 41,
      "J": 42,
      "K": 43,
      "L": 44,
      "M": 45,
      "N": 46,
      "O": 47,
      "P": 48,
      "Q": 49,
      "R": 50,
      "S": 51,
      "T": 52,
      "U": 53,
      "V": 54,
      "W": 55,
      "X": 56,
      "Y": 57,
      "Z": 58,
      "[": 59,
      "\\": 60,
      "]": 61,
      "_": 62,
      "`": 63,
      "a": 64,
      "b": 65,
      "c": 66,
      "d": 67,
      "e": 68,
      "f": 69,
      "g": 70,
      "h": 71,
      "i": 72,
      "j": 73,
      "k": 74,
      "l": 75,
      "m": 76,
      "n": 77,
      "o": 78,
      "p": 79,
      "q": 80,
      "r": 81,
      "s": 82,
      "t": 83,
      "u": 84,
      "v": 85,
      "w": 86,
      "x": 87,
      "y": 88,
      "z": 89,
      "|": 90,
      " ": 91,
      "¡": 92,
      "£": 93,
      "«": 94,
      "­": 95,
      "°": 96,
      "´": 97,
      "µ": 98,
      "·": 99,
      "º": 100,
      "»": 101,
      "¼": 102,
      "½": 103,
      "¾": 104,
      "À": 105,
      "Á": 106,
      "Â": 107,
      "Å": 108,
      "Ç": 109,
      "É": 110,
      "Ê": 111,
      "Ì": 112,
      "Í": 113,
      "Ï": 114,
      "Ñ": 115,
      "Ó": 116,
      "Ô": 117,
      "Ö": 118,
      "Ø": 119,
      "Ù": 120,
      "Ü": 121,
      "Ý": 122,
      "ß": 123,
      "à": 124,
      "á": 125,
      "â": 126,
      "ã": 127,
      "ä": 128,
      "å": 129,
      "æ": 130,
      "ç": 131,
      "è": 132,
      "é": 133,
      "ê": 134,
      "ë": 135,
      "ì": 136,
      "í": 137,
      "î": 138,
      "ï": 139,
      "ð": 140,
      "ñ": 141,
      "ò": 142,
      "ó": 143,
      "ô": 144,
      "õ": 145,
      "ö": 146,
      "÷": 147,
      "ø": 148,
      "ù": 149,
      "ú": 150,
      "û": 151,
      "ü": 152,
      "ý": 153,
      "þ": 154,
      "ă": 155,
      "ć": 156,
      "Č": 157,
      "č": 158,
      "ė": 159,
      "ę": 160,
      "ğ": 161,
      "ľ": 162,
      "ł": 163,
      "ń": 164,
      "ő": 165,
      "Ś": 166,
      "ś": 167,
      "ş": 168,
      "Š": 169,
      "š": 170,
      "Ż": 171,
      "Ž": 172,
      "Α": 173,
      "Ε": 174,
      "Ι": 175,
      "Κ": 176,
      "Μ": 177,
      "Ν": 178,
      "Ο": 179,
      "Ρ": 180,
      "Τ": 181,
      "ί": 182,
      "ο": 183,
      "Є": 184,
      "У": 185,
      "а": 186,
      "в": 187,
      "д": 188,
      "е": 189,
      "и": 190,
      "й": 191,
      "к": 192,
      "л": 193,
      "м": 194,
      "н": 195,
      "о": 196,
      "п": 197,
      "р": 198,
      "с": 199,
      "т": 200,
      "ъ": 201,
      "ю": 202,
      "є": 203,
      "і": 204,
      "ї": 205,
      "–": 206,
      "—": 207,
      "‘": 208,
      "’": 209,
      "“": 210,
      "”": 211,
      "•": 212,
      "…": 213,
      "_t": 214,
      "_th": 215,
      "_a": 216,
      "in": 217,
      "_the": 218,
      "on": 219,
      "re": 220,
      "at": 221,
      "en": 222,
      "is": 223,
      "_o": 224,
      "_w": 225,
      "er": 226,
      "_s": 227,
      "it": 228,
      "_c": 229,
      "ion": 230,
      "_p": 231,
      "or": 232,
      "_to": 233,
      "_of": 234,
      "_b": 235,
      "es": 236,
      "nd": 237,
      "_in": 238,
      "_f": 239,
      "an": 240,
      "al": 241,
      "ou": 242,
      "ed": 243,
      "ro": 244,
      "_m": 245,
      "_and": 246,
      "ent": 247,
      "ar": 248,
      "ic": 249,
      "ing": 250,
      "_h": 251,
      "_d": 252,
      "_re": 253,
      "le": 254,
      "om": 255,
      "_be": 256,
      "ve": 257,
      "_n": 258,
      "st": 259,
      "_is": 260,
      "_I": 261,
      "_that": 262,
      "il": 263,
      "ct": 264,
      "ly": 265,
      "as": 266,
      "_e": 267,
      "ation": 268,
      "ment": 269,
      "_wh": 270,
      "_on": 271,
      "pe": 272,
      "ot": 273,
      "_C": 274,
      "_for": 275,
      "_T": 276,
      "id": 277,
      "ut": 278,
      "_we": 279,
      "se": 280,
      "_l": 281,
      "_pro": 282,
      "im": 283,
      "_M": 284,
      "ur": 285,
      "_E": 286,
      "_con": 287,
      "_g": 288,
      "ce": 289,
      "_Th": 290,
      "ort": 291,
      "_it": 292,
      "ol": 293,
      "_ha": 294,
      "omm": 295,
      "_this": 296,
      "_al": 297,
      "res": 298,
      "ra": 299,
      "ld": 300,
      "_de": 301,
      "_P": 302,
      "_as": 303,
      "_are": 304,
      "ver": 305,
      "_u": 306,
      "et": 307,
      "ith": 308,
      "ul": 309,
      "ig": 310,
      "_with": 311,
      "port": 312,
      "uro": 313,
      "ow": 314,
      "_not": 315,
      "_Euro": 316,
      "ould": 317,
      "sion": 318,
      "ill": 319,
      "_have": 320,
      "_Europe": 321,
      "ch": 322,
      "ies": 323,
      "ir": 324,
      "ich": 325,
      "_st": 326,
      "ate": 327,
      "_which": 328,
      "_S": 329,
      "_Comm": 330,
      "ay": 331,
      "_The": 332,
      "_su": 333,
      "_an": 334,
      "_A": 335,
      "ity": 336,
      "oun": 337,
      "s,": 338,
      "os": 339,
      "em": 340,
      "th": 341,
      "ble": 342,
      "ke": 343,
      "ive": 344,
      "ter": 345,
      "op": 346,
      "ad": 347,
      "_ne": 348,
      "if": 349,
      "_ex": 350,
      "ust": 351,
      "s.": 352,
      "ore": 353,
      "_European": 354,
      "_will": 355,
      "_y": 356,
      "_by": 357,
      "_sh": 358,
      "ission": 359,
      "_W": 360,
      "_Mr": 361,
      "_Commission": 362,
      "ain": 363,
      "li": 364,
      "qu": 365,
      "ant": 366,
      "_has": 367,
      "ber": 368,
      "igh": 369,
      "end": 370,
      "_v": 371,
      "ere": 372,
      "_r": 373,
      "ect": 374,
      "_im": 375,
      "ial": 376,
      "est": 377,
      "_at": 378,
      "oc": 379,
      "ge": 380,
      "iv": 381,
      "ess": 382,
      "_com": 383,
      "am": 384,
      "art": 385,
      "_or": 386,
      "_ag": 387,
      "_U": 388,
      "tr": 389,
      "our": 390,
      "_all": 391,
      "ure": 392,
      "um": 393,
      "_res": 394,
      "_le": 395,
      "resid": 396,
      "ight": 397,
      "pp": 398,
      "_se": 399,
      "_en": 400,
      "_would": 401,
      "un": 402,
      "so": 403,
      "_wor": 404,
      "ff": 405,
      "_there": 406,
      "_Presid": 407,
      "rom": 408,
      "_do": 409,
      "ament": 410,
      "_also": 411,
      "_me": 412,
      "_pol": 413,
      "el": 414,
      "us": 415,
      "ers": 416,
      "_Un": 417,
      "_can": 418,
      "_int": 419,
      "_ta": 420,
      "ist": 421,
      "ard": 422,
      "ember": 423,
      "_should": 424,
      "_our": 425,
      "od": 426,
      "_We": 427,
      "_must": 428,
      "ud": 429,
      "_President": 430,
      "_from": 431,
      "_part": 432,
      "arli": 433,
      "_ad": 434,
      "ates": 435,
      "_am": 436,
      "_F": 437,
      "_reg": 438,
      "ical": 439,
      "arliament": 440,
      "ish": 441,
      "_but": 442,
      "_been": 443,
      "_B": 444,
      "very": 445,
      "ions": 446,
      "and": 447,
      "_St": 448,
      "_coun": 449,
      "_fa": 450,
      "pport": 451,
      "_ac": 452,
      "cil": 453,
      "_It": 454,
      "00": 455,
      "ther": 456,
      "_ab": 457,
      "_ma": 458,
      "ue": 459,
      "_li": 460,
      "_countr": 461,
      "pos": 462,
      "out": 463,
      "ire": 464,
      "ree": 465,
      "_H": 466,
      "_Member": 467,
      "rou": 468,
      "_go": 469,
      "_Parliament": 470,
      "_you": 471,
      "_In": 472,
      "ome": 473,
      "_Union": 474,
      "ult": 475,
      "_-": 476,
      "ie": 477,
      "vel": 478,
      "all": 479,
      "bl": 480,
      "ary": 481,
      "si": 482,
      "con": 483,
      "king": 484,
      "ple": 485,
      "reat": 486,
      "ast": 487,
      "ous": 488,
      "_G": 489,
      "_comm": 490,
      "_Coun": 491,
      "ac": 492,
      "_report": 493,
      "_j": 494,
      "_Council": 495,
      "pl": 496,
      "_dis": 497,
      "_was": 498,
      "ans": 499,
      "_qu": 500,
      "gh": 501,
      "_more": 502,
      "pt": 503,
      "_cont": 504,
      "able": 505,
      "_President,": 506,
      "ose": 507,
      "ations": 508,
      "_ch": 509,
      "_un": 510,
      "_app": 511,
      "ments": 512,
      "_N": 513,
      "_like": 514,
      "ition": 515,
      "ution": 516,
      "_1": 517,
      "du": 518,
      "_its": 519,
      "_tr": 520,
      "_propos": 521,
      "_co": 522,
      "ance": 523,
      "_so": 524,
      "itt": 525,
      "_States": 526,
      "_inc": 527,
      "ly,": 528,
      "_2": 529,
      "_R": 530,
      "_need": 531,
      "e,": 532,
      "_who": 533,
      "_conc": 534,
      "_their": 535,
      "_pos": 536,
      "ction": 537,
      "oin": 538,
      "ear": 539,
      "fore": 540,
      "au": 541,
      "are": 542,
      "_these": 543,
      "_us": 544,
      "her": 545,
      "ces": 546,
      "_pe": 547,
      "ri": 548,
      "_This": 549,
      "_right": 550,
      "_pl": 551,
      "_pre": 552,
      "cess": 553,
      "_cons": 554,
      "_very": 555,
      "'s": 556,
      "ed.": 557,
      "_they": 558,
      "_bec": 559,
      "_polic": 560,
      "ational": 561,
      "oint": 562,
      "_import": 563,
      "orm": 564,
      "_other": 565,
      "_out": 566,
      "ong": 567,
      "ru": 568,
      "ject": 569,
      "_countries": 570,
      "y,": 571,
      "_what": 572,
      "_he": 573,
      "_L": 574,
      "_up": 575,
      "_D": 576,
      "ress": 577,
      "_than": 578,
      "ence": 579,
      "_tim": 580,
      "_one": 581,
      "_O": 582,
      "_my": 583,
      "tern": 584,
      "ause": 585,
      "_work": 586,
      "pect": 587,
      "ed,": 588,
      "_about": 589,
      "_man": 590,
      "ise": 591,
      "bil": 592,
      "_fin": 593,
      "_und": 594,
      "per": 595,
      "_EU": 596,
      "_iss": 597,
      "_sa": 598,
      "_spe": 599,
      "_no": 600,
      "_ra": 601,
      "_dec": 602,
      "_bet": 603,
      "get": 604,
      "velop": 605,
      "_year": 606,
      "ople": 607,
      "_ref": 608,
      "ag": 609,
      "ention": 610,
      "_proposal": 611,
      "cial": 612,
      "ern": 613,
      "e.": 614,
      "ities": 615,
      "y.": 616,
      "ll": 617,
      "_if": 618,
      "ally": 619,
      "_ind": 620,
      "ced": 621,
      "nt": 622,
      "_ev": 623,
      "_support": 624,
      "_new": 625,
      "_under": 626,
      "_only": 627,
      "ost": 628,
      "ens": 629,
      "ated": 630,
      "ious": 631,
      "_leg": 632,
      "age": 633,
      "og": 634,
      "ever": 635,
      "_pr": 636,
      "_people": 637,
      "_again": 638,
      "ide": 639,
      "_develop": 640,
      "_k": 641,
      "_eff": 642,
      "_partic": 643,
      "ee": 644,
      "ram": 645,
      "tain": 646,
      "ign": 647,
      "_rec": 648,
      "_important": 649,
      "_point": 650,
      "_how": 651,
      "_any": 652,
      "_comp": 653,
      "ach": 654,
      "iti": 655,
      "_them": 656,
      "_because": 657,
      "und": 658,
      "ark": 659,
      "resent": 660,
      "irst": 661,
      "ace": 662,
      "_now": 663,
      "bility": 664,
      "es,": 665,
      "pon": 666,
      "der": 667,
      "_dem": 668,
      "lear": 669,
      "conom": 670,
      "_act": 671,
      "irect": 672,
      "ular": 673,
      "stit": 674,
      "_ter": 675,
      "ice": 676,
      "one": 677,
      "_ser": 678,
      "_agree": 679,
      "_concern": 680,
      "_polit": 681,
      "we": 682,
      "unity": 683,
      "_say": 684,
      "_ob": 685,
      "_tra": 686,
      "sel": 687,
      "es.": 688,
      "_take": 689,
      "ures": 690,
      "ip": 691,
      "_em": 692,
      "_cl": 693,
      "ative": 694,
      "iff": 695,
      "_make": 696,
      "_soc": 697,
      "_such": 698,
      "_prov": 699,
      "ific": 700,
      "_sub": 701,
      "sible": 702,
      "_being": 703,
      "_vot": 704,
      "ia": 705,
      "_therefore": 706,
      "cy": 707,
      "_some": 708,
      "_deb": 709,
      "_way": 710,
      "_inf": 711,
      "_prog": 712,
      "ame": 713,
      "ms": 714,
      "_fact": 715,
      "lie": 716,
      "_inv": 717,
      "_just": 718,
      "ew": 719,
      "_diff": 720,
      "_into": 721,
      "ubl": 722,
      "_those": 723,
      "_trans": 724,
      "ween": 725,
      "_Commissioner": 726,
      "_between": 727,
      "vern": 728,
      "_econom": 729,
      "ep": 730,
      "_rel": 731,
      "now": 732,
      "_la": 733,
      "ever,": 734,
      "_Con": 735,
      "_particular": 736,
      "_belie": 737,
      "_200": 738,
      "_political": 739,
      "_when": 740,
      "ap": 741,
      "roup": 742,
      "ine": 743,
      "_per": 744,
      "_cr": 745,
      "ade": 746,
      "cept": 747,
      "_proble": 748,
      "ict": 749,
      "_appro": 750,
      "_clear": 751,
      "_acc": 752,
      "xt": 753,
      "_bas": 754,
      "rat": 755,
      "_quest": 756,
      "ittee": 757,
      "ublic": 758,
      "uman": 759,
      "_direct": 760,
      "ision": 761,
      "_were": 762,
      "ack": 763,
      "_over": 764,
      "_first": 765,
      "ord": 766,
      "_great": 767,
      "ough": 768,
      "_imp": 769,
      "ase": 770,
      "lud": 771,
      "iew": 772,
      "ink": 773,
      "_want": 774,
      "_(": 775,
      "ci": 776,
      "_respon": 777,
      "_sy": 778,
      "_believe": 779,
      "_mark": 780,
      "ation.": 781,
      "_know": 782,
      "_regard": 783,
      "_made": 784,
      "ite": 785,
      "_rem": 786,
      "ation,": 787,
      "_produ": 788,
      "day": 789,
      "ian": 790,
      "_amend": 791,
      "_op": 792,
      "ind": 793,
      "_Wh": 794,
      "_time": 795,
      "ating": 796,
      "_te": 797,
      "_issue": 798,
      "_policy": 799,
      "ving": 800,
      "_ext": 801,
      "_disc": 802,
      "_tw": 803,
      "ken": 804,
      "ural": 805,
      "act": 806,
      "_debate": 807,
      "_mat": 808,
      "_intern": 809,
      "ward": 810,
      "_–": 811,
      "_human": 812,
      "eg": 813,
      "_att": 814,
      "stem": 815,
      "_As": 816,
      "_market": 817,
      "oy": 818,
      "_sit": 819,
      "_requ": 820,
      "_add": 821,
      "ism": 822,
      "_fund": 823,
      "_see": 824,
      "_against": 825,
      "wn": 826,
      "ives": 827,
      "icult": 828,
      "ang": 829,
      "_many": 830,
      "low": 831,
      "_str": 832,
      "ful": 833,
      "_ar": 834,
      "_ass": 835,
      "_too": 836,
      "opt": 837,
      "_system": 838,
      "ues": 839,
      "_That": 840,
      "udget": 841,
      "_question": 842,
      "ited": 843,
      "_gen": 844,
      "ertain": 845,
      "arge": 846,
      "_adopt": 847,
      "read": 848,
      "ope": 849,
      "_prot": 850,
      "_conf": 851,
      "uch": 852,
      "not": 853,
      "ib": 854,
      "_meas": 855,
      "_even": 856,
      "ual": 857,
      "_situ": 858,
      "ved": 859,
      "rough": 860,
      "_consid": 861,
      "oth": 862,
      "en,": 863,
      "_view": 864,
      "_public": 865,
      "_ro": 866,
      "_social": 867,
      "_far": 868,
      "_order": 869,
      "_end": 870,
      "stitution": 871,
      "_There": 872,
      "olution": 873,
      "_Committee": 874,
      "_two": 875,
      "ised": 876,
      "itiz": 877,
      "_rep": 878,
      "ren": 879,
      "_well": 880,
      "_had": 881,
      "_exp": 882,
      "iron": 883,
      "  ": 884,
      "ramm": 885,
      "_where": 886,
      "_cour": 887,
      "vernment": 888,
      "_development": 889,
      "_  ": 890,
      "_economic": 891,
      "_inform": 892,
      "_does": 893,
      "oper": 894,
      "_exam": 895,
      "uture": 896,
      "viron": 897,
      "_that,": 898,
      "_J": 899,
      "vironment": 900,
      "_cannot": 901,
      "pet": 902,
      "_incre": 903,
      "_future": 904,
      "_said": 905,
      "_certain": 906,
      "_good": 907,
      "ks": 908,
      "_off": 909,
      "_def": 910,
      "eth": 911,
      "eral": 912,
      "_national": 913,
      "iven": 914,
      "_effect": 915,
      "_possible": 916,
      "_every": 917,
      "_think": 918,
      "_citiz": 919,
      "cur": 920,
      "_present": 921,
      "_matter": 922,
      "_Am": 923,
      "ing,": 924,
      "_contin": 925,
      "_Mrs": 926,
      "ove": 927,
      "_use": 928,
      "ob": 929,
      "_ens": 930,
      "_could": 931,
      "_same": 932,
      "_set": 933,
      "plement": 934,
      "_within": 935,
      "_long": 936,
      "_alread": 937,
      "isl": 938,
      "_ent": 939,
      "_includ": 940,
      "_sp": 941,
      "_protect": 942,
      "ploy": 943,
      "erest": 944,
      "_here": 945,
      "ority": 946,
      "ount": 947,
      "cond": 948,
      "_much": 949,
      "_already": 950,
      "ency": 951,
      "lect": 952,
      "_most": 953,
      "eur": 954,
      "_measures": 955,
      "ak": 956,
      "_democ": 957,
      "_rights": 958,
      "uth": 959,
      "_still": 960,
      "_high": 961,
      "_programm": 962,
      "_legisl": 963,
      "red": 964,
      "_Community": 965,
      "_num": 966,
      "_your": 967,
      "eren": 968,
      "_level": 969,
      "_cooper": 970,
      "ouse": 971,
      "_interest": 972,
      "_hope": 973,
      "_budget": 974,
      "_cur": 975,
      "_prev": 976,
      "_dra": 977,
      "inis": 978,
      "chie": 979,
      "_compet": 980,
      "stru": 981,
      "ass": 982,
      "_achie": 983,
      "abl": 984,
      "air": 985,
      "_own": 986,
      "_put": 987,
      "_finan": 988,
      "_problem": 989,
      "_discus": 990,
      "_implement": 991,
      "pporteur": 992,
      "_course": 993,
      "_today": 994,
      "_world": 995,
      "ork": 996,
      "_mon": 997,
      "ail": 998,
      "isation": 999,
      "_agreement": 1000,
      "_group": 1001,
      "urther": 1002,
      "_rapporteur": 1003,
      "_result": 1004,
      "’s": 1005,
      "_both": 1006,
      "_last": 1007,
      "_and,": 1008,
      "_call": 1009,
      "_K": 1010,
      "_common": 1011,
      "ing.": 1012,
      "_taken": 1013,
      "_des": 1014,
      "row": 1015,
      "_environment": 1016,
      "_gu": 1017,
      "_through": 1018,
      "gan": 1019,
      "_respect": 1020,
      "_'": 1021,
      "_ful": 1022,
      "_directive": 1023,
      "_consider": 1024,
      "ract": 1025,
      "_his": 1026,
      "ors": 1027,
      "_able": 1028,
      "_prin": 1029,
      "_Ch": 1030,
      "ality": 1031,
      "ph": 1032,
      "way": 1033,
      "_serv": 1034,
      "_number": 1035,
      "99": 1036,
      "_How": 1037,
      "ry": 1038,
      "_object": 1039,
      "ason": 1040,
      "ft": 1041,
      "_regul": 1042,
      "_beh": 1043,
      "_Se": 1044,
      "_situation": 1045,
      "_may": 1046,
      "_spec": 1047,
      "_state": 1048,
      "_On": 1049,
      "_law": 1050,
      "reed": 1051,
      "ince": 1052,
      "_House": 1053,
      "_then": 1054,
      "_place": 1055,
      "_international": 1056,
      "curity": 1057,
      "_reason": 1058,
      "ory": 1059,
      "rent": 1060,
      "ange": 1061,
      "_princi": 1062,
      "alth": 1063,
      "ings": 1064,
      "_ask": 1065,
      "ves": 1066,
      "ely": 1067,
      "_however,": 1068,
      "_neg": 1069,
      "_saf": 1070,
      "_action": 1071,
      "ied": 1072,
      "ab": 1073,
      "ound": 1074,
      "_deal": 1075,
      "_invol": 1076,
      "_accept": 1077,
      "_sect": 1078,
      "_maj": 1079,
      "_example": 1080,
      "_est": 1081,
      "_auth": 1082,
      "_current": 1083,
      "_before": 1084,
      "erent": 1085,
      "_ensure": 1086,
      "trib": 1087,
      "lem": 1088,
      "_br": 1089,
      "_inter": 1090,
      "_United": 1091,
      "ether": 1092,
      "_position": 1093,
      "_terr": 1094,
      "_impro": 1095,
      "a,": 1096,
      "_main": 1097,
      "ild": 1098,
      "_If": 1099,
      "_sim": 1100,
      "inal": 1101,
      "ollow": 1102,
      "ood": 1103,
      "_prom": 1104,
      "oo": 1105,
      "_without": 1106,
      "_wish": 1107,
      "alf": 1108,
      "_necess": 1109,
      "self": 1110,
      "_financial": 1111,
      "_pers": 1112,
      "_sign": 1113,
      "_why": 1114,
      "uring": 1115,
      "orities": 1116,
      "_cond": 1117,
      "_form": 1118,
      "vention": 1119,
      "_vote": 1120,
      "_decision": 1121,
      "_means": 1122,
      "ential": 1123,
      "own": 1124,
      "erence": 1125,
      "_gent": 1126,
      "ety": 1127,
      "ablish": 1128,
      "ability": 1129,
      "lu": 1130,
      "_gentlem": 1131,
      "_region": 1132,
      "ile": 1133,
      "ateg": 1134,
      "adies": 1135,
      "itive": 1136,
      "omen": 1137,
      "_country": 1138,
      "_give": 1139,
      "_organ": 1140,
      "_given": 1141,
      "chn": 1142,
      "_wel": 1143,
      "_follow": 1144,
      "come": 1145,
      "_3": 1146,
      "_process": 1147,
      "_col": 1148,
      "_fe": 1149,
      "_represent": 1150,
      "oura": 1151,
      "_allow": 1152,
      "ici": 1153,
      "_gentlemen,": 1154,
      "hip": 1155,
      "_establish": 1156,
      "_trad": 1157,
      "_legal": 1158,
      "ef": 1159,
      "fter": 1160,
      "_car": 1161,
      "_som": 1162,
      "_However,": 1163,
      "_years": 1164,
      "ices": 1165,
      "_employ": 1166,
      "_stand": 1167,
      "_Y": 1168,
      "_citizens": 1169,
      "erg": 1170,
      "ret": 1171,
      "_further": 1172,
      "oti": 1173,
      "ell": 1174,
      "_proced": 1175,
      "man": 1176,
      "200": 1177,
      "_area": 1178,
      "_necessary": 1179,
      "_whether": 1180,
      "_ke": 1181,
      "_meet": 1182,
      "_fish": 1183,
      "_negoti": 1184,
      "_since": 1185,
      "_basis": 1186,
      "_areas": 1187,
      "_rat": 1188,
      "utions": 1189,
      "_imm": 1190,
      "_hel": 1191,
      "_different": 1192,
      "_opin": 1193,
      "_.": 1194,
      "_information": 1195,
      "_cooperation": 1196,
      "ramew": 1197,
      "uc": 1198,
      "_particularly": 1199,
      "pare": 1200,
      "_reform": 1201,
      "arch": 1202,
      "_require": 1203,
      "_Commissioner,": 1204,
      "_V": 1205,
      "sibility": 1206,
      "_thank": 1207,
      "_opport": 1208,
      "_rul": 1209,
      "ird": 1210,
      "_lead": 1211,
      "_aid": 1212,
      "ident": 1213,
      "illion": 1214,
      "ramework": 1215,
      "_help": 1216,
      "_security": 1217,
      "_second": 1218,
      "_cas": 1219,
      "_real": 1220,
      "_av": 1221,
      "_Pro": 1222,
      "_resolution": 1223,
      "ically": 1224,
      "_difficult": 1225,
      "olog": 1226,
      "ered": 1227,
      "_contro": 1228,
      "_ladies": 1229,
      "_initi": 1230,
      "arm": 1231,
      "vour": 1232,
      "_account": 1233,
      "_sc": 1234,
      "_health": 1235,
      "ning": 1236,
      "_enl": 1237,
      "_pract": 1238,
      "_Treat": 1239,
      "_crit": 1240,
      "_indust": 1241,
      "_protection": 1242,
      "_equ": 1243,
      "_next": 1244,
      "_word": 1245,
      "_redu": 1246,
      "_aff": 1247,
      "_sector": 1248,
      "_contrib": 1249,
      "_few": 1250,
      "enc": 1251,
      "_amendments": 1252,
      "_What": 1253,
      "_increas": 1254,
      "_suc": 1255,
      "_hand": 1256,
      "_Members": 1257,
      "_provid": 1258,
      "ec": 1259,
      "itions": 1260,
      "land": 1261,
      "_ins": 1262,
      "_opinion": 1263,
      "stand": 1264,
      "_open": 1265,
      "_comple": 1266,
      "old": 1267,
      "ly.": 1268,
      "_pow": 1269,
      "_cre": 1270,
      "bour": 1271,
      "_role": 1272,
      "ank": 1273,
      "_serious": 1274,
      "ines": 1275,
      "mit": 1276,
      "_whole": 1277,
      "_framework": 1278,
      "_happ": 1279,
      "_product": 1280,
      "_express": 1281,
      "_subject": 1282,
      "overnment": 1283,
      "_behalf": 1284,
      "_pri": 1285,
      "_effort": 1286,
      "_terror": 1287,
      "str": 1288,
      "_sm": 1289,
      "_Tur": 1290,
      "_mod": 1291,
      "_women": 1292,
      "_case": 1293,
      "_No": 1294,
      "_State": 1295,
      "ment,": 1296,
      "ication": 1297,
      "_Group": 1298,
      "_loo": 1299,
      "round": 1300,
      "tic": 1301,
      "vers": 1302,
      "ment.": 1303,
      "leg": 1304,
      "_issues": 1305,
      "led": 1306,
      "_val": 1307,
      "er,": 1308,
      "_approach": 1309,
      "cing": 1310,
      "pr": 1311,
      "_techn": 1312,
      "_after": 1313,
      "_someth": 1314,
      "ricult": 1315,
      "_strateg": 1316,
      "ute": 1317,
      "ime": 1318,
      "isions": 1319,
      "rem": 1320,
      "_min": 1321,
      "ies,": 1322,
      "inister": 1323,
      "_peace": 1324,
      "over": 1325,
      "ies.": 1326,
      "ov": 1327,
      "_appl": 1328,
      "_mention": 1329,
      "_ap": 1330,
      "reedom": 1331,
      "ting": 1332,
      "_problems": 1333,
      "amental": 1334,
      "rodu": 1335,
      "_recent": 1336,
      "_adopted": 1337,
      "_favour": 1338,
      "_promot": 1339,
      "ension": 1340,
      "_something": 1341,
      "itor": 1342,
      "_proposals": 1343,
      "_oper": 1344,
      "ination": 1345,
      "_working": 1346,
      "ising": 1347,
      "_start": 1348,
      "_shall": 1349,
      "_199": 1350,
      "_For": 1351,
      "_Is": 1352,
      "_consum": 1353,
      "_Union.": 1354,
      "_forward": 1355,
      "_three": 1356,
      "_member": 1357,
      "_find": 1358,
      "pri": 1359,
      "_continue": 1360,
      "_principle": 1361,
      "_come": 1362,
      "_invest": 1363,
      "_commun": 1364,
      "_adv": 1365,
      "_better": 1366,
      "_back": 1367,
      "_exist": 1368,
      "wards": 1369,
      "lusion": 1370,
      "kes": 1371,
      "a.": 1372,
      "_enlarge": 1373,
      "_aw": 1374,
      "ten": 1375,
      "_expl": 1376,
      "_cap": 1377,
      "ources": 1378,
      "_ur": 1379,
      "arant": 1380,
      "ratic": 1381,
      "_down": 1382,
      "_specific": 1383,
      "_es": 1384,
      "_effective": 1385,
      "_terms": 1386,
      "_going": 1387,
      "gether": 1388,
      "_fore": 1389,
      "_progress": 1390,
      "_soci": 1391,
      "_get": 1392,
      "_war": 1393,
      "_control": 1394,
      "_ris": 1395,
      "_Mad": 1396,
      "_quite": 1397,
      "_general": 1398,
      "_guarant": 1399,
      "_transport": 1400,
      "_tal": 1401,
      "_Amend": 1402,
      "ead": 1403,
      "/200": 1404,
      "_person": 1405,
      "ield": 1406,
      "_pur": 1407,
      "_plan": 1408,
      "_5": 1409,
      "_Convention": 1410,
      "_elect": 1411,
      "ese": 1412,
      "other": 1413,
      "_achieve": 1414,
      "_remain": 1415,
      "_4": 1416,
      "_aim": 1417,
      "urn": 1418,
      "er.": 1419,
      "_done": 1420,
      "_ess": 1421,
      "_proposed": 1422,
      "_welcome": 1423,
      "_government": 1424,
      "_towards": 1425,
      "pecial": 1426,
      "_ben": 1427,
      "_is,": 1428,
      "_compan": 1429,
      "_day": 1430,
      "_course,": 1431,
      "_rev": 1432,
      "_var": 1433,
      "_read": 1434,
      "_discuss": 1435,
      "_improve": 1436,
      "_Ar": 1437,
      "_project": 1438,
      "_sol": 1439,
      "_med": 1440,
      "_ide": 1441,
      "_But": 1442,
      "aking": 1443,
      "_step": 1444,
      "_play": 1445,
      "_it.": 1446,
      "_gl": 1447,
      "ration": 1448,
      "ually": 1449,
      "ital": 1450,
      "_together": 1451,
      "_rather": 1452,
      "_extrem": 1453,
      "ways": 1454,
      "ify": 1455,
      "_stru": 1456,
      "_freedom": 1457,
      "_commit": 1458,
      "_did": 1459,
      "_itself": 1460,
      "_Commission,": 1461,
      "ty": 1462,
      "_third": 1463,
      "ath": 1464,
      "rant": 1465,
      "_rules": 1466,
      "_pay": 1467,
      "_exper": 1468,
      "_agricult": 1469,
      "iving": 1470,
      "_move": 1471,
      "_importance": 1472,
      "_integ": 1473,
      "ss": 1474,
      "_cor": 1475,
      "_environmental": 1476,
      "_Council,": 1477,
      "_understand": 1478,
      "_though": 1479,
      "5-": 1480,
      "_Madam": 1481,
      "_cost": 1482,
      "_essential": 1483,
      "_democra": 1484,
      "_large": 1485,
      "ified": 1486,
      "_prevent": 1487,
      "ogn": 1488,
      "_suff": 1489,
      "_nat": 1490,
      "ffair": 1491,
      "_Affair": 1492,
      "_another": 1493,
      "_fundamental": 1494,
      "_especial": 1495,
      "_become": 1496,
      "though": 1497,
      "_At": 1498,
      "sequ": 1499,
      "_responsibility": 1500,
      "_opportunity": 1501,
      "_rese": 1502,
      "_recogn": 1503,
      "_least": 1504,
      "_aware": 1505,
      "_They": 1506,
      "_authorities": 1507,
      "_greater": 1508,
      "_Ag": 1509,
      "_benef": 1510,
      "_small": 1511,
      "ent,": 1512,
      "_during": 1513,
      "_million": 1514,
      "_draft": 1515,
      "ivid": 1516,
      "_feel": 1517,
      "_all,": 1518,
      "_really": 1519,
      "ug": 1520,
      "selves": 1521,
      "_clearly": 1522,
      "_vi": 1523,
      "gth": 1524,
      "_Al": 1525,
      "_reach": 1526,
      "_appropri": 1527,
      "_her": 1528,
      "_example,": 1529,
      "_institution": 1530,
      "_complet": 1531,
      "_resources": 1532,
      "_less": 1533,
      "_research": 1534,
      "entr": 1535,
      "_amendment": 1536,
      "_opp": 1537,
      "_field": 1538,
      "ers,": 1539,
      "_These": 1540,
      "_provide": 1541,
      "_especially": 1542,
      "_needs": 1543,
      "_States.": 1544,
      "_introdu": 1545,
      "_once": 1546,
      "_bring": 1547,
      "_oc": 1548,
      "_programme": 1549,
      "_relations": 1550,
      "term": 1551,
      "_EUR": 1552,
      "arity": 1553,
      "_grow": 1554,
      "_cult": 1555,
      "ances": 1556,
      "_including": 1557,
      "light": 1558,
      "atives": 1559,
      "_discussion": 1560,
      "_ele": 1561,
      "_making": 1562,
      "_mean": 1563,
      "_lim": 1564,
      "_access": 1565,
      "arg": 1566,
      "ness": 1567,
      "_each": 1568,
      "ences": 1569,
      "_adm": 1570,
      "par": 1571,
      "_accord": 1572,
      "_always": 1573,
      "o,": 1574,
      "_used": 1575,
      "ulation": 1576,
      "_appe": 1577,
      "_tax": 1578,
      "_time,": 1579,
      "_demand": 1580,
      "_text": 1581,
      "-in": 1582,
      "ily": 1583,
      "av": 1584,
      "_treat": 1585,
      "_legislation": 1586,
      "icient": 1587,
      "_fight": 1588,
      "_comb": 1589,
      "_addition": 1590,
      "_activ": 1591,
      "_taking": 1592,
      "_positive": 1593,
      "_change": 1594,
      "ticle": 1595,
      "_govern": 1596,
      "_lif": 1597,
      "ross": 1598,
      "ined": 1599,
      "_which,": 1600,
      "_parliament": 1601,
      "_States,": 1602,
      "_democratic": 1603,
      "ible": 1604,
      "_rece": 1605,
      "_clos": 1606,
      "stain": 1607,
      "_Parliament,": 1608,
      "beral": 1609,
      "struct": 1610,
      "_various": 1611,
      "com": 1612,
      "imate": 1613,
      "_air": 1614,
      "_increase": 1615,
      "_standard": 1616,
      "_short": 1617,
      "_procedure": 1618,
      "_Europe.": 1619,
      "_speak": 1620,
      "_cong": 1621,
      "_Af": 1622,
      "_look": 1623,
      "_Union,": 1624,
      "eric": 1625,
      "_viol": 1626,
      "err": 1627,
      "_aspect": 1628,
      "ivil": 1629,
      "_services": 1630,
      "_major": 1631,
      "ers.": 1632,
      "_address": 1633,
      "_fail": 1634,
      "_De": 1635,
      "_regulation": 1636,
      "_month": 1637,
      "_free": 1638,
      "ents": 1639,
      "_let": 1640,
      "_child": 1641,
      "iod": 1642,
      "_report,": 1643,
      "_safety": 1644,
      "_bus": 1645,
      "_list": 1646,
      "ick": 1647,
      "irm": 1648,
      "_Br": 1649,
      "_supp": 1650,
      "_competition": 1651,
      "_having": 1652,
      "_struct": 1653,
      "_beg": 1654,
      "_colle": 1655,
      "_request": 1656,
      "_attention": 1657,
      "_report.": 1658,
      "_success": 1659,
      "_yet": 1660,
      "_full": 1661,
      "its": 1662,
      "_abs": 1663,
      "_internal": 1664,
      "_show": 1665,
      "_extremely": 1666,
      "_manage": 1667,
      "ock": 1668,
      "_bl": 1669,
      "erv": 1670,
      "_mone": 1671,
      "ext": 1672,
      "_committ": 1673,
      "_ple": 1674,
      "_crim": 1675,
      "_strong": 1676,
      "cise": 1677,
      "_happen": 1678,
      "_partn": 1679,
      "_job": 1680,
      "icial": 1681,
      "ogue": 1682,
      "_bu": 1683,
      "_solution": 1684,
      "rength": 1685,
      "_bal": 1686,
      "_Minister": 1687,
      "ric": 1688,
      "_instit": 1689,
      "_majority": 1690,
      "_members": 1691,
      "_conclusion": 1692,
      "imal": 1693,
      "_Turke": 1694,
      "_Government": 1695,
      "_mil": 1696,
      "_countries.": 1697,
      "_based": 1698,
      "_strength": 1699,
      "empt": 1700,
      "_With": 1701,
      "gg": 1702,
      "_objective": 1703,
      "_civil": 1704,
      "_food": 1705,
      "ium": 1706,
      "_congrat": 1707,
      "iation": 1708,
      "lict": 1709,
      "_sur": 1710,
      "ocu": 1711,
      "_Presidency": 1712,
      "ased": 1713,
      "ession": 1714,
      "_trade": 1715,
      "_non": 1716,
      "_share": 1717,
      "_instru": 1718,
      "_Americ": 1719,
      "sid": 1720,
      "rad": 1721,
      "_congratul": 1722,
      "_wee": 1723,
      "_prof": 1724,
      "inistr": 1725,
      "_ph": 1726,
      "_seem": 1727,
      "aps": 1728,
      "_expect": 1729,
      "_ed": 1730,
      "ternal": 1731,
      "ven": 1732,
      "_risk": 1733,
      "idence": 1734,
      "_terrorism": 1735,
      "_initiative": 1736,
      "_enc": 1737,
      "_Article": 1738,
      "les": 1739,
      "_close": 1740,
      "_chang": 1741,
      "_certainly": 1742,
      "cession": 1743,
      "ense": 1744,
      "_el": 1745,
      "_countries,": 1746,
      "ts": 1747,
      "_simp": 1748,
      "obal": 1749,
      "_individ": 1750,
      "_Sp": 1751,
      "_di": 1752,
      "ialogue": 1753,
      "ining": 1754,
      "_Mr ": 1755,
      "_fam": 1756,
      "eed": 1757,
      "thing": 1758,
      "_fully": 1759,
      "_Pol": 1760,
      "_concerns": 1761,
      "_final": 1762,
      "_institutions": 1763,
      "_voted": 1764,
      "ises": 1765,
      "_docu": 1766,
      "_following": 1767,
      "_dou": 1768,
      "_period": 1769,
      "_Commission's": 1770,
      "_term": 1771,
      "_avail": 1772,
      "_bro": 1773,
      "unate": 1774,
      "_creat": 1775,
      "raq": 1776,
      "_proper": 1777,
      "_And": 1778,
      "pose": 1779,
      "_particip": 1780,
      "ussi": 1781,
      "_might": 1782,
      "_Iraq": 1783,
      "_sustain": 1784,
      "ourt": 1785,
      "_Treaty": 1786,
      "_affect": 1787,
      "ification": 1788,
      "_energ": 1789,
      "_press": 1790,
      "_colleag": 1791,
      "uge": 1792,
      "_upon": 1793,
      "_immig": 1794,
      "order": 1795,
      "_wat": 1796,
      "_care": 1797,
      "_First": 1798,
      "_conditions": 1799,
      "_inst": 1800,
      "_individual": 1801,
      "_best": 1802,
      "_En": 1803,
      "_loc": 1804,
      "_this.": 1805,
      "iness": 1806,
      "_farm": 1807,
      "_force": 1808,
      "_simply": 1809,
      "_resol": 1810,
      "_emph": 1811,
      "_try": 1812,
      "5-0": 1813,
      "_hon": 1814,
      "_intend": 1815,
      "he": 1816,
      "_conflict": 1817,
      "_transpare": 1818,
      "_signific": 1819,
      "up": 1820,
      "_ca": 1821,
      "_comprom": 1822,
      "ceed": 1823,
      "_dep": 1824,
      "fort": 1825,
      "_industr": 1826,
      "_stat": 1827,
      "_animal": 1828,
      "_Amendment": 1829,
      "_educ": 1830,
      "_pop": 1831,
      "_6": 1832,
      "sw": 1833,
      "_You": 1834,
      "_dialogue": 1835,
      "_Right": 1836,
      "_begin": 1837,
      "most": 1838,
      "_relation": 1839,
      "_sum": 1840,
      "_global": 1841,
      "ingle": 1842,
      "_Europe,": 1843,
      "-b": 1844,
      "ably": 1845,
      "ule": 1846,
      "_Ind": 1847,
      "_Part": 1848,
      "_subst": 1849,
      "istic": 1850,
      "_pass": 1851,
      "_det": 1852,
      "ron": 1853,
      "_experi": 1854,
      "_fle": 1855,
      "_implementation": 1856,
      "_kind": 1857,
      "_priv": 1858,
      "_enlargement": 1859,
      "entral": 1860,
      "_Russi": 1861,
      "_presid": 1862,
      "_ret": 1863,
      "_appropriate": 1864,
      "_coord": 1865,
      "_committee": 1866,
      "_points": 1867,
      "_Court": 1868,
      "ommend": 1869,
      "_quality": 1870,
      "-m": 1871,
      "_harm": 1872,
      "_while": 1873,
      "_policy.": 1874,
      "ither": 1875,
      "_often": 1876,
      "-O": 1877,
      "_developing": 1878,
      "_increasing": 1879,
      "_oppos": 1880,
      "_ann": 1881,
      "ffic": 1882,
      "_urg": 1883,
      "_name": 1884,
      "raph": 1885,
      "_answ": 1886,
      "_tas": 1887,
      "_Constitution": 1888,
      "_Fund": 1889,
      "wh": 1890,
      "_Reg": 1891,
      "_this,": 1892,
      "_efforts": 1893,
      "_emphas": 1894,
      "hing": 1895,
      "_employment": 1896,
      "eng": 1897,
      "aly": 1898,
      "_mom": 1899,
      "_him": 1900,
      "ples": 1901,
      "_refer": 1902,
      "_power": 1903,
      "_sure": 1904,
      "_available": 1905,
      "haps": 1906,
      "_joint": 1907,
      "-c": 1908,
      "_citizen": 1909,
      "_cand": 1910,
      "_decisions": 1911,
      "_assess": 1912,
      "_interests": 1913,
      "ering": 1914,
      "_negotiations": 1915,
      "_found": 1916,
      "_candid": 1917,
      "ck": 1918,
      "_context": 1919,
      "_To": 1920,
      "_among": 1921,
      "_meeting": 1922,
      "-in-O": 1923,
      "_Pal": 1924,
      "_recommend": 1925,
      "_apply": 1926,
      "_encoura": 1927,
      "_mot": 1928,
      "cell": 1929,
      "_create": 1930,
      "_responsible": 1931,
      "ix": 1932,
      "_administr": 1933,
      "_never": 1934,
      "_things": 1935,
      "_occ": 1936,
      "_actually": 1937,
      "ave": 1938,
      "_although": 1939,
      "bt": 1940,
      "_fisher": 1941,
      "_strengthen": 1942,
      "_thing": 1943,
      "_An": 1944,
      "_money": 1945,
      "_states": 1946,
      "_single": 1947,
      "_fl": 1948,
      "_you,": 1949,
      "emoc": 1950,
      "_He": 1951,
      "_them.": 1952,
      "_Let": 1953,
      "_My": 1954,
      "ech": 1955,
      "ption": 1956,
      "mber": 1957,
      "_reject": 1958,
      "ub": 1959,
      "orth": 1960,
      "_Final": 1961,
      "_contain": 1962,
      "_concerning": 1963,
      "_consequ": 1964,
      "rim": 1965,
      "less": 1966,
      "ure,": 1967,
      "_Finally,": 1968,
      "ocus": 1969,
      "itary": 1970,
      "ists": 1971,
      "_jud": 1972,
      "_guarantee": 1973,
      "_dist": 1974,
      "_Soc": 1975,
      "_par": 1976,
      "_special": 1977,
      "_business": 1978,
      "_Isra": 1979,
      "fortunate": 1980,
      "_demon": 1981,
      "_Parliament.": 1982,
      "_wr": 1983,
      "_agricultural": 1984,
      "_coh": 1985,
      "por": 1986,
      "_draw": 1987,
      "_President-in-O": 1988,
      "orrow": 1989,
      "_exc": 1990,
      "_involved": 1991,
      "_currently": 1992,
      "_meth": 1993,
      "_ban": 1994,
      "_net": 1995,
      "ffice": 1996,
      "_tot": 1997,
      "eria": 1998,
      "_tabl": 1999,
      "_method": 2000,
      "_maintain": 2001,
      "_sch": 2002,
      "blig": 2003,
      "_hist": 2004,
      "ensive": 2005,
      "_sugg": 2006,
      "ending": 2007,
      "_agend": 2008,
      "_suggest": 2009,
      "_past": 2010,
      "_growth": 2011,
      "_oblig": 2012,
      "_regional": 2013,
      "ried": 2014,
      "ived": 2015,
      "-s": 2016,
      "ference": 2017,
      "_UN": 2018,
      "bon": 2019,
      "_po": 2020,
      "_focus": 2021,
      "lev": 2022,
      "_ty": 2023,
      "_US": 2024,
      "_therefore,": 2025,
      "_Sw": 2026,
      "_policies": 2027,
      "_issu": 2028,
      "ations.": 2029,
      "_concerned": 2030,
      "_objectives": 2031,
      "_stud": 2032,
      "_said,": 2033,
      "_cru": 2034,
      "ibility": 2035,
      "_lat": 2036,
      "_obs": 2037,
      "_pres": 2038,
      "_children": 2039,
      "_monitor": 2040,
      "ittle": 2041,
      "_broad": 2042,
      "_Second": 2043,
      "_prepare": 2044,
      "_strategy": 2045,
      "ne": 2046,
      "_decl": 2047,
      "_Turkey": 2048,
      "_(A": 2049,
      "_accession": 2050,
      "_lack": 2051,
      "_significant": 2052,
      "_defin": 2053,
      "_orig": 2054,
      "_20": 2055,
      "ages": 2056,
      "_vis": 2057,
      "_little": 2058,
      "_assist": 2059,
      "_7": 2060,
      "_sta": 2061,
      "_Affairs": 2062,
      "ance,": 2063,
      "_Fr": 2064,
      "_conv": 2065,
      "_regards": 2066,
      "ess,": 2067,
      "_entire": 2068,
      "_amount": 2069,
      "_tom": 2070,
      "_production": 2071,
      "_chall": 2072,
      "_keep": 2073,
      "_companies": 2074,
      "_mind": 2075,
      "_doing": 2076,
      "_Democ": 2077,
      "_products": 2078,
      "_‘": 2079,
      "_local": 2080,
      "_conclud": 2081,
      "_legislative": 2082,
      "_cris": 2083,
      "_week": 2084,
      "til": 2085,
      "_2000": 2086,
      "anish": 2087,
      "_decid": 2088,
      "_line": 2089,
      "_tomorrow": 2090,
      "_subsid": 2091,
      "_congratulate": 2092,
      "atis": 2093,
      "_makes": 2094,
      "ership": 2095,
      "_Social": 2096,
      "_industry": 2097,
      "_key": 2098,
      "_regions": 2099,
      "_dang": 2100,
      "_excell": 2101,
      "_mo": 2102,
      "_item": 2103,
      "_Gree": 2104,
      "_threat": 2105,
      "_proces": 2106,
      "_enough": 2107,
      "_liberal": 2108,
      "_Intern": 2109,
      "_commitment": 2110,
      "-f": 2111,
      "_contribution": 2112,
      "erman": 2113,
      "_longer": 2114,
      "_previous": 2115,
      "_military": 2116,
      "_due": 2117,
      "_Ir": 2118,
      "_energy": 2119,
      "co": 2120,
      "_technolog": 2121,
      "_Lis": 2122,
      "uine": 2123,
      "_caus": 2124,
      "_true": 2125,
      "_continu": 2126,
      "_organis": 2127,
      "_priority": 2128,
      "ator": 2129,
      "_democracy": 2130,
      "_benefit": 2131,
      "_19": 2132,
      "_detail": 2133,
      "_bod": 2134,
      "_Palest": 2135,
      "more": 2136,
      "epend": 2137,
      "ression": 2138,
      "_11": 2139,
      "_9": 2140,
      "aper": 2141,
      "_it,": 2142,
      "_fel": 2143,
      "_vict": 2144,
      "_policy,": 2145,
      "ure.": 2146,
      "_netw": 2147,
      "_euro": 2148,
      "_All": 2149,
      "pite": 2150,
      "ection": 2151,
      "ice.": 2152,
      "_gener": 2153,
      "atory": 2154,
      "_rest": 2155,
      "strict": 2156,
      "iate": 2157,
      "ling": 2158,
      "_compromise": 2159,
      "_crisis": 2160,
      "yl": 2161,
      "_So": 2162,
      "angu": 2163,
      "_Lisbon": 2164,
      "_candidate": 2165,
      "_integr": 2166,
      "_above": 2167,
      "_del": 2168,
      "atisf": 2169,
      "_Commission.": 2170,
      "_activities": 2171,
      "for": 2172,
      "amp": 2173,
      "_nothing": 2174,
      "_soon": 2175,
      "_consult": 2176,
      "_8": 2177,
      "_Our": 2178,
      "TO": 2179,
      "_foreign": 2180,
      "_cent": 2181,
      "_dest": 2182,
      "ledge": 2183,
      "_guid": 2184,
      "atic": 2185,
      "_crucial": 2186,
      "_Str": 2187,
      "_road": 2188,
      "irc": 2189,
      "_turn": 2190,
      "_German": 2191,
      "_questions": 2192,
      "ently": 2193,
      "_East": 2194,
      "bilities": 2195,
      "_ident": 2196,
      "_impact": 2197,
      "_build": 2198,
      "_Q": 2199,
      "_sustainable": 2200,
      "_perhaps": 2201,
      "_demonstr": 2202,
      "_mult": 2203,
      "_restrict": 2204,
      "ourable": 2205,
      "_absol": 2206,
      "ean": 2207,
      "_appear": 2208,
      "_precise": 2209,
      "_circ": 2210,
      "_comes": 2211,
      "imum": 2212,
      "_tar": 2213,
      "ations,": 2214,
      "ia,": 2215,
      "outh": 2216,
      "ond": 2217,
      "_2001": 2218,
      "mb": 2219,
      "_impos": 2220,
      "_solid": 2221,
      "_Direct": 2222,
      "_\"": 2223,
      "_don": 2224,
      "oid": 2225,
      "_fact,": 2226,
      "_promote": 2227,
      "_excellent": 2228,
      "arter": 2229,
      "_indeed": 2230,
      "_2003": 2231,
      "_seen": 2232,
      "000": 2233,
      "_task": 2234,
      "_dat": 2235,
      "_management": 2236,
      "arian": 2237,
      "_society": 2238,
      "ees": 2239,
      "_agreed": 2240,
      "_traffic": 2241,
      "_Afric": 2242,
      "_agreements": 2243,
      "_2002": 2244,
      "_President-in-Office": 2245,
      "_cho": 2246,
      "_Conference": 2247,
      "_funds": 2248,
      "_arr": 2249,
      "_carried": 2250,
      "ged": 2251,
      "_until": 2252,
      "_four": 2253,
      "-d": 2254,
      "_mis": 2255,
      "_provided": 2256,
      "_langu": 2257,
      "_Mon": 2258,
      "_repe": 2259,
      "ti": 2260,
      "_include": 2261,
      "_held": 2262,
      "vious": 2263,
      "_12": 2264,
      "_bo": 2265,
      "_particular,": 2266,
      "_technical": 2267,
      "_moment": 2268,
      "_Secondly,": 2269,
      "_fall": 2270,
      "_mor": 2271,
      "_principles": 2272,
      "oung": 2273,
      "_post": 2274,
      "_genuine": 2275,
      "_grant": 2276,
      "_hold": 2277,
      "_pension": 2278,
      "_sever": 2279,
      "equ": 2280,
      "_regarding": 2281,
      "_procedures": 2282,
      "_Palestin": 2283,
      "_sense": 2284,
      "_low": 2285,
      "_response": 2286,
      "_tabled": 2287,
      "_stage": 2288,
      "_communication": 2289,
      "_eas": 2290,
      "_doubt": 2291,
      "ice,": 2292,
      "unities": 2293,
      "_talk": 2294,
      "_tell": 2295,
      "_sci": 2296,
      "ared": 2297,
      "_15": 2298,
      "_Just": 2299,
      "_presented": 2300,
      "_mentioned": 2301,
      "_workers": 2302,
      "_independ": 2303,
      "gu": 2304,
      "_conn": 2305,
      "_fair": 2306,
      "_amb": 2307,
      "_critic": 2308,
      "illeg": 2309,
      "_idea": 2310,
      "_attempt": 2311,
      "_view,": 2312,
      "_groups": 2313,
      "_ground": 2314,
      "_constitution": 2315,
      "_Bar": 2316,
      "lied": 2317,
      "te": 2318,
      "_link": 2319,
      "_ear": 2320,
      "_hand,": 2321,
      "_transparen": 2322,
      "_undert": 2323,
      "_several": 2324,
      "_young": 2325,
      "_illeg": 2326,
      "iting": 2327,
      "_carry": 2328,
      "_harmon": 2329,
      "_parties": 2330,
      "_criteria": 2331,
      "_hard": 2332,
      "_basic": 2333,
      "_victim": 2334,
      "more,": 2335,
      "side": 2336,
      "_themselves": 2337,
      "_rapporteur,": 2338,
      "mitt": 2339,
      "_wast": 2340,
      "_governments": 2341,
      "_societ": 2342,
      "_Budget": 2343,
      "_stress": 2344,
      "ison": 2345,
      "_matters": 2346,
      "_Bel": 2347,
      "_Council.": 2348,
      "_asked": 2349,
      "_danger": 2350,
      "_indic": 2351,
      "_reports": 2352,
      "urd": 2353,
      "_border": 2354,
      "_she": 2355,
      "_enter": 2356,
      "_required": 2357,
      "_seems": 2358,
      "_Port": 2359,
      "_10": 2360,
      "rect": 2361,
      "_pover": 2362,
      "_budgetary": 2363,
      "_words": 2364,
      "_flex": 2365,
      "_programmes": 2366,
      "_avoid": 2367,
      "aged": 2368,
      "_satisf": 2369,
      "_future.": 2370,
      "ylum": 2371,
      "_equal": 2372,
      "_Swed": 2373,
      "_regret": 2374,
      "_One": 2375,
      "_sec": 2376,
      "_prepar": 2377,
      "_Further": 2378,
      "_live": 2379,
      "_standards": 2380,
      "_rail": 2381,
      "_criminal": 2382,
      "_ve": 2383,
      "form": 2384,
      "_quick": 2385,
      "io": 2386,
      "_join": 2387,
      "_results": 2388,
      "_Polic": 2389,
      "ity.": 2390,
      "_disast": 2391,
      "_time.": 2392,
      "_achieved": 2393,
      "_Sum": 2394,
      "idd": 2395,
      "_asylum": 2396,
      "ivers": 2397,
      "able.": 2398,
      "_rule": 2399,
      "_called": 2400,
      "_expressed": 2401,
      "_Qu": 2402,
      "_Rep": 2403,
      "_pleased": 2404,
      "_prepared": 2405,
      "_analy": 2406,
      "_pack": 2407,
      "_dam": 2408,
      "_Ital": 2409,
      "_Summit": 2410,
      "_head": 2411,
      "_life": 2412,
      "use": 2413,
      "_saying": 2414,
      "_economy": 2415,
      "_dise": 2416,
      "_provision": 2417,
      "_Party": 2418,
      "aced": 2419,
      "_Democrat": 2420,
      "_years,": 2421,
      "ned": 2422,
      "_existing": 2423,
      "_balance": 2424,
      "_determ": 2425,
      "_aspects": 2426,
      "_Parliament's": 2427,
      "_speech": 2428,
      "_throughout": 2429,
      "_solidarity": 2430,
      "_ago": 2431,
      "_review": 2432,
      "_cred": 2433,
      "sp": 2434,
      "_non-": 2435,
      "ilat": 2436,
      "_funding": 2437,
      "_application": 2438,
      "_priorities": 2439,
      "ediate": 2440,
      "ity,": 2441,
      "-term": 2442,
      "ires": 2443,
      "_Pe": 2444,
      "_statement": 2445,
      "_external": 2446,
      "_relating": 2447,
      "cri": 2448,
      "_Sch": 2449,
      "ators": 2450,
      "_stability": 2451,
      "_labour": 2452,
      "_extend": 2453,
      "_deleg": 2454,
      "_along": 2455,
      "_active": 2456,
      "_attack": 2457,
      "_cultural": 2458,
      "_Li": 2459,
      "_concerned,": 2460,
      "_ME": 2461,
      "els": 2462,
      "_case,": 2463,
      "_five": 2464,
      "_not,": 2465,
      "_old": 2466,
      "_years.": 2467,
      "_2004": 2468,
      "_whose": 2469,
      "_remind": 2470,
      "reen": 2471,
      "_target": 2472,
      "_Portug": 2473,
      "_bre": 2474,
      "_light": 2475,
      "_limit": 2476,
      "utely": 2477,
      "_ourselves": 2478,
      "_provisions": 2479,
      "_ten": 2480,
      "_Thank": 2481,
      "_namely": 2482,
      "_cases": 2483,
      "_purs": 2484,
      "ann": 2485,
      "_assoc": 2486,
      "_pat": 2487,
      "_pros": 2488,
      "_year.": 2489,
      "ert": 2490,
      "_When": 2491,
      "ief": 2492,
      "fully": 2493,
      "_highlight": 2494,
      "_illegal": 2495,
      "_according": 2496,
      "_run": 2497,
      "_capac": 2498,
      "_consequences": 2499,
      "_sufficient": 2500,
      "_official": 2501,
      "unction": 2502,
      "Presid": 2503,
      "_community": 2504,
      "ception": 2505,
      "_around": 2506,
      "rench": 2507,
      "_decided": 2508,
      "_organisation": 2509,
      "_document": 2510,
      "_immediate": 2511,
      "over,": 2512,
      "_private": 2513,
      "_reflect": 2514,
      "_Brit": 2515,
      "thel": 2516,
      "_wa": 2517,
      "_needed": 2518,
      "_event": 2519,
      "_Israel": 2520,
      "_year,": 2521,
      "_voting": 2522,
      "_hear": 2523,
      "uclear": 2524,
      "_cod": 2525,
      "ex": 2526,
      "_involve": 2527,
      "alu": 2528,
      "_Wor": 2529,
      "_everything": 2530,
      "ner": 2531,
      "government": 2532,
      "rought": 2533,
      "_histor": 2534,
      "_cause": 2535,
      "_pot": 2536,
      "_violence": 2537,
      "esion": 2538,
      "_systems": 2539,
      "_obvious": 2540,
      "thers": 2541,
      "erences": 2542,
      "_Med": 2543,
      "_death": 2544,
      "_everyone": 2545,
      "utes": 2546,
      "rug": 2547,
      "_correct": 2548,
      "_wea": 2549,
      "_fishing": 2550,
      "_fellow": 2551,
      "_else": 2552,
      "_honourable": 2553,
      "anced": 2554,
      "_export": 2555,
      "_months": 2556,
      "itarian": 2557,
      "_reasons": 2558,
      "_facil": 2559,
      "conomic": 2560,
      "_democrac": 2561,
      "_reality": 2562,
      "ilateral": 2563,
      "_return": 2564,
      "app": 2565,
      "fer": 2566,
      "_pen": 2567,
      "_Furthermore,": 2568,
      "_depend": 2569,
      "_fisheries": 2570,
      "_left": 2571,
      "_scient": 2572,
      "ale": 2573,
      "_French": 2574,
      "_work.": 2575,
      "_practical": 2576,
      "governmental": 2577,
      "iterr": 2578,
      "_port": 2579,
      "_defence": 2580,
      "_guidel": 2581,
      "iterran": 2582,
      "_across": 2583,
      "_condem": 2584,
      "iterranean": 2585,
      "_face": 2586,
      "eneral": 2587,
      "_consumer": 2588,
      "_recon": 2589,
      "_becom": 2590,
      "istan": 2591,
      "_completely": 2592,
      "_dire": 2593,
      "_instrument": 2594,
      "_organisations": 2595,
      "by": 2596,
      "_unfortunate": 2597,
      "_More": 2598,
      "_thus": 2599,
      "_stop": 2600,
      "ev": 2601,
      "als": 2602,
      "_talking": 2603,
      "riend": 2604,
      "_top": 2605,
      "tle": 2606,
      "_compl": 2607,
      "_projects": 2608,
      "ptember": 2609,
      "1)": 2610,
      "_cut": 2611,
      "_May": 2612,
      "_respond": 2613,
      "_costs": 2614,
      "_value": 2615,
      "uly": 2616,
      "_education": 2617,
      "_dut": 2618,
      "agraph": 2619,
      "CO": 2620,
      "ency,": 2621,
      "_data": 2622,
      "_experience": 2623,
      "_unac": 2624,
      "_absolutely": 2625,
      "_specif": 2626,
      "sibilities": 2627,
      "_raised": 2628,
      "_took": 2629,
      "eed,": 2630,
      "_ever": 2631,
      "ester": 2632,
      "_using": 2633,
      "ier": 2634,
      "_constit": 2635,
      "ilar": 2636,
      "_giving": 2637,
      "_direction": 2638,
      "_bear": 2639,
      "duct": 2640,
      "_potential": 2641,
      "_camp": 2642,
      "ate,": 2643,
      "_rights,": 2644,
      "Euro": 2645,
      "_issue.": 2646,
      "_nor": 2647,
      "_know,": 2648,
      "_Directive": 2649,
      "_changes": 2650,
      "_occas": 2651,
      "0%": 2652,
      "_condition": 2653,
      "erve": 2654,
      "_service": 2655,
      "_away": 2656,
      "_almost": 2657,
      "_brought": 2658,
      "cember": 2659,
      "_Fin": 2660,
      "_that.": 2661,
      "_behind": 2662,
      "_mess": 2663,
      "_Spanish": 2664,
      "iddle": 2665,
      "_delay": 2666,
      "_circum": 2667,
      "_others": 2668,
      "_nuclear": 2669,
      "_comment": 2670,
      "_poll": 2671,
      "_takes": 2672,
      "i,": 2673,
      "_us,": 2674,
      "_lear": 2675,
      "_accordance": 2676,
      "oh": 2677,
      "_test": 2678,
      "_servic": 2679,
      "_relev": 2680,
      "_too,": 2681,
      "_Cy": 2682,
      "_origin": 2683,
      "ira": 2684,
      "ives.": 2685,
      "_despite": 2686,
      "_connection": 2687,
      "_analys": 2688,
      "chan": 2689,
      "_mechan": 2690,
      "_cla": 2691,
      "_world.": 2692,
      "_unaccept": 2693,
      "_reference": 2694,
      "_rights.": 2695,
      "_inn": 2696,
      "_reduce": 2697,
      "_famil": 2698,
      "_September": 2699,
      "_scope": 2700,
      "_reached": 2701,
      "ush": 2702,
      "_note": 2703,
      "_discrim": 2704,
      "_representatives": 2705,
      "_clar": 2706,
      "m.": 2707,
      "_coming": 2708,
      "_25": 2709,
      "_knowledge": 2710,
      "_parliamentary": 2711,
      "_opt": 2712,
      "ications": 2713,
      "_answer": 2714,
      "_actions": 2715,
      "_model": 2716,
      "_American": 2717,
      "_monitoring": 2718,
      "_encourage": 2719,
      "_ship": 2720,
      "_den": 2721,
      "_Commission'": 2722,
      "_capital": 2723,
      "_proceed": 2724,
      "_opportunities": 2725,
      "_quot": 2726,
      "_included": 2727,
      "_oil": 2728,
      "ate.": 2729,
      "ance.": 2730,
      "_Palestinian": 2731,
      "inking": 2732,
      "_Therefore": 2733,
      "_colleagues": 2734,
      "_six": 2735,
      "know": 2736,
      "_considered": 2737,
      "_1999": 2738,
      "_precisely": 2739,
      "Europe": 2740,
      "_creation": 2741,
      "_population": 2742,
      "_confirm": 2743,
      "_mar": 2744,
      "_received": 2745,
      "ary,": 2746,
      "_water": 2747,
      "_today,": 2748,
      "_heard": 2749,
      "_sort": 2750,
      "_agenda": 2751,
      "_drug": 2752,
      "ugh": 2753,
      "_total": 2754,
      "_ill": 2755,
      "just": 2756,
      "_opinion,": 2757,
      "_personal": 2758,
      "_December": 2759,
      "itud": 2760,
      "_election": 2761,
      "_MEP": 2762,
      "_cohesion": 2763,
      "_fig": 2764,
      "_sent": 2765,
      "_integration": 2766,
      "_consist": 2767,
      "_emb": 2768,
      "_approved": 2769,
      "inary": 2770,
      "_pressure": 2771,
      "rist": 2772,
      "_presidency": 2773,
      "ants": 2774,
      "ocol": 2775,
      "to": 2776,
      "_argu": 2777,
      "crib": 2778,
      "_say,": 2779,
      "_propose": 2780,
      "ussel": 2781,
      "_network": 2782,
      "lf": 2783,
      "mitted": 2784,
      "_World": 2785,
      "esterday": 2786,
      "_either": 2787,
      "employ": 2788,
      "_referred": 2789,
      "ighbour": 2790,
      "ler": 2791,
      "_are,": 2792,
      "_enable": 2793,
      "_possibility": 2794,
      "_000": 2795,
      "_established": 2796,
      "_evalu": 2797,
      "iz": 2798,
      "aid": 2799,
      "_cross": 2800,
      "rain": 2801,
      "_eng": 2802,
      "_circumst": 2803,
      "_market.": 2804,
      "uard": 2805,
      "_fra": 2806,
      "_summit": 2807,
      "_Brussel": 2808,
      "_brief": 2809,
      "ved.": 2810,
      "pid": 2811,
      "_Last": 2812,
      "_Le": 2813,
      "_today.": 2814,
      "_investment": 2815,
      "_self": 2816,
      "_penal": 2817,
      "_thanks": 2818,
      "_super": 2819,
      "reg": 2820,
      "_huge": 2821,
      "_values": 2822,
      "_motion": 2823,
      "_dev": 2824,
      "_words,": 2825,
      "_process.": 2826,
      "_people,": 2827,
      "itional": 2828,
      "_refuge": 2829,
      "_explain": 2830,
      "_circumstances": 2831,
      "_creating": 2832,
      "_poor": 2833,
      "ured": 2834,
      "pective": 2835,
      "action": 2836,
      "_Aust": 2837,
      "_substant": 2838,
      "_exch": 2839,
      "_initiatives": 2840,
      "_combat": 2841,
      "_immigration": 2842,
      "_increased": 2843,
      "_movement": 2844,
      "_recently": 2845,
      "_EC": 2846,
      "_concept": 2847,
      "_coordin": 2848,
      "_half": 2849,
      "_way,": 2850,
      "_spo": 2851,
      "_possible.": 2852,
      "_country,": 2853,
      "_gr": 2854,
      "_myself": 2855,
      "_sens": 2856,
      "_relevant": 2857,
      "_Nos": 2858,
      "_coordination": 2859,
      "_Human": 2860,
      "_Nations": 2861,
      "_obtain": 2862,
      "_forces": 2863,
      "_altern": 2864,
      "_outside": 2865,
      "_neighbour": 2866,
      "_transparency": 2867,
      "_ir": 2868,
      "_gra": 2869,
      "_us.": 2870,
      "_qual": 2871,
      "_authority": 2872,
      "_Security": 2873,
      "endit": 2874,
      "_big": 2875,
      "_partnership": 2876,
      "_legit": 2877,
      "_additional": 2878,
      "_Irish": 2879,
      "_exer": 2880,
      "_waste": 2881,
      "_times": 2882,
      "_confidence": 2883,
      "_consumers": 2884,
      "_Union's": 2885,
      "_overall": 2886,
      "_mass": 2887,
      "_purpose": 2888,
      "etary": 2889,
      "_seek": 2890,
      "_nature": 2891,
      "_considerable": 2892,
      "ics": 2893,
      "imes": 2894,
      "_Res": 2895,
      "_Firstly,": 2896,
      "_central": 2897,
      "_emerg": 2898,
      "eguard": 2899,
      "_content": 2900,
      "_13": 2901,
      "_Of": 2902,
      "oman": 2903,
      "reland": 2904,
      "_friend": 2905,
      "_ren": 2906,
      "reh": 2907,
      "unch": 2908,
      "_cover": 2909,
      "_Jun": 2910,
      "_Amendments": 2911,
      "_discussed": 2912,
      "_Ireland": 2913,
      "_Afgh": 2914,
      "_International": 2915,
      "_mere": 2916,
      "_Republic": 2917,
      "ina": 2918,
      "ise,": 2919,
      "_Agree": 2920,
      "_level.": 2921,
      "_now,": 2922,
      "_requirements": 2923,
      "bourg": 2924,
      "_trying": 2925,
      "_Rights": 2926,
      ".m.": 2927,
      "_committe": 2928,
      "_sid": 2929,
      "_type": 2930,
      "_People": 2931,
      "_san": 2932,
      "_safeguard": 2933,
      "_Or": 2934,
      "_lot": 2935,
      "iveness": 2936,
      "_men": 2937,
      "_incor": 2938,
      "ake": 2939,
      "_administrative": 2940,
      "_fo": 2941,
      "_const": 2942,
      "_Italian": 2943,
      "_WTO": 2944,
      "_here.": 2945,
      "line": 2946,
      "alled": 2947,
      "_author": 2948,
      "_Charter": 2949,
      "_assessment": 2950,
      "_instead": 2951,
      "_relationship": 2952,
      "_extent": 2953,
      "_desire": 2954,
      "_deg": 2955,
      "_assistance": 2956,
      "_people.": 2957,
      "arily": 2958,
      "_structural": 2959,
      "_Middle": 2960,
      "ctions": 2961,
      "bod": 2962,
      "_but,": 2963,
      "erial": 2964,
      "_profession": 2965,
      "_training": 2966,
      "_minister": 2967,
      "_Environment": 2968,
      "_Afghan": 2969,
      "_met": 2970,
      "_specifically": 2971,
      "_firm": 2972,
      "ives,": 2973,
      "_humanitarian": 2974,
      "_stated": 2975,
      "_conduct": 2976,
      "_Bank": 2977,
      "_design": 2978,
      "rest": 2979,
      "_dr": 2980,
      "_Now": 2981,
      "t,": 2982,
      "anim": 2983,
      "_Bal": 2984,
      "_Inter": 2985,
      "_sitt": 2986,
      "_deli": 2987,
      "_Quest": 2988,
      "_message": 2989,
      "_influ": 2990,
      "_capacity": 2991,
      "_spir": 2992,
      "ological": 2993,
      "_convin": 2994,
      "_participation": 2995,
      "_dom": 2996,
      "_Ac": 2997,
      "_farmers": 2998,
      "dam": 2999,
      "_speaking": 3000,
      "_implementing": 3001,
      "struction": 3002,
      "_staff": 3003,
      "anc": 3004,
      "ished": 3005,
      "_claim": 3006,
      "hold": 3007,
      "_modern": 3008,
      "_weapon": 3009,
      "_vital": 3010,
      "_Develop": 3011,
      "_reduction": 3012,
      "ency.": 3013,
      "_urgent": 3014,
      "_supported": 3015,
      "_allowed": 3016,
      "_14": 3017,
      "sec": 3018,
      "_Fore": 3019,
      "_ver": 3020,
      "_wrong": 3021,
      "_discussions": 3022,
      "_unanim": 3023,
      "_billion": 3024,
      "_effects": 3025,
      "_damage": 3026,
      "_powers": 3027,
      "_cat": 3028,
      "_goes": 3029,
      "_fear": 3030,
      "_Re": 3031,
      "_offer": 3032,
      "aign": 3033,
      "_elections": 3034,
      "_dealing": 3035,
      "_Belg": 3036,
      "_victims": 3037,
      "_Austri": 3038,
      "_area.": 3039,
      "_Justice": 3040,
      "ia.": 3041,
      "_debate.": 3042,
      "_mut": 3043,
      "dom": 3044,
      "_remains": 3045,
      "al,": 3046,
      "ureau": 3047,
      "_package": 3048,
      "yond": 3049,
      "_minimum": 3050,
      "_poverty": 3051,
      "_aut": 3052,
      "_repl": 3053,
      "_scientific": 3054,
      "ying": 3055,
      "ousand": 3056,
      "_advant": 3057,
      "_them,": 3058,
      "_regulations": 3059,
      "_home": 3060,
      "vere": 3061,
      "_ensuring": 3062,
      "_receive": 3063,
      "_yesterday": 3064,
      "ging": 3065,
      "_forms": 3066,
      "_mand": 3067,
      "_campaign": 3068,
      "_function": 3069,
      "_construct": 3070,
      "head": 3071,
      "_investig": 3072,
      "_land": 3073,
      "_ce": 3074,
      "_Cons": 3075,
      "-p": 3076,
      "uff": 3077,
      "_natural": 3078,
      "_vol": 3079,
      "_institutional": 3080,
      "_prob": 3081,
      "_material": 3082,
      "_welcom": 3083,
      "European": 3084,
      "_worth": 3085,
      "_Russia": 3086,
      "enge": 3087,
      "_paragraph": 3088,
      "_complete": 3089,
      "_definition": 3090,
      "_Mediterranean": 3091,
      "_country.": 3092,
      "_Z": 3093,
      "_prim": 3094,
      "echn": 3095,
      "icit": 3096,
      "_medium": 3097,
      "selv": 3098,
      "_expendit": 3099,
      "_beyond": 3100,
      "_justice": 3101,
      "_guidelines": 3102,
      "of": 3103,
      "ciliation": 3104,
      "_citizens.": 3105,
      "_separ": 3106,
      "_accident": 3107,
      "_adoption": 3108,
      "_prevention": 3109,
      "_remark": 3110,
      "force": 3111,
      "_dim": 3112,
      "_eth": 3113,
      "_establishing": 3114,
      "_successful": 3115,
      "_levels": 3116,
      "_intended": 3117,
      "bur": 3118,
      "_setting": 3119,
      "_whom": 3120,
      "_By": 3121,
      "_shown": 3122,
      "_similar": 3123,
      "_Pact": 3124,
      "_willing": 3125,
      "_substantial": 3126,
      "_proposal.": 3127,
      "_requires": 3128,
      "_Turk": 3129,
      "_lab": 3130,
      "President,": 3131,
      "_family": 3132,
      "-making": 3133,
      "_wanted": 3134,
      "_conclusions": 3135,
      "_sound": 3136,
      "_Affairs,": 3137,
      "omp": 3138,
      "EC": 3139,
      "_outcome": 3140,
      "_efficient": 3141,
      "_arm": 3142,
      "where": 3143,
      "_challeng": 3144,
      "_declar": 3145,
      "_known": 3146,
      "_intention": 3147,
      "_rightly": 3148,
      "_improving": 3149,
      "able,": 3150,
      "_language": 3151,
      "ously": 3152,
      "_Foreign": 3153,
      "_thousand": 3154,
      "_sl": 3155,
      "_pointed": 3156,
      "_compens": 3157,
      "_Therefore,": 3158,
      "_future,": 3159,
      "_provides": 3160,
      "_innov": 3161,
      "_applied": 3162,
      "_law.": 3163,
      "_recognise": 3164,
      "'.": 3165,
      "_mad": 3166,
      "_then,": 3167,
      "_useful": 3168,
      "ians": 3169,
      "lin": 3170,
      "ool": 3171,
      "hol": 3172,
      "iter": 3173,
      "_highly": 3174,
      "_explo": 3175,
      "isc": 3176,
      "_closed.": 3177,
      "_independent": 3178,
      "_exact": 3179,
      "_committed": 3180,
      "_Spain": 3181,
      "_British": 3182,
      "_(P": 3183,
      "_terrorist": 3184,
      "rastruct": 3185,
      "_affair": 3186,
      "_alloc": 3187,
      "_providing": 3188,
      "men": 3189,
      "_price": 3190,
      "_Although": 3191,
      "_won": 3192,
      "_rein": 3193,
      "_reforms": 3194,
      "_industrial": 3195,
      "uct": 3196,
      "_valu": 3197,
      "_occasion": 3198,
      "_Ma": 3199,
      "_Rul": 3200,
      "_emission": 3201,
      "_contribute": 3202,
      "_age": 3203,
      "_practice": 3204,
      "_urge": 3205,
      "_infrastruct": 3206,
      "_acknow": 3207,
      "_instruments": 3208,
      "_laid": 3209,
      "anu": 3210,
      "_enorm": 3211,
      "_incorpor": 3212,
      "vis": 3213,
      "_leave": 3214,
      "_speed": 3215,
      "_interp": 3216,
      "_quickly": 3217,
      "_led": 3218,
      "ism,": 3219,
      "_contr": 3220,
      "_tack": 3221,
      "_events": 3222,
      "_paid": 3223,
      "_contract": 3224,
      "_treatment": 3225,
      "_will,": 3226,
      "_relig": 3227,
      "_commer": 3228,
      "_challenge": 3229,
      "_defend": 3230,
      "_Prod": 3231,
      "liance": 3232,
      "_beginning": 3233,
      "_spirit": 3234,
      "_deep": 3235,
      "_char": 3236,
      "_living": 3237,
      "etimes": 3238,
      "_rapid": 3239,
      "theless,": 3240,
      "_(A5-0": 3241,
      "_Greek": 3242,
      "_Ex": 3243,
      "_wid": 3244,
      "_earli": 3245,
      "_police": 3246,
      "_reading": 3247,
      "_unemploy": 3248,
      "_views": 3249,
      "_arrange": 3250,
      "_implemented": 3251,
      "_again,": 3252,
      "ening": 3253,
      "acy": 3254,
      "_analysis": 3255,
      "_send": 3256,
      "_Paper": 3257,
      "_equality": 3258,
      "ated.": 3259,
      "_debate,": 3260,
      "_diseas": 3261,
      "_sport": 3262,
      "_responsibilities": 3263,
      "_Do": 3264,
      "_produce": 3265,
      "_markets": 3266,
      "lus": 3267,
      "ristian": 3268,
      "_Turkish": 3269,
      "edly": 3270,
      "_distrib": 3271,
      "_decide": 3272,
      "af": 3273,
      "iction": 3274,
      "_Greece": 3275,
      "go": 3276,
      "ted": 3277,
      "itial": 3278,
      "_rad": 3279,
      "_directly": 3280,
      "SE": 3281,
      "_comments": 3282,
      "_Rules": 3283,
      "_adequ": 3284,
      "_fulf": 3285,
      "_enterpr": 3286,
      "_liberalisation": 3287,
      "_emphasise": 3288,
      "yn": 3289,
      "_gain": 3290,
      "_increasingly": 3291,
      "_La": 3292,
      "_proposal,": 3293,
      "ring": 3294,
      "_gives": 3295,
      "_calls": 3296,
      "ster": 3297,
      "_Third": 3298,
      "_pursu": 3299,
      "_Co": 3300,
      "_looking": 3301,
      "-up": 3302,
      "_Pat": 3303,
      "aving": 3304,
      "al.": 3305,
      "ograph": 3306,
      "_development.": 3307,
      "_possible,": 3308,
      "ash": 3309,
      "_jobs": 3310,
      "dra": 3311,
      "_disp": 3312,
      "_Never": 3313,
      "ilst": 3314,
      "_developed": 3315,
      "_impl": 3316,
      "aging": 3317,
      "_here,": 3318,
      "_Tr": 3319,
      "_heart": 3320,
      "_Regulation": 3321,
      "_way.": 3322,
      "_flexibility": 3323,
      "_univers": 3324,
      "_work,": 3325,
      "_Uk": 3326,
      "_probably": 3327,
      "_charact": 3328,
      "_consens": 3329,
      "_travel": 3330,
      "_House,": 3331,
      "itude": 3332,
      "_Central": 3333,
      "_annual": 3334,
      "-called": 3335,
      "_Economic": 3336,
      "_rural": 3337,
      "_cle": 3338,
      "_EU.": 3339,
      "_simpl": 3340,
      "_complex": 3341,
      "_early": 3342,
      "_dealt": 3343,
      "_actual": 3344,
      "_colleague": 3345,
      "_achieving": 3346,
      "_counter": 3347,
      "_drawn": 3348,
      "_initial": 3349,
      "_issue,": 3350,
      "_accepted": 3351,
      "_occup": 3352,
      "_condemn": 3353,
      "_animals": 3354,
      "_dead": 3355,
      "_anything": 3356,
      "_sensitive": 3357,
      "_so-called": 3358,
      "_days": 3359,
      "_demands": 3360,
      "_market,": 3361,
      "/0": 3362,
      "_Democrats": 3363,
      "_ago,": 3364,
      "_promoting": 3365,
      "_becoming": 3366,
      "olid": 3367,
      "arent": 3368,
      "_discussing": 3369,
      "_addition,": 3370,
      "_level,": 3371,
      "_thought": 3372,
      "_Rights,": 3373,
      "_forget": 3374,
      "_extra": 3375,
      "_directive.": 3376,
      "uted": 3377,
      "_territor": 3378,
      "_popul": 3379,
      "omb": 3380,
      "ung": 3381,
      "_closely": 3382,
      "lt": 3383,
      "_thinking": 3384,
      "ifying": 3385,
      "_foot": 3386,
      "-w": 3387,
      "_so,": 3388,
      "_sometimes": 3389,
      "_applic": 3390,
      "_bad": 3391,
      "ence,": 3392,
      "_difficulties": 3393,
      "_Man": 3394,
      "ifi": 3395,
      "_exception": 3396,
      "encies": 3397,
      "_Public": 3398,
      "_Since": 3399,
      "_out,": 3400,
      "_insist": 3401,
      "_Proced": 3402,
      "_Pr": 3403,
      "_calling": 3404,
      "_anti": 3405,
      "_After": 3406,
      "_acqu": 3407,
      "_bar": 3408,
      "_finally": 3409,
      "2)": 3410,
      "_caused": 3411,
      "ban": 3412,
      "_los": 3413,
      "reci": 3414,
      "oday": 3415,
      "_combating": 3416,
      "_Moreover,": 3417,
      "_recognition": 3418,
      "_affected": 3419,
      "_so.": 3420,
      "_remember": 3421,
      "_produc": 3422,
      "_intervention": 3423,
      "on.": 3424,
      "_plans": 3425,
      "_dimension": 3426,
      "_Today": 3427,
      "_former": 3428,
      "_Health": 3429,
      "_organised": 3430,
      "_launch": 3431,
      "coming": 3432,
      "_compreh": 3433,
      "_decision-making": 3434,
      "_though,": 3435,
      "_renew": 3436,
      "_Afghanistan": 3437,
      "DE": 3438,
      "ored": 3439,
      "_competit": 3440,
      "ha": 3441,
      "ober": 3442,
      "ient": 3443,
      "_applies": 3444,
      "_repeat": 3445,
      "_divers": 3446,
      "_z": 3447,
      "_wide": 3448,
      "_side": 3449,
      "ustr": 3450,
      "_system.": 3451,
      "_withdra": 3452,
      "_differences": 3453,
      "_long-term": 3454,
      "_appreci": 3455,
      "_wants": 3456,
      "ovember": 3457,
      "_Leg": 3458,
      "_commercial": 3459,
      "_Some": 3460,
      "_subsidi": 3461,
      "_convinced": 3462,
      "ence.": 3463,
      "_status": 3464,
      "bly": 3465,
      "amber": 3466,
      "_disch": 3467,
      "_trust": 3468,
      "_observ": 3469,
      "_Question": 3470,
      "_higher": 3471,
      "_Swedish": 3472,
      "_world,": 3473,
      "_commitments": 3474,
      "_party": 3475,
      "_evidence": 3476,
      "_norm": 3477,
      "_describ": 3478,
      "_constructive": 3479,
      "fect": 3480,
      "_schem": 3481,
      "_produced": 3482,
      "_well.": 3483,
      "_created": 3484,
      "_opposition": 3485,
      "_hop": 3486,
      "_Be": 3487,
      "_degree": 3488,
      "_Nevertheless,": 3489,
      "entions": 3490,
      "_involving": 3491,
      "_occur": 3492,
      "_factor": 3493,
      "ened": 3494,
      "ethel": 3495,
      "_competitive": 3496,
      "_Prot": 3497,
      "_susp": 3498,
      "_House.": 3499,
      "_prison": 3500,
      "_introduction": 3501,
      "_hour": 3502,
      "ecision": 3503,
      "rop": 3504,
      "_sex": 3505,
      "_peop": 3506,
      "_debates": 3507,
      "_comply": 3508,
      "_af": 3509,
      "_King": 3510,
      "_limited": 3511,
      "_plen": 3512,
      "i.": 3513,
      "_requirement": 3514,
      "_delegation": 3515,
      "_constant": 3516,
      "_tem": 3517,
      "on,": 3518,
      "_climate": 3519,
      "_character": 3520,
      "_consideration": 3521,
      "_interpret": 3522,
      "_lay": 3523,
      "_South": 3524,
      "_Janu": 3525,
      "_alternative": 3526,
      "_Roman": 3527,
      "_law,": 3528,
      "_strategic": 3529,
      "_entirely": 3530,
      "_strict": 3531,
      "_study": 3532,
      "_assum": 3533,
      "_trafficking": 3534,
      "_matter.": 3535,
      "_March": 3536,
      "_asking": 3537,
      "_merely": 3538,
      "_sitting": 3539,
      "_safet": 3540,
      "_adequate": 3541,
      "_fre": 3542,
      "orders": 3543,
      "_issues.": 3544,
      "lement": 3545,
      "_sw": 3546,
      "_enormous": 3547,
      "_UK": 3548,
      "_raise": 3549,
      "_aimed": 3550,
      "_collect": 3551,
      "_medic": 3552,
      "ream": 3553,
      "_sal": 3554,
      "_ahead": 3555,
      "_Green": 3556,
      "_record": 3557,
      "_unacceptable": 3558,
      "cel": 3559,
      "_vo": 3560,
      "urance": 3561,
      "portion": 3562,
      "_benefits": 3563,
      "_measure": 3564,
      "airman": 3565,
      "_opening": 3566,
      "_steps": 3567,
      ").": 3568,
      "_crime": 3569,
      "_fraud": 3570,
      "ront": 3571,
      "_Even": 3572,
      "_Indeed,": 3573,
      "_risks": 3574,
      "_exactly": 3575,
      "_Stability": 3576,
      "_introduce": 3577,
      "_because,": 3578,
      "_ways": 3579,
      "_explan": 3580,
      "_announ": 3581,
      "_simple": 3582,
      "_situation.": 3583,
      "/2000": 3584,
      "_Mr President,": 3585,
      "ught": 3586,
      "The": 3587,
      "_appeal": 3588,
      "iet": 3589,
      "_forth": 3590,
      "hern": 3591,
      "ism.": 3592,
      "_Prog": 3593,
      "_exchange": 3594,
      "_mainly": 3595,
      "_judicial": 3596,
      "eration": 3597,
      "_unable": 3598,
      "_supporting": 3599,
      "unt": 3600,
      "apt": 3601,
      "_Development": 3602,
      "_Trad": 3603,
      "_critical": 3604,
      "_der": 3605,
      "_sector.": 3606,
      "_closer": 3607,
      "_shows": 3608,
      "_contact": 3609,
      "_November": 3610,
      "_Internet": 3611,
      "-t": 3612,
      "orse": 3613,
      "_associ": 3614,
      "_prospect": 3615,
      "_board": 3616,
      "_30": 3617,
      "itation": 3618,
      "_building": 3619,
      "_borders": 3620,
      "set": 3621,
      "_Brussels": 3622,
      "body": 3623,
      "_Kos": 3624,
      "eli": 3625,
      "ved,": 3626,
      "_submitted": 3627,
      "amic": 3628,
      "_putting": 3629,
      "mp": 3630,
      "_establishment": 3631,
      "_too.": 3632,
      "_weak": 3633,
      "oph": 3634,
      "used": 3635,
      "_Unfortunate": 3636,
      "_letter": 3637,
      "_transparent": 3638,
      "_Acc": 3639,
      "nes": 3640,
      "_school": 3641,
      "ensible": 3642,
      "_told": 3643,
      "_Cub": 3644,
      "ource": 3645,
      "_categ": 3646,
      "rol": 3647,
      "ctober": 3648,
      "ired": 3649,
      "_sectors": 3650,
      "burg": 3651,
      "_wonder": 3652,
      "_Kosov": 3653,
      "_chec": 3654,
      "_conference": 3655,
      "_Kingdom": 3656,
      "ij": 3657,
      "antic": 3658,
      "_effici": 3659,
      "ats": 3660,
      "_perfect": 3661,
      "_totally": 3662,
      "_however": 3663,
      "_MEPs": 3664,
      "_Trans": 3665,
      "long": 3666,
      "_elements": 3667,
      "_Lastly,": 3668,
      "ys": 3669,
      "_surpr": 3670,
      "_documents": 3671,
      "_resolve": 3672,
      "_constitutional": 3673,
      "_ut": 3674,
      "_rise": 3675,
      "_table": 3676,
      "-border": 3677,
      "_question.": 3678,
      "respon": 3679,
      "_Why": 3680,
      "_adopting": 3681,
      "_Struct": 3682,
      "_developments": 3683,
      "ourage": 3684,
      "_mig": 3685,
      "_immigrant": 3686,
      "ederal": 3687,
      "_date": 3688,
      "_parts": 3689,
      "ins": 3690,
      "_balanced": 3691,
      "_duty": 3692,
      "_coast": 3693,
      "_problem.": 3694,
      "open": 3695,
      "_summ": 3696,
      "_France": 3697,
      "_Structural": 3698,
      "_ult": 3699,
      "_point,": 3700,
      "erend": 3701,
      "_ign": 3702,
      "_16": 3703,
      "_June": 3704,
      "ively": 3705,
      "_regime": 3706,
      "_worked": 3707,
      "_coll": 3708,
      "imately": 3709,
      "_Liberal": 3710,
      "_directive,": 3711,
      "_,": 3712,
      "_Parliament'": 3713,
      "_adapt": 3714,
      "_legislation.": 3715,
      "_pollution": 3716,
      "_mutual": 3717,
      "_Commission’s": 3718,
      "_rate": 3719,
      "_effectively": 3720,
      "zed": 3721,
      "_enj": 3722,
      "_addressed": 3723,
      "_consultation": 3724,
      "_facilit": 3725,
      "_seeking": 3726,
      "_element": 3727,
      "_excess": 3728,
      "_Group,": 3729,
      "_Intergovernmental": 3730,
      "que": 3731,
      "_ideas": 3732,
      "_impossible": 3733,
      "_bi": 3734,
      "_reducing": 3735,
      "hic": 3736,
      "_obviously": 3737,
      "_greatest": 3738,
      "aken": 3739,
      "_enh": 3740,
      "_support.": 3741,
      "_abol": 3742,
      "_dangerous": 3743,
      "_figures": 3744,
      "_Sh": 3745,
      "_p.m.": 3746,
      "_Balk": 3747,
      "_directives": 3748,
      "_Mor": 3749,
      "_happened": 3750,
      "orn": 3751,
      "_all.": 3752,
      "_partners": 3753,
      "_appears": 3754,
      "_succeed": 3755,
      "_opposed": 3756,
      "_Prime": 3757,
      "_seriously": 3758,
      "_contains": 3759,
      "_cross-border": 3760,
      "_comprehensive": 3761,
      "oor": 3762,
      "_subsidiarity": 3763,
      "be": 3764,
      "ent.": 3765,
      "_Can": 3766,
      "_Mar": 3767,
      "_GM": 3768,
      "_Legal": 3769,
      "_unf": 3770,
      "_system,": 3771,
      "_lo": 3772,
      "_typ": 3773,
      "isation,": 3774,
      "_Europe's": 3775,
      "_process,": 3776,
      "_prec": 3777,
      "_happy": 3778,
      "sequent": 3779,
      "_sk": 3780,
      "itime": 3781,
      "_weapons": 3782,
      "itable": 3783,
      "_expenditure": 3784,
      "_discharge": 3785,
      "mark": 3786,
      "_round": 3787,
      "-e": 3788,
      "_referend": 3789,
      "isms": 3790,
      "_positions": 3791,
      "_plenary": 3792,
      "wise": 3793,
      "itious": 3794,
      "_enjoy": 3795,
      "fact": 3796,
      "_fr": 3797,
      "_max": 3798,
      "semb": 3799,
      "_vehic": 3800,
      "_Ministers": 3801,
      "ior": 3802,
      "_now.": 3803,
      "_failure": 3804,
      "_ge": 3805,
      "_expression": 3806,
      "_improvement": 3807,
      "_Fe": 3808,
      "_concerned.": 3809,
      "_exercise": 3810,
      "an,": 3811,
      "_18": 3812,
      "_Israeli": 3813,
      "umer": 3814,
      "_conclude": 3815,
      "_areas.": 3816,
      "porary": 3817,
      "ording": 3818,
      "_Policy,": 3819,
      "_must,": 3820,
      "_October": 3821,
      "-re": 3822,
      "-si": 3823,
      "lantic": 3824,
      "erb": 3825,
      "ateful": 3826,
      "-G": 3827,
      "_pill": 3828,
      "_rele": 3829,
      "_Report": 3830,
      "cra": 3831,
      "_option": 3832,
      "_burd": 3833,
      "_Union'": 3834,
      "_discrimination": 3835,
      "_Agreement": 3836,
      "_influence": 3837,
      "_citizens,": 3838,
      "yc": 3839,
      "_Col": 3840,
      "_perspective": 3841,
      "_obser": 3842,
      "_January": 3843,
      "lines": 3844,
      "_came": 3845,
      "_strengthening": 3846,
      "_tend": 3847,
      "orks": 3848,
      "_div": 3849,
      "vered": 3850,
      "_statements": 3851,
      "_added": 3852,
      "_advoc": 3853,
      "_series": 3854,
      "_near": 3855,
      "_Mark": 3856,
      "_Programm": 3857,
      "rend": 3858,
      "_publ": 3859,
      "verse": 3860,
      "_endorse": 3861,
      "_informed": 3862,
      "_agriculture": 3863,
      "_grateful": 3864,
      "urally": 3865,
      "udit": 3866,
      "_communic": 3867,
      "_Ara": 3868,
      "_acceptable": 3869,
      "_represents": 3870,
      "_supply": 3871,
      "_supplement": 3872,
      "_original": 3873,
      "_elected": 3874,
      "_enabl": 3875,
      "_development,": 3876,
      "_amongst": 3877,
      "atever": 3878,
      "_starting": 3879,
      "_thousands": 3880,
      "_covered": 3881,
      "_negative": 3882,
      "_mist": 3883,
      "_bringing": 3884,
      "_Ber": 3885,
      "_warm": 3886,
      "_self-": 3887,
      "_courage": 3888,
      "_one.": 3889,
      "_continuing": 3890,
      "_Portugues": 3891,
      "_destro": 3892,
      "_Gen": 3893,
      "_17": 3894,
      "_Ky": 3895,
      "us,": 3896,
      "_cal": 3897,
      "_meant": 3898,
      "_consensus": 3899,
      "_substances": 3900,
      "_Per": 3901,
      "_wishes": 3902,
      "_arrest": 3903,
      "_entit": 3904,
      "_Nice": 3905,
      "_managed": 3906,
      "_Russian": 3907,
      "_Many": 3908,
      "ufact": 3909,
      "_session": 3910,
      "_ey": 3911,
      "_goods": 3912,
      "_feed": 3913,
      "_have,": 3914,
      "_structures": 3915,
      "ik": 3916,
      "ility": 3917,
      "_curren": 3918,
      "_leaders": 3919,
      "Os": 3920,
      "gar": 3921,
      "la": 3922,
      "_bureau": 3923,
      "_proportion": 3924,
      "_convention": 3925,
      "_concentr": 3926,
      "_area,": 3927,
      "augh": 3928,
      "..": 3929,
      "lim": 3930,
      "_visit": 3931,
      "_hy": 3932,
      "_says": 3933,
      "_chance": 3934,
      "_manufact": 3935,
      "_sector,": 3936,
      "_company": 3937,
      "ook": 3938,
      "_strongly": 3939,
      "_shared": 3940,
      "_fif": 3941,
      "_passeng": 3942,
      "ated,": 3943,
      "_NA": 3944,
      "_supports": 3945,
      "_class": 3946,
      "_recognised": 3947,
      "_According": 3948,
      "hag": 3949,
      "_Portuguese": 3950,
      "pol": 3951,
      "_North": 3952,
      "_representative": 3953,
      "_areas,": 3954,
      "_advantage": 3955,
      "ott": 3956,
      "_getting": 3957,
      "ustom": 3958,
      "_concret": 3959,
      "_challenges": 3960,
      "uel": 3961,
      "_Head": 3962,
      "_vote.": 3963,
      "_bodies": 3964,
      "_Thirdly,": 3965,
      "CP": 3966,
      "_Socialist": 3967,
      "_properly": 3968,
      "_ought": 3969,
      "_emphasis": 3970,
      "_exclud": 3971,
      "_tool": 3972,
      "_gave": 3973,
      "_Unfortunately,": 3974,
      "0.": 3975,
      "_Ladies": 3976,
      "_reiter": 3977,
      "_whilst": 3978,
      "_on.": 3979,
      "_obst": 3980,
      "_medium-si": 3981,
      "_place.": 3982,
      "_dict": 3983,
      "_lost": 3984,
      "val": 3985,
      "the": 3986,
      "_cooperation.": 3987,
      "_aims": 3988,
      "_transfer": 3989,
      "_withdraw": 3990,
      "estern": 3991,
      "_red": 3992,
      "_introduced": 3993,
      "_floor": 3994,
      "_er": 3995,
      "_larg": 3996,
      "_reply": 3997,
      "_neither": 3998,
      "_integrated": 3999,
      "ional": 4000,
      "_lives": 4001,
      "_stri": 4002,
      "_referendum": 4003,
      "_complain": 4004,
      "_environment.": 4005,
      "_Chamber": 4006,
      "_undertaking": 4007,
      "_important,": 4008,
      "_solutions": 4009,
      "_criticism": 4010,
      "_EU,": 4011,
      "_Ver": 4012,
      "_destru": 4013,
      "_income": 4014,
      "_themselv": 4015,
      "_activity": 4016,
      "_timet": 4017,
      "_media": 4018,
      "_tour": 4019,
      "orthern": 4020,
      "arged": 4021,
      "_perform": 4022,
      "_budget.": 4023,
      "_culture": 4024,
      "_designed": 4025,
      "_Rule": 4026,
      "_situation,": 4027,
      "_history": 4028,
      "_me,": 4029,
      "_improved": 4030,
      "_society.": 4031,
      "bac": 4032,
      "_laws": 4033,
      "_perman": 4034,
      "_learn": 4035,
      "asbourg": 4036,
      "_kill": 4037,
      "_medium-sized": 4038,
      "_unc": 4039,
      "undred": 4040,
      "_separate": 4041,
      "),": 4042,
      "_problems.": 4043,
      "lar": 4044,
      "sman": 4045,
      "_re-": 4046,
      "_China": 4047,
      "prus": 4048,
      "_businesses": 4049,
      "_professional": 4050,
      "ift": 4051,
      "_plac": 4052,
      "_underm": 4053,
      "_progres": 4054,
      "_question,": 4055,
      "atically": 4056,
      "_via": 4057,
      "earch": 4058,
      "_arms": 4059,
      "_obstac": 4060,
      "_tobac": 4061,
      "_range": 4062,
      "ival": 4063,
      "_presence": 4064,
      "_sovere": 4065,
      "_guarantees": 4066,
      "_Cyprus": 4067,
      "_point.": 4068,
      "_ton": 4069,
      "_group,": 4070,
      "_communities": 4071,
      "inate": 4072,
      "_facing": 4073,
      "_methods": 4074,
      "estic": 4075,
      "_others,": 4076,
      "ology": 4077,
      "_fleet": 4078,
      "_EU's": 4079,
      "_signed": 4080,
      "_Research": 4081,
      "_train": 4082,
      "_weeks": 4083,
      "_resolutions": 4084,
      "_Strasbourg": 4085,
      "_Organ": 4086,
      "celon": 4087,
      "_sole": 4088,
      "_centur": 4089,
      "_General": 4090,
      "_appoint": 4091,
      "_rig": 4092,
      "_Barcelon": 4093,
      "_proposing": 4094,
      "_disapp": 4095,
      "_truly": 4096,
      "_prefer": 4097,
      "_action.": 4098,
      "standing": 4099,
      "_later": 4100,
      "_sha": 4101,
      "pril": 4102,
      "isation.": 4103,
      "_enlargement.": 4104,
      "_concrete": 4105,
      "_mission": 4106,
      "enty": 4107,
      "_membership": 4108,
      "_technology": 4109,
      "_detailed": 4110,
      "_delight": 4111,
      "_choice": 4112,
      "_understanding": 4113,
      "_2005": 4114,
      "_pillar": 4115,
      "_attach": 4116,
      "_ambitious": 4117,
      "_services,": 4118,
      "ised.": 4119,
      "_exec": 4120,
      "/2001": 4121,
      "ought": 4122,
      "_peoples": 4123,
      "_belong": 4124,
      "_dign": 4125,
      "_believe,": 4126,
      "openhag": 4127,
      "_ec": 4128,
      "_important.": 4129,
      "_includes": 4130,
      "_leading": 4131,
      "_regular": 4132,
      "_compar": 4133,
      "_thereby": 4134,
      "_Copenhag": 4135,
      "_stock": 4136,
      "_jour": 4137,
      "_Fundamental": 4138,
      "en.": 4139,
      "_Not": 4140,
      "_sanctions": 4141,
      "_institutions.": 4142,
      "plom": 4143,
      "_peaceful": 4144,
      "_out.": 4145,
      "_attitude": 4146,
      "_America": 4147,
      "_hundred": 4148,
      "_White": 4149,
      "5-00": 4150,
      "erous": 4151,
      "_April": 4152,
      "_institutions,": 4153,
      "essel": 4154,
      "_bind": 4155,
      "_Only": 4156,
      "_failed": 4157,
      "_parliaments": 4158,
      "_democracy,": 4159,
      "_har": 4160,
      "_ste": 4161,
      "_Lat": 4162,
      "_Agricult": 4163,
      "_maximum": 4164,
      "-M": 4165,
      "_Asi": 4166,
      "_body": 4167,
      "_serve": 4168,
      "_forest": 4169,
      "_prices": 4170,
      "_related": 4171,
      "_NATO": 4172,
      "_vessel": 4173,
      "_operation": 4174,
      "_Policy": 4175,
      "_case.": 4176,
      "LA": 4177,
      "_issues,": 4178,
      "_II": 4179,
      "urely": 4180,
      "_democrat": 4181,
      "_earlier": 4182,
      "fare": 4183,
      "_vir": 4184,
      "_promotion": 4185,
      "ots": 4186,
      "-General": 4187,
      "_court": 4188,
      "PE": 4189,
      "ges": 4190,
      "_forced": 4191,
      "_Ad": 4192,
      "_who,": 4193,
      "_reason,": 4194,
      "_Consumer": 4195,
      "_faced": 4196,
      "_followed": 4197,
      "_1998": 4198,
      "_services.": 4199,
      "_conver": 4200,
      "_administration": 4201,
      "_NG": 4202,
      "_States'": 4203,
      "_speakers": 4204,
      "_recommendations": 4205,
      "_USA": 4206,
      "_involvement": 4207,
      "_consolid": 4208,
      "_temporary": 4209,
      "ather": 4210,
      "ous,": 4211,
      "_Common": 4212,
      "_settle": 4213,
      "_respect,": 4214,
      "_payment": 4215,
      "_flexible": 4216,
      "_easy": 4217,
      "_union": 4218,
      "_pleas": 4219,
      "_goal": 4220,
      "_inspect": 4221,
      "_Constitutional": 4222,
      "_granted": 4223,
      "_Those": 4224,
      "_Danish": 4225,
      "_forthcoming": 4226,
      "_Sub": 4227,
      "_ACP": 4228,
      "_itself.": 4229,
      "_diplom": 4230,
      "_destruction": 4231,
      "lying": 4232,
      "_Market": 4233,
      "_tobacco": 4234,
      "_disappoint": 4235,
      "',": 4236,
      "_Nether": 4237,
      "_historic": 4238,
      "_Netherland": 4239,
      "_heav": 4240,
      "_21": 4241,
      "_repeated": 4242,
      "_interesting": 4243,
      "_careful": 4244,
      "_Prodi": 4245,
      "_Em": 4246,
      "_Chechn": 4247,
      "_break": 4248,
      "_Chechny": 4249,
      "here": 4250,
      "_contrad": 4251,
      "_decis": 4252,
      "_terrorism.": 4253,
      "_Environment,": 4254,
      "_mill": 4255,
      "_moving": 4256,
      "_harmonisation": 4257,
      "_evaluation": 4258,
      "_fulfil": 4259,
      "_reasonable": 4260,
      "/2001)": 4261,
      "_has,": 4262,
      "_uns": 4263,
      "_react": 4264,
      "_gas": 4265,
      "ender": 4266,
      "_relative": 4267,
      "_attacks": 4268,
      "_proposes": 4269,
      "_enlargement,": 4270,
      "_Every": 4271,
      "_anyone": 4272,
      "_financing": 4273,
      "_elim": 4274,
      "_programme.": 4275,
      "_naturally": 4276,
      "_Africa": 4277,
      "_custom": 4278,
      "_Iran": 4279,
      "_Monetary": 4280,
      "_labell": 4281,
      "-European": 4282,
      "_host": 4283,
      "erring": 4284,
      "_volunt": 4285,
      "o.": 4286,
      "_Ass": 4287,
      "_profit": 4288,
      "_glad": 4289,
      "ty.": 4290,
      "_Sol": 4291,
      "uses": 4292,
      "_Internal": 4293,
      "_agreement.": 4294,
      "inated": 4295,
      "_imag": 4296,
      "_structure": 4297,
      "acking": 4298,
      "_linked": 4299,
      "_prosper": 4300,
      "_C5-0": 4301,
      "_networks": 4302,
      "_Germany": 4303,
      "urs": 4304,
      "_pra": 4305,
      "_quant": 4306,
      "_protecting": 4307,
      "_201": 4308,
      "_Council's": 4309,
      "_space": 4310,
      "_reduced": 4311,
      "_slow": 4312,
      "_Commissioner.": 4313,
      "_meetings": 4314,
      "_legitimate": 4315,
      "_purpos": 4316,
      "_compensation": 4317,
      "one,": 4318,
      "_stra": 4319,
      "_position.": 4320,
      "-based": 4321,
      "_maritime": 4322,
      "_Belgian": 4323,
      "iss": 4324,
      "COM": 4325,
      "ancial": 4326,
      "_Committ": 4327,
      "going": 4328,
      "_impose": 4329,
      "30": 4330,
      "orough": 4331,
      "_From": 4332,
      "_Ob": 4333,
      "_genuinely": 4334,
      "_log": 4335,
      "_terrorism,": 4336,
      "_association": 4337,
      "_whatever": 4338,
      "_conciliation": 4339,
      "_New": 4340,
      "_measures,": 4341,
      "_African": 4342,
      "_minority": 4343,
      "_growing": 4344,
      "_immediately": 4345,
      "hib": 4346,
      "_ability": 4347,
      "stitutional": 4348,
      "mission": 4349,
      "ingu": 4350,
      "_Nor": 4351,
      "_measures.": 4352,
      "_worse": 4353,
      "_amendments,": 4354,
      "omen,": 4355,
      "etic": 4356,
      "_sea": 4357,
      "ically,": 4358,
      "_secure": 4359,
      "gic": 4360,
      "istics": 4361,
      "_Protocol": 4362,
      "_thorough": 4363,
      "_Such": 4364,
      "-h": 4365,
      "_aver": 4366,
      "_controls": 4367,
      "_hor": 4368,
      "_entitled": 4369,
      "_Des": 4370,
      "_prior": 4371,
      "_adjust": 4372,
      "_refugees": 4373,
      "_Kyot": 4374,
      "_delighted": 4375,
      "ty,": 4376,
      "_bound": 4377,
      "_gradu": 4378,
      "_exempt": 4379,
      "ployment": 4380,
      "_realise": 4381,
      "one.": 4382,
      "_programme,": 4383,
      "_recommendation": 4384,
      "_credibility": 4385,
      "ein": 4386,
      "ulated": 4387,
      "_debt": 4388,
      "_(The": 4389,
      "_ready": 4390,
      "_competitiveness": 4391,
      "utch": 4392,
      "_Lu": 4393,
      "_Are": 4394,
      "rating": 4395,
      "_interested": 4396,
      "_participate": 4397,
      "_loss": 4398,
      "_tele": 4399,
      "_declaration": 4400,
      "_rich": 4401,
      "ous.": 4402,
      "_ende": 4403,
      "_Sec": 4404,
      "_freedom,": 4405,
      "ers'": 4406,
      "_impression": 4407,
      "_demonstrate": 4408,
      " –": 4409,
      "ended": 4410,
      "_safe": 4411,
      "sh": 4412,
      "_procedure.": 4413,
      "_done.": 4414,
      "_grounds": 4415,
      "_legislation,": 4416,
      "_Treaty,": 4417,
      "_poore": 4418,
      "_causes": 4419,
      "_source": 4420,
      "_path": 4421,
      "_dyn": 4422,
      "_Yet": 4423,
      "_disease": 4424,
      "_cou": 4425,
      "_mechanism": 4426,
      "ature": 4427,
      "_secret": 4428,
      "_types": 4429,
      "AP": 4430,
      "_incident": 4431,
      "_continues": 4432,
      "_emissions": 4433,
      "_votes": 4434,
      "_firstly": 4435,
      "_Treaty.": 4436,
      "_capable": 4437,
      "_carefully": 4438,
      "nother": 4439,
      "_principle,": 4440,
      "_happening": 4441,
      "_contained": 4442,
      "_demonstrated": 4443,
      "_women,": 4444,
      "_Presidency,": 4445,
      "_welfare": 4446,
      "_cooperation,": 4447,
      "_agreement,": 4448,
      "_smo": 4449,
      "_arrangements": 4450,
      "_Europeans": 4451,
      "_Secret": 4452,
      "what": 4453,
      "Ch": 4454,
      "S)": 4455,
      "_numerous": 4456,
      "_budget,": 4457,
      "_Sad": 4458,
      "_Another": 4459,
      "_part,": 4460,
      "_environment,": 4461,
      "_also,": 4462,
      "_distribution": 4463,
      "_pun": 4464,
      "imb": 4465,
      "_apparent": 4466,
      "_end,": 4467,
      "_Committe": 4468,
      "_lin": 4469,
      "_alone": 4470,
      "_dispos": 4471,
      "_likely": 4472,
      "oul": 4473,
      "_divid": 4474,
      "_Sc": 4475,
      "_codecision": 4476,
      "_traditional": 4477,
      "_obligation": 4478,
      "_stake": 4479,
      "_permanent": 4480,
      "nel": 4481,
      "alt": 4482,
      "_latter": 4483,
      "az": 4484,
      "_tried": 4485,
      "_mandate": 4486,
      "20": 4487,
      "_Home": 4488,
      "_politic": 4489,
      "_bank": 4490,
      "_competence": 4491,
      "ronic": 4492,
      "_Despite": 4493,
      "6,": 4494,
      "_oral": 4495,
      "ruit": 4496,
      "_allowing": 4497,
      "_satisfact": 4498,
      "usion": 4499,
      "sibly": 4500,
      "_regis": 4501,
      "_problem,": 4502,
      "_Barcelona": 4503,
      "nder": 4504,
      "_Dutch": 4505,
      "_spent": 4506,
      "_necessary,": 4507,
      "_inh": 4508,
      "_do,": 4509,
      "COM(": 4510,
      "_acts": 4511,
      "_centre": 4512,
      "ones": 4513,
      "_religious": 4514,
      "avour": 4515,
      "iar": 4516,
      "icated": 4517,
      "_unless": 4518,
      "_suffering": 4519,
      "_context,": 4520,
      "_obligations": 4521,
      "enced": 4522,
      "_vac": 4523,
      "_would,": 4524,
      "_flow": 4525,
      "uls": 4526,
      "lder": 4527,
      "_tasks": 4528,
      "_subsidies": 4529,
      "overy": 4530,
      "_Bas": 4531,
      "_other,": 4532,
      "_rejected": 4533,
      "_somewhat": 4534,
      "_difference": 4535,
      "nic": 4536,
      "_rac": 4537,
      "_compliance": 4538,
      "_traged": 4539,
      "_minorities": 4540,
      "_fighting": 4541,
      "_equally": 4542,
      "_started": 4543,
      "_Heads": 4544,
      "_vision": 4545,
      "_place,": 4546,
      "_conclusion,": 4547,
      "_consistent": 4548,
      "_Patten": 4549,
      "_contrary,": 4550,
      "_placed": 4551,
      "_Cont": 4552,
      "_lines": 4553,
      "_there.": 4554,
      "sterdam": 4555,
      "ox": 4556,
      "as,": 4557,
      "_prem": 4558,
      "ague": 4559,
      "_sources": 4560,
      "_et": 4561,
      "_PPE": 4562,
      "_approval": 4563,
      "_spread": 4564,
      "_disaster": 4565,
      "_drugs": 4566,
      "_paper": 4567,
      "_Freedom": 4568,
      "/2003": 4569,
      "_amendments.": 4570,
      "_unfortunately": 4571,
      "outher": 4572,
      "_one,": 4573,
      "_defined": 4574,
      "_50": 4575,
      "mbud": 4576,
      "_involves": 4577,
      "_operational": 4578,
      "emical": 4579,
      "_you.": 4580,
      "_While": 4581,
      "_drawing": 4582,
      "outhern": 4583,
      "ocks": 4584,
      "_assure": 4585,
      "_entry": 4586,
      "_expected": 4587,
      "_mechanisms": 4588,
      "_appropriations": 4589,
      "_undertaken": 4590,
      "_intends": 4591,
      "_generally": 4592,
      "(CO": 4593,
      "bru": 4594,
      "_gender": 4595,
      "_Par": 4596,
      "_Amsterdam": 4597,
      "_railway": 4598,
      "_tun": 4599,
      "_retain": 4600,
      "_vig": 4601,
      "_enforce": 4602,
      "_formal": 4603,
      "_blood": 4604,
      "_[": 4605,
      "_room": 4606,
      "_lower": 4607,
      "rid": 4608,
      "ishing": 4609,
      "_disag": 4610,
      "_clarify": 4611,
      "is,": 4612,
      "_regulatory": 4613,
      "_insurance": 4614,
      "_limits": 4615,
      "_facilitate": 4616,
      "_Auth": 4617,
      "_economy.": 4618,
      "_region.": 4619,
      "_perfectly": 4620,
      "_on,": 4621,
      "_tragic": 4622,
      "_cases,": 4623,
      " – ": 4624,
      "_wit": 4625,
      "_rates": 4626,
      "_approve": 4627,
      "_Assemb": 4628,
      "_continued": 4629,
      "rep": 4630,
      "_mer": 4631,
      "ulate": 4632,
      "_suffer": 4633,
      "_immigr": 4634,
      "_barri": 4635,
      "_elector": 4636,
      "_amounts": 4637,
      "_tackle": 4638,
      "_bilateral": 4639,
      "uting": 4640,
      "_policies.": 4641,
      "_basis.": 4642,
      "_practices": 4643,
      "_democracy.": 4644,
      "_played": 4645,
      "_reserv": 4646,
      "_monetary": 4647,
      "ecause": 4648,
      "_Convention,": 4649,
      "_payments": 4650,
      "_expert": 4651,
      "_acknowledge": 4652,
      "urning": 4653,
      "_Inst": 4654,
      "_extension": 4655,
      "_rapporteurs": 4656,
      "_reconstruction": 4657,
      "_burden": 4658,
      "adequ": 4659,
      "itten": 4660,
      "_plant": 4661,
      "_(H": 4662,
      "_Isl": 4663,
      "_exclus": 4664,
      "gl": 4665,
      "_lose": 4666,
      "_Gal": 4667,
      "_decisive": 4668,
      "5%": 4669,
      "_Any": 4670,
      "_targets": 4671,
      "_sexual": 4672,
      "_up,": 4673,
      "_contributions": 4674,
      "_judg": 4675,
      "_Transport": 4676,
      "_Kyoto": 4677,
      "_destroy": 4678,
      "ised,": 4679,
      "_Parliament’s": 4680,
      "_truth": 4681,
      "_incent": 4682,
      "_morning": 4683,
      "_day,": 4684,
      "teen": 4685,
      "imbab": 4686,
      "_etc": 4687,
      "_industry.": 4688,
      "_ago.": 4689,
      "_Den": 4690,
      "_Financial": 4691,
      "ompan": 4692,
      "ked": 4693,
      "_Commun": 4694,
      "ppl": 4695,
      "_Ref": 4696,
      "_(F": 4697,
      "_Zimbab": 4698,
      "_proposals.": 4699,
      "_resolution,": 4700,
      "_imposed": 4701,
      "_spoke": 4702,
      "rs": 4703,
      "_examine": 4704,
      "cont": 4705,
      "_Copenhagen": 4706,
      "_persons": 4707,
      "_sides": 4708,
      "_toler": 4709,
      "_inadequ": 4710,
      "pping": 4711,
      "_again.": 4712,
      "’.": 4713,
      "_competences": 4714,
      "_Bur": 4715,
      "_situations": 4716,
      "_immigrants": 4717,
      "_Febru": 4718,
      "_binding": 4719,
      "_Agriculture": 4720,
      "bit": 4721,
      "itory": 4722,
      "_reaction": 4723,
      "ilt": 4724,
      "_negotiating": 4725,
      "_endeavour": 4726,
      "_Because": 4727,
      "_24": 4728,
      "_meaning": 4729,
      "mbudsman": 4730,
      "respond": 4731,
      "_voluntary": 4732,
      "_win": 4733,
      "_Fish": 4734,
      "_solve": 4735,
      "_prohib": 4736,
      "_Europol": 4737,
      "_spend": 4738,
      "_interven": 4739,
      "_correspond": 4740,
      "_closed": 4741,
      "_efficiency": 4742,
      "_lies": 4743,
      "_office": 4744,
      "_bat": 4745,
      "_signal": 4746,
      "_should,": 4747,
      "_Bul": 4748,
      "_believes": 4749,
      "_matter,": 4750,
      "abor": 4751,
      "_apart": 4752,
      "_distort": 4753,
      "_legitim": 4754,
      "_marg": 4755,
      "_mann": 4756,
      "_revision": 4757,
      "_distin": 4758,
      "nal": 4759,
      "_society,": 4760,
      "_Belar": 4761,
      "_Subject": 4762,
      "_Authority": 4763,
      "cy,": 4764,
      "_resources.": 4765,
      "_Energ": 4766,
      "_emergency": 4767,
      "_normal": 4768,
      "ctive": 4769,
      "_finance": 4770,
      "_improvements": 4771,
      "cent": 4772,
      "_Members,": 4773,
      "_Christian": 4774,
      "_enlarged": 4775,
      "_moment,": 4776,
      "LAF": 4777,
      "_otherwise": 4778,
      "_Funds": 4779,
      "_applying": 4780,
      "_holding": 4781,
      "ene": 4782,
      "_Convention.": 4783,
      "_Women": 4784,
      "levision": 4785,
      "_prove": 4786,
      "_Other": 4787,
      "_pursue": 4788,
      "_(Parliament": 4789,
      "institutional": 4790,
      "_rout": 4791,
      "_transl": 4792,
      "2,": 4793,
      "_chemical": 4794,
      "_pret": 4795,
      "_recovery": 4796,
      "_kept": 4797,
      "_preventing": 4798,
      "_preparing": 4799,
      "_unemployment": 4800,
      "_(H-": 4801,
      "_dail": 4802,
      "ters": 4803,
      "_fav": 4804,
      "_100": 4805,
      "_employees": 4806,
      "_controll": 4807,
      "avi": 4808,
      "_spoken": 4809,
      "_primary": 4810,
      "_Bl": 4811,
      "erves": 4812,
      "_1.": 4813,
      "_monop": 4814,
      "_airport": 4815,
      "_agenda.": 4816,
      "_Today,": 4817,
      "_average": 4818,
      "T)": 4819,
      "_Italy": 4820,
      "_moreover,": 4821,
      "raine": 4822,
      "_up.": 4823,
      "_considers": 4824,
      "_miss": 4825,
      "_frequ": 4826,
      "_disagree": 4827,
      "_restruct": 4828,
      "_employment,": 4829,
      "_manufacture": 4830,
      "AT": 4831,
      "GC": 4832,
      "_sensible": 4833,
      "_count": 4834,
      "_existence": 4835,
      "_treated": 4836,
      "_industry,": 4837,
      "_Subject:": 4838,
      "_July": 4839,
      "_extended": 4840,
      "pplause": 4841,
      "ah": 4842,
      "aut": 4843,
      "_coherent": 4844,
      "_exclusion": 4845,
      "_infrastructure": 4846,
      "iform": 4847,
      "_define": 4848,
      "uditors": 4849,
      "_equip": 4850,
      "ME": 4851,
      "_noise": 4852,
      "_overcome": 4853,
      "_information,": 4854,
      "_resolution.": 4855,
      "_encouraging": 4856,
      "_(Applause": 4857,
      "sequently,": 4858,
      "cy.": 4859,
      "_Ab": 4860,
      "_remo": 4861,
      "_planning": 4862,
      "aviour": 4863,
      "_sold": 4864,
      "_island": 4865,
      "_considering": 4866,
      "_territory": 4867,
      "_198": 4868,
      "_written": 4869,
      "_qualified": 4870,
      "_pet": 4871,
      "ivity": 4872,
      "_liability": 4873,
      "_aid.": 4874,
      "lav": 4875,
      "iling": 4876,
      "_Agency": 4877,
      "_Fisher": 4878,
      "_Commissioners": 4879,
      "_meat": 4880,
      "_Bush": 4881,
      "_extensive": 4882,
      "_problems,": 4883,
      "_represented": 4884,
      "_diversity": 4885,
      "_Lam": 4886,
      "_OLAF": 4887,
      "_electronic": 4888,
      "ors,": 4889,
      "_approach.": 4890,
      "_committee,": 4891,
      "_High": 4892,
      "_slight": 4893,
      "try": 4894,
      "_ministers": 4895,
      "_noted": 4896,
      "_do.": 4897,
      "_dism": 4898,
      "_Mrs ": 4899,
      "_talks": 4900,
      "_unfortunately,": 4901,
      "_collective": 4902,
      "_Latin": 4903,
      "_Serb": 4904,
      "_imper": 4905,
      "_pred": 4906,
      "_IGC": 4907,
      "_Stat": 4908,
      "acedon": 4909,
      "_witness": 4910,
      "R)": 4911,
      "eken": 4912,
      "_B5-0": 4913,
      "_relates": 4914,
      "_restrictions": 4915,
      "ground": 4916,
      "_23": 4917,
      "_submit": 4918,
      "rowth": 4919,
      "_passed": 4920,
      "_multilateral": 4921,
      "year": 4922,
      "_preced": 4923,
      "_well,": 4924,
      "_argument": 4925,
      "_domestic": 4926,
      "_enterprises": 4927,
      "_27": 4928,
      "_thanking": 4929,
      "_fishermen": 4930,
      "itizens": 4931,
      "_consumption": 4932,
      "_maintaining": 4933,
      "_patent": 4934,
      "_clear,": 4935,
      "_seeks": 4936,
      "_credit": 4937,
      "_Moroc": 4938,
      "_terms,": 4939,
      "atible": 4940,
      "_nonethel": 4941,
      "_honest": 4942,
      "_prosec": 4943,
      "_associated": 4944,
      "_Arab": 4945,
      "_sad": 4946,
      "aries": 4947,
      "_Laeken": 4948,
      "ally,": 4949,
      "_policies,": 4950,
      "terno": 4951,
      "_honour": 4952,
      "_anti-": 4953,
      "_daily": 4954,
      "abilities": 4955,
      "cast": 4956,
      "_succes": 4957,
      "_made.": 4958,
      "_Denmark": 4959,
      "us.": 4960,
      "_gone": 4961,
      "ruption": 4962,
      "_sincere": 4963,
      "_deliver": 4964,
      "ps": 4965,
      "rog": 4966,
      "like": 4967,
      "_Having": 4968,
      "_contra": 4969,
      "_etc.": 4970,
      "aring": 4971,
      "_clause": 4972,
      "_highest": 4973,
      "_behaviour": 4974,
      "_Ukraine": 4975,
      "_afterno": 4976,
      "oubt": 4977,
      "igu": 4978,
      "_Kore": 4979,
      "_procedure,": 4980,
      "_concluded": 4981,
      "_briefly": 4982,
      "i.e.": 4983,
      "DS": 4984,
      "isch": 4985,
      "_trial": 4986,
      "_proposals,": 4987,
      "_factors": 4988,
      "icians": 4989,
      "199": 4990,
      "_Equ": 4991,
      "ice-": 4992,
      "_described": 4993,
      "_che": 4994,
      "_indeed,": 4995,
      "_products.": 4996,
      "_operate": 4997,
      "_latest": 4998,
      "_Employment": 4999,
      "_Pl": 5000,
      "_Ombudsman": 5001,
      "_works": 5002,
      "_compared": 5003,
      "_secondly,": 5004,
      "_excessive": 5005,
      "_i.e.": 5006,
      "_sil": 5007,
      "utin": 5008,
      "_personally": 5009,
      "_awareness": 5010,
      "_breach": 5011,
      "_(FR)": 5012,
      "_touch": 5013,
      "ote": 5014,
      "_Macedon": 5015,
      "vert": 5016,
      "_elsewhere": 5017,
      "_Perhaps": 5018,
      "ning,": 5019,
      "stood": 5020,
      "xem": 5021,
      "_support,": 5022,
      "_hom": 5023,
      "_got": 5024,
      "_deter": 5025,
      "_points.": 5026,
      "_twenty": 5027,
      "_protocol": 5028,
      "_protection.": 5029,
      "_electric": 5030,
      "_largely": 5031,
      "_keeping": 5032,
      "ion.": 5033,
      "_eight": 5034,
      "_agencies": 5035,
      "_Union’s": 5036,
      "_operations": 5037,
      "_together.": 5038,
      "_2003,": 5039,
      "_Secretary": 5040,
      "ana": 5041,
      "_Non": 5042,
      "_Regional": 5043,
      "_acknowled": 5044,
      "_uncertain": 5045,
      "_Luxem": 5046,
      "_continent": 5047,
      "_replace": 5048,
      "_recall": 5049,
      "_aid,": 5050,
      "ger": 5051,
      "_or,": 5052,
      "_Growth": 5053,
      "_choose": 5054,
      "_unfair": 5055,
      "_van": 5056,
      "_resist": 5057,
      "_least,": 5058,
      "_done,": 5059,
      "_easier": 5060,
      "_constitute": 5061,
      "_Def": 5062,
      "_firstly,": 5063,
      "pped": 5064,
      "_Joh": 5065,
      "_transport,": 5066,
      "_officials": 5067,
      "_friends": 5068,
      "_geograph": 5069,
      "_resum": 5070,
      "_infring": 5071,
      "_seeing": 5072,
      "_Cooper": 5073,
      "_agre": 5074,
      "_aband": 5075,
      "_voice": 5076,
      "_Luxembourg": 5077,
      "_competent": 5078,
      "_rules.": 5079,
      "_Scheng": 5080,
      "_len": 5081,
      "_pre-": 5082,
      "_manner": 5083,
      "_team": 5084,
      "_opinions": 5085,
      "_Instead": 5086,
      "_Auditors": 5087,
      "_uniform": 5088,
      "_position,": 5089,
      "_allows": 5090,
      "_wait": 5091,
      "DP": 5092,
      "_crop": 5093,
      "alle": 5094,
      "ressive": 5095,
      "_protest": 5096,
      "_mobility": 5097,
      "_Ukrain": 5098,
      "_Procedure": 5099,
      "_wealth": 5100,
      "ignt": 5101,
      "_abuse": 5102,
      "_abandon": 5103,
      "_Citizens": 5104,
      "_view.": 5105,
      "_Programme": 5106,
      "_virt": 5107,
      "_inclusion": 5108,
      "appe": 5109,
      "_television": 5110,
      "_afford": 5111,
      "_finding": 5112,
      "_except": 5113,
      "ellig": 5114,
      "_women.": 5115,
      "_Iraqi": 5116,
      "_deliber": 5117,
      "COM(200": 5118,
      "_federal": 5119,
      "_displ": 5120,
      "_information.": 5121,
      "_helping": 5122,
      "_discrimin": 5123,
      "_Given": 5124,
      "_Where": 5125,
      "_negotiations.": 5126,
      "_introducing": 5127,
      "_definite": 5128,
      "_determined": 5129,
      "_affairs": 5130,
      "_allocated": 5131,
      "_pie": 5132,
      "_purely": 5133,
      "_saw": 5134,
      "_economy,": 5135,
      "_permit": 5136,
      "_brings": 5137,
      "ties": 5138,
      "_night": 5139,
      "_Sy": 5140,
      "_Western": 5141,
      "_undoubt": 5142,
      "_amending": 5143,
      "_changed": 5144,
      "_confirmed": 5145,
      "_sovereignt": 5146,
      "_millions": 5147,
      "_bit": 5148,
      "_be,": 5149,
      "_BSE": 5150,
      "active": 5151,
      "_forward.": 5152,
      "_flag": 5153,
      "_trend": 5154,
      "_I,": 5155,
      "_other.": 5156,
      "_knows": 5157,
      "_teach": 5158,
      "_realistic": 5159,
      "_itself,": 5160,
      "_Saddam": 5161,
      "_hope,": 5162,
      "_mentioned,": 5163,
      "_suppos": 5164,
      "_depart": 5165,
      "_felt": 5166,
      "_languages": 5167,
      "_categor": 5168,
      "aff": 5169,
      "_Min": 5170,
      "_chairman": 5171,
      "_whole.": 5172,
      "_firmly": 5173,
      "_ethnic": 5174,
      "Christian": 5175,
      "_regions,": 5176,
      "_Balkan": 5177,
      "aw": 5178,
      "asm": 5179,
      "_hands": 5180,
      "_employment.": 5181,
      "_Here": 5182,
      "_referring": 5183,
      "_art": 5184,
      "_State,": 5185,
      "ugos": 5186,
      "_conflicts": 5187,
      "ion,": 5188,
      "ull": 5189,
      "_External": 5190,
      "ugoslav": 5191,
      "_(E": 5192,
      "_deficit": 5193,
      "_basis,": 5194,
      "_France,": 5195,
      "_waiting": 5196,
      "_construction": 5197,
      "_present,": 5198,
      "_life.": 5199,
      "ize": 5200,
      "-DE": 5201,
      "_Once": 5202,
      "_Yugoslav": 5203,
      "_himself": 5204,
      "_2000,": 5205,
      "_constantly": 5206,
      "dd": 5207,
      "theless": 5208,
      "_announced": 5209,
      "_region,": 5210,
      "_surv": 5211,
      "_Sweden": 5212,
      "_becomes": 5213,
      "ected": 5214,
      "_postpon": 5215,
      "_hours": 5216,
      "-r": 5217,
      "_Dec": 5218,
      "_we,": 5219,
      "_legally": 5220,
      "_much,": 5221,
      "_security,": 5222,
      "_practice.": 5223,
      "_requested": 5224,
      "ka": 5225,
      "_spending": 5226,
      "_tradition": 5227,
      "_40": 5228,
      "_supplementary": 5229,
      "ancing": 5230,
      "_version": 5231,
      "itical": 5232,
      "_to,": 5233,
      "_double": 5234,
      "_obliged": 5235,
      "necess": 5236,
      "bre": 5237,
      "_cell": 5238,
      "_with.": 5239,
      "_charg": 5240,
      "_carrying": 5241,
      "_direction.": 5242,
      "_families": 5243,
      "_vacc": 5244,
      "-year": 5245,
      "_late": 5246,
      "_leads": 5247,
      "_State.": 5248,
      "_mid": 5249,
      "_nam": 5250,
      "_worry": 5251,
      "_Ge": 5252,
      "_valid": 5253,
      "_remove": 5254,
      "_offered": 5255,
      "_31": 5256,
      "_absolute": 5257,
      "_(H-0": 5258,
      "ities.": 5259,
      "_necessary.": 5260,
      "_experts": 5261,
      "_safety.": 5262,
      "_not.": 5263,
      "_said.": 5264,
      "_regions.": 5265,
      "_committee.": 5266,
      "_check": 5267,
      "_Cong": 5268,
      "_cooperate": 5269,
      "part": 5270,
      "adv": 5271,
      "_block": 5272,
      "_published": 5273,
      "_Schengen": 5274,
      "hus": 5275,
      "rey": 5276,
      "enn": 5277,
      "ump": 5278,
      "_regulation.": 5279,
      "_authorities.": 5280,
      "ffice,": 5281,
      "_poorest": 5282,
      "reens": 5283,
      "roso": 5284,
      "_envis": 5285,
      "_Genev": 5286,
      "_Assoc": 5287,
      "_Control": 5288,
      "s:": 5289,
      "_Consequently,": 5290,
      "_reasons,": 5291,
      "_education,": 5292,
      "_producers": 5293,
      "ai": 5294,
      "_front": 5295,
      "_West": 5296,
      "_ord": 5297,
      "_unnecess": 5298,
      "_debating": 5299,
      "_Vice-": 5300,
      "_Romania": 5301,
      "_fuel": 5302,
      "_Sim": 5303,
      "_28": 5304,
      "_engage": 5305,
      "_Thurs": 5306,
      "_understood": 5307,
      "_2002,": 5308,
      "_Thursday": 5309,
      "_pain": 5310,
      "_for,": 5311,
      "_skill": 5312,
      "_Tam": 5313,
      "_2003.": 5314,
      "_Austria": 5315,
      "_nations": 5316,
      "ities,": 5317,
      "_autom": 5318,
      "_primarily": 5319,
      "_universal": 5320,
      "_inev": 5321,
      "_2001,": 5322,
      "_appreciate": 5323,
      "_fine": 5324,
      "_leadership": 5325,
      "_dynamic": 5326,
      "_eith": 5327,
      "_Pet": 5328,
      "_Europe'": 5329,
      "_Over": 5330,
      "_authorities,": 5331,
      "-session": 5332,
      "_dependent": 5333,
      "_length": 5334,
      "_tro": 5335,
      "_accompan": 5336,
      "_health,": 5337,
      "_operating": 5338,
      "_phen": 5339,
      "_Iraq.": 5340,
      "_colleague,": 5341,
      "_undoubtedly": 5342,
      "_err": 5343,
      "comm": 5344,
      "_committees": 5345,
      "_arguments": 5346,
      "_Kosovo": 5347,
      "asing": 5348,
      "_SME": 5349,
      "_be.": 5350,
      "_proved": 5351,
      "_taxation": 5352,
      "_Britain": 5353,
      "_phenomen": 5354,
      "cul": 5355,
      "_isol": 5356,
      "_east": 5357,
      "_proof": 5358,
      "_vul": 5359,
      "_Minister,": 5360,
      "_ultimately": 5361,
      "_reiterate": 5362,
      "_solely": 5363,
      "_Gu": 5364,
      "_peace,": 5365,
      "_regrett": 5366,
      "_actively": 5367,
      "_22": 5368,
      "_saving": 5369,
      "lov": 5370,
      "_southern": 5371,
      "_bomb": 5372,
      "_Su": 5373,
      "_disappe": 5374,
      "mpath": 5375,
      "7,": 5376,
      "_fruit": 5377,
      "_intellig": 5378,
      "_contrary": 5379,
      "_assume": 5380,
      "_concentrate": 5381,
      "_made,": 5382,
      "_elder": 5383,
      "_Framework": 5384,
      "_Fisch": 5385,
      "_offers": 5386,
      "_security.": 5387,
      "_background": 5388,
      "_warrant": 5389,
      "_Portugal": 5390,
      "onom": 5391,
      "_green": 5392,
      "_Ne": 5393,
      "_trib": 5394,
      "_regard,": 5395,
      "_planned": 5396,
      "ique": 5397,
      "ons": 5398,
      "_seven": 5399,
      "_abstain": 5400,
      "_heading": 5401,
      "_superv": 5402,
      "_Does": 5403,
      "_Defence": 5404,
      "position": 5405,
      "_chap": 5406,
      "_others.": 5407,
      "_politicians": 5408,
      "_foremost": 5409,
      "_extraord": 5410,
      "gn": 5411,
      "iment": 5412,
      "icate": 5413,
      "_unp": 5414,
      "_Trade": 5415,
      "_PPE-DE": 5416,
      "uild": 5417,
      "_unw": 5418,
      "_resulting": 5419,
      "_explicit": 5420,
      "_timetable": 5421,
      "_base": 5422,
      "_think,": 5423,
      "_vulner": 5424,
      "_aud": 5425,
      "_ones": 5426,
      "_possibly": 5427,
      "_terri": 5428,
      "_politically": 5429,
      "_examples": 5430,
      "_Iraq,": 5431,
      "irable": 5432,
      "_functioning": 5433,
      "_preca": 5434,
      "_involved.": 5435,
      "_journal": 5436,
      "_relatively": 5437,
      "advant": 5438,
      "hood": 5439,
      "_more,": 5440,
      "_guaranteed": 5441,
      "_2004.": 5442,
      "_sor": 5443,
      "reshold": 5444,
      "_part-session": 5445,
      "_approx": 5446,
      "_attract": 5447,
      "_objectives.": 5448,
      "ervation": 5449,
      "_tomorrow.": 5450,
      "IDS": 5451,
      "ari": 5452,
      "_CAP": 5453,
      "_disadvant": 5454,
      "_decad": 5455,
      "_sufficiently": 5456,
      "_ships": 5457,
      "_labelling": 5458,
      "in,": 5459,
      "_fil": 5460,
      "_compuls": 5461,
      "_health.": 5462,
      "_February": 5463,
      "_threshold": 5464,
      "_forum": 5465,
      "utr": 5466,
      "_partly": 5467,
      "_sympath": 5468,
      "_essentially": 5469,
      "_built": 5470,
      "_Poland": 5471,
      "_approach,": 5472,
      "_resources,": 5473,
      "_listen": 5474,
      "_resolved": 5475,
      "_running": 5476,
      "_progress.": 5477,
      "irms": 5478,
      "_estim": 5479,
      "_requests": 5480,
      "_Eastern": 5481,
      "_Council'": 5482,
      "_remaining": 5483,
      "_responsibility.": 5484,
      "_farming": 5485,
      "_clean": 5486,
      "_topic": 5487,
      "_safety,": 5488,
      "_went": 5489,
      "_dri": 5490,
      "adow": 5491,
      "_agency": 5492,
      "_scand": 5493,
      "_collabor": 5494,
      "_reli": 5495,
      "_transitional": 5496,
      "_freedoms": 5497,
      "_wider": 5498,
      "_diseases": 5499,
      "ified.": 5500,
      "_themselves.": 5501,
      "_Greens": 5502,
      "_(Christian": 5503,
      "_field.": 5504,
      "_action,": 5505,
      "lection": 5506,
      "_playing": 5507,
      "_judge": 5508,
      "_obstacles": 5509,
      "_months.": 5510,
      "_neighbouring": 5511,
      "oured": 5512,
      "_happens": 5513,
      "_governing": 5514,
      "anging": 5515,
      "_suffered": 5516,
      "50": 5517,
      "6.": 5518,
      "_Will": 5519,
      "_pensions": 5520,
      "_unanimous": 5521,
      "pir": 5522,
      "_Clear": 5523,
      "_Parliamentary": 5524,
      "_united": 5525,
      "_upd": 5526,
      "_nevertheless": 5527,
      "_Democrats)": 5528,
      "pay": 5529,
      "_example.": 5530,
      "_Industr": 5531,
      "riminal": 5532,
      "_Slov": 5533,
      "_exceed": 5534,
      "_noon.": 5535,
      "_citizens'": 5536,
      "_please": 5537,
      "_phase": 5538,
      "_tort": 5539,
      "_reb": 5540,
      "rupt": 5541,
      "_During": 5542,
      "_sets": 5543,
      "_crimes": 5544,
      "craft": 5545,
      "pere": 5546,
      "_extending": 5547,
      "_trading": 5548,
      "_Belgium": 5549,
      "_willingness": 5550,
      "atlantic": 5551,
      "_core": 5552,
      "_stocks": 5553,
      "_greatly": 5554,
      "_conditions.": 5555,
      "amb": 5556,
      "_prevail": 5557,
      "_2002.": 5558,
      "5,": 5559,
      "jud": 5560,
      "itative": 5561,
      "rown": 5562,
      "_Then": 5563,
      "_faith": 5564,
      "duc": 5565,
      "_weight": 5566,
      "_stay": 5567,
      "akistan": 5568,
      "_modified": 5569,
      "roductive": 5570,
      "_attempts": 5571,
      "org": 5572,
      "_chos": 5573,
      "_Treaties": 5574,
      "_surround": 5575,
      "_indicated": 5576,
      "_dram": 5577,
      "_months,": 5578,
      "_absence": 5579,
      "_straight": 5580,
      "_Tampere": 5581,
      "_complement": 5582,
      "_regim": 5583,
      "_protection,": 5584,
      "_insuff": 5585,
      "_independence": 5586,
      "_implications": 5587,
      "_dignity": 5588,
      "_ongoing": 5589,
      "_President.": 5590,
      "_evident": 5591,
      "-200": 5592,
      "DA": 5593,
      "_cop": 5594,
      "_Pakistan": 5595,
      "_right.": 5596,
      "_justified": 5597,
      "_suggested": 5598,
      "_satisfied": 5599,
      "_nonetheless": 5600,
      "ors.": 5601,
      "usse": 5602,
      "_regulation,": 5603,
      "_principl": 5604,
      "land,": 5605,
      "_technological": 5606,
      "_ECB": 5607,
      "_remarks": 5608,
      "utive": 5609,
      "_EU'": 5610,
      "_acting": 5611,
      "_aircraft": 5612,
      "_globalisation": 5613,
      "_moral": 5614,
      "_Now,": 5615,
      "_accidents": 5616,
      "ients": 5617,
      "lined": 5618,
      "_forg": 5619,
      "_ratification": 5620,
      "_declared": 5621,
      "_Budgetary": 5622,
      "_valuable": 5623,
      "cale": 5624,
      "zech": 5625,
      "_surve": 5626,
      "_issued": 5627,
      "_(PT)": 5628,
      "ez": 5629,
      "_nation": 5630,
      "uter": 5631,
      "_transport.": 5632,
      "_details": 5633,
      "_constitu": 5634,
      "_mistake": 5635,
      "_punish": 5636,
      "_Bulgar": 5637,
      "quir": 5638,
      "_result,": 5639,
      "_operators": 5640,
      "_contradict": 5641,
      "_pict": 5642,
      "_about.": 5643,
      "_presenting": 5644,
      "_CF": 5645,
      "_helped": 5646,
      "_Pers": 5647,
      "_First,": 5648,
      "_individuals": 5649,
      "_things,": 5650,
      "_familiar": 5651,
      "_massive": 5652,
      "_People's": 5653,
      "_currency": 5654,
      "_Association": 5655,
      "_with,": 5656,
      "roud": 5657,
      "_multi": 5658,
      "_proceedings": 5659,
      "_figure": 5660,
      "_gap": 5661,
      "ately": 5662,
      "cohol": 5663,
      "_worst": 5664,
      "_aware,": 5665,
      "_privile": 5666,
      "_rational": 5667,
      "_Go": 5668,
      "_effectiveness": 5669,
      "_Without": 5670,
      "_infringe": 5671,
      "aud": 5672,
      "ning.": 5673,
      "rich": 5674,
      "ices.": 5675,
      "_guaranteeing": 5676,
      "_preparation": 5677,
      "_reve": 5678,
      "etter": 5679,
      "_Husse": 5680,
      "_right,": 5681,
      "_medical": 5682,
      "_feeling": 5683,
      "_addressing": 5684,
      "_places": 5685,
      "_Food": 5686,
      "_exists": 5687,
      "_derog": 5688,
      "_Czech": 5689,
      "_stem": 5690,
      "_ambition": 5691,
      "_release": 5692,
      "_Tour": 5693,
      "_Po": 5694,
      "_(B": 5695,
      "_taxpay": 5696,
      "annes": 5697,
      "_Nonethel": 5698,
      "ifications": 5699,
      "_today's": 5700,
      "_studies": 5701,
      "_largest": 5702,
      "_Freedoms": 5703,
      "_CO": 5704,
      "_Under": 5705,
      "posed": 5706,
      "_outstanding": 5707,
      "_vehicles": 5708,
      "_chann": 5709,
      "_corruption": 5710,
      "_President-in-Office,": 5711,
      "_sched": 5712,
      "_push": 5713,
      "_Criminal": 5714,
      "_Action": 5715,
      "astro": 5716,
      "_justify": 5717,
      "_products,": 5718,
      "_heavy": 5719,
      "21": 5720,
      "let": 5721,
      "_can,": 5722,
      "_refers": 5723,
      "_catch": 5724,
      "_controvers": 5725,
      "_speaker": 5726,
      "_National": 5727,
      "_producing": 5728,
      "1999": 5729,
      "or,": 5730,
      "_clarity": 5731,
      "_Turkey,": 5732,
      "_powerful": 5733,
      "-and": 5734,
      "_compon": 5735,
      "_someone": 5736,
      "_groups,": 5737,
      "hr": 5738,
      "’,": 5739,
      "eter": 5740,
      "_programmes.": 5741,
      "_rules,": 5742,
      "_black": 5743,
      "_initiative,": 5744,
      "mbol": 5745,
      "/2000)": 5746,
      "-l": 5747,
      "-st": 5748,
      "_proc": 5749,
      "_deals": 5750,
      "_prompt": 5751,
      "_granting": 5752,
      "_innovative": 5753,
      "_NGOs": 5754,
      "_beings": 5755,
      "3,": 5756,
      "bal": 5757,
      "_high-": 5758,
      "_persu": 5759,
      "_busines": 5760,
      "_urgently": 5761,
      "_hopes": 5762,
      "D)": 5763,
      "inn": 5764,
      "atives,": 5765,
      "_Bol": 5766,
      "aughter": 5767,
      "_proud": 5768,
      "_Both": 5769,
      "_vote,": 5770,
      "_symbol": 5771,
      "_nationals": 5772,
      "_matters.": 5773,
      "_difficulty": 5774,
      "_term,": 5775,
      "_determination": 5776,
      "_1999,": 5777,
      "_incorporated": 5778,
      "_renewable": 5779,
      "_vessels": 5780,
      "_clear.": 5781,
      "_interinstitutional": 5782,
      "_terrible": 5783,
      "lated": 5784,
      "_alcohol": 5785,
      "etically": 5786,
      "_stip": 5787,
      "_belief": 5788,
      "_violations": 5789,
      "_competition.": 5790,
      "_surely": 5791,
      "_Assembly": 5792,
      "_Johannes": 5793,
      "_Cult": 5794,
      "ixed": 5795,
      "_ethical": 5796,
      "_acquis": 5797,
      "_scheme": 5798,
      "_division": 5799,
      "oted": 5800,
      "_advance": 5801,
      "_deeply": 5802,
      "_fort": 5803,
      "alling": 5804,
      "_Rec": 5805,
      "_refus": 5806,
      "_sustainability": 5807,
      "_reun": 5808,
      "ards": 5809,
      "_goals": 5810,
      "_citizenship": 5811,
      "_Government,": 5812,
      "_armed": 5813,
      "_reass": 5814,
      "_transf": 5815,
      "_ports": 5816,
      "_(Applause)": 5817,
      "sy": 5818,
      "_liber": 5819,
      "_systems.": 5820,
      "_interests.": 5821,
      "_strategy.": 5822,
      "_Represent": 5823,
      "_precaution": 5824,
      "HO": 5825,
      "oring": 5826,
      "ages,": 5827,
      "_historical": 5828,
      "_optim": 5829,
      "allel": 5830,
      "_compulsory": 5831,
      "_Nonetheless,": 5832,
      "_south": 5833,
      "_Left": 5834,
      "_diplomatic": 5835,
      "commun": 5836,
      "_admit": 5837,
      "_Stock": 5838,
      "_overl": 5839,
      "_processes": 5840,
      "_lic": 5841,
      "_unre": 5842,
      "_EU-": 5843,
      "mar": 5844,
      "_alleg": 5845,
      "_Bro": 5846,
      "_order.": 5847,
      "_perspect": 5848,
      "_highlighted": 5849,
      "_advert": 5850,
      "_EU’s": 5851,
      "_politics": 5852,
      "_whereby": 5853,
      "_esc": 5854,
      "_Agend": 5855,
      "_changing": 5856,
      "_centres": 5857,
      "_0.": 5858,
      "_award": 5859,
      "_flight": 5860,
      "_Europe’s": 5861,
      "_Saf": 5862,
      "_practice,": 5863,
      "_peace.": 5864,
      "_solution.": 5865,
      "_affects": 5866,
      "_Johannesburg": 5867,
      "_jur": 5868,
      "_workers,": 5869,
      "_deserves": 5870,
      "_radical": 5871,
      "_Citizens'": 5872,
      "ze": 5873,
      "_amended": 5874,
      "_control.": 5875,
      "_expectations": 5876,
      "_dictators": 5877,
      "_piece": 5878,
      "oad": 5879,
      "_welcomes": 5880,
      "_recyc": 5881,
      "_respect.": 5882,
      "_identify": 5883,
      "_Budgets": 5884,
      "vest": 5885,
      "_residence": 5886,
      "_Bos": 5887,
      "_diss": 5888,
      "_Northern": 5889,
      "arer": 5890,
      "_infl": 5891,
      "_enough.": 5892,
      "_utmost": 5893,
      "atives.": 5894,
      "_Cor": 5895,
      "_possibilities": 5896,
      "cipl": 5897,
      "_fewer": 5898,
      "_civilian": 5899,
      "_determine": 5900,
      "pection": 5901,
      "_entered": 5902,
      "_Kar": 5903,
      "_Chin": 5904,
      "_2004,": 5905,
      "_hearing": 5906,
      "_Berlin": 5907,
      "inational": 5908,
      "resh": 5909,
      "_like,": 5910,
      "_attend": 5911,
      "_advice": 5912,
      "/2002": 5913,
      "_competition,": 5914,
      "-scale": 5915,
      "exist": 5916,
      "_couple": 5917,
      "orous": 5918,
      "_substance": 5919,
      "_week,": 5920,
      "_electricity": 5921,
      "_Industry,": 5922,
      "ices,": 5923,
      "_Presidency.": 5924,
      "ages.": 5925,
      "_entail": 5926,
      "_oppose": 5927,
      "_mind,": 5928,
      "_Like": 5929,
      "_reflected": 5930,
      "_exploit": 5931,
      "_satisfactory": 5932,
      "wise,": 5933,
      "_conce": 5934,
      "_investments": 5935,
      "_violation": 5936,
      "_contracts": 5937,
      "itage": 5938,
      "_moment.": 5939,
      "_exerc": 5940,
      "_sanction": 5941,
      "_Zimbabwe": 5942,
      "_postal": 5943,
      "_applicant": 5944,
      "oard": 5945,
      "_unit": 5946,
      "_markets.": 5947,
      "President": 5948,
      "_ded": 5949,
      "_fast": 5950,
      "_subject.": 5951,
      "_motor": 5952,
      "_enhance": 5953,
      "AR": 5954,
      "_je": 5955,
      "_transatlantic": 5956,
      "_interest.": 5957,
      "_warmly": 5958,
      "_a.m.": 5959,
      "_dig": 5960,
      "_stim": 5961,
      "_antic": 5962,
      "_chain": 5963,
      "_Joint": 5964,
      "uck": 5965,
      "_strugg": 5966,
      "_past,": 5967,
      "_links": 5968,
      "aves": 5969,
      "ines.": 5970,
      "atures": 5971,
      "ane": 5972,
      "_research,": 5973,
      "_2001.": 5974,
      "_hundreds": 5975,
      "gen": 5976,
      "_programmes,": 5977,
      "_organise": 5978,
      "_instance,": 5979,
      "_autonom": 5980,
      "_vast": 5981,
      "_there,": 5982,
      "_category": 5983,
      "_percent": 5984,
      "_companies,": 5985,
      "_reality.": 5986,
      "_(A5-01": 5987,
      "ma": 5988,
      "inc": 5989,
      "_dream": 5990,
      "_adopted.": 5991,
      "_accounts": 5992,
      "_million.": 5993,
      "_phys": 5994,
      "_multinational": 5995,
      "_chosen": 5996,
      "ries": 5997,
      "ess.": 5998,
      "_War": 5999,
      "while": 6000,
      "_stage,": 6001,
      "_bureauc": 6002,
      "_supposed": 6003,
      "_Bureau": 6004,
      "_Nat": 6005,
      "_29": 6006,
      "_negotiations,": 6007,
      "_identified": 6008,
      "_boost": 6009,
      "_penalty": 6010,
      "_welcomed": 6011,
      "_Before": 6012,
      "_Trade,": 6013,
      "_fifteen": 6014,
      "_Rome": 6015,
      "_event,": 6016,
      "-coun": 6017,
      "_Germany,": 6018,
      "formation": 6019,
      "_launched": 6020,
      "SP": 6021,
      "_to.": 6022,
      "_spite": 6023,
      "_awa": 6024,
      "_partner": 6025,
      "_harmful": 6026,
      "_hyp": 6027,
      "_Islamic": 6028,
      "opard": 6029,
      "_deserve": 6030,
      "_expressing": 6031,
      "_organisations,": 6032,
      "_geographical": 6033,
      "_insufficient": 6034,
      "iety": 6035,
      "_this:": 6036,
      "ticles": 6037,
      "_coherence": 6038,
      "_falls": 6039,
      "_stage.": 6040,
      "_Reform": 6041,
      "ced.": 6042,
      "spect": 6043,
      "itle": 6044,
      "_debated": 6045,
      "_respected": 6046,
      "_concent": 6047,
      "_endors": 6048,
      "abled": 6049,
      "_scr": 6050,
      "_Colomb": 6051,
      "_anticip": 6052,
      "L)": 6053,
      "reet": 6054,
      "_why,": 6055,
      "_protected": 6056,
      "_options": 6057,
      "_quotas": 6058,
      "_fulfill": 6059,
      "_Netherlands": 6060,
      "_Hussein": 6061,
      "%.": 6062,
      "_genetically": 6063,
      "_heritage": 6064,
      "_distinction": 6065,
      "_IC": 6066,
      "_conven": 6067,
      "_opposite": 6068,
      "_radio": 6069,
      "ophob": 6070,
      "_barriers": 6071,
      "stuff": 6072,
      "_incomp": 6073,
      "_inspection": 6074,
      "_preparations": 6075,
      "_constitutes": 6076,
      "_imagine": 6077,
      "-P": 6078,
      "ax": 6079,
      "emic": 6080,
      "_GDP": 6081,
      "_Doh": 6082,
      "_whole,": 6083,
      "_conditions,": 6084,
      "_exploitation": 6085,
      "_Organisation": 6086,
      "_jeopard": 6087,
      "_Mc": 6088,
      "_sake": 6089,
      "_Director": 6090,
      "-Med": 6091,
      "_favourable": 6092,
      "gy": 6093,
      "vil": 6094,
      "ellect": 6095,
      "_coal": 6096,
      "_Van": 6097,
      "itorin": 6098,
      "_Mr B": 6099,
      "right": 6100,
      "enburg": 6101,
      "_is.": 6102,
      "_Eri": 6103,
      "_article": 6104,
      "_groups.": 6105,
      "_opened": 6106,
      "_Alban": 6107,
      "_conducted": 6108,
      "_innovation": 6109,
      "ery": 6110,
      "_pil": 6111,
      "_Cent": 6112,
      "_Tw": 6113,
      "_She": 6114,
      "_ourselv": 6115,
      "_settlement": 6116,
      "_Geneva": 6117,
      "gence": 6118,
      "roc": 6119,
      "_importantly,": 6120,
      "_formul": 6121,
      "_reflects": 6122,
      "_illustr": 6123,
      "_Four": 6124,
      "_questions.": 6125,
      "_communications": 6126,
      "_circumstances,": 6127,
      "-country": 6128,
      "_spl": 6129,
      "_Wall": 6130,
      "_rid": 6131,
      "_imports": 6132,
      "_transition": 6133,
      "_achieved.": 6134,
      "_scale": 6135,
      "/2002)": 6136,
      "_past.": 6137,
      "_unacceptable.": 6138,
      "_frag": 6139,
      "_success.": 6140,
      "_economic,": 6141,
      "_monit": 6142,
      "_necessarily": 6143,
      "_focused": 6144,
      "_tomorrow,": 6145,
      "_borders.": 6146,
      "_manner.": 6147,
      "_embry": 6148,
      "_pleasure": 6149,
      "_Committee,": 6150,
      "(COD)": 6151,
      "-S": 6152,
      "iers": 6153,
      "thly,": 6154,
      "_marketing": 6155,
      "_Chairman": 6156,
      "_intergovernmental": 6157,
      "_follow-up": 6158,
      "_answers": 6159,
      "_satisfaction": 6160,
      "_explanation": 6161,
      "_commend": 6162,
      "_incom": 6163,
      "_change.": 6164,
      "_occasions": 6165,
      "_Cuba": 6166,
      "_for.": 6167,
      "_Az": 6168,
      "_together,": 6169,
      "_fields": 6170,
      "_Constitution.": 6171,
      ".30": 6172,
      "n,": 6173,
      "_cyc": 6174,
      "_Mus": 6175,
      "ocr": 6176,
      "_unilateral": 6177,
      "_adopted,": 6178,
      "_objectives,": 6179,
      "_contributed": 6180,
      "heug": 6181,
      "_sought": 6182,
      "_candidates": 6183,
      "_(A5-00": 6184,
      "_197": 6185,
      "_depends": 6186,
      "_Declar": 6187,
      "_of,": 6188,
      "_house": 6189,
      "_if,": 6190,
      "_indirect": 6191,
      "othenburg": 6192,
      "_stressed": 6193,
      "_enabling": 6194,
      "_tragedy": 6195,
      "glish": 6196,
      "ores": 6197,
      "_promised": 6198,
      "_stands": 6199,
      "_English": 6200,
      "_statistics": 6201,
      "_stabil": 6202,
      "_code": 6203,
      "_shares": 6204,
      "_purposes": 6205,
      "_supervision": 6206,
      "-Mediterranean": 6207,
      "stat": 6208,
      "_severe": 6209,
      "_news": 6210,
      "_agreements,": 6211,
      "_drafting": 6212,
      "_suggestion": 6213,
      "_chair": 6214,
      "_newsp": 6215,
      "_text.": 6216,
      "_2000.": 6217,
      "_frank": 6218,
      "_shape": 6219,
      "_Car": 6220,
      "_Great": 6221,
      "_basically": 6222,
      "_demanding": 6223,
      "_stronger": 6224,
      "_force.": 6225,
      "_emphasised": 6226,
      "_territorial": 6227,
      "_Shar": 6228,
      "_ecological": 6229,
      "_Chechnya": 6230,
      "_telecommun": 6231,
      "_shadow": 6232,
      "_leaving": 6233,
      "_Gothenburg": 6234,
      "_initiative.": 6235,
      "_significance": 6236,
      "_demonstrates": 6237,
      "_restructuring": 6238,
      "emb": 6239,
      "_public.": 6240,
      "_decision.": 6241,
      "_Vitorin": 6242,
      "_reading.": 6243,
      "_short,": 6244,
      "enophob": 6245,
      "_doct": 6246,
      "_Rural": 6247,
      "_principle.": 6248,
      "_governance": 6249,
      "_Palac": 6250,
      "iscal": 6251,
      "_repeatedly": 6252,
      "_26": 6253,
      "_day.": 6254,
      "_coordinated": 6255,
      "ive.": 6256,
      "_facts": 6257,
      "_importance.": 6258,
      "_reaching": 6259,
      "_affecting": 6260,
      "_watch": 6261,
      "_comparison": 6262,
      "husi": 6263,
      "_sorry": 6264,
      "_Stockhol": 6265,
      "_tight": 6266,
      "_agg": 6267,
      "_well-": 6268,
      "_waters": 6269,
      "_hardly": 6270,
      "-B": 6271,
      "les.": 6272,
      "oud": 6273,
      "ollar": 6274,
      "_distingu": 6275,
      "_juris": 6276,
      "_detr": 6277,
      "_extreme": 6278,
      "raid": 6279,
      "_intellect": 6280,
      "eep": 6281,
      "_trans-European": 6282,
      "_arise": 6283,
      "_demonst": 6284,
      "_undertake": 6285,
      "_intervene": 6286,
      "_sac": 6287,
      "arding": 6288,
      "_resolution)": 6289,
      "_subject,": 6290,
      "_colleagu": 6291,
      "_Ann": 6292,
      "_unanimously": 6293,
      "_reinfor": 6294,
      "_dictatorship": 6295,
      "ming": 6296,
      "_fron": 6297,
      "_refuse": 6298,
      "_trace": 6299,
      "_restore": 6300,
      "_driving": 6301,
      "_precautionary": 6302,
      "th,": 6303,
      "_relate": 6304,
      "_disasters": 6305,
      "_undermine": 6306,
      "ses": 6307,
      "_hence": 6308,
      "_stable": 6309,
      "ists,": 6310,
      "_parties.": 6311,
      "_worldw": 6312,
      "_milk": 6313,
      "_mobil": 6314,
      "_previously": 6315,
      "_technologies": 6316,
      "_northern": 6317,
      "_grat": 6318,
      "_Fif": 6319,
      "obod": 6320,
      "_strategies": 6321,
      "_achievement": 6322,
      "_treaty": 6323,
      "_property": 6324,
      "kest": 6325,
      "ines,": 6326,
      "_inequ": 6327,
      "_fresh": 6328,
      "_dos": 6329,
      "_co-": 6330,
      "_Jap": 6331,
      "_enthusi": 6332,
      "_rapporteur.": 6333,
      "_advis": 6334,
      "_war.": 6335,
      "_afraid": 6336,
      "_interpretation": 6337,
      "_unnecessary": 6338,
      "SC": 6339,
      "an.": 6340,
      "le,": 6341,
      "ountain": 6342,
      "_sell": 6343,
      "_term.": 6344,
      "_Regul": 6345,
      "_Energy": 6346,
      "kestein": 6347,
      "gue": 6348,
      "_significantly": 6349,
      "put": 6350,
      "erved": 6351,
      "_Follow": 6352,
      "place": 6353,
      "_whereas": 6354,
      "_maintained": 6355,
      "_Balkans": 6356,
      "ony": 6357,
      "_compatible": 6358,
      "_remov": 6359,
      "_expand": 6360,
      "_standards.": 6361,
      "_abolish": 6362,
      "_sovereignty": 6363,
      "les,": 6364,
      "_relie": 6365,
      "_systems,": 6366,
      "_creates": 6367,
      "_reading,": 6368,
      "_weaken": 6369,
      "_Cypri": 6370,
      "_Secretary-General": 6371,
      "s'": 6372,
      "_sight": 6373,
      "_size": 6374,
      "_Cro": 6375,
      "_Community.": 6376,
      "_equival": 6377,
      "_EUR ": 6378,
      "_battle": 6379,
      "inent": 6380,
      "_intensive": 6381,
      "_Its": 6382,
      "_respective": 6383,
      "_considerably": 6384,
      "_government,": 6385,
      "_another.": 6386,
      "_smaller": 6387,
      "_crime.": 6388,
      "_succeeded": 6389,
      "_confusion": 6390,
      "_expense": 6391,
      "_negotiation": 6392,
      "_receiving": 6393,
      "_states,": 6394,
      "_param": 6395,
      "_quote": 6396,
      "_prospects": 6397,
      "_tension": 6398,
      "_raising": 6399,
      "anges": 6400,
      "_paying": 6401,
      "_moved": 6402,
      "_Cooperation": 6403,
      "_detriment": 6404,
      "_500": 6405,
      "_eye": 6406,
      "_Representative": 6407,
      "_scrutin": 6408,
      "_turning": 6409,
      "_ratified": 6410,
      "_easily": 6411,
      "_Prodi,": 6412,
      "_surprised": 6413,
      "_Fisheries": 6414,
      "int": 6415,
      "_north": 6416,
      "_select": 6417,
      "_economies": 6418,
      "_persec": 6419,
      "ón": 6420,
      "_completed": 6421,
      "_congratulating": 6422,
      "_parallel": 6423,
      "_elections.": 6424,
      "liminary": 6425,
      "_electoral": 6426,
      "_surrounding": 6427,
      "-se": 6428,
      "pru": 6429,
      "_Euro-Mediterranean": 6430,
      "_remed": 6431,
      "_turned": 6432,
      "_learning": 6433,
      "_Austrian": 6434,
      "_Following": 6435,
      "AC": 6436,
      "aks": 6437,
      "_Hels": 6438,
      "_Allow": 6439,
      "_Cypru": 6440,
      "_bureaucra": 6441,
      "_Verheug": 6442,
      "_definitely": 6443,
      "8,": 6444,
      "inating": 6445,
      "_town": 6446,
      "esp": 6447,
      "_vulnerable": 6448,
      "_aside": 6449,
      "obile": 6450,
      "_persist": 6451,
      "_duties": 6452,
      "AL": 6453,
      "ton": 6454,
      "_So,": 6455,
      "_me.": 6456,
      "_kinds": 6457,
      "_bearing": 6458,
      "_prosperity": 6459,
      "ience": 6460,
      "_money.": 6461,
      "_either.": 6462,
      "_Helsink": 6463,
      "/E": 6464,
      "4,": 6465,
      "_Eurostat": 6466,
      "_suitable": 6467,
      "_Hung": 6468,
      "_needed.": 6469,
      "_nobody": 6470,
      "_concern.": 6471,
      "_yourself": 6472,
      "_general,": 6473,
      "_taxes": 6474,
      "_texts": 6475,
      "_children,": 6476,
      "_condemned": 6477,
      "_investigation": 6478,
      "_tang": 6479,
      "_suspect": 6480,
      "_abort": 6481,
      "_charge": 6482,
      "_preliminary": 6483,
      "_enshr": 6484,
      "_numbers": 6485,
      "_50%": 6486,
      "_educational": 6487,
      "_preserve": 6488,
      "_activities.": 6489,
      "_Educ": 6490,
      "_unlike": 6491,
      "_soft": 6492,
      "_trade,": 6493,
      "_third-country": 6494,
      "_retire": 6495,
      "_reinforce": 6496,
      "_intellectual": 6497,
      "fin": 6498,
      "ises.": 6499,
      "_door": 6500,
      "_however.": 6501,
      "_migration": 6502,
      "_incon": 6503,
      "sem": 6504,
      "_Pos": 6505,
      "_decisions.": 6506,
      "_wording": 6507,
      "heart": 6508,
      "_Constitution,": 6509,
      "_identity": 6510,
      "_Summit,": 6511,
      "_exports": 6512,
      "1,": 6513,
      "diction": 6514,
      "sk": 6515,
      "utor": 6516,
      "oler": 6517,
      "ffect": 6518,
      "_was,": 6519,
      "_appli": 6520,
      "_plural": 6521,
      "_Turkey.": 6522,
      "iscrim": 6523,
      "_widely": 6524,
      "-economic": 6525,
      "ok": 6526,
      "_fiscal": 6527,
      "_whatso": 6528,
      "_far,": 6529,
      "_order,": 6530,
      "_war,": 6531,
      "_force,": 6532,
      "_experienced": 6533,
      "_growth,": 6534,
      "_Palestinians": 6535,
      "_obtained": 6536,
      "ape": 6537,
      "_tough": 6538,
      "_canc": 6539,
      "_outbre": 6540,
      "sequently": 6541,
      "comp": 6542,
      "_Russia,": 6543,
      "_causing": 6544,
      "_prisoners": 6545,
      "_erad": 6546,
      "_Bolkestein": 6547,
      "_none": 6548,
      "_Mart": 6549,
      "_discipl": 6550,
      "_points,": 6551,
      "ipal": 6552,
      "_reasons.": 6553,
      "_opinion.": 6554,
      "_companies.": 6555,
      "_GMO": 6556,
      "_x": 6557,
      "no": 6558,
      "_pan": 6559,
      "ides": 6560,
      "_doub": 6561,
      "_advantages": 6562,
      "_Belarus": 6563,
      "_equipment": 6564,
      "_hung": 6565,
      "_reserve": 6566,
      "rous": 6567,
      "_end.": 6568,
      "_results.": 6569,
      "_considerations": 6570,
      "_decision,": 6571,
      "_strategy,": 6572,
      "_pharm": 6573,
      "work": 6574,
      "_sam": 6575,
      "_pref": 6576,
      "_accur": 6577,
      "_syn": 6578,
      "_showing": 6579,
      "_inadequate": 6580,
      "_bureaucratic": 6581,
      "gypt": 6582,
      "_bott": 6583,
      "_mal": 6584,
      "_intens": 6585,
      "_users": 6586,
      "_environmentally": 6587,
      "_jointly": 6588,
      "_disposal": 6589,
      " 000": 6590,
      "_bra": 6591,
      "omet": 6592,
      "_below": 6593,
      "osp": 6594,
      "_sphere": 6595,
      "_involved,": 6596,
      "_subjects": 6597,
      "_engaged": 6598,
      "_Scot": 6599,
      "_Six": 6600,
      "_Free": 6601,
      "_prejud": 6602,
      "_became": 6603,
      "_complicated": 6604,
      "_clearer": 6605,
      "_swift": 6606,
      "_Brok": 6607,
      "-out": 6608,
      "ten,": 6609,
      "enth": 6610,
      "_Most": 6611,
      "_first,": 6612,
      "_minutes": 6613,
      "_extraordinary": 6614,
      "_justice.": 6615,
      "_amendment,": 6616,
      "_representation": 6617,
      "_1997": 6618,
      "_Again": 6619,
      "_conviction": 6620,
      "_coastal": 6621,
      "_strike": 6622,
      "_inevit": 6623,
      "_xenophob": 6624,
      "(1)": 6625,
      "iced": 6626,
      "_match": 6627,
      "_agreements.": 6628,
      "_applicable": 6629,
      "_divided": 6630,
      "_Centre": 6631,
      "de": 6632,
      "_wind": 6633,
      "ops": 6634,
      "_combined": 6635,
      "_life,": 6636,
      "_motions": 6637,
      "_sense,": 6638,
      "_Barroso": 6639,
      "espread": 6640,
      "_Red": 6641,
      "_...": 6642,
      "_terrorists": 6643,
      "_players": 6644,
      "_finally,": 6645,
      "_hypocr": 6646,
      "itch": 6647,
      "_d'": 6648,
      "_as,": 6649,
      "ifies": 6650,
      "_defining": 6651,
      "_flood": 6652,
      "_speeches": 6653,
      "_arrangement": 6654,
      "_tourism": 6655,
      "ibet": 6656,
      "_evening": 6657,
      "_keen": 6658,
      "_broader": 6659,
      "_declare": 6660,
      "_pretext": 6661,
      "_elderly": 6662,
      "_Presidents": 6663,
      "_reform,": 6664,
      "_children.": 6665,
      "_sending": 6666,
      "_Egypt": 6667,
      "_alarm": 6668,
      "_HI": 6669,
      "_cannot,": 6670,
      "_looked": 6671,
      "_materials": 6672,
      "_widespread": 6673,
      "_freight": 6674,
      "_legitimacy": 6675,
      "_Safety": 6676,
      "_Stockholm": 6677,
      "itiative": 6678,
      "_increases": 6679,
      "_guarante": 6680,
      "_East.": 6681,
      "_GMOs": 6682,
      "_fire": 6683,
      "_scen": 6684,
      "_population.": 6685,
      "_medicines": 6686,
      "/00": 6687,
      "0,": 6688,
      "_mountain": 6689,
      "iday": 6690,
      "abit": 6691,
      "_?": 6692,
      "ball": 6693,
      "_track": 6694,
      "_funds.": 6695,
      "reneur": 6696,
      "_incred": 6697,
      "_Your": 6698,
      "repreneur": 6699,
      "_digital": 6700,
      "_monitored": 6701,
      "TE": 6702,
      "_'s": 6703,
      "iqu": 6704,
      "_Tibet": 6705,
      "agn": 6706,
      "_airlines": 6707,
      "_reservations": 6708,
      "_Minutes": 6709,
      "_Similar": 6710,
      "_doubts": 6711,
      "_impet": 6712,
      "_quarter": 6713,
      "_puts": 6714,
      "_processing": 6715,
      "_negotiated": 6716,
      "strö": 6717,
      "_delays": 6718,
      "_ignore": 6719,
      "_reveal": 6720,
      "oly": 6721,
      "_underlying": 6722,
      "_successfully": 6723,
      "_threats": 6724,
      "_marine": 6725,
      "_slightly": 6726,
      "_Agenda": 6727,
      "_spect": 6728,
      "_parent": 6729,
      "ive,": 6730,
      "_Ha": 6731,
      "_2.": 6732,
      "_openness": 6733,
      "_corpor": 6734,
      "_Friday": 6735,
      "_concludes": 6736,
      "_organisations.": 6737,
      "_passenger": 6738,
      "met": 6739,
      "uan": 6740,
      "_wall": 6741,
      "_Coh": 6742,
      "_Well": 6743,
      "_acced": 6744,
      "cient": 6745,
      "_group.": 6746,
      "_rapporteur's": 6747,
      "_species": 6748,
      "_Strateg": 6749,
      "_Monday": 6750,
      "_talked": 6751,
      "_alongside": 6752,
      "_Statute": 6753,
      "_Tun": 6754,
      "_Er": 6755,
      "_crisis.": 6756,
      "_fairly": 6757,
      "_passengers": 6758,
      "_deterior": 6759,
      "_Bosn": 6760,
      "_physical": 6761,
      "_bill": 6762,
      "_lacking": 6763,
      "_AIDS": 6764,
      "_agenc": 6765,
      "_people's": 6766,
      "_resulted": 6767,
      "_trade.": 6768,
      "_buy": 6769,
      "_profound": 6770,
      "_Socialists": 6771,
      "_credible": 6772,
      "_ultimate": 6773,
      "_larger": 6774,
      "_strengthened": 6775,
      "_beef": 6776,
      "urb": 6777,
      "iring": 6778,
      "_more.": 6779,
      "_underline": 6780,
      "_extent,": 6781,
      "_implemented.": 6782,
      "_feas": 6783,
      "_Americans": 6784,
      "_indicate": 6785,
      "_scandal": 6786,
      "nam": 6787,
      "vi": 6788,
      "_depr": 6789,
      "aching": 6790,
      "_examined": 6791,
      "_reform.": 6792,
      "_warning": 6793,
      "_Liberal,": 6794,
      "_Bulgaria": 6795,
      "-to": 6796,
      "gm": 6797,
      "z,": 6798,
      "_Kurd": 6799,
      "_pursuant": 6800,
      "_Morocco": 6801,
      "_mur": 6802,
      "_disreg": 6803,
      "_uphold": 6804,
      "_lasting": 6805,
      "_desirable": 6806,
      "_Chines": 6807,
      "_account.": 6808,
      "os,": 6809,
      "ston": 6810,
      "otechn": 6811,
      "_ant": 6812,
      "_usual": 6813,
      "_immunity": 6814,
      "_agenda,": 6815,
      "_elections,": 6816,
      "_excluded": 6817,
      "_gradually": 6818,
      "_Georg": 6819,
      "ness,": 6820,
      "off": 6821,
      "_disabled": 6822,
      "under": 6823,
      "_taken.": 6824,
      "_shortcom": 6825,
      "_absurd": 6826,
      "_Communist": 6827,
      "_contam": 6828,
      "_princ": 6829,
      "_If,": 6830,
      "_admitt": 6831,
      "_poverty,": 6832,
      "_reality,": 6833,
      "_nearly": 6834,
      "gest": 6835,
      "_unequ": 6836,
      "_strictly": 6837,
      "_Cam": 6838,
      "_further.": 6839,
      "_consumers.": 6840,
      "ators,": 6841,
      "_occurred": 6842,
      "_enforcement": 6843,
      "ine,": 6844,
      "ropri": 6845,
      "_lob": 6846,
      "_decentral": 6847,
      "_cultures": 6848,
      "_observe": 6849,
      "-related": 6850,
      "_racism": 6851,
      "uilding": 6852,
      "gent": 6853,
      "ory.": 6854,
      "_integration.": 6855,
      "_restricted": 6856,
      "_Italy,": 6857,
      "_September,": 6858,
      "haust": 6859,
      "_immigration,": 6860,
      "_Galic": 6861,
      "_worrying": 6862,
      "_tangible": 6863,
      "_entrepreneur": 6864,
      "_healthy": 6865,
      "_text,": 6866,
      "_listened": 6867,
      "erted": 6868,
      "_connection,": 6869,
      "_register": 6870,
      "alon": 6871,
      "_intoler": 6872,
      "_Di": 6873,
      "_present.": 6874,
      "_agriculture,": 6875,
      "_period,": 6876,
      "_consequence": 6877,
      "_themselves,": 6878,
      "_agrees": 6879,
      "_Poetter": 6880,
      "_controversial": 6881,
      "_inquir": 6882,
      "_search": 6883,
      "_socio": 6884,
      "_Atlantic": 6885,
      "_containing": 6886,
      "_pilot": 6887,
      "_Croat": 6888,
      "_ine": 6889,
      "_Com": 6890,
      "_industries": 6891,
      "-spe": 6892,
      "_Spain,": 6893,
      "_exceptional": 6894,
      "_Asia": 6895,
      "road": 6896,
      "_Sport": 6897,
      "_covers": 6898,
      "_invite": 6899,
      "_prevented": 6900,
      "_begun": 6901,
      "_period.": 6902,
      "_embarg": 6903,
      "_Ni": 6904,
      "_respecting": 6905,
      "_available.": 6906,
      "_borders,": 6907,
      "_devast": 6908,
      "DR": 6909,
      "_crime,": 6910,
      "_surpl": 6911,
      "_infrastructures": 6912,
      "_announce": 6913,
      "_convergence": 6914,
      "_customs": 6915,
      "ilos": 6916,
      "_secur": 6917,
      "_regardless": 6918,
      "_funded": 6919,
      "_regulate": 6920,
      "_Sevil": 6921,
      "encing": 6922,
      "_removed": 6923,
      "_chapter": 6924,
      "_jurisdiction": 6925,
      "_cancell": 6926,
      "_Her": 6927,
      "_accounting": 6928,
      "_preventive": 6929,
      "_harmonised": 6930,
      "_rapidly": 6931,
      "_cheap": 6932,
      "_whatsoever": 6933,
      "_Nig": 6934,
      "_budgets": 6935,
      "_began": 6936,
      "urch": 6937,
      "_recip": 6938,
      "_government.": 6939,
      "_Finland": 6940,
      "_claims": 6941,
      "_image": 6942,
      "_unique": 6943,
      "_regarded": 6944,
      "_expensive": 6945,
      "_matters,": 6946,
      "_governments,": 6947,
      "_drafted": 6948,
      "_encouraged": 6949,
      "_procedures.": 6950,
      "_suspended": 6951,
      "_dossi": 6952,
      "_biod": 6953,
      "_public,": 6954,
      "_field,": 6955,
      "_executive": 6956,
      "_sincerely": 6957,
      "\".": 6958,
      "_merg": 6959,
      "sions": 6960,
      "_shi": 6961,
      "_finish": 6962,
      "_effect.": 6963,
      "_Community,": 6964,
      "_privat": 6965,
      "_monopol": 6966,
      "_shortcomings": 6967,
      "house": 6968,
      "_profits": 6969,
      "_Party,": 6970,
      "_rejection": 6971,
      "_priority.": 6972,
      "_eyes": 6973,
      "_accompanied": 6974,
      "_disappear": 6975,
      "_murder": 6976,
      "ced,": 6977,
      "_markets,": 6978,
      "_last,": 6979,
      "_guard": 6980,
      "med": 6981,
      "_die": 6982,
      "ett": 6983,
      "_workers.": 6984,
      "_arising": 6985,
      "_dialogue,": 6986,
      "_slaughter": 6987,
      "_observation": 6988,
      "_approximately": 6989,
      "_inj": 6990,
      "_fost": 6991,
      "le.": 6992,
      "_liv": 6993,
      "race": 6994,
      "_women's": 6995,
      "_responsibility,": 6996,
      "_joining": 6997,
      "_speaking,": 6998,
      "_exclusively": 6999,
      "_council": 7000,
      "_pled": 7001,
      "ification.": 7002,
      "_(N": 7003,
      "_root": 7004,
      "_interests,": 7005,
      "_result.": 7006,
      "_interv": 7007,
      "_aviation": 7008,
      "_role.": 7009,
      "_states.": 7010,
      "_Summit.": 7011,
      "_army": 7012,
      "IN": 7013,
      "orne": 7014,
      "_mach": 7015,
      "_authorisation": 7016,
      "_Instead,": 7017,
      "_Niels": 7018,
      "oe": 7019,
      "rust": 7020,
      "aceut": 7021,
      "_(COM(200": 7022,
      "_congratulations": 7023,
      "_transparency,": 7024,
      "_irre": 7025,
      "_tonnes": 7026,
      "_tribute": 7027,
      "/EEC": 7028,
      "_raises": 7029,
      "_justification": 7030,
      "_terms.": 7031,
      "_poverty.": 7032,
      "_incorporate": 7033,
      "_performance": 7034,
      "_equivalent": 7035,
      "9,": 7036,
      "_means,": 7037,
      "_install": 7038,
      "_students": 7039,
      "_contacts": 7040,
      "_progress,": 7041,
      "_Obvious": 7042,
      "-C": 7043,
      "/N": 7044,
      "_Pre": 7045,
      "_parties,": 7046,
      "_promise": 7047,
      "_37": 7048,
      "_facilities": 7049,
      "_Clearly,": 7050,
      "_subsequently": 7051,
      "_presentation": 7052,
      "_priorities.": 7053,
      "exic": 7054,
      "_deadline": 7055,
      "ified,": 7056,
      "_Erika": 7057,
      "_Chinese": 7058,
      "ship": 7059,
      "_cert": 7060,
      "_intentions": 7061,
      "_partial": 7062,
      "_reports,": 7063,
      "_informal": 7064,
      "_reven": 7065,
      "_conflict.": 7066,
      "_compromise.": 7067,
      "_topical": 7068,
      "_volum": 7069,
      "aceutical": 7070,
      "fe": 7071,
      "_date,": 7072,
      "_Time": 7073,
      "_see,": 7074,
      "_Lab": 7075,
      "_Year": 7076,
      "_preparatory": 7077,
      "_worthy": 7078,
      "_undertakings": 7079,
      "_picture": 7080,
      "_Doha": 7081,
      "(2)": 7082,
      "_complied": 7083,
      "_section": 7084,
      "_Anne": 7085,
      "_East,": 7086,
      "_tariff": 7087,
      "_logical": 7088,
      "_2,": 7089,
      "_kn": 7090,
      "_systematic": 7091,
      "_explained": 7092,
      "ström": 7093,
      "uels": 7094,
      "rew": 7095,
      "_woman": 7096,
      "_stance": 7097,
      "_exhaust": 7098,
      "ocking": 7099,
      "_mentioned.": 7100,
      "_control,": 7101,
      "_project.": 7102,
      "_refugee": 7103,
      "_biggest": 7104,
      "_values.": 7105,
      "_weakness": 7106,
      "ness.": 7107,
      "_display": 7108,
      "ont": 7109,
      "level": 7110,
      "_nine": 7111,
      "_1,": 7112,
      "_courts": 7113,
      "_offering": 7114,
      "_negotiate": 7115,
      "_convince": 7116,
      "_innoc": 7117,
      "_century": 7118,
      "point": 7119,
      "ero": 7120,
      "_adverse": 7121,
      "_save": 7122,
      "_amendment.": 7123,
      "_VAT": 7124,
      "_Madrid": 7125,
      "_Rights.": 7126,
      "_relations.": 7127,
      "_visited": 7128,
      "_twenty-f": 7129,
      "_collaboration": 7130,
      "_sugar": 7131,
      "_leaves": 7132,
      "_reports.": 7133,
      "_prime": 7134,
      "_subsequent": 7135,
      "_scal": 7136,
      "_philos": 7137,
      "_generation": 7138,
      "_societies": 7139,
      "_allocation": 7140,
      "_horiz": 7141,
      "_dismant": 7142,
      "zz": 7143,
      "_fat": 7144,
      "stream": 7145,
      "asc": 7146,
      "atell": 7147,
      "akes": 7148,
      "_regulated": 7149,
      "_procedural": 7150,
      "_framework,": 7151,
      "_jobs.": 7152,
      "_objective.": 7153,
      "_unanimity": 7154,
      "_ceiling": 7155,
      "IS": 7156,
      "ises,": 7157,
      "irty": 7158,
      "arked": 7159,
      "_financed": 7160,
      "_standing": 7161,
      "_fourth": 7162,
      "_non-governmental": 7163,
      "_schedul": 7164,
      "_tank": 7165,
      "inder": 7166,
      "_wholeheart": 7167,
      "_periods": 7168,
      "appropri": 7169,
      "_judgment": 7170,
      "_Vice-President": 7171,
      "_are.": 7172,
      "_Conf": 7173,
      "_60": 7174,
      "_Ireland,": 7175,
      "_characterised": 7176,
      "_NGO": 7177,
      "_resumed": 7178,
      "_Similarly,": 7179,
      "_fun": 7180,
      "_depl": 7181,
      "_conservation": 7182,
      "_decre": 7183,
      "_cultiv": 7184,
      "_failing": 7185,
      "_Regarding": 7186,
      "_week.": 7187,
      "_criteria.": 7188,
      "_hoped": 7189,
      "ination.": 7190,
      "_Who": 7191,
      "_furthermore,": 7192,
      "_costs.": 7193,
      "_blind": 7194,
      "_Africa,": 7195,
      "_charges": 7196,
      "lies": 7197,
      "ute.": 7198,
      "_Their": 7199,
      "ates,": 7200,
      "_rapporteurs,": 7201,
      "_accepting": 7202,
      "_helpful": 7203,
      "_personnel": 7204,
      "_stopp": 7205,
      "_reliable": 7206,
      "_percentage": 7207,
      "_pharmaceutical": 7208,
      "ror": 7209,
      "_hum": 7210,
      "_notice": 7211,
      "_directed": 7212,
      "_reproductive": 7213,
      "_everybody": 7214,
      "_lessons": 7215,
      "_morator": 7216,
      "_neighbours": 7217,
      "_Basque": 7218,
      "%,": 7219,
      "requ": 7220,
      "ros": 7221,
      "rov": 7222,
      "leb": 7223,
      "_clarification": 7224,
      "_biotechn": 7225,
      "_regrettable": 7226,
      "_(B5-0": 7227,
      "_fronti": 7228,
      " M": 7229,
      "oss": 7230,
      "_far-re": 7231,
      "_applications": 7232,
      "_research.": 7233,
      "_Law": 7234,
      "_eliminate": 7235,
      "_forgot": 7236,
      "ithuan": 7237,
      "_forese": 7238,
      "_integrate": 7239,
      "_morning,": 7240,
      "known": 7241,
      "regular": 7242,
      "_replaced": 7243,
      "oning": 7244,
      "_fal": 7245,
      "_Ev": 7246,
      "_3,": 7247,
      "_recognises": 7248,
      "_Portugal,": 7249,
      "_pursued": 7250,
      "_Slovak": 7251,
      "_sen": 7252,
      "_cast": 7253,
      "anks": 7254,
      "_Mal": 7255,
      "_Som": 7256,
      "umb": 7257,
      "istical": 7258,
      "_coinc": 7259,
      "_transit": 7260,
      "_respects": 7261,
      "_brid": 7262,
      "_urgency": 7263,
      "_contrast": 7264,
      "_sacr": 7265,
      "10": 7266,
      "inant": 7267,
      "itan": 7268,
      "_nar": 7269,
      "_Conciliation": 7270,
      "_string": 7271,
      "_carri": 7272,
      "_energy,": 7273,
      "_coordinate": 7274,
      "-wide": 7275,
      "_manufacturers": 7276,
      "oton": 7277,
      "keep": 7278,
      "_Lithuan": 7279,
      "_refused": 7280,
      "_recital": 7281,
      "_economically": 7282,
      "_defending": 7283,
      "_objective,": 7284,
      "_crisis,": 7285,
      "_celeb": 7286,
      "_dispute": 7287,
      "_football": 7288,
      "_immigration.": 7289,
      "_afternoon": 7290,
      "_Declaration": 7291,
      "tered": 7292,
      "_Whilst": 7293,
      "_attitud": 7294,
      "_interest,": 7295,
      "_representing": 7296,
      "_attention.": 7297,
      "_denied": 7298,
      "_penalties": 7299,
      "_advocate": 7300,
      "_copy": 7301,
      "_traceability": 7302,
      "_impetus": 7303,
      "CN": 7304,
      "pin": 7305,
      "_Act": 7306,
      "_Invest": 7307,
      "_accus": 7308,
      "_colon": 7309,
      "_ratify": 7310,
      "_apolog": 7311,
      "_purch": 7312,
      "_imposing": 7313,
      "_indicators": 7314,
      "_Conserv": 7315,
      "_abolition": 7316,
      "_Two": 7317,
      "_Mexic": 7318,
      "_disabilities": 7319,
      "_outset": 7320,
      "_Office": 7321,
      "_confront": 7322,
      "ably,": 7323,
      "_sectors.": 7324,
      "ugust": 7325,
      "_answer.": 7326,
      "_broadcast": 7327,
      "_harmonise": 7328,
      "_railways": 7329,
      "_schools": 7330,
      "_mobile": 7331,
      "respective": 7332,
      "_neutr": 7333,
      "lled": 7334,
      "ification,": 7335,
      "_interf": 7336,
      "_criter": 7337,
      "_Conference.": 7338,
      "_deaths": 7339,
      "_complaints": 7340,
      "_countries'": 7341,
      "_minor": 7342,
      "_inhabit": 7343,
      "_Paragraph": 7344,
      "-E": 7345,
      "_anx": 7346,
      "_Was": 7347,
      "_enfor": 7348,
      "_unjust": 7349,
      "_managing": 7350,
      "_when,": 7351,
      "_leader": 7352,
      "_restriction": 7353,
      "visory": 7354,
      "_moratorium": 7355,
      "uv": 7356,
      "_reaff": 7357,
      "empl": 7358,
      "elong": 7359,
      "_poss": 7360,
      "_arbit": 7361,
      "_entering": 7362,
      "_nature,": 7363,
      "_statute": 7364,
      "_deny": 7365,
      "EC)": 7366,
      "_Equal": 7367,
      "_Helsinki": 7368,
      "_socio-economic": 7369,
      "CNS)": 7370,
      "_marked": 7371,
      "_world's": 7372,
      "ooking": 7373,
      "_employers": 7374,
      "_down.": 7375,
      "_warn": 7376,
      "_irrespon": 7377,
      "_safeguarding": 7378,
      "restig": 7379,
      "_exemption": 7380,
      "_dramatic": 7381,
      "_Could": 7382,
      "_Coton": 7383,
      "_justice,": 7384,
      "_funds,": 7385,
      "ibly": 7386,
      "_looks": 7387,
      "_promoted": 7388,
      "_ideal": 7389,
      "_ECHO": 7390,
      "_steel": 7391,
      "ware": 7392,
      "_Im": 7393,
      "_resident": 7394,
      "_lie": 7395,
      "_political,": 7396,
      "_spring": 7397,
      "_minute": 7398,
      "_founded": 7399,
      "_cuts": 7400,
      "_irregular": 7401,
      "_competitiven": 7402,
      "beit": 7403,
      "_training,": 7404,
      "_politician": 7405,
      "_Korea": 7406,
      "-and-m": 7407,
      "cus": 7408,
      "_trou": 7409,
      "ites": 7410,
      "_EL": 7411,
      "_framework.": 7412,
      "_struck": 7413,
      "_Alg": 7414,
      "rade": 7415,
      "_Muslim": 7416,
      "_mem": 7417,
      "ime,": 7418,
      "ading": 7419,
      "_Ang": 7420,
      "_definitive": 7421,
      "_consulted": 7422,
      "_packaging": 7423,
      "_testing": 7424,
      "luscon": 7425,
      "_sympathy": 7426,
      "_worldwide": 7427,
      "_relief": 7428,
      "25": 7429,
      "_borne": 7430,
      "_conj": 7431,
      "_gross": 7432,
      "_projects,": 7433,
      "_viable": 7434,
      "_things.": 7435,
      "_solidarity.": 7436,
      "_covering": 7437,
      "_schemes": 7438,
      "_incentives": 7439,
      "_Cotonou": 7440,
      "/EC": 7441,
      "_dump": 7442,
      "_Certain": 7443,
      "_Spe": 7444,
      "quality": 7445,
      "_invited": 7446,
      "_lawy": 7447,
      "_power.": 7448,
      "_change,": 7449,
      "_suggestions": 7450,
      "_Democra": 7451,
      "_values,": 7452,
      "_Macedonia": 7453,
      "_particular.": 7454,
      "_forward,": 7455,
      "_freely": 7456,
      "_proceeding": 7457,
      "_calc": 7458,
      "_feeding": 7459,
      "_Solana": 7460,
      "_phenomenon": 7461,
      "_lingu": 7462,
      "irth": 7463,
      "thing,": 7464,
      "_offences": 7465,
      "_Africa.": 7466,
      "_Canad": 7467,
      "_outbreak": 7468,
      "(CNS)": 7469,
      "ute,": 7470,
      "_alone.": 7471,
      "_revolution": 7472,
      "ietnam": 7473,
      "_disappointed": 7474,
      "_infringement": 7475,
      "_coalition": 7476,
      "_newspaper": 7477,
      "/European": 7478,
      "back": 7479,
      "_in,": 7480,
      "_dollar": 7481,
      "_resid": 7482,
      "_before,": 7483,
      "_India": 7484,
      "_killed": 7485,
      "-and-mouth": 7486,
      "ana,": 7487,
      "_haz": 7488,
      "_albeit": 7489,
      "_need,": 7490,
      "_follows": 7491,
      "_accessible": 7492,
      "_grave": 7493,
      "_Resolution": 7494,
      "_cease": 7495,
      "_SMEs": 7496,
      "_Labour": 7497,
      "24": 7498,
      "_Canc": 7499,
      "_web": 7500,
      "_street": 7501,
      "_2007": 7502,
      "_power,": 7503,
      "_movements": 7504,
      "_Affairs.": 7505,
      "_Above": 7506,
      "_inflation": 7507,
      "fat": 7508,
      "_bio": 7509,
      "_aspir": 7510,
      "_notes": 7511,
      "_This,": 7512,
      "_certainty": 7513,
      "_4,": 7514,
      "_Within": 7515,
      "_telecommunications": 7516,
      "_trem": 7517,
      "_fill": 7518,
      "_subs": 7519,
      "_permitted": 7520,
      "_handling": 7521,
      "_management.": 7522,
      "_dialogue.": 7523,
      "_Russia.": 7524,
      "_USD": 7525,
      "_observed": 7526,
      "_categories": 7527,
      "_Angol": 7528,
      " m": 7529,
      "petr": 7530,
      "_mac": 7531,
      "_perpetr": 7532,
      "_million,": 7533,
      "_participating": 7534,
      "_Indones": 7535,
      "_restrictive": 7536,
      "_speech,": 7537,
      "_Greece,": 7538,
      "erving": 7539,
      "_hous": 7540,
      "as.": 7541,
      "_alone,": 7542,
      "_August": 7543,
      "_outer": 7544,
      "_extrad": 7545,
      "_revised": 7546,
      "_presidency,": 7547,
      "whel": 7548,
      "_foundations": 7549,
      "_tests": 7550,
      "_authorised": 7551,
      "_advertising": 7552,
      "abil": 7553,
      "_pace": 7554,
      "_Prestig": 7555,
      "_vit": 7556,
      "_state,": 7557,
      "_Yes,": 7558,
      "_excuse": 7559,
      "_procedures,": 7560,
      "_Baltic": 7561,
      "_far-reaching": 7562,
      "EN": 7563,
      "_hes": 7564,
      "_shame": 7565,
      "_shift": 7566,
      "_finances": 7567,
      "_signing": 7568,
      "_Also": 7569,
      "_visible": 7570,
      "_medicinal": 7571,
      "_journe": 7572,
      "_frequently": 7573,
      "_(NL)": 7574,
      "_Annex": 7575,
      "5.": 7576,
      "_wage": 7577,
      "_card": 7578,
      "_Tal": 7579,
      "_Ple": 7580,
      "_overwhel": 7581,
      "_short-term": 7582,
      "_growth.": 7583,
      "_community.": 7584,
      "_Brussels.": 7585,
      "_population,": 7586,
      "_false": 7587,
      "_wise": 7588,
      "ancy": 7589,
      "arr": 7590,
      "et,": 7591,
      "_regard.": 7592,
      "_projects.": 7593,
      "_transparency.": 7594,
      "_corresponding": 7595,
      "dden": 7596,
      "_ordinary": 7597,
      "_Fischler": 7598,
      "_drivers": 7599,
      "_philosoph": 7600,
      "_ELDR": 7601,
      "ipe": 7602,
      "o-": 7603,
      "son": 7604,
      "_Would": 7605,
      "_manif": 7606,
      "_pensioners": 7607,
      "_constrain": 7608,
      "_concentration": 7609,
      "ife": 7610,
      "ates.": 7611,
      "ordic": 7612,
      "_wherever": 7613,
      "_Vietnam": 7614,
      "_banks": 7615,
      "_Questions": 7616,
      "_Tunis": 7617,
      "_tremend": 7618,
      "-g": 7619,
      "eat": 7620,
      "_thing,": 7621,
      "itz": 7622,
      "_fit": 7623,
      "_conve": 7624,
      "celer": 7625,
      "elve": 7626,
      "istered": 7627,
      "_Roth": 7628,
      "overed": 7629,
      "_Christ": 7630,
      "_Sea": 7631,
      "_300": 7632,
      "_Government.": 7633,
      "-dep": 7634,
      "_misunder": 7635,
      "_violence,": 7636,
      "_summer": 7637,
      "_retirement": 7638,
      "ls": 7639,
      "uit": 7640,
      "_whol": 7641,
      "_stating": 7642,
      "_liked": 7643,
      "_acceptance": 7644,
      "_redund": 7645,
      "_annex": 7646,
      "_items": 7647,
      "_Barn": 7648,
      "_religion": 7649,
      "_(A5-03": 7650,
      "_tools": 7651,
      "_harass": 7652,
      "_contradiction": 7653,
      "_vigil": 7654,
      "_cos": 7655,
      "_times,": 7656,
      "_another,": 7657,
      "_10%": 7658,
      "_zone": 7659,
      "_Cuban": 7660,
      "_gradual": 7661,
      "_crops": 7662,
      "_skills": 7663,
      "_torture": 7664,
      "_biodivers": 7665,
      "_Algeria": 7666,
      "national": 7667,
      "_in-dep": 7668,
      "_hit": 7669,
      "_date.": 7670,
      "_shortly": 7671,
      "_backing": 7672,
      "_comit": 7673,
      "_composition": 7674,
      "_Information": 7675,
      "_plants": 7676,
      "_America,": 7677,
      "_criticised": 7678,
      "_eventually": 7679,
      "_enshrined": 7680,
      "_HIV": 7681,
      "_forgotten": 7682,
      "isen": 7683,
      "_consci": 7684,
      "_desper": 7685,
      "_education.": 7686,
      "_him.": 7687,
      "_foot-and-mouth": 7688,
      "_Syri": 7689,
      "_greenhouse": 7690,
      "_linguistic": 7691,
      "ndez": 7692,
      "_Cod": 7693,
      "_Mil": 7694,
      "_Hague": 7695,
      "_good,": 7696,
      "_solution,": 7697,
      "_banned": 7698,
      "_Protection": 7699,
      "_associations": 7700,
      "15": 7701,
      "cili": 7702,
      "_nature.": 7703,
      "_money,": 7704,
      "_jobs,": 7705,
      "_Conference,": 7706,
      "_knowledge-based": 7707,
      "_desired": 7708,
      "_withdrawal": 7709,
      "_inspectors": 7710,
      "_premium": 7711,
      "_error": 7712,
      "astroph": 7713,
      "cas": 7714,
      "_squ": 7715,
      "ulf": 7716,
      "_stor": 7717,
      "_Wed": 7718,
      "establish": 7719,
      "_impr": 7720,
      "_(I": 7721,
      "_cars": 7722,
      "_expressly": 7723,
      "_days,": 7724,
      "_production,": 7725,
      "_catastroph": 7726,
      "_autum": 7727,
      "_pursuing": 7728,
      "_postpone": 7729,
      "].": 7730,
      "_reper": 7731,
      "_Malt": 7732,
      "opoul": 7733,
      "_seat": 7734,
      "_disg": 7735,
      "_indication": 7736,
      "_were,": 7737,
      "_argue": 7738,
      "_interim": 7739,
      "_suggests": 7740,
      "_targeted": 7741,
      "_yesterday,": 7742,
      "nesday": 7743,
      "_Arafat": 7744,
      "innock": 7745,
      "_Bosnia": 7746,
      "_disregard": 7747,
      "_cow": 7748,
      "ented": 7749,
      "ently,": 7750,
      "ic,": 7751,
      "_lau": 7752,
      "_EP": 7753,
      "_acceler": 7754,
      "accession": 7755,
      "_usually": 7756,
      "_urban": 7757,
      "_engine": 7758,
      "_modernisation": 7759,
      "_publish": 7760,
      "_Galile": 7761,
      "_troops": 7762,
      "_explicitly": 7763,
      "_Greens/European": 7764,
      "_macro": 7765,
      "_in-depth": 7766,
      "_Wednesday": 7767,
      "yes": 7768,
      "_fash": 7769,
      "iann": 7770,
      "_examining": 7771,
      "_effect,": 7772,
      "_consumers,": 7773,
      "_standards,": 7774,
      "_resolving": 7775,
      "_doubt,": 7776,
      "_Quite": 7777,
      "_1999.": 7778,
      "_Procedure.": 7779,
      "_rigid": 7780,
      "_colleagues,": 7781,
      "_embargo": 7782,
      "_Hence": 7783,
      "_concession": 7784,
      "_indis": 7785,
      "_York": 7786,
      "_experiences": 7787,
      "_motiv": 7788,
      "_earth": 7789,
      "_delegations": 7790,
      "_People'": 7791,
      "_occasions,": 7792,
      "_gained": 7793,
      "_predict": 7794,
      "_Govern": 7795,
      "_Sharon": 7796,
      "_revenue": 7797,
      "_manifest": 7798,
      "_repercus": 7799,
      "_resort": 7800,
      "_decisions,": 7801,
      "_effectively.": 7802,
      "_declarations": 7803,
      "_p.m.)": 7804,
      "_Wats": 7805,
      "_orient": 7806,
      "astrich": 7807,
      "_questions,": 7808,
      "_course.": 7809,
      "_state.": 7810,
      "_promises": 7811,
      "_Democrats,": 7812,
      "_circumstances.": 7813,
      "/2003)": 7814,
      "_fortunate": 7815,
      "aire": 7816,
      "_fires": 7817,
      "_Through": 7818,
      "_appalling": 7819,
      "_references": 7820,
      "_sectors,": 7821,
      "_Forum": 7822,
      "_irrespective": 7823,
      "_sovereign": 7824,
      " million": 7825,
      "ministr": 7826,
      "_stick": 7827,
      "_San": 7828,
      "/2004": 7829,
      "_criteria,": 7830,
      "_Byr": 7831,
      "_Committee.": 7832,
      "_perspectives": 7833,
      "13": 7834,
      "teg": 7835,
      "_Eur": 7836,
      "_cha": 7837,
      "_acted": 7838,
      "_practically": 7839,
      "_role,": 7840,
      "_showed": 7841,
      "_arrived": 7842,
      "_exclusive": 7843,
      "_cells": 7844,
      "_recycling": 7845,
      "uzz": 7846,
      "_cra": 7847,
      "urt": 7848,
      "ourse": 7849,
      "ality,": 7850,
      "-comm": 7851,
      "_required.": 7852,
      "_Maastrich": 7853,
      "_characteristics": 7854,
      "_ignored": 7855,
      "_merit": 7856,
      "_mid-term": 7857,
      "_savings": 7858,
      "_Sixth": 7859,
      "3)": 7860,
      "_fixed": 7861,
      "_sudden": 7862,
      "_youth": 7863,
      "_(S": 7864,
      "_September.": 7865,
      "_observations": 7866,
      "_enhanced": 7867,
      "_praise": 7868,
      "_margin": 7869,
      "_imprison": 7870,
      "_commission": 7871,
      "_disarm": 7872,
      "_apparently": 7873,
      "_China,": 7874,
      "_conjunction": 7875,
      "_outermost": 7876,
      "tt": 7877,
      "_book": 7878,
      "_Pa": 7879,
      "_Pri": 7880,
      "_PSE": 7881,
      "_sharing": 7882,
      "_collection": 7883,
      "_president": 7884,
      "_complaint": 7885,
      "een": 7886,
      "_birth": 7887,
      "_assemb": 7888,
      "_Opport": 7889,
      "_concerns.": 7890,
      "_years'": 7891,
      "_plan,": 7892,
      "_older": 7893,
      "_originally": 7894,
      "_laying": 7895,
      "_Berluscon": 7896,
      "_controlled": 7897,
      "_component": 7898,
      "_Palacio": 7899,
      "_Please": 7900,
      "_inappropri": 7901,
      "_fem": 7902,
      "_mouth": 7903,
      "_earm": 7904,
      "osis": 7905,
      "osph": 7906,
      "_reported": 7907,
      "_Val": 7908,
      "_listening": 7909,
      "_popular": 7910,
      "_broadly": 7911,
      "_Democratic": 7912,
      "_sensit": 7913,
      "ba": 7914,
      "sch": 7915,
      "_in.": 7916,
      "_gir": 7917,
      "_accused": 7918,
      "_Ju": 7919,
      "_bench": 7920,
      "_city": 7921,
      "_inse": 7922,
      "resp": 7923,
      "_unity": 7924,
      "_interoper": 7925,
      "_Prosec": 7926,
      "_costs,": 7927,
      "_appeared": 7928,
      "_blame": 7929,
      "_lowest": 7930,
      "_connected": 7931,
      "_People’s": 7932,
      "_earlier,": 7933,
      "_initially": 7934,
      "_rigorous": 7935,
      "_business.": 7936,
      "_inevitably": 7937,
      "_Investment": 7938,
      "_Opportunities": 7939,
      "ases": 7940,
      "_epid": 7941,
      "_forecast": 7942,
      "_project,": 7943,
      "_fails": 7944,
      "_Schrey": 7945,
      "_sports": 7946,
      "_Feira": 7947,
      "_attached": 7948,
      "_soldiers": 7949,
      "_uncertainty": 7950,
      "-A": 7951,
      "_deem": 7952,
      "_Har": 7953,
      "_such,": 7954,
      "_sections": 7955,
      "_signs": 7956,
      "ability,": 7957,
      "_scra": 7958,
      "_diver": 7959,
      "_disturb": 7960,
      "_true,": 7961,
      "_choices": 7962,
      "_Leban": 7963,
      "_tackling": 7964,
      "_Procedure,": 7965,
      "_appointed": 7966,
      "_registr": 7967,
      "_incentive": 7968,
      "_innocent": 7969,
      "_reaffirm": 7970,
      "ination,": 7971,
      "_pact": 7972,
      "_fought": 7973,
      "_rely": 7974,
      "ommission": 7975,
      "_prerequ": 7976,
      "_proven": 7977,
      "apers": 7978,
      "_genetic": 7979,
      "_sett": 7980,
      "_Kinnock": 7981,
      "_mind.": 7982,
      "_wake": 7983,
      "_smooth": 7984,
      "_destroyed": 7985,
      "_prerequis": 7986,
      ".5": 7987,
      "oz": 7988,
      "_everywhere": 7989,
      "_actions.": 7990,
      "_mainten": 7991,
      "_modest": 7992,
      "_violent": 7993,
      "oeuv": 7994,
      "27": 7995,
      "utes.": 7996,
      "_Alliance": 7997,
      "-free": 7998,
      "_activities,": 7999,
      "_quickly.": 8000,
      "_Neither": 8001,
      "_Cypriot": 8002,
      "itar": 8003,
      "_Thess": 8004,
      "_habit": 8005,
      "_this?": 8006,
      "ivered": 8007,
      "_resource": 8008,
      "_2006": 8009,
      "_stric": 8010,
      "_contributing": 8011,
      "_lifelong": 8012,
      "_violence.": 8013,
      "_cohesion.": 8014,
      "_evaluate": 8015,
      "_fears": 8016,
      "_estimated": 8017,
      "_struggle": 8018,
      "alonik": 8019,
      "_scheduled": 8020,
      "-R": 8021,
      "_cig": 8022,
      "_rh": 8023,
      "_sees": 8024,
      "_Council’s": 8025,
      "_unres": 8026,
      "_manoeuv": 8027,
      "_features": 8028,
      "_compromise,": 8029,
      "_consequently": 8030,
      "_democratically": 8031,
      "_Plan": 8032,
      "_narrow": 8033,
      "_arbitr": 8034,
      "_bul": 8035,
      "_lor": 8036,
      "ulating": 8037,
      "ustain": 8038,
      "_raw": 8039,
      "_whenever": 8040,
      "_arch": 8041,
      "_guil": 8042,
      "_respected.": 8043,
      "_importance,": 8044,
      "_treaties": 8045,
      "_recommended": 8046,
      "_production.": 8047,
      "_delivered": 8048,
      "_criticise": 8049,
      "_quota": 8050,
      "_Women's": 8051,
      "_resistance": 8052,
      "_mother": 8053,
      "assion": 8054,
      "_prop": 8055,
      "_EI": 8056,
      "_compli": 8057,
      "_threaten": 8058,
      "_heads": 8059,
      "_occupied": 8060,
      "_checks": 8061,
      "_transferred": 8062,
      "_Everyone": 8063,
      "ariat": 8064,
      "uber": 8065,
      "lymp": 8066,
      "_Serv": 8067,
      "ants,": 8068,
      "_Members.": 8069,
      "_Commissioners,": 8070,
      "_crises": 8071,
      "_systematically": 8072,
      "_far.": 8073,
      "_consideration.": 8074,
      "_cases.": 8075,
      "_conclude,": 8076,
      "_Object": 8077,
      "_automatically": 8078,
      "_foremost,": 8079,
      "pow": 8080,
      "_Eurojust": 8081,
      "_Rom": 8082,
      "_used.": 8083,
      "_Olymp": 8084,
      "_20%": 8085,
      "_threatened": 8086,
      "_joined": 8087,
      "_learned": 8088,
      "law": 8089,
      "_consolidate": 8090,
      "_abstained": 8091,
      "_CFP": 8092,
      "_Thessalonik": 8093,
      "60": 8094,
      "oke": 8095,
      "erc": 8096,
      "idential": 8097,
      "_shock": 8098,
      "_vent": 8099,
      "_manag": 8100,
      "_confident": 8101,
      "_visa": 8102,
      "_solidarity,": 8103,
      "_reminded": 8104,
      "_populations": 8105,
      "_explanations": 8106,
      "_enabled": 8107,
      "ares": 8108,
      "_is:": 8109,
      "_sheep": 8110,
      "apse": 8111,
      "_examination": 8112,
      "_formally": 8113,
      "_generous": 8114,
      "_80%": 8115,
      "_arrive": 8116,
      "_losing": 8117,
      "_requirements.": 8118,
      "_Should": 8119,
      "_imperial": 8120,
      "_procure": 8121,
      "_ball": 8122,
      "_nom": 8123,
      "_notion": 8124,
      "_Fort": 8125,
      "_dissem": 8126,
      "_Nations,": 8127,
      "_club": 8128,
      "_twelve": 8129,
      "_presents": 8130,
      "_5,": 8131,
      "ugab": 8132,
      "_America.": 8133,
      "_deciding": 8134,
      "_analysis,": 8135,
      "_tonight": 8136,
      "_expertise": 8137,
      "_acknowledged": 8138,
      "stuffs": 8139,
      "_hunger": 8140,
      "/1999": 8141,
      "ine.": 8142,
      "_Mugab": 8143,
      "ommod": 8144,
      "_notably": 8145,
      "_seed": 8146,
      "_coexist": 8147,
      "_outlined": 8148,
      "_emot": 8149,
      "_may,": 8150,
      "_damaging": 8151,
      "_stability,": 8152,
      "_remarkable": 8153,
      "_explanatory": 8154,
      "_migrant": 8155,
      "_smoking": 8156,
      "iov": 8157,
      "large": 8158,
      "atform": 8159,
      "_atm": 8160,
      "_fault": 8161,
      "astic": 8162,
      "_workplace": 8163,
      "_accommod": 8164,
      "_assured": 8165,
      "_offic": 8166,
      "_conventions": 8167,
      "_disastrous": 8168,
      "_label": 8169,
      "_observers": 8170,
      "_pre-accession": 8171,
      "_eastern": 8172,
      "_journalists": 8173,
      "_Verheugen": 8174,
      "_Tai": 8175,
      "_sums": 8176,
      "_Inc": 8177,
      "_Guine": 8178,
      "_race": 8179,
      "_good.": 8180,
      "_dangers": 8181,
      "_falling": 8182,
      "_attempting": 8183,
      "_community,": 8184,
      "_appointment": 8185,
      "_Natural": 8186,
      "_removal": 8187,
      "_Talib": 8188,
      "_convey": 8189,
      "14": 8190,
      "_reporting": 8191,
      "_Lond": 8192,
      "igned": 8193,
      "_well-b": 8194,
      "_levels.": 8195,
      "_advanced": 8196,
      "_plan.": 8197,
      "_discussion.": 8198,
      "_posts": 8199,
      "_highlights": 8200,
      "_bottom": 8201,
      "_overwhelming": 8202,
      " S": 8203,
      "_hot": 8204,
      "_onto": 8205,
      "_Cresp": 8206,
      "_lives.": 8207,
      "_needed,": 8208,
      "_consists": 8209,
      "_transform": 8210,
      "_remit": 8211,
      "_Kal": 8212,
      "_score": 8213,
      "_beneficial": 8214,
      "_telling": 8215,
      "space": 8216,
      "_patients": 8217,
      "_devoted": 8218,
      "_renewed": 8219,
      "_Afghanistan,": 8220,
      "_suspic": 8221,
      "_lays": 8222,
      "_2005.": 8223,
      "_Serbia": 8224,
      "_exceptions": 8225,
      "_Scotland": 8226,
      "_western": 8227,
      "ederation": 8228,
      "owsk": 8229,
      "_Nice,": 8230,
      "_programming": 8231,
      "_taken,": 8232,
      "_acceptable.": 8233,
      "_mainstream": 8234,
      "_meets": 8235,
      "oviet": 8236,
      "_ideological": 8237,
      "_presidency.": 8238,
      "_substantially": 8239,
      "(COS)": 8240,
      "_surveill": 8241,
      "_Nigeria": 8242,
      "ES": 8243,
      "_throw": 8244,
      "_sem": 8245,
      "_gam": 8246,
      "_hopefully": 8247,
      "_country's": 8248,
      "_effective.": 8249,
      "_euro,": 8250,
      "_veter": 8251,
      "_else,": 8252,
      "_myself,": 8253,
      "_route": 8254,
      "_firms": 8255,
      "_needs.": 8256,
      "_confidential": 8257,
      "_approaches": 8258,
      "_plays": 8259,
      "_phr": 8260,
      "_answered": 8261,
      "-de": 8262,
      "_direction,": 8263,
      "_exchanges": 8264,
      "_appreciation": 8265,
      "_self-employ": 8266,
      "_Netherlands,": 8267,
      "_Morocc": 8268,
      "_Seville": 8269,
      "iver": 8270,
      "mid": 8271,
      "nar": 8272,
      "nership": 8273,
      "_title": 8274,
      "_Sud": 8275,
      "ists.": 8276,
      "_where,": 8277,
      "_compete": 8278,
      "_inside": 8279,
      "_seriously.": 8280,
      "_1990": 8281,
      "_better.": 8282,
      "_regulations,": 8283,
      "_water,": 8284,
      "_territories": 8285,
      "_Afghanistan.": 8286,
      "_surprise": 8287,
      "_observer": 8288,
      "_virtually": 8289,
      "mon": 8290,
      "_hosp": 8291,
      "irk": 8292,
      "ivoc": 8293,
      "_feels": 8294,
      "_energy.": 8295,
      "_integrity": 8296,
      "_integration,": 8297,
      "_drive": 8298,
      "_simplify": 8299,
      "_communication,": 8300,
      "_inspections": 8301,
      "_stages": 8302,
      "anda": 8303,
      "_serves": 8304,
      "_neglect": 8305,
      "_broken": 8306,
      "_alternatives": 8307,
      "_occupation": 8308,
      "_tremendous": 8309,
      "ory,": 8310,
      "_breed": 8311,
      "une": 8312,
      "_part.": 8313,
      "_Bö": 8314,
      "_Dav": 8315,
      "_drast": 8316,
      "_benefici": 8317,
      "_compromises": 8318,
      "_MEDA": 8319,
      "_consistently": 8320,
      "_high-quality": 8321,
      "_cancer": 8322,
      "_Washing": 8323,
      "_maintenance": 8324,
      "hm": 8325,
      "_ing": 8326,
      "arz": 8327,
      "_stream": 8328,
      "_differ": 8329,
      "_employe": 8330,
      "_exist.": 8331,
      "_aspects,": 8332,
      "_context.": 8333,
      "_ambigu": 8334,
      "_Barón": 8335,
      "_sales": 8336,
      "_wonderful": 8337,
      "2.": 8338,
      "23": 8339,
      "_audit": 8340,
      "_detain": 8341,
      "_concern,": 8342,
      "_insp": 8343,
      "_effective,": 8344,
      "_welcome.": 8345,
      "_risk.": 8346,
      "_instance": 8347,
      "_Palestine": 8348,
      "_marginal": 8349,
      "_principles,": 8350,
      "hand": 8351,
      "ress,": 8352,
      "ulous": 8353,
      "_Ant": 8354,
      "_exert": 8355,
      "_social,": 8356,
      "_desp": 8357,
      "_reforms.": 8358,
      "_culture,": 8359,
      "_presidential": 8360,
      "_correctly": 8361,
      "_safeguards": 8362,
      "_withdrawn": 8363,
      "TA": 8364,
      "_year's": 8365,
      "_(DE": 8366,
      "_That,": 8367,
      "_essential.": 8368,
      "sider": 8369,
      "_diox": 8370,
      "_farmers,": 8371,
      "_barb": 8372,
      "_collapse": 8373,
      "_imperative": 8374,
      "_functions": 8375,
      "_stringent": 8376,
      "_Taiw": 8377,
      "_ol": 8378,
      "anational": 8379,
      "_died": 8380,
      "ide.": 8381,
      "_EM": 8382,
      "_attain": 8383,
      "_God": 8384,
      "_40%": 8385,
      "_governments.": 8386,
      "_Monti": 8387,
      "_workers'": 8388,
      "_cutting": 8389,
      "_exclude": 8390,
      "_surplus": 8391,
      "_privatisation": 8392,
      "_EIB": 8393,
      "_middle": 8394,
      "_pregn": 8395,
      "_prud": 8396,
      "_timely": 8397,
      "ability.": 8398,
      "pranational": 8399,
      "_relations,": 8400,
      "_enough,": 8401,
      "ators.": 8402,
      "_replac": 8403,
      "_mandatory": 8404,
      "_monopoly": 8405,
      "_endorsed": 8406,
      "do": 8407,
      "_yield": 8408,
      "antly": 8409,
      "_voc": 8410,
      "_charter": 8411,
      "_Conc": 8412,
      "_implementation.": 8413,
      "_secondary": 8414,
      "_scar": 8415,
      "_remained": 8416,
      "_corner": 8417,
      "_completion": 8418,
      "_priority,": 8419,
      "_execution": 8420,
      "_envisaged": 8421,
      "_regime.": 8422,
      "_gratitude": 8423,
      "_volume": 8424,
      "_(DE)": 8425,
      "ioned": 8426,
      "_ED": 8427,
      "_Fer": 8428,
      "_service.": 8429,
      "_Treaties.": 8430,
      "_variety": 8431,
      "_donor": 8432,
      "_utter": 8433,
      "_released": 8434,
      "_shipping": 8435,
      "in.": 8436,
      "_bur": 8437,
      "_murd": 8438,
      "_deploy": 8439,
      "cho": 8440,
      "_supranational": 8441,
      "berg": 8442,
      "_Bus": 8443,
      "_His": 8444,
      "_incin": 8445,
      "_Decision": 8446,
      "_ruling": 8447,
      "_partners,": 8448,
      "_elig": 8449,
      "ographic": 8450,
      "_persuade": 8451,
      "down": 8452,
      "zone": 8453,
      "_thing.": 8454,
      "erate": 8455,
      "ansion": 8456,
      "_Mac": 8457,
      "_Rather": 8458,
      "_management,": 8459,
      "_partners.": 8460,
      "_ground.": 8461,
      "_regularly": 8462,
      "_Well,": 8463,
      "iannual": 8464,
      "_input": 8465,
      "arians": 8466,
      "sets": 8467,
      "_Eco": 8468,
      "amentally": 8469,
      "_employed": 8470,
      "_experiencing": 8471,
      "_friendly": 8472,
      "_airports": 8473,
      "_stricter": 8474,
      "-of": 8475,
      "_fate": 8476,
      "_Gl": 8477,
      "_Gra": 8478,
      "age,": 8479,
      "_33": 8480,
      "_rather,": 8481,
      "_donors": 8482,
      "_tunnel": 8483,
      "_Japan": 8484,
      "_criterion": 8485,
      "atri": 8486,
      "_IM": 8487,
      "estock": 8488,
      "othing": 8489,
      "_expansion": 8490,
      "ounded": 8491,
      "_pays": 8492,
      "_integrating": 8493,
      "_regulations.": 8494,
      "_roads": 8495,
      "_emerged": 8496,
      "ancies": 8497,
      "_responsibilities.": 8498,
      "_[COM(200": 8499,
      "_removing": 8500,
      "_overlook": 8501,
      "_Fourthly,": 8502,
      "_cigare": 8503,
      "_Naturally,": 8504,
      "_ingred": 8505,
      "-th": 8506,
      "EA": 8507,
      "isual": 8508,
      "_Apart": 8509,
      "_underest": 8510,
      "_submitt": 8511,
      "_repression": 8512,
      "_Community's": 8513,
      "ality.": 8514,
      "_brut": 8515,
      "_But,": 8516,
      "_agriculture.": 8517,
      "_closure": 8518,
      "_fallen": 8519,
      "_analyse": 8520,
      "_Agreement.": 8521,
      "_describe": 8522,
      "-day": 8523,
      "ious,": 8524,
      "_cul": 8525,
      "_pointing": 8526,
      "_fundamentally": 8527,
      "_offices": 8528,
      "_rejecting": 8529,
      "_vehicle": 8530,
      "-hand": 8531,
      "embowsk": 8532,
      "_principal": 8533,
      "keeping": 8534,
      "arzembowsk": 8535,
      "_intr": 8536,
      "_dur": 8537,
      "_reception": 8538,
      "_ones.": 8539,
      "_gather": 8540,
      "ant,": 8541,
      "_map": 8542,
      "_adding": 8543,
      "_35": 8544,
      "_governed": 8545,
      "_airspace": 8546,
      "_badly": 8547,
      "_Vitorino": 8548,
      "_wholeheartedly": 8549,
      "IF": 8550,
      "ne,": 8551,
      "oa": 8552,
      "_tempt": 8553,
      "_Mold": 8554,
      "_Soviet": 8555,
      "_expos": 8556,
      "_vague": 8557,
      "_come.": 8558,
      "_Berg": 8559,
      "_use.": 8560,
      "_objections": 8561,
      "_large-scale": 8562,
      "_Partnership": 8563,
      "_veget": 8564,
      "_coordinating": 8565,
      "_investigate": 8566,
      "_perspective,": 8567,
      "_forests": 8568,
      "_Aznar": 8569,
      "iovisual": 8570,
      "io,": 8571,
      "_satell": 8572,
      "_El": 8573,
      "etor": 8574,
      "_Sk": 8575,
      "_plain": 8576,
      "_reflection": 8577,
      "_computer": 8578,
      "_2006.": 8579,
      "_achieved,": 8580,
      "_service,": 8581,
      "_writ": 8582,
      "_science": 8583,
      "_ageing": 8584,
      "_adjustment": 8585,
      "hap": 8586,
      "ione": 8587,
      "anium": 8588,
      "ounce": 8589,
      "ants.": 8590,
      "_new,": 8591,
      "_underpin": 8592,
      "_implemented,": 8593,
      "retch": 8594,
      "_happen.": 8595,
      "_Swobod": 8596,
      "_morning.": 8597,
      "_grass": 8598,
      "_conceal": 8599,
      "_feasible": 8600,
      "_unequivoc": 8601,
      "_irresponsible": 8602,
      "_Olympic": 8603,
      "care": 8604,
      "enous": 8605,
      "alus": 8606,
      "_Dep": 8607,
      "_believed": 8608,
      "_'the": 8609,
      "_Chech": 8610,
      "_recently,": 8611,
      "_lists": 8612,
      "_passing": 8613,
      "_distance": 8614,
      "_euro.": 8615,
      "_reconciliation": 8616,
      "_Brussels,": 8617,
      "_campaigns": 8618,
      "_strikes": 8619,
      "issible": 8620,
      "_odd": 8621,
      "alities": 8622,
      "_Special": 8623,
      "ist,": 8624,
      "_cope": 8625,
      "_rare": 8626,
      "agu": 8627,
      "age.": 8628,
      "_empt": 8629,
      "_expens": 8630,
      "_assessing": 8631,
      "_model,": 8632,
      "_intelligence": 8633,
      "_livestock": 8634,
      "_hazard": 8635,
      "pens": 8636,
      "with": 8637,
      "_psy": 8638,
      "oupl": 8639,
      "ili": 8640,
      "osc": 8641,
      "_posed": 8642,
      "_refund": 8643,
      "_farms": 8644,
      "_organising": 8645,
      "_demanded": 8646,
      "_addresses": 8647,
      "_Mr P": 8648,
      "_And,": 8649,
      "_later,": 8650,
      "_earn": 8651,
      "_cohesion,": 8652,
      "_claimed": 8653,
      "_Austria,": 8654,
      "_disease.": 8655,
      "_Market,": 8656,
      "_pragm": 8657,
      "_reunification": 8658,
      "_horizont": 8659,
      "_guilty": 8660,
      "18": 8661,
      "SA": 8662,
      "_pick": 8663,
      "_ali": 8664,
      "_abuses": 8665,
      "_funding.": 8666,
      "_immense": 8667,
      "_uranium": 8668,
      "_oppon": 8669,
      "_experiment": 8670,
      "_parad": 8671,
      "_stability.": 8672,
      "_Media": 8673,
      "_potentially": 8674,
      "regulation": 8675,
      "_obtaining": 8676,
      "rehensible": 8677,
      "_Bank,": 8678,
      "_suspend": 8679,
      "_adequately": 8680,
      "SCE": 8681,
      "_Aid": 8682,
      "_vary": 8683,
      "_imbal": 8684,
      "_Hol": 8685,
      "ressed": 8686,
      "_conform": 8687,
      "_Articles": 8688,
      "_animals.": 8689,
      "_focusing": 8690,
      "_enables": 8691,
      "_obstacle": 8692,
      "_repercussions": 8693,
      "I)": 8694,
      "_perce": 8695,
      "_strange": 8696,
      "_genoc": 8697,
      "condition": 8698,
      "_crew": 8699,
      "_priorities,": 8700,
      "_democratisation": 8701,
      "_persecution": 8702,
      "0)": 8703,
      "los": 8704,
      "ater": 8705,
      "lex": 8706,
      "_Thus,": 8707,
      "_deple": 8708,
      "_does,": 8709,
      "_dispar": 8710,
      "_incur": 8711,
      "_Dubl": 8712,
      "_recourse": 8713,
      "_actors": 8714,
      "_served": 8715,
      "_No,": 8716,
      "_sustained": 8717,
      "cription": 8718,
      "_events,": 8719,
      "_returned": 8720,
      "_travelling": 8721,
      "_priorit": 8722,
      "_Otherwise,": 8723,
      "ral": 8724,
      "_thera": 8725,
      "_born": 8726,
      "_Federal": 8727,
      "_Rel": 8728,
      "_anywhere": 8729,
      "_assurance": 8730,
      "_ensured": 8731,
      "_progressive": 8732,
      "-friend": 8733,
      "-discrim": 8734,
      "_Administr": 8735,
      "_controlling": 8736,
      "_petition": 8737,
      "_principles.": 8738,
      "_Possel": 8739,
      "_extradition": 8740,
      "_rhetor": 8741,
      "_hospital": 8742,
      "eder": 8743,
      "os.": 8744,
      "ant.": 8745,
      "_vill": 8746,
      "_chief": 8747,
      "_Nations.": 8748,
      "_people'": 8749,
      "ificial": 8750,
      "_roll": 8751,
      "_objection": 8752,
      "_feature": 8753,
      "_solved": 8754,
      "_majority,": 8755,
      "_continuation": 8756,
      "holders": 8757,
      "_Pact.": 8758,
      "_deadlines": 8759,
      "_fifth": 8760,
      "_teleph": 8761,
      "_Petitions": 8762,
      "_accurate": 8763,
      "_lobby": 8764,
      "sist": 8765,
      "_bid": 8766,
      "et.": 8767,
      "illing": 8768,
      "_exac": 8769,
      "_adj": 8770,
      "_requiring": 8771,
      "_affirm": 8772,
      "_1994": 8773,
      "_achievements": 8774,
      "_lift": 8775,
      "_tabling": 8776,
      "irac": 8777,
      "_interpreted": 8778,
      "ikan": 8779,
      "_incidents": 8780,
      "_chemicals": 8781,
      "_silence": 8782,
      "_exacerb": 8783,
      "er'": 8784,
      "_fram": 8785,
      "erson": 8786,
      "_times.": 8787,
      "_OSCE": 8788,
      "_remote": 8789,
      "_roots": 8790,
      "_depth": 8791,
      "_him,": 8792,
      "_investigations": 8793,
      "-wing": 8794,
      "_witnessed": 8795,
      "_audiovisual": 8796,
      "_abortion": 8797,
      "_corporate": 8798,
      "_wholly": 8799,
      "_Maastricht": 8800,
      "_Objective": 8801,
      "26": 8802,
      "a's": 8803,
      "_Cau": 8804,
      "_dear": 8805,
      "_abroad": 8806,
      "_problematic": 8807,
      "_organic": 8808,
      "_Yesterday": 8809,
      "_reforms,": 8810,
      "_recognising": 8811,
      "_combine": 8812,
      "_aspects.": 8813,
      "_sentence": 8814,
      "_meantime,": 8815,
      "_sacrific": 8816,
      "-W": 8817,
      "anch": 8818,
      "_continent.": 8819,
      "_general.": 8820,
      "_domain": 8821,
      "_affairs.": 8822,
      "_preferred": 8823,
      "_artificial": 8824,
      "_unpre": 8825,
      "_Directorate": 8826,
      "_psych": 8827,
      "_platform": 8828,
      "_parliaments,": 8829,
      "_stated,": 8830,
[...]
