{
  "version": "1.0",
  "truncation": null,
  "padding": null,
  "added_tokens": [
    {
      "id": 0,
      "content": "<s>",
      "single_word": false,
      "lstrip": false,
      "rstrip": false,
      "normalized": false,
      "special": true
    },
    {
      "id": 1,
      "content": "<pad>",
      "single_word": false,
      "lstrip": false,
      "rstrip": false,
      "normalized": false,
      "special": true
    },
    {
      "id": 2,
      "content": "</s>",
      "single_word": false,
      "lstrip": false,
      "rstrip": false,
      "normalized": false,
      "special": true
    },
    {
      "id": 3,
      "content": "<unk>",
      "single_word": false,
      "lstrip": false,
      "rstrip": false,
      "normalized": false,
      "special": true
    }
  ],
  "normalizer": null,
  "pre_tokenizer": {
    "type": "Metaspace",
    "replacement": "_",
    "prepend_scheme": "always",
    "split": true
  },
  "post_processor": {
    "type": "TemplateProcessing",
    "single": [
      {
        "SpecialToken": {
          "id": "<s>",
          "type_id": 0
        }
      },
      {
        "Sequence": {
          "id": "A",
          "type_id": 0
        }
      },
      {
        "SpecialToken": {
          "id": "</s>",
          "type_id": 0
        }
      }
    ],
    "pair": [
      {
        "SpecialToken": {
          "id": "<s>",
          "type_id": 0
        }
      },
      {
        "Sequence": {
          "id": "A",
          "type_id": 0
        }
      },
      {
        "SpecialToken": {
          "id": "</s>",
          "type_id": 0
        }
      },
      {
        "Sequence": {
          "id": "B",
          "type_id": 1
        }
      },
      {
        "SpecialToken": {
          "id": "</s>",
          "type_id": 1
        }
      }
    ],
    "special_tokens": {
      "</s>": {
        "id": "</s>",
        "ids": [
          2
        ],
        "tokens": [
          "</s>"
        ]
      },
      "<s>": {
        "id": "<s>",
        "ids": [
          0
        ],
        "tokens": [
          "<s>"
        ]
      }
    }
  },
  "decoder": {
    "type": "Metaspace",
    "replacement": "_",
    "prepend_scheme": "always",
    "split": true
  },
  "model": {
    "type": "BPE",
    "dropout": null,
    "unk_token": "<unk>",
    "continuing_subword_prefix": null,
    "end_of_word_suffix": null,
    "fuse_unk": false,
    "byte_fallback": false,
    "ignore_merges": false,
    "vocab": {
      "<s>": 0,
      "<pad>": 1,
      "</s>": 2,
      "<unk>": 3,
      "!": 4,
      "\"": 5,
      "$": 6,
      "%": 7,
      "&": 8,
      "'": 9,
      "(": 10,
      ")": 11,
      ",": 12,
      "-": 13,
      ".": 14,
      "/": 15,
      "0": 16,
      "1": 17,
      "2": 18,
      "3": 19,
      "4": 20,
      "5": 21,
      "6": 22,
      "7": 23,
      "8": 24,
      "9": 25,
      ":": 26,
      ";": 27,
      "?": 28,
      "A": 29,
      "B": 30,
      "C": 31,
      "D": 32,
      "E": 33,
      "F": 34,
      "G": 35,
      "H": 36,
      "I": 37,
      "J": 38,
      "K": 39,
      "L": 40,
      "M": 41,
      "N": 42,
      "O": 43,
      "P": 44,
      "Q": 45,
      "R": 46,
      "S": 47,
      "T": 48,
      "U": 49,
      "V": 50,
      "W": 51,
      "X": 52,
      "Y": 53,
      "Z": 54,
      "[": 55,
      "]": 56,
      "_": 57,
      "a": 58,
      "b": 59,
      "c": 60,
      "d": 61,
      "e": 62,
      "f": 63,
      "g": 64,
      "h": 65,
      "i": 66,
      "j": 67,
      "k": 68,
      "l": 69,
      "m": 70,
      "n": 71,
      "o": 72,
      "p": 73,
      "q": 74,
      "r": 75,
      "s": 76,
      "t": 77,
      "u": 78,
      "v": 79,
      "w": 80,
      "x": 81,
      "y": 82,
      "z": 83,
      "¢": 84,
      "£": 85,
      "«": 86,
      "¶": 87,
      "»": 88,
      "À": 89,
      "Â": 90,
      "Ã": 91,
      "Å": 92,
      "Ç": 93,
      "É": 94,
      "à": 95,
      "â": 96,
      "ç": 97,
      "è": 98,
      "é": 99,
      "ê": 100,
      "î": 101,
      "ï": 102,
      "ô": 103,
      "ù": 104,
      "û": 105,
      "ˆ": 106,
      "–": 107,
      "“": 108,
      "€": 109,
      "™": 110,
      "_d": 111,
      "es": 112,
      "_l": 113,
      "en": 114,
      "on": 115,
      "_p": 116,
      "_a": 117,
      "_de": 118,
      "_s": 119,
      "_c": 120,
      "er": 121,
      "an": 122,
      "ur": 123,
      "ai": 124,
      "qu": 125,
      "re": 126,
      "ent": 127,
      "ti": 128,
      "is": 129,
      "_m": 130,
      "ar": 131,
      "in": 132,
      "et": 133,
      "ou": 134,
      "_la": 135,
      "_qu": 136,
      "un": 137,
      "te": 138,
      "le": 139,
      "or": 140,
      "_le": 141,
      "our": 142,
      "il": 143,
      "_n": 144,
      "it": 145,
      "_à": 146,
      "_f": 147,
      "_t": 148,
      "ré": 149,
      "_et": 150,
      "_des": 151,
      "_l'": 152,
      "_les": 153,
      "om": 154,
      "_au": 155,
      "tion": 156,
      "_un": 157,
      "ment": 158,
      "_d'": 159,
      "_en": 160,
      "el": 161,
      "_v": 162,
      "ro": 163,
      "ce": 164,
      "ont": 165,
      "as": 166,
      "us": 167,
      "_L": 168,
      "ait": 169,
      "ant": 170,
      "al": 171,
      "ri": 172,
      "_é": 173,
      "_dé": 174,
      "li": 175,
      "ra": 176,
      "ans": 177,
      "ais": 178,
      "est": 179,
      "di": 180,
      "_par": 181,
      "_j": 182,
      "_que": 183,
      "ne": 184,
      "_b": 185,
      "at": 186,
      "_av": 187,
      "ir": 188,
      "té": 189,
      "eu": 190,
      "ation": 191,
      "_pour": 192,
      "_du": 193,
      "ag": 194,
      "si": 195,
      "_in": 196,
      "_re": 197,
      "_M": 198,
      "_C": 199,
      "me": 200,
      "res": 201,
      "_dans": 202,
      "ons": 203,
      "ec": 204,
      "_S": 205,
      "au": 206,
      "_pas": 207,
      "que": 208,
      "_qui": 209,
      "_g": 210,
      "_pro": 211,
      "ci": 212,
      "_com": 213,
      "_ré": 214,
      "ée": 215,
      "_pl": 216,
      "ch": 217,
      "és": 218,
      "_sur": 219,
      "_ch": 220,
      "and": 221,
      "ol": 222,
      "ouv": 223,
      "se": 224,
      "ain": 225,
      "ous": 226,
      "_une": 227,
      "end": 228,
      "_r": 229,
      "_con": 230,
      "ers": 231,
      "ff": 232,
      "_an": 233,
      "tre": 234,
      "_\"": 235,
      "ie": 236,
      "_D": 237,
      "ès": 238,
      "_pré": 239,
      "_se": 240,
      "elle": 241,
      "les": 242,
      "pp": 243,
      "am": 244,
      "_qu'": 245,
      "_e": 246,
      "ac": 247,
      "urs": 248,
      "_A": 249,
      "ois": 250,
      "pr": 251,
      "_B": 252,
      "ab": 253,
      "_il": 254,
      "_n'": 255,
      "_di": 256,
      "_est": 257,
      "ve": 258,
      "vi": 259,
      "mp": 260,
      "ère": 261,
      "ter": 262,
      "_plus": 263,
      "_N": 264,
      "aire": 265,
      "oc": 266,
      "ui": 267,
      "aient": 268,
      "_I": 269,
      "_P": 270,
      "_son": 271,
      "_h": 272,
      "de": 273,
      "_Le": 274,
      "_1": 275,
      "_ont": 276,
      "oi": 277,
      "os": 278,
      "ité": 279,
      "_2": 280,
      "_d'un": 281,
      "_F": 282,
      "_T": 283,
      "oir": 284,
      "s.": 285,
      "ue": 286,
      "s,": 287,
      "_ne": 288,
      "ces": 289,
      "tes": 290,
      "_été": 291,
      "né": 292,
      "éri": 293,
      "ort": 294,
      "_déc": 295,
      "ence": 296,
      "_si": 297,
      "_ce": 298,
      "_La": 299,
      "_o": 300,
      "bre": 301,
      "ni": 302,
      "_ac": 303,
      "_E": 304,
      "ale": 305,
      "ours": 306,
      "_ét": 307,
      "_»": 308,
      "uis": 309,
      "_«": 310,
      "ay": 311,
      "ens": 312,
      "ge": 313,
      "ux": 314,
      "_ser": 315,
      "_avec": 316,
      "av": 317,
      "ul": 318,
      "_li": 319,
      "_R": 320,
      "ion": 321,
      "_s'": 322,
      "_tr": 323,
      "ure": 324,
      "ations": 325,
      "_Les": 326,
      "ance": 327,
      "_aux": 328,
      "_je": 329,
      "_G": 330,
      "ét": 331,
      "_sont": 332,
      "_tou": 333,
      "près": 334,
      "_al": 335,
      "fi": 336,
      "lé": 337,
      "ati": 338,
      "_pr": 339,
      "_cont": 340,
      "tat": 341,
      "ette": 342,
      "lar": 343,
      "es,": 344,
      "_po": 345,
      "qué": 346,
      "_Il": 347,
      "_qu'il": 348,
      "00": 349,
      "_comm": 350,
      "_J": 351,
      "ad": 352,
      "mi": 353,
      "og": 354,
      "\",": 355,
      "ta": 356,
      "tr": 357,
      "_mil": 358,
      "for": 359,
      "oin": 360,
      "_ex": 361,
      "_mon": 362,
      "_nous": 363,
      "_vi": 364,
      "pé": 365,
      "_pay": 366,
      "_ses": 367,
      "par": 368,
      "être": 369,
      "ors": 370,
      "eux": 371,
      "oy": 372,
      "_avait": 373,
      "ouver": 374,
      "_ra": 375,
      "ien": 376,
      "onn": 377,
      "ques": 378,
      "entre": 379,
      "dent": 380,
      "ér": 381,
      "ise": 382,
      "_mais": 383,
      "ille": 384,
      "_fr": 385,
      "age": 386,
      "_i": 387,
      "_ou": 388,
      "tu": 389,
      "ub": 390,
      "teur": 391,
      "_fait": 392,
      "elles": 393,
      "ction": 394,
      "_per": 395,
      "_sa": 396,
      "_déclar": 397,
      "_app": 398,
      "ord": 399,
      "du": 400,
      "édi": 401,
      "_am": 402,
      "_cons": 403,
      "_tra": 404,
      "_aut": 405,
      "_L'": 406,
      "sion": 407,
      "_inter": 408,
      "ic": 409,
      "t-": 410,
      "_gr": 411,
      "_d'une": 412,
      "_déclaré": 413,
      "_O": 414,
      "_y": 415,
      "cé": 416,
      "dé": 417,
      "mes": 418,
      "mand": 419,
      "_dis": 420,
      "_deux": 421,
      "_me": 422,
      "_nouv": 423,
      "_après": 424,
      "ents": 425,
      "ine": 426,
      "_tro": 427,
      "nement": 428,
      "_M.": 429,
      "_at": 430,
      "_so": 431,
      "oup": 432,
      "tement": 433,
      "_fin": 434,
      "_elle": 435,
      "jet": 436,
      "ut": 437,
      "ess": 438,
      "_cette": 439,
      "aine": 440,
      "_U": 441,
      "née": 442,
      "_pers": 443,
      "alis": 444,
      "_parti": 445,
      "_pass": 446,
      "able": 447,
      "'est": 448,
      "_4": 449,
      "ig": 450,
      "puis": 451,
      "_su": 452,
      "ard": 453,
      "ill": 454,
      "_dire": 455,
      "_»,": 456,
      "_poli": 457,
      "ubli": 458,
      "_H": 459,
      "_K": 460,
      "_te": 461,
      "_res": 462,
      "ace": 463,
      "eau": 464,
      "sent": 465,
      "ème": 466,
      "_der": 467,
      "ert": 468,
      "ang": 469,
      "_jour": 470,
      "_che": 471,
      "endre": 472,
      "_Fr": 473,
      "_(": 474,
      "e.": 475,
      "mbre": 476,
      "vis": 477,
      "éné": 478,
      "teurs": 479,
      "_leur": 480,
      "rim": 481,
      "_rec": 482,
      "_3": 483,
      "ble": 484,
      "_lui": 485,
      "_no": 486,
      "_faire": 487,
      "_20": 488,
      "_était": 489,
      "_milli": 490,
      "éc": 491,
      "ond": 492,
      "_peu": 493,
      "_dev": 494,
      "ail": 495,
      "ains": 496,
      "éric": 497,
      "tats": 498,
      "form": 499,
      "oins": 500,
      "_derni": 501,
      "ex": 502,
      "met": 503,
      "rait": 504,
      "um": 505,
      "_por": 506,
      "aires": 507,
      "tin": 508,
      "tique": 509,
      "nis": 510,
      "ss": 511,
      "Ã¢": 512,
      "ées": 513,
      "_ar": 514,
      "_ma": 515,
      "riv": 516,
      "_comme": 517,
      "ap": 518,
      "cer": 519,
      "ique": 520,
      "_pre": 521,
      "_depuis": 522,
      "ist": 523,
      "_l'a": 524,
      "ants": 525,
      "_éc": 526,
      "ages": 527,
      "_indi": 528,
      "_servi": 529,
      "_exp": 530,
      "eur": 531,
      "ême": 532,
      "_ces": 533,
      "_comp": 534,
      "_améric": 535,
      "_premi": 536,
      "\".": 537,
      "er,": 538,
      "_nom": 539,
      "ités": 540,
      "_for": 541,
      "_té": 542,
      "_bien": 543,
      "sident": 544,
      "_trois": 545,
      "_201": 546,
      "_entre": 547,
      "ici": 548,
      "nes": 549,
      "_dro": 550,
      "_lors": 551,
      "_cours": 552,
      "_médi": 553,
      "lement": 554,
      "eudi": 555,
      "_acc": 556,
      "_être": 557,
      "e,": 558,
      "mé": 559,
      "_sec": 560,
      "tions": 561,
      "els": 562,
      "_dép": 563,
      "_jus": 564,
      "_jeudi": 565,
      "_Mais": 566,
      "_gouver": 567,
      "_tout": 568,
      "_imp": 569,
      "_personn": 570,
      "-t-": 571,
      "_on": 572,
      "he": 573,
      "mb": 574,
      "ser": 575,
      "ssi": 576,
      "tent": 577,
      "ves": 578,
      "_ad": 579,
      "_demand": 580,
      "qu'": 581,
      "tif": 582,
      "_mois": 583,
      "arm": 584,
      "_l'A": 585,
      "_l'an": 586,
      "ments": 587,
      "_j'": 588,
      "_projet": 589,
      "_n'a": 590,
      "_ob": 591,
      "_grand": 592,
      "ement": 593,
      "jours": 594,
      "ler": 595,
      "ts": 596,
      "tant": 597,
      "ué": 598,
      "enir": 599,
      "_publi": 600,
      "_sou": 601,
      "_cré": 602,
      "_leurs": 603,
      "_aussi": 604,
      "elon": 605,
      "aux": 606,
      "_ren": 607,
      "acc": 608,
      "_nombre": 609,
      "_gouvernement": 610,
      "mis": 611,
      "oo": 612,
      "ow": 613,
      "ég": 614,
      "es.": 615,
      "_cli": 616,
      "_col": 617,
      "er.": 618,
      "qui": 619,
      "_mar": 620,
      "_fer": 621,
      "_ju": 622,
      "_avant": 623,
      "_sem": 624,
      "_eff": 625,
      "_n'est": 626,
      "_toujours": 627,
      "_Je": 628,
      "_W": 629,
      "lis": 630,
      "non": 631,
      "ob": 632,
      "port": 633,
      "t,": 634,
      "_don": 635,
      "_dit": 636,
      "_car": 637,
      "_cour": 638,
      "ante": 639,
      "une": 640,
      "_l'in": 641,
      "mpl": 642,
      "_où": 643,
      "_resp": 644,
      "-U": 645,
      "SA": 646,
      "_5": 647,
      "a,": 648,
      "aus": 649,
      "lè": 650,
      "ph": 651,
      "tres": 652,
      "ven": 653,
      "ences": 654,
      "_c'est": 655,
      "_cert": 656,
      "tis": 657,
      "omb": 658,
      "omp": 659,
      "ela": 660,
      "_vis": 661,
      "ass": 662,
      "_br": 663,
      "_avoir": 664,
      "_prog": 665,
      "_rest": 666,
      "_ans": 667,
      "_diff": 668,
      "ocat": 669,
      "_En": 670,
      "alement": 671,
      "_contr": 672,
      "_contre": 673,
      "_rapp": 674,
      "_frais": 675,
      "_trav": 676,
      "tats-U": 677,
      "_indiqué": 678,
      "tats-Unis": 679,
      "_V": 680,
      "_É": 681,
      "op": 682,
      "ot": 683,
      "vé": 684,
      "ys": 685,
      "éré": 686,
      "_pos": 687,
      "_sui": 688,
      "urg": 689,
      "_min": 690,
      "its": 691,
      "_d'a": 692,
      "_vendre": 693,
      "endant": 694,
      "_président": 695,
      "nées": 696,
      "_commun": 697,
      "_direc": 698,
      "_millions": 699,
      "gue": 700,
      "ner": 701,
      "on,": 702,
      "_pe": 703,
      "ani": 704,
      "tiv": 705,
      "tier": 706,
      "iss": 707,
      "_met": 708,
      "_même": 709,
      "te-": 710,
      "_ter": 711,
      "_l'av": 712,
      "cep": 713,
      "_prop": 714,
      "_Pour": 715,
      "_trans": 716,
      "_police": 717,
      "_vendredi": 718,
      "ate": 719,
      "mme": 720,
      "o,": 721,
      "vre": 722,
      "vent": 723,
      "enne": 724,
      "ong": 725,
      "_ag": 726,
      "_aff": 727,
      "_ass": 728,
      "_sc": 729,
      "_sol": 730,
      "_mes": 731,
      "ing": 732,
      "insi": 733,
      "oul": 734,
      "lec": 735,
      "itu": 736,
      "_fois": 737,
      "_trim": 738,
      "ali": 739,
      "_dépar": 740,
      "_ins": 741,
      "_Ch": 742,
      "sement": 743,
      "_Une": 744,
      "_chef": 745,
      "_expli": 746,
      "_télé": 747,
      "-t-il": 748,
      "_respons": 749,
      "_travail": 750,
      "_trimest": 751,
      "_$": 752,
      "gne": 753,
      "iv": 754,
      "jou": 755,
      "uer": 756,
      "uti": 757,
      "uit": 758,
      "éd": 759,
      "_loi": 760,
      "_ph": 761,
      "_st": 762,
      "_can": 763,
      "_cas": 764,
      "tiques": 765,
      "_m'": 766,
      "_main": 767,
      "_d'être": 768,
      "_enc": 769,
      "_vo": 770,
      "_vol": 771,
      "_vie": 772,
      "_ég": 773,
      "_déb": 774,
      "_dév": 775,
      "_proch": 776,
      "aines": 777,
      "_qu'elle": 778,
      "_ils": 779,
      "_Ne": 780,
      "_NSA": 781,
      "cess": 782,
      "_service": 783,
      "_personnes": 784,
      "_contrô": 785,
      "_Y": 786,
      "_ti": 787,
      "ax": 788,
      "ions": 789,
      "lo": 790,
      "lle": 791,
      "min": 792,
      "raient": 793,
      "été": 794,
      "ïne": 795,
      "ôte": 796,
      "enam": 797,
      "_sans": 798,
      "_selon": 799,
      "_mont": 800,
      "_quat": 801,
      "te.": 802,
      "org": 803,
      "ils": 804,
      "itta": 805,
      "_tous": 806,
      "_d'in": 807,
      "ration": 808,
      "_bais": 809,
      "_rep": 810,
      "_ret": 811,
      "_Si": 812,
      "_géné": 813,
      "_produ": 814,
      "_rég": 815,
      "_place": 816,
      "_conf": 817,
      "_contin": 818,
      "_Ditta": 819,
      "_préc": 820,
      "_présent": 821,
      "_Tr": 822,
      "_sig": 823,
      "_off": 824,
      "_lib": 825,
      "_Renam": 826,
      "fic": 827,
      "_payer": 828,
      "_soit": 829,
      "_passag": 830,
      "vision": 831,
      "_également": 832,
      "_es": 833,
      "az": 834,
      "are": 835,
      "fois": 836,
      "ies": 837,
      "ième": 838,
      "jà": 839,
      "nalis": 840,
      "ole": 841,
      "pec": 842,
      "uc": 843,
      "â€": 844,
      "_pai": 845,
      "_aur": 846,
      "_ainsi": 847,
      "_cin": 848,
      "anci": 849,
      "_né": 850,
      "itan": 851,
      "_fa": 852,
      "_tent": 853,
      "_tax": 854,
      "aison": 855,
      "_bag": 856,
      "_inc": 857,
      "_inform": 858,
      "_rel": 859,
      "_Com": 860,
      "_révé": 861,
      "che": 862,
      "ché": 863,
      "_annon": 864,
      "ieurs": 865,
      "_prév": 866,
      "mps": 867,
      "oca": 868,
      "oire": 869,
      "_200": 870,
      "gement": 871,
      "_lieu": 872,
      "_nouveau": 873,
      "_soci": 874,
      "_Fron": 875,
      "énéfi": 876,
      "_drogue": 877,
      "_l'année": 878,
      "_progra": 879,
      "_trimestre": 880,
      "-d": 881,
      "-m": 882,
      "_eu": 883,
      "cu": 884,
      "dy": 885,
      "id": 886,
      "lin": 887,
      "oû": 888,
      "opp": 889,
      "onne": 890,
      "_pres": 891,
      "_pouv": 892,
      "_sal": 893,
      "_coca": 894,
      "quê": 895,
      "istre": 896,
      "_moins": 897,
      "oute": 898,
      "_quel": 899,
      "tein": 900,
      "_vous": 901,
      "ussi": 902,
      "_déf": 903,
      "_déjà": 904,
      "_part": 905,
      "_pourrait": 906,
      "_retr": 907,
      "ée.": 908,
      "és.": 909,
      "_sep": 910,
      "_empl": 911,
      "_Nous": 912,
      "_In": 913,
      "_hom": 914,
      "_10": 915,
      "était": 916,
      "_monde": 917,
      "_permet": 918,
      "_autres": 919,
      "_compag": 920,
      "_américain": 921,
      "_jusqu'": 922,
      "organ": 923,
      "_?": 924,
      "_Q": 925,
      "_k": 926,
      "_urg": 927,
      "a.": 928,
      "dat": 929,
      "hi": 930,
      "ix": 931,
      "sence": 932,
      "uté": 933,
      "ver": 934,
      "ôt": 935,
      "_pra": 936,
      "_seu": 937,
      "iste": 938,
      "_mo": 939,
      "_mal": 940,
      "_va": 941,
      "_voul": 942,
      "_dés": 943,
      "_bles": 944,
      "_bénéfi": 945,
      "_Ce": 946,
      "_Cog": 947,
      "_compr": 948,
      "_chan": 949,
      "_char": 950,
      "olog": 951,
      "vement": 952,
      "vembre": 953,
      "_serait": 954,
      "_all": 955,
      "_pays": 956,
      "_novembre": 957,
      "_médias": 958,
      "_j'ai": 959,
      "_crém": 960,
      "_certains": 961,
      "_peti": 962,
      "_début": 963,
      "ôtel": 964,
      "_passagers": 965,
      "_bagages": 966,
      "_Frontier": 967,
      "_cocaïne": 968,
      "_Cogec": 969,
      "_6": 970,
      "aci": 971,
      "den": 972,
      "now": 973,
      "ore": 974,
      "opé": 975,
      "rer": 976,
      "tri": 977,
      "ud": 978,
      "ues": 979,
      "çon": 980,
      "ères": 981,
      "_dont": 982,
      "_loc": 983,
      "_puis": 984,
      "_aéri": 985,
      "_a-t-il": 986,
      "_ajou": 987,
      "_sous": 988,
      "_séc": 989,
      "_cl": 990,
      "_cor": 991,
      "_cro": 992,
      "reg": 993,
      "titu": 994,
      "_men": 995,
      "te,": 996,
      "_four": 997,
      "rés": 998,
      "_auprès": 999,
      "_d'e": 1000,
      "_d'au": 1001,
      "_voy": 1002,
      "ectif": 1003,
      "_Sain": 1004,
      "_Snow": 1005,
      "cip": 1006,
      "_rés": 1007,
      "_cha": 1008,
      "_conc": 1009,
      "_ans.": 1010,
      "_De": 1011,
      "veill": 1012,
      "_plusieurs": 1013,
      "_Par": 1014,
      "_The": 1015,
      "_action": 1016,
      "_étaient": 1017,
      "avoir": 1018,
      "_très": 1019,
      "_Go": 1020,
      "_alors": 1021,
      "_près": 1022,
      "_qu'ils": 1023,
      "000": 1024,
      "érence": 1025,
      "_appar": 1026,
      "_temps": 1027,
      "_premier": 1028,
      "mission": 1029,
      "_clients": 1030,
      "obil": 1031,
      "_affir": 1032,
      "utilis": 1033,
      "_société": 1034,
      "_jusqu'à": 1035,
      "organis": 1036,
      "_bless": 1037,
      "_sécur": 1038,
      "_Snowden": 1039,
      "23": 1040,
      "eurs": 1041,
      "eure": 1042,
      "ier": 1043,
      "mm": 1044,
      "nie": 1045,
      "oci": 1046,
      "rou": 1047,
      "tend": 1048,
      "vir": 1049,
      "éli": 1050,
      "_pri": 1051,
      "_sé": 1052,
      "_souv": 1053,
      "_soins": 1054,
      "_situ": 1055,
      "_cad": 1056,
      "_cap": 1057,
      "erc": 1058,
      "istes": 1059,
      "ardi": 1060,
      "_quand": 1061,
      "le.": 1062,
      "ilité": 1063,
      "_ni": 1064,
      "_non": 1065,
      "_enf": 1066,
      "ell": 1067,
      "_veu": 1068,
      "_ville": 1069,
      "use": 1070,
      "all": 1071,
      "alli": 1072,
      "ation,": 1073,
      "_reven": 1074,
      "_gra": 1075,
      "_prof": 1076,
      "seig": 1077,
      "_concer": 1078,
      "_année": 1079,
      "_Des": 1080,
      "amment": 1081,
      "_qu'un": 1082,
      "_heur": 1083,
      "_19": 1084,
      "_site": 1085,
      "_s'est": 1086,
      "_J'": 1087,
      "_group": 1088,
      "_disp": 1089,
      "_trop": 1090,
      "_partie": 1091,
      "exp": 1092,
      "_première": 1093,
      "_demande": 1094,
      "_semaine": 1095,
      "_rapport": 1096,
      "_quatre": 1097,
      "_programme": 1098,
      "_Cogeco": 1099,
      "_cadre": 1100,
      "_%": 1101,
      "_:": 1102,
      "avi": 1103,
      "ateurs": 1104,
      "dre": 1105,
      "gment": 1106,
      "ib": 1107,
      "lus": 1108,
      "mon": 1109,
      "rit": 1110,
      "ral": 1111,
      "th": 1112,
      "to": 1113,
      "tra": 1114,
      "tac": 1115,
      "ture": 1116,
      "éro": 1117,
      "_dur": 1118,
      "_lég": 1119,
      "_ab": 1120,
      "_sais": 1121,
      "_soi": 1122,
      "ern": 1123,
      "_mati": 1124,
      "_mise": 1125,
      "arb": 1126,
      "ins": 1127,
      "ettes": 1128,
      "_quit": 1129,
      "tembre": 1130,
      "lemand": 1131,
      "ork": 1132,
      "_l'é": 1133,
      "_d'acc": 1134,
      "elopp": 1135,
      "_dém": 1136,
      "aiss": 1137,
      "_beau": 1138,
      "agne": 1139,
      "agence": 1140,
      "_M23": 1141,
      "que,": 1142,
      "_gens": 1143,
      "_rép": 1144,
      "ollar": 1145,
      "_Dans": 1146,
      "_présence": 1147,
      "_Br": 1148,
      "_Bomb": 1149,
      "nies": 1150,
      "_Etats-Unis": 1151,
      "_allemand": 1152,
      "atif": 1153,
      "_Ils": 1154,
      "_commer": 1155,
      "parole": 1156,
      "_autor": 1157,
      "_On": 1158,
      "_atta": 1159,
      "_financi": 1160,
      "_porte-": 1161,
      "_services": 1162,
      "armaci": 1163,
      "_public": 1164,
      "_collec": 1165,
      "_ministre": 1166,
      "_directeur": 1167,
      "_soldat": 1168,
      "_expliqué": 1169,
      "_pharmaci": 1170,
      "_encore": 1171,
      "_développ": 1172,
      "_New": 1173,
      "_baisse": 1174,
      "_Renamo": 1175,
      "_ajouté": 1176,
      "ectifs": 1177,
      "_Goog": 1178,
      "_sécurité": 1179,
      "_Bombardi": 1180,
      "_porte-parole": 1181,
      ",5": 1182,
      "_8": 1183,
      "_ent": 1184,
      "_000": 1185,
      "adi": 1186,
      "com": 1187,
      "coup": 1188,
      "des": 1189,
      "gh": 1190,
      "gé": 1191,
      "im": 1192,
      "ich": 1193,
      "iers": 1194,
      "mer": 1195,
      "nant": 1196,
      "tamment": 1197,
      "val": 1198,
      "é,": 1199,
      "êt": 1200,
      "_dollar": 1201,
      "ennes": 1202,
      "_ple": 1203,
      "_pens": 1204,
      "_pomp": 1205,
      "_séri": 1206,
      "_spé": 1207,
      "_crim": 1208,
      "_cela": 1209,
      "_céré": 1210,
      "anç": 1211,
      "redi": 1212,
      "_mi": 1213,
      "ori": 1214,
      "_nation": 1215,
      "_fe": 1216,
      "_fond": 1217,
      "omobil": 1218,
      "_d'é": 1219,
      "_d'ess": 1220,
      "_enquê": 1221,
      "_vers": 1222,
      "ontré": 1223,
      "ash": 1224,
      "usine": 1225,
      "ales": 1226,
      "lig": 1227,
      "_bes": 1228,
      "_avons": 1229,
      "tés": 1230,
      "_Cette": 1231,
      "_C'est": 1232,
      "_prob": 1233,
      "_rend": 1234,
      "_ans,": 1235,
      "_\"L": 1236,
      "ack": 1237,
      "_An": 1238,
      "_n'y": 1239,
      "_décis": 1240,
      "_activ": 1241,
      "_».": 1242,
      "_ligne": 1243,
      "_miles": 1244,
      "_intern": 1245,
      "ications": 1246,
      "_nouvelle": 1247,
      "_attein": 1248,
      "_Un": 1249,
      "illet": 1250,
      "anger": 1251,
      "_recours": 1252,
      "_arriv": 1253,
      "_juge": 1254,
      "_États-Unis": 1255,
      "_contrôle": 1256,
      "_York": 1257,
      "_révél": 1258,
      "oût": 1259,
      "_septembre": 1260,
      "_urgences": 1261,
      "_bénéfice": 1262,
      "_prix": 1263,
      "ercredi": 1264,
      "_Google": 1265,
      "_crimin": 1266,
      "_cérémon": 1267,
      "_9": 1268,
      "_oc": 1269,
      "d'": 1270,
      "dui": 1271,
      "ear": 1272,
      "imp": 1273,
      "jour": 1274,
      "land": 1275,
      "nu": 1276,
      "ose": 1277,
      "ry": 1278,
      "rent": 1279,
      "ten": 1280,
      "tème": 1281,
      "vo": 1282,
      "vit": 1283,
      "vers": 1284,
      "ète": 1285,
      "é.": 1286,
      "_long": 1287,
      "ense": 1288,
      "onte": 1289,
      "_pendant": 1290,
      "_palli": 1291,
      "_ai": 1292,
      "_ach": 1293,
      "_sor": 1294,
      "_soir": 1295,
      "_suis": 1296,
      "_sys": 1297,
      "_caus": 1298,
      "anc": 1299,
      "quant": 1300,
      "re.": 1301,
      "ente": 1302,
      "tie": 1303,
      "_moy": 1304,
      "ourg": 1305,
      "ites": 1306,
      "_fus": 1307,
      "résent": 1308,
      "_l'E": 1309,
      "_l'ar": 1310,
      "_l'agence": 1311,
      "_autre": 1312,
      "_augment": 1313,
      "asse": 1314,
      "al,": 1315,
      "alité": 1316,
      "rib": 1317,
      "lier": 1318,
      "sions": 1319,
      "_Mar": 1320,
      "_CG": 1321,
      "cien": 1322,
      "_comb": 1323,
      "_réf": 1324,
      "ée,": 1325,
      "_surveill": 1326,
      "_chois": 1327,
      "_raison": 1328,
      "_cong": 1329,
      "_Davi": 1330,
      "ppel": 1331,
      "ables": 1332,
      "_n'ont": 1333,
      "_n'av": 1334,
      "_100": 1335,
      "_simp": 1336,
      "_Et": 1337,
      "_Elle": 1338,
      "_s'ag": 1339,
      "_Goo": 1340,
      "_pris": 1341,
      "_command": 1342,
      "_mondi": 1343,
      "ctions": 1344,
      "dép": 1345,
      "_sup": 1346,
      "_France": 1347,
      "_dernier": 1348,
      "_américaine": 1349,
      "_médic": 1350,
      "_import": 1351,
      "_obj": 1352,
      "_suite": 1353,
      "_mettre": 1354,
      "ingt": 1355,
      "_département": 1356,
      "_responsable": 1357,
      "_représent": 1358,
      "_retour": 1359,
      "_général": 1360,
      "_nécess": 1361,
      "_informations": 1362,
      "dyear": 1363,
      "_employ": 1364,
      "_voyage": 1365,
      "_résul": 1366,
      "viron": 1367,
      "tobre": 1368,
      "_beaucoup": 1369,
      "_pompiers": 1370,
      "_internation": 1371,
      "_palliatif": 1372,
      "_système": 1373,
      "_David": 1374,
      "_Goodyear": 1375,
      "..": 1376,
      "_7": 1377,
      "_eux": 1378,
      "_â€": 1379,
      "_utilis": 1380,
      "aur": 1381,
      "ade": 1382,
      "bourg": 1383,
      "cour": 1384,
      "carb": 1385,
      "ges": 1386,
      "gent": 1387,
      "hui": 1388,
      "lent": 1389,
      "man": 1390,
      "mais": 1391,
      "moi": 1392,
      "nage": 1393,
      "oit": 1394,
      "osi": 1395,
      "ode": 1396,
      "pit": 1397,
      "rai": 1398,
      "ris": 1399,
      "tur": 1400,
      "tenir": 1401,
      "ude": 1402,
      "Å“": 1403,
      "ène": 1404,
      "ège": 1405,
      "esp": 1406,
      "_là": 1407,
      "en,": 1408,
      "enn": 1409,
      "eny": 1410,
      "_sour": 1411,
      "_som": 1412,
      "_sus": 1413,
      "_cit": 1414,
      "_cam": 1415,
      "_cuis": 1416,
      "_coup": 1417,
      "anvi": 1418,
      "ances": 1419,
      "tiqu": 1420,
      "_mom": 1421,
      "_mani": 1422,
      "_mercredi": 1423,
      "ari": 1424,
      "orig": 1425,
      "itaires": 1426,
      "_fon": 1427,
      "_fam": 1428,
      "_test": 1429,
      "_tot": 1430,
      "_l'H": 1431,
      "_l'O": 1432,
      "_l'U": 1433,
      "_l'ai": 1434,
      "_l'acc": 1435,
      "_auc": 1436,
      "_au-d": 1437,
      "_ver": 1438,
      "roix": 1439,
      "ant,": 1440,
      "rière": 1441,
      "_éch": 1442,
      "aise": 1443,
      "_jam": 1444,
      "_janvi": 1445,
      "_bas": 1446,
      "_avions": 1447,
      "téri": 1448,
      "sid": 1449,
      "_repr": 1450,
      "_Montré": 1451,
      "_CS": 1452,
      "_Cela": 1453,
      "_Son": 1454,
      "_Scarb": 1455,
      "aut": 1456,
      "que.": 1457,
      "quement": 1458,
      "_gar": 1459,
      "_comment": 1460,
      "_chos": 1461,
      "andis": 1462,
      "_rê": 1463,
      "_précé": 1464,
      "ellement": 1465,
      "amb": 1466,
      "_Air": 1467,
      "ablis": 1468,
      "abilité": 1469,
      "_diri": 1470,
      "_Titan": 1471,
      "ative": 1472,
      "_prin": 1473,
      "truc": 1474,
      "_viol": 1475,
      "_automobil": 1476,
      "_nouvelles": 1477,
      "_politique": 1478,
      "ublic": 1479,
      "_journalis": 1480,
      "_recul": 1481,
      "_peuvent": 1482,
      "meture": 1483,
      "Ã¢ble": 1484,
      "_maî": 1485,
      "_député": 1486,
      "armée": 1487,
      "_renseig": 1488,
      "_fermeture": 1489,
      "_données": 1490,
      "phon": 1491,
      "_terme": 1492,
      "_transport": 1493,
      "_précis": 1494,
      "_Trans": 1495,
      "_paix": 1496,
      "_cinq": 1497,
      "_façon": 1498,
      "_annoncé": 1499,
      "_compagnie": 1500,
      "_blessés": 1501,
      "_J'ai": 1502,
      "_Brux": 1503,
      "_série": 1504,
      "_besoin": 1505,
      "_activités": 1506,
      "d'hui": 1507,
      "jourd'hui": 1508,
      "_surveillance": 1509,
      "_simplement": 1510,
      "_commandes": 1511,
      "_â€“": 1512,
      "_jamais": 1513,
      "_renseignement": 1514,
      "'était": 1515,
      "-D": 1516,
      "-de": 1517,
      "Croix": 1518,
      "In": 1519,
      "RS": 1520,
      "_À": 1521,
      "_ç": 1522,
      "_ri": 1523,
      "_ord": 1524,
      "_ess": 1525,
      "ah": 1526,
      "ateur": 1527,
      "ber": 1528,
      "bec": 1529,
      "cteurs": 1530,
      "dit": 1531,
      "hom": 1532,
      "ieu": 1533,
      "iqué": 1534,
      "ks": 1535,
      "lai": 1536,
      "lam": 1537,
      "mment": 1538,
      "o.": 1539,
      "off": 1540,
      "ps": 1541,
      "ront": 1542,
      "rès": 1543,
      "ôpit": 1544,
      "_dou": 1545,
      "_donn": 1546,
      "estion": 1547,
      "enu": 1548,
      "on.": 1549,
      "onom": 1550,
      "_pu": 1551,
      "_père": 1552,
      "_péri": 1553,
      "_pati": 1554,
      "_priv": 1555,
      "_sy": 1556,
      "_spec": 1557,
      "_cir": 1558,
      "anti": 1559,
      "uropé": 1560,
      "quelles": 1561,
      "time": 1562,
      "ission": 1563,
      "_moi": 1564,
      "_méd": 1565,
      "int": 1566,
      "ough": 1567,
      "ormais": 1568,
      "orough": 1569,
      "illes": 1570,
      "_net": 1571,
      "_fou": 1572,
      "rée": 1573,
      "_l'éc": 1574,
      "_l'usine": 1575,
      "_d'en": 1576,
      "_d'ad": 1577,
      "_enreg": 1578,
      "rop": 1579,
      "cev": 1580,
      "usé": 1581,
      "ant.": 1582,
      "ants.": 1583,
      "rir": 1584,
      "rier": 1585,
      "dic": 1586,
      "_parce": 1587,
      "_parcour": 1588,
      "ney": 1589,
      "_bo": 1590,
      "_avaient": 1591,
      "_avocat": 1592,
      "euf": 1593,
      "ager": 1594,
      "sible": 1595,
      "_reg": 1596,
      "_Ces": 1597,
      "_Can": 1598,
      "_Cong": 1599,
      "ectu": 1600,
      "_Sur": 1601,
      "_Selon": 1602,
      "aud": 1603,
      "_rése": 1604,
      "_réalis": 1605,
      "_plani": 1606,
      "cher": 1607,
      "_cher": 1608,
      "_Après": 1609,
      "_dix": 1610,
      "vient": 1611,
      "_15": 1612,
      "oix": 1613,
      "_25": 1614,
      "_accep": 1615,
      "_sera": 1616,
      "_seront": 1617,
      "_Russi": 1618,
      "_s'a": 1619,
      "_trouv": 1620,
      "_trouver": 1621,
      "_prêt": 1622,
      "_vidé": 1623,
      "_imm": 1624,
      "_perdu": 1625,
      "_appare": 1626,
      "_memb": 1627,
      "_personne": 1628,
      "_supp": 1629,
      "_direction": 1630,
      "_tel": 1631,
      "_tech": 1632,
      "_notamment": 1633,
      "_milliard": 1634,
      "_devant": 1635,
      "_devrait": 1636,
      "_dernière": 1637,
      "_maj": 1638,
      "_écou": 1639,
      "_droit": 1640,
      "_impos": 1641,
      "vestis": 1642,
      "_demandé": 1643,
      "uébec": 1644,
      "_renfor": 1645,
      "_nombreux": 1646,
      "_Wash": 1647,
      "_donc": 1648,
      "_visant": 1649,
      "_rester": 1650,
      "_communications": 1651,
      "_communiqué": 1652,
      "te-Croix": 1653,
      "_téléphon": 1654,
      "_voit": 1655,
      "_offici": 1656,
      "â€™": 1657,
      "_pouvoir": 1658,
      "_quelques": 1659,
      "_Qu": 1660,
      "_kil": 1661,
      "_croiss": 1662,
      "_Sainte-Croix": 1663,
      "_affirmé": 1664,
      "_souvent": 1665,
      "_enfants": 1666,
      "ellois": 1667,
      "_concernant": 1668,
      "_matin": 1669,
      "_financière": 1670,
      "_soldats": 1671,
      "_développement": 1672,
      "_Bombardier": 1673,
      "_décision": 1674,
      "_cérémonie": 1675,
      "_octobre": 1676,
      "_CGT": 1677,
      "_mondiale": 1678,
      "dépend": 1679,
      "_objectifs": 1680,
      "_précédent": 1681,
      "_dirige": 1682,
      "_princip": 1683,
      "_journalistes": 1684,
      "_Transport": 1685,
      "-de-": 1686,
      "_médec": 1687,
      "_membres": 1688,
      "_Washingt": 1689,
      "),": 1690,
      ",8": 1691,
      "DC": 1692,
      "Il": 1693,
      "_is": 1694,
      "_ouver": 1695,
      "cès": 1696,
      "cul": 1697,
      "d$": 1698,
      "der": 1699,
      "fin": 1700,
      "hic": 1701,
      "ition": 1702,
      "mmes": 1703,
      "oz": 1704,
      "po": 1705,
      "sui": 1706,
      "ug": 1707,
      "ution": 1708,
      "vr": 1709,
      "État": 1710,
      "édé": 1711,
      "éhic": 1712,
      "_dom": 1713,
      "_date": 1714,
      "estiv": 1715,
      "endi": 1716,
      "_port": 1717,
      "_pét": 1718,
      "_ait": 1719,
      "_afin": 1720,
      "_savoir": 1721,
      "_ci": 1722,
      "_cô": 1723,
      "_centre": 1724,
      "_cents": 1725,
      "ures": 1726,
      "isney": 1727,
      "_ment": 1728,
      "_mour": 1729,
      "_mas": 1730,
      "_mère": 1731,
      "_mort": 1732,
      "le,": 1733,
      "oral": 1734,
      "illi": 1735,
      "_nos": 1736,
      "_fil": 1737,
      "_face": 1738,
      "_tab": 1739,
      "_tomb": 1740,
      "_l'h": 1741,
      "_l'au": 1742,
      "_l'ét": 1743,
      "_l'ex": 1744,
      "_l'armée": 1745,
      "_audi": 1746,
      "_aujourd'hui": 1747,
      "_d'E": 1748,
      "_d'ar": 1749,
      "_eng": 1750,
      "_environ": 1751,
      "el.": 1752,
      "_véc": 1753,
      "_véhic": 1754,
      "cembre": 1755,
      "uses": 1756,
      "alys": 1757,
      "_év": 1758,
      "_éle": 1759,
      "_équi": 1760,
      "_décembre": 1761,
      "lic": 1762,
      "_parfois": 1763,
      "atta": 1764,
      "tég": 1765,
      "_pourraient": 1766,
      "_recev": 1767,
      "_Maz": 1768,
      "_Monte": 1769,
      "_Md$": 1770,
      "_CÃ¢ble": 1771,
      "_St": 1772,
      "_gaz": 1773,
      "_comédi": 1774,
      "_réc": 1775,
      "andale": 1776,
      "sements": 1777,
      "_ris": 1778,
      "_conn": 1779,
      "_condu": 1780,
      "_années": 1781,
      "_analys": 1782,
      "_\"N": 1783,
      "_\"p": 1784,
      "_D'": 1785,
      "ama": 1786,
      "_Al": 1787,
      "_Am": 1788,
      "_Bow": 1789,
      "abli": 1790,
      "_division": 1791,
      "ocra": 1792,
      "_hab": 1793,
      "_hist": 1794,
      "_heure": 1795,
      "oires": 1796,
      "_décl": 1797,
      "_actu": 1798,
      "avocat": 1799,
      "ulaire": 1800,
      "_s'in": 1801,
      "_train": 1802,
      "_toute": 1803,
      "_allé": 1804,
      "atis": 1805,
      "_pop": 1806,
      "_commen": 1807,
      "_militaires": 1808,
      "formes": 1809,
      "_trafic": 1810,
      "_disc": 1811,
      "_nouvel": 1812,
      "_attend": 1813,
      "essus": 1814,
      "_33": 1815,
      "_témoi": 1816,
      "_troisième": 1817,
      "_2013": 1818,
      "_accord": 1819,
      "_adop": 1820,
      "_client": 1821,
      "quiét": 1822,
      "assur": 1823,
      "_britan": 1824,
      "_États": 1825,
      "_d'appel": 1826,
      "_directement": 1827,
      "_mesure": 1828,
      "_inst": 1829,
      "_télévision": 1830,
      "_responsables": 1831,
      "_canadi": 1832,
      "minist": 1833,
      "_produits": 1834,
      "_continuer": 1835,
      "_libéré": 1836,
      "fois,": 1837,
      "_aurait": 1838,
      "_tenté": 1839,
      "_taxes": 1840,
      "-même": 1841,
      "_presse": 1842,
      "_hommes": 1843,
      "_pratiques": 1844,
      "ôtel-D": 1845,
      "_fournis": 1846,
      "_d'autres": 1847,
      "_chaî": 1848,
      "_chaque": 1849,
      "_action,": 1850,
      "_veulent": 1851,
      "_199": 1852,
      "_groupe": 1853,
      "_soient": 1854,
      "_commerci": 1855,
      "_nationale": 1856,
      "_femme": 1857,
      "_cause": 1858,
      "_augmenté": 1859,
      "_cuisin": 1860,
      "_fonction": 1861,
      "_famille": 1862,
      "_Scarborough": 1863,
      "_choses": 1864,
      "ablissement": 1865,
      "_période": 1866,
      "_spectac": 1867,
      "_fouille": 1868,
      "_réseau": 1869,
      "_planific": 1870,
      "_Washington": 1871,
      "estival": 1872,
      "_pétro": 1873,
      "_véhicu": 1874,
      "_Mazang": 1875,
      "_Montebourg": 1876,
      "_conducteurs": 1877,
      "_Bowie": 1878,
      "_britanni": 1879,
      "ôtel-Dieu": 1880,
      "-p": 1881,
      "-il": 1882,
      "1,": 1883,
      "2,": 1884,
      "5,": 1885,
      "_Â": 1886,
      "aî": 1887,
      "bum": 1888,
      "ez": 1889,
      "gn": 1890,
      "gu": 1891,
      "ger": 1892,
      "gré": 1893,
      "iti": 1894,
      "ière": 1895,
      "ke": 1896,
      "kr": 1897,
      "la": 1898,
      "ma": 1899,
      "mise": 1900,
      "oh": 1901,
      "oil": 1902,
      "pagne": 1903,
      "rê": 1904,
      "rang": 1905,
      "up": 1906,
      "wit": 1907,
      "xe": 1908,
      "y,": 1909,
      "yri": 1910,
      "èle": 1911,
      "élè": 1912,
      "_lo": 1913,
      "_lan": 1914,
      "_lun": 1915,
      "_loin": 1916,
      "onau": 1917,
      "_pé": 1918,
      "_pan": 1919,
      "_sac": 1920,
      "_sens": 1921,
      "_cent": 1922,
      "_cri": 1923,
      "_celle": 1924,
      "_c'était": 1925,
      "eries": 1926,
      "erry": 1927,
      "quer": 1928,
      "quelle": 1929,
      "timent": 1930,
      "_mé": 1931,
      "_man": 1932,
      "_mis": 1933,
      "_mat": 1934,
      "_laquelle": 1935,
      "ilège": 1936,
      "_nuit": 1937,
      "_feu": 1938,
      "_tour": 1939,
      "_tant": 1940,
      "_tandis": 1941,
      "résident": 1942,
      "_l'en": 1943,
      "_l'État": 1944,
      "tion,": 1945,
      "tionn": 1946,
      "_d'esp": 1947,
      "_env": 1948,
      "_vend": 1949,
      "_vrai": 1950,
      "_Lar": 1951,
      "rig": 1952,
      "_él": 1953,
      "_ép": 1954,
      "_élec": 1955,
      "_dét": 1956,
      "_déci": 1957,
      "rac": 1958,
      "raéli": 1959,
      "aisons": 1960,
      "_jou": 1961,
      "_bi": 1962,
      "_bl": 1963,
      "_bar": 1964,
      "_bÃ¢": 1965,
      "atori": 1966,
      "ague": 1967,
      "_inf": 1968,
      "_inv": 1969,
      "_ref": 1970,
      "_Mme": 1971,
      "_Sp": 1972,
      "_procé": 1973,
      "cie": 1974,
      "_plain": 1975,
      "_chuté": 1976,
      "_changer": 1977,
      "_rou": 1978,
      "_confi": 1979,
      "_\",": 1980,
      "_\"C": 1981,
      "_\"Il": 1982,
      "_Del": 1983,
      "_Disney": 1984,
      "_préf": 1985,
      "_europé": 1986,
      "_Au": 1987,
      "pris": 1988,
      "_Ban": 1989,
      "_Beau": 1990,
      "_n'était": 1991,
      "ter,": 1992,
      "aire,": 1993,
      "ock": 1994,
      "_Plus": 1995,
      "_Public": 1996,
      "_haus": 1997,
      "_hôpit": 1998,
      "de,": 1999,
      "_Fin": 2000,
      "_Toute": 2001,
      "_seraient": 2002,
      "_lim": 2003,
      "_Re": 2004,
      "étais": 2005,
      "_toutes": 2006,
      "lément": 2007,
      "_pays.": 2008,
      "eux,": 2009,
      "éronau": 2010,
      "_consom": 2011,
      "_consul": 2012,
      "_interne": 2013,
      "_Om": 2014,
      "_deuxième": 2015,
      "_suc": 2016,
      "_sujet": 2017,
      "ard,": 2018,
      "_ress": 2019,
      "_chez": 2020,
      "_cheval": 2021,
      "_Franç": 2022,
      "_notre": 2023,
      "_peut": 2024,
      "_devraient": 2025,
      "_porte": 2026,
      "_forces": 2027,
      "_lorsque": 2028,
      "_justi": 2029,
      "_grands": 2030,
      "_marché": 2031,
      "_juillet": 2032,
      "_effectu": 2033,
      "_50": 2034,
      "_différ": 2035,
      "_poss": 2036,
      "_suiv": 2037,
      "_l'avocat": 2038,
      "_propos": 2039,
      "_agence": 2040,
      "_assur": 2041,
      "_scandale": 2042,
      "ings": 2043,
      "_explique": 2044,
      "ivers": 2045,
      "_contrôles": 2046,
      "_confir": 2047,
      "_libé": 2048,
      "_Renamo,": 2049,
      "_Commission": 2050,
      "_2008": 2051,
      "_trimestre,": 2052,
      "_pression": 2053,
      "_salle": 2054,
      "_compagnies": 2055,
      "_Québec": 2056,
      "_seul": 2057,
      "_seulement": 2058,
      "_désormais": 2059,
      "_charge": 2060,
      "_aériennes": 2061,
      "_Saint-": 2062,
      "_Paris": 2063,
      "ociation": 2064,
      "_veut": 2065,
      "_revenus": 2066,
      "_profes": 2067,
      "_heures": 2068,
      "éroport": 2069,
      "_quitter": 2070,
      "_pleine": 2071,
      "_d'essai": 2072,
      "_atteindre": 2073,
      "_criminels": 2074,
      "viter": 2075,
      "_achet": 2076,
      "_fusion": 2077,
      "_combat": 2078,
      "_référence": 2079,
      "_s'agit": 2080,
      "_résultat": 2081,
      "_palliatifs": 2082,
      "Å“u": 2083,
      "_moment": 2084,
      "_tests": 2085,
      "_l'Hôtel-Dieu": 2086,
      "_l'aide": 2087,
      "_au-dessus": 2088,
      "_janvier": 2089,
      "_automobilistes": 2090,
      "_Bruxelles": 2091,
      "_ça": 2092,
      "_syn": 2093,
      "_Congrès": 2094,
      "_communiqué.": 2095,
      "_croissance": 2096,
      "_israéli": 2097,
      "_côté": 2098,
      "_tabl": 2099,
      "_\"Nous": 2100,
      "_adopté": 2101,
      "_véhicules": 2102,
      "_hausse": 2103,
      "_Toutefois,": 2104,
      "éronautique": 2105,
      "-N": 2106,
      "-s": 2107,
      "0,": 2108,
      "AR": 2109,
      "P,": 2110,
      "SS": 2111,
      "_-": 2112,
      "_z": 2113,
      "_elles": 2114,
      "_organis": 2115,
      "_Å“u": 2116,
      "bles": 2117,
      "bama": 2118,
      "cont": 2119,
      "eff": 2120,
      "edy": 2121,
      "ho": 2122,
      "han": 2123,
      "hum": 2124,
      "lom": 2125,
      "main": 2126,
      "magne": 2127,
      "net": 2128,
      "nal": 2129,
      "o-": 2130,
      "oti": 2131,
      "ota": 2132,
      "pe": 2133,
      "pét": 2134,
      "plom": 2135,
      "r,": 2136,
      "rest": 2137,
      "roup": 2138,
      "sé": 2139,
      "sée": 2140,
      "tait": 2141,
      "ters": 2142,
      "uz": 2143,
      "uli": 2144,
      "vad": 2145,
      "wand": 2146,
      "way": 2147,
      "yth": 2148,
      "«l": 2149,
      "Ã«l": 2150,
      "çu": 2151,
      "èg": 2152,
      "ètent": 2153,
      "èrent": 2154,
      "_doc": 2155,
      "_doit": 2156,
      "_let": 2157,
      "_lais": 2158,
      "_laiss": 2159,
      "ens.": 2160,
      "ony": 2161,
      "_peur": 2162,
      "_ap": 2163,
      "_sant": 2164,
      "_ca": 2165,
      "_cet": 2166,
      "_cal": 2167,
      "_cib": 2168,
      "_coût": 2169,
      "_célè": 2170,
      "eront": 2171,
      "erie": 2172,
      "ur,": 2173,
      "urop": 2174,
      "re,": 2175,
      "reli": 2176,
      "tit": 2177,
      "tive": 2178,
      "_mun": 2179,
      "ince": 2180,
      "oud": 2181,
      "_quar": 2182,
      "_quoti": 2183,
      "unes": 2184,
      "tection": 2185,
      "ley": 2186,
      "leurs": 2187,
      "orte": 2188,
      "orat": 2189,
      "iles": 2190,
      "_noir": 2191,
      "_nord": 2192,
      "_nég": 2193,
      "_neuf": 2194,
      "itte": 2195,
      "_font": 2196,
      "_fac": 2197,
      "_fort": 2198,
      "_festival": 2199,
      "_ten": 2200,
      "_trib": 2201,
      "_l'am": 2202,
      "_l'ad": 2203,
      "_l'ess": 2204,
      "_l'organis": 2205,
      "_l'In": 2206,
      "_lesquelles": 2207,
      "_d'A": 2208,
      "_d'am": 2209,
      "_d'entre": 2210,
      "_d'ici": 2211,
      "_d'ob": 2212,
      "_d'imp": 2213,
      "_ve": 2214,
      "_vont": 2215,
      "_vois": 2216,
      "_voir": 2217,
      "roch": 2218,
      "ross": 2219,
      "ce,": 2220,
      "us.": 2221,
      "_Lond": 2222,
      "alie": 2223,
      "alités": 2224,
      "ric": 2225,
      "rième": 2226,
      "rak": 2227,
      "rale": 2228,
      "rations": 2229,
      "ais,": 2230,
      "aisant": 2231,
      "_parl": 2232,
      "_parler": 2233,
      "_jours": 2234,
      "_bou": 2235,
      "_bord": 2236,
      "_but": 2237,
      "_blo": 2238,
      "_billet": 2239,
      "attend": 2240,
      "_avion": 2241,
      "téres": 2242,
      "_poursui": 2243,
      "agé": 2244,
      "_indépend": 2245,
      "_reb": 2246,
      "_Man": 2247,
      "_Moz": 2248,
      "me.": 2249,
      "aul": 2250,
      "_proc": 2251,
      "_process": 2252,
      "_protection": 2253,
      "_compar": 2254,
      "_réser": 2255,
      "és,": 2256,
      "_choix": 2257,
      "ande": 2258,
      "olaire": 2259,
      "olland": 2260,
      "ouvement": 2261,
      "ain.": 2262,
      "ende": 2263,
      "endra": 2264,
      "_rang": 2265,
      "_règ": 2266,
      "_cond": 2267,
      "ffin": 2268,
      "_annu": 2269,
      "_Day": 2270,
      "elle,": 2271,
      "_qu'au": 2272,
      "_emb": 2273,
      "aces": 2274,
      "acité": 2275,
      "_Alle": 2276,
      "_Ber": 2277,
      "_Bar": 2278,
      "_Brig": 2279,
      "_diz": 2280,
      "_diplom": 2281,
      "veur": 2282,
      "vices": 2283,
      "èrement": 2284,
      "_No": 2285,
      "_Nic": 2286,
      "_Nex": 2287,
      "_hau": 2288,
      "_11": 2289,
      "_12": 2290,
      "_13": 2291,
      "_14": 2292,
      "_16": 2293,
      "_17": 2294,
      "_2,": 2295,
      "_FM": 2296,
      "_Tous": 2297,
      "tes,": 2298,
      "_décen": 2299,
      "ence.": 2300,
      "_six": 2301,
      "_opé": 2302,
      "nicom": 2303,
      "_Ed": 2304,
      "_Ex": 2305,
      "ale,": 2306,
      "_état": 2307,
      "gements": 2308,
      "uxellois": 2309,
      "avais": 2310,
      "ionnage": 2311,
      "_s'il": 2312,
      "ance.": 2313,
      "ancement": 2314,
      "_jeunes": 2315,
      "_Gl": 2316,
      "_Grou": 2317,
      "_Group": 2318,
      "étaire": 2319,
      "fié": 2320,
      "fier": 2321,
      "_contro": 2322,
      "quées": 2323,
      "_commission": 2324,
      "_Joh": 2325,
      "_pays,": 2326,
      "_front": 2327,
      "age,": 2328,
      "_perd": 2329,
      "_perpét": 2330,
      "_appel": 2331,
      "duit": 2332,
      "_conse": 2333,
      "_construc": 2334,
      "_autour": 2335,
      "_interro": 2336,
      "_Obama": 2337,
      "_disait": 2338,
      "_particip": 2339,
      "_Kerry": 2340,
      "_(C": 2341,
      "_30": 2342,
      "_lui,": 2343,
      "_derniers": 2344,
      "_dernier.": 2345,
      "_l'app": 2346,
      "_l'avi": 2347,
      "_bien,": 2348,
      "_2012": 2349,
      "icile": 2350,
      "_lorsqu'": 2351,
      "_accus": 2352,
      "_accès": 2353,
      "_secours": 2354,
      "_secteur": 2355,
      "_impli": 2356,
      "heure": 2357,
      "_obser": 2358,
      "_grande": 2359,
      "_soulig": 2360,
      "_semble": 2361,
      "_effort": 2362,
      "nonce": 2363,
      "_brut": 2364,
      "_bruxellois": 2365,
      "_diffic": 2366,
      "_d'ach": 2367,
      "_peine": 2368,
      "_vendredi,": 2369,
      "_scène": 2370,
      "_scolaire": 2371,
      "_départ": 2372,
      "_candi": 2373,
      "_m'a": 2374,
      "_dévoil": 2375,
      "_prochains": 2376,
      "_Nevad": 2377,
      "_Yah": 2378,
      "_quatrième": 2379,
      "_d'inform": 2380,
      "_d'investis": 2381,
      "_produit": 2382,
      "_production": 2383,
      "_région": 2384,
      "_confl": 2385,
      "_continu": 2386,
      "_Ditta,": 2387,
      "_esp": 2388,
      "_ciné": 2389,
      "_faveur": 2390,
      "_incendi": 2391,
      "_relations": 2392,
      "_Comedy": 2393,
      "_révélé": 2394,
      "_prévu": 2395,
      "_nouveaux": 2396,
      "lines": 2397,
      "_retrai": 2398,
      "_sept": 2399,
      "_keny": 2400,
      "_voulons": 2401,
      "_comprom": 2402,
      "_changement": 2403,
      "_allons": 2404,
      "_novembre,": 2405,
      "_novembre.": 2406,
      "_crématori": 2407,
      "_petit": 2408,
      "_club": 2409,
      "_mené": 2410,
      "_concur": 2411,
      "_situation": 2412,
      "_grave": 2413,
      "_heures,": 2414,
      "_démocra": 2415,
      "_répond": 2416,
      "_autoris": 2417,
      "_autorités": 2418,
      "_attaques": 2419,
      "_pharmaciens": 2420,
      "_ajouté.": 2421,
      "_dollars": 2422,
      "_spéci": 2423,
      "_\"Les": 2424,
      "_révélations": 2425,
      "voqué": 2426,
      "_moyen": 2427,
      "_l'argent": 2428,
      "_congol": 2429,
      "_super": 2430,
      "_supéri": 2431,
      "_médicale": 2432,
      "_international": 2433,
      "_citoy": 2434,
      "_campagne": 2435,
      "origine": 2436,
      "_total": 2437,
      "_aucun": 2438,
      "térieur": 2439,
      "_Montréal": 2440,
      "_CSeries": 2441,
      "_rêve": 2442,
      "ambique": 2443,
      "_maîtr": 2444,
      "_transports": 2445,
      "_rien": 2446,
      "_patients": 2447,
      "_boî": 2448,
      "_Canad": 2449,
      "_accepté": 2450,
      "_s'app": 2451,
      "_immédi": 2452,
      "_supplément": 2453,
      "_techn": 2454,
      "_voiture": 2455,
      "_kilom": 2456,
      "_mention": 2457,
      "_mourir": 2458,
      "_vécu": 2459,
      "_risque": 2460,
      "_analystes": 2461,
      "_commencé": 2462,
      "ministration": 2463,
      "_planificateurs": 2464,
      "_pétrole": 2465,
      "_logement": 2466,
      "_panne": 2467,
      "_matern": 2468,
      "_vraiment": 2469,
      "_décidé": 2470,
      "_Delta": 2471,
      "_Beaud": 2472,
      "_Publicis": 2473,
      "_succès": 2474,
      "_docu": 2475,
      "_calend": 2476,
      "_quotidi": 2477,
      "_tribun": 2478,
      "_Mozambique": 2479,
      "_processus": 2480,
      "_Brigitte": 2481,
      "_Next": 2482,
      "_Grouw": 2483,
      "_John": 2484,
      "_constructeur": 2485,
      "_souligné": 2486,
      "_Yahoo": 2487,
      "_crématorium": 2488,
      "%)": 2489,
      ",3": 2490,
      "-v": 2491,
      "-mi": 2492,
      "20": 2493,
      "3%": 2494,
      "4,": 2495,
      "MD": 2496,
      "_!": 2497,
      "_er": 2498,
      "aw": 2499,
      "atement": 2500,
      "be": 2501,
      "bilité": 2502,
      "buz": 2503,
      "cy": 2504,
      "cons": 2505,
      "cée": 2506,
      "cité": 2507,
      "dis": 2508,
      "din": 2509,
      "emp": 2510,
      "fest": 2511,
      "gence": 2512,
      "gées": 2513,
      "io": 2514,
      "ice": 2515,
      "iff": 2516,
      "ige": 2517,
      "iques": 2518,
      "ielles": 2519,
      "ki": 2520,
      "lat": 2521,
      "lés": 2522,
      "lème": 2523,
      "lys": 2524,
      "mat": 2525,
      "mes,": 2526,
      "mpris": 2527,
      "nor": 2528,
      "nir": 2529,
      "naire": 2530,
      "nes,": 2531,
      "pendant": 2532,
      "ron": 2533,
      "ran": 2534,
      "rant": 2535,
      "sse": 2536,
      "tabli": 2537,
      "u,": 2538,
      "u.": 2539,
      "uf": 2540,
      "vant": 2541,
      "ward": 2542,
      "yant": 2543,
      "ype": 2544,
      "Ã¶": 2545,
      "Ça": 2546,
      "_dî": 2547,
      "_dû": 2548,
      "_doi": 2549,
      "_lit": 2550,
      "en.": 2551,
      "ener": 2552,
      "enant": 2553,
      "_pil": 2554,
      "_a-t-": 2555,
      "_août": 2556,
      "_asse": 2557,
      "_devi": 2558,
      "_sil": 2559,
      "_sit": 2560,
      "_sau": 2561,
      "_stat": 2562,
      "_stu": 2563,
      "_cr": 2564,
      "_cel": 2565,
      "_cat": 2566,
      "_cend": 2567,
      "_ceux": 2568,
      "_civ": 2569,
      "anche": 2570,
      "uri": 2571,
      "aid": 2572,
      "quent": 2573,
      "quel": 2574,
      "ques,": 2575,
      "quels": 2576,
      "reur": 2577,
      "entes": 2578,
      "entôt": 2579,
      "entrée": 2580,
      "ties": 2581,
      "tien": 2582,
      "isl": 2583,
      "iser": 2584,
      "_mai": 2585,
      "_mus": 2586,
      "_mouvement": 2587,
      "arquement": 2588,
      "in,": 2589,
      "et,": 2590,
      "et.": 2591,
      "ets": 2592,
      "_question": 2593,
      "unér": 2594,
      "teaux": 2595,
      "oration": 2596,
      "orter": 2597,
      "ourse": 2598,
      "_nat": 2599,
      "ity": 2600,
      "itaire": 2601,
      "itale": 2602,
      "_fai": 2603,
      "_feux": 2604,
      "_fix": 2605,
      "_faut": 2606,
      "_faisant": 2607,
      "_funér": 2608,
      "_tôt": 2609,
      "rég": 2610,
      "rét": 2611,
      "_dess": 2612,
      "_l'on": 2613,
      "_l'un": 2614,
      "_l'al": 2615,
      "_l'exp": 2616,
      "_l'atta": 2617,
      "_l'heure": 2618,
      "_aupar": 2619,
      "_unique": 2620,
      "_d'at": 2621,
      "_d'ab": 2622,
      "_d'eux": 2623,
      "_d'ex": 2624,
      "_d'ass": 2625,
      "_d'avoir": 2626,
      "_d'utilis": 2627,
      "_envis": 2628,
      "_enseig": 2629,
      "el,": 2630,
      "_val": 2631,
      "rol": 2632,
      "roche": 2633,
      "cemment": 2634,
      "ce-p": 2635,
      "asi": 2636,
      "ashi": 2637,
      "ust": 2638,
      "use.": 2639,
      "_Lanc": 2640,
      "rictions": 2641,
      "_émer": 2642,
      "_délai": 2643,
      "lite": 2644,
      "liés": 2645,
      "aisir": 2646,
      "dition": 2647,
      "_parmi": 2648,
      "_parlement": 2649,
      "ats": 2650,
      "irit": 2651,
      "tées": 2652,
      "ation.": 2653,
      "ations.": 2654,
      "sivement": 2655,
      "_inde": 2656,
      "_inéd": 2657,
      "_inquiét": 2658,
      "_recher": 2659,
      "_reçu": 2660,
      "_M$": 2661,
      "_Ma": 2662,
      "_Mich": 2663,
      "_Centre": 2664,
      "_S&": 2665,
      "_S'": 2666,
      "_Stein": 2667,
      "_Sud": 2668,
      "_passe": 2669,
      "_qui,": 2670,
      "_gestion": 2671,
      "_prov": 2672,
      "ciens": 2673,
      "cident": 2674,
      "_résid": 2675,
      "_rétabli": 2676,
      "_récemment": 2677,
      "_plu": 2678,
      "_plut": 2679,
      "_plate": 2680,
      "_plaisir": 2681,
      "chent": 2682,
      "olu": 2683,
      "olé": 2684,
      "_rassur": 2685,
      "_consi": 2686,
      "_convi": 2687,
      "_ang": 2688,
      "_anni": 2689,
      "_ancien": 2690,
      "_anciens": 2691,
      "_\"J": 2692,
      "_Du": 2693,
      "_préoc": 2694,
      "elle.": 2695,
      "amen": 2696,
      "_emp": 2697,
      "acu": 2698,
      "acé": 2699,
      "_Ar": 2700,
      "_At": 2701,
      "_Aud": 2702,
      "prit": 2703,
      "prise": 2704,
      "_Bien": 2705,
      "_Bern": 2706,
      "_n'ai": 2707,
      "_dimin": 2708,
      "veau": 2709,
      "vions": 2710,
      "_plus,": 2711,
      "_Nations": 2712,
      "_Peu": 2713,
      "osé": 2714,
      "ité.": 2715,
      "_Freli": 2716,
      "_Twit": 2717,
      "ueilli": 2718,
      "uebuz": 2719,
      "_acqu": 2720,
      "_étant": 2721,
      "_établissement": 2722,
      "_étrang": 2723,
      "_serve": 2724,
      "avant.": 2725,
      "_livr": 2726,
      "_Rio": 2727,
      "_s'en": 2728,
      "_s'ét": 2729,
      "_trait": 2730,
      "_jeune": 2731,
      "près-mi": 2732,
      "_aller": 2733,
      "_album": 2734,
      "léolog": 2735,
      "atives": 2736,
      "_prom": 2737,
      "_prise": 2738,
      "_posi": 2739,
      "_potent": 2740,
      "_poteaux": 2741,
      "mique": 2742,
      "miens": 2743,
      "ogra": 2744,
      "trui": 2745,
      "_exige": 2746,
      "_via": 2747,
      "_viande": 2748,
      "_vice-p": 2749,
      "part": 2750,
      "_rap": 2751,
      "_rats": 2752,
      "_raffin": 2753,
      "ienne": 2754,
      "entreprise": 2755,
      "ise,": 2756,
      "_maison": 2757,
      "_frères": 2758,
      "_im": 2759,
      "_ici": 2760,
      "elles,": 2761,
      "_amb": 2762,
      "_conser": 2763,
      "_L'in": 2764,
      "_L'avocat": 2765,
      "sion.": 2766,
      "_intercep": 2767,
      "t-être": 2768,
      "_meille": 2769,
      "tements": 2770,
      "_elle-même": 2771,
      "aliste": 2772,
      "_particu": 2773,
      "_passé": 2774,
      "_passer": 2775,
      "_4,": 2776,
      "_43": 2777,
      "_suff": 2778,
      "arder": 2779,
      "_politiques": 2780,
      "_Keny": 2781,
      "_chev": 2782,
      "_(N": 2783,
      "_recour": 2784,
      "_reconn": 2785,
      "_38": 2786,
      "_milliers": 2787,
      "éricains": 2788,
      "former": 2789,
      "_dernier,": 2790,
      "rivois": 2791,
      "ape": 2792,
      "istère": 2793,
      "_l'aéroport": 2794,
      "_écrit": 2795,
      "icip": 2796,
      "_secour": 2797,
      "_secrét": 2798,
      "_dépl": 2799,
      "_jeudi.": 2800,
      "mbarquement": 2801,
      "tention": 2802,
      "qu'un": 2803,
      "_mois.": 2804,
      "_l'ARS": 2805,
      "_l'ancien": 2806,
      "_j'étais": 2807,
      "_projets": 2808,
      "_n'aur": 2809,
      "_obs": 2810,
      "_obtenir": 2811,
      "_souff": 2812,
      "_crédit": 2813,
      "aux.": 2814,
      "_colère": 2815,
      "_semain": 2816,
      "_donné": 2817,
      "_courant": 2818,
      "ante,": 2819,
      "_respec": 2820,
      "SA)": 2821,
      "lève": 2822,
      "lèmes": 2823,
      "_certaines": 2824,
      "_progres": 2825,
      "_resté": 2826,
      "_différence": 2827,
      "_Ville": 2828,
      "_poser": 2829,
      "_suivi": 2830,
      "_d'avions": 2831,
      "issait": 2832,
      "_l'avenir": 2833,
      "_propre": 2834,
      "_propres": 2835,
      "_Pourtant": 2836,
      "enne,": 2837,
      "_agences": 2838,
      "_associ": 2839,
      "_fois,": 2840,
      "alifor": 2841,
      "_chefs": 2842,
      "_travaille": 2843,
      "iver": 2844,
      "_cancer": 2845,
      "_cas,": 2846,
      "_mainten": 2847,
      "_voie": 2848,
      "_vie.": 2849,
      "_prochaine": 2850,
      "_NSA,": 2851,
      "cessoires": 2852,
      "_titre": 2853,
      "lore": 2854,
      "_baisser": 2855,
      "_repe": 2856,
      "_continue": 2857,
      "_signi": 2858,
      "_signalis": 2859,
      "_offre": 2860,
      "_estime": 2861,
      "_paiement": 2862,
      "_taxe": 2863,
      "_relation": 2864,
      "_annonce": 2865,
      "cup": 2866,
      "idée": 2867,
      "quête": 2868,
      "_quelqu'un": 2869,
      "ussions": 2870,
      "_défun": 2871,
      "_défense": 2872,
      "_partager": 2873,
      "_retrouver": 2874,
      "_emplois": 2875,
      "_Inc": 2876,
      "_Inter": 2877,
      "_homme": 2878,
      "_permettant": 2879,
      "_pratique": 2880,
      "_mod": 2881,
      "_modi": 2882,
      "_voulait": 2883,
      "_compris": 2884,
      "_comprend": 2885,
      "_changements": 2886,
      "ologie": 2887,
      "_crémation,": 2888,
      "_petite": 2889,
      "_petites": 2890,
      "trib": 2891,
      "_aérien": 2892,
      "_aérienne": 2893,
      "_corps": 2894,
      "_fournir": 2895,
      "_d'eff": 2896,
      "_d'empl": 2897,
      "_d'embarquement": 2898,
      "eure.": 2899,
      "_sévices": 2900,
      "_souvenir": 2901,
      "_caporal": 2902,
      "_capacité": 2903,
      "_nié": 2904,
      "_niveau": 2905,
      "_année,": 2906,
      "_groupes": 2907,
      "_dispon": 2908,
      "_disposi": 2909,
      "exprim": 2910,
      "ibles": 2911,
      "_durable": 2912,
      "_législ": 2913,
      "_saisies": 2914,
      "_l'épo": 2915,
      "_d'accord": 2916,
      "_commerce": 2917,
      "_attaque": 2918,
      "_collectif": 2919,
      "_Bombardier,": 2920,
      "_spéléolog": 2921,
      "_d'éviter": 2922,
      "_enquête": 2923,
      "_problème": 2924,
      "_problèmes": 2925,
      "_Ang": 2926,
      "_ligne.": 2927,
      "_arrivait": 2928,
      "_septembre,": 2929,
      "duire": 2930,
      "duite": 2931,
      "oseph": 2932,
      "voquant": 2933,
      "_longte": 2934,
      "_aimé": 2935,
      "_l'Elys": 2936,
      "assemb": 2937,
      "_choisir": 2938,
      "_importante": 2939,
      "_nécessaire": 2940,
      "_nécessaires": 2941,
      "_résultats": 2942,
      "...": 2943,
      "_utiliser": 2944,
      "ennent": 2945,
      "_souri": 2946,
      "_sommes": 2947,
      "_suspec": 2948,
      "_manière": 2949,
      "_manifest": 2950,
      "origin": 2951,
      "_l'accord": 2952,
      "_aucune": 2953,
      "_Montréal,": 2954,
      "_garanti": 2955,
      "_Airlines": 2956,
      "tructure": 2957,
      "_précisé": 2958,
      "berg": 2959,
      "_privilège": 2960,
      "_moi.": 2961,
      "_l'économ": 2962,
      "_d'admission": 2963,
      "_enregist": 2964,
      "_Russie,": 2965,
      "_appareils": 2966,
      "_milliards": 2967,
      "_écoutes": 2968,
      "_renforcer": 2969,
      "_précédente.": 2970,
      "_dirigeants": 2971,
      "_l'autre": 2972,
      "_d'Etat": 2973,
      "_équipé": 2974,
      "_Américains": 2975,
      "_habit": 2976,
      "_déclare": 2977,
      "_popul": 2978,
      "_discussions": 2979,
      "_333": 2980,
      "_témoig": 2981,
      "_chaînes": 2982,
      "_commercial": 2983,
      "_Scarborough,": 2984,
      "_Â¢": 2985,
      "aît": 2986,
      "kraine": 2987,
      "_lancé": 2988,
      "_lundi": 2989,
      "_pénalis": 2990,
      "_d'espionnage": 2991,
      "_détour": 2992,
      "_bientôt": 2993,
      "_baril": 2994,
      "_Spirit": 2995,
      "_procéd": 2996,
      "_Banque": 2997,
      "_ressens": 2998,
      "_syndic": 2999,
      "_tablettes": 3000,
      "ARDC": 3001,
      "_lettre": 3002,
      "_laisser": 3003,
      "_cibl": 3004,
      "_célèbre": 3005,
      "_municip": 3006,
      "oratoire": 3007,
      "_l'organisation": 3008,
      "_veille": 3009,
      "_Londres": 3010,
      "_poursuivre": 3011,
      "_dizaines": 3012,
      "_diplomati": 3013,
      "_hauteur": 3014,
      "_FMI": 3015,
      "_Edward": 3016,
      "_frontali": 3017,
      "_efforts": 3018,
      "_d'achat": 3019,
      "_d'investissement": 3020,
      "_cinéma": 3021,
      "_incendie": 3022,
      "_kenyans": 3023,
      "_concurrent": 3024,
      "_citoyens": 3025,
      "_calendrier": 3026,
      "_tribunal": 3027,
      "_Grouwels": 3028,
      "-vous": 3029,
      "_pilo": 3030,
      "_assez": 3031,
      "_celui": 3032,
      "_cendres": 3033,
      "_envisage": 3034,
      "_valoir": 3035,
      "_Lancashi": 3036,
      "_Steinberg": 3037,
      "_plutôt": 3038,
      "_annivers": 3039,
      "_diminué": 3040,
      "_Frelim": 3041,
      "uebuza": 3042,
      "près-midi": 3043,
      "_potenti": 3044,
      "_vice-président": 3045,
      "_signalisation": 3046,
      "_spéléologues": 3047,
      "'M": 3048,
      "-M": 3049,
      "-S": 3050,
      "-l": 3051,
      "-n": 3052,
      "-ce": 3053,
      "-up": 3054,
      ".g": 3055,
      "6%": 3056,
      "6,": 3057,
      "C)": 3058,
      "HP,": 3059,
      "Joseph": 3060,
      "MU": 3061,
      "PD": 3062,
      "PS": 3063,
      "PHP,": 3064,
      "SD": 3065,
      "YPD": 3066,
      "_Z": 3067,
      "_[": 3068,
      "_ro": 3069,
      "_ul": 3070,
      "_Ã¢": 3071,
      "_usine": 3072,
      "_Ça": 3073,
      "_origin": 3074,
      "aque": 3075,
      "aune": 3076,
      "bur": 3077,
      "cent": 3078,
      "cel": 3079,
      "cas": 3080,
      "cents": 3081,
      "ds": 3082,
      "dres": 3083,
      "eit": 3084,
      "fait": 3085,
      "feu": 3086,
      "fie": 3087,
      "face": 3088,
      "gi": 3089,
      "gen": 3090,
      "gée": 3091,
      "gie": 3092,
      "go,": 3093,
      "h,": 3094,
      "her": 3095,
      "hla": 3096,
      "ide": 3097,
      "imé": 3098,
      "je": 3099,
      "jus": 3100,
      "k,": 3101,
      "lon": 3102,
      "lais": 3103,
      "lot": 3104,
      "lack": 3105,
      "mn": 3106,
      "mun": 3107,
      "mation": 3108,
      "més": 3109,
      "mble": 3110,
      "moins": 3111,
      "n,": 3112,
      "nent": 3113,
      "nom": 3114,
      "nat": 3115,
      "nés": 3116,
      "naires": 3117,
      "ov": 3118,
      "oer": 3119,
      "oie": 3120,
      "r.": 3121,
      "romp": 3122,
      "roul": 3123,
      "rêt": 3124,
      "sant": 3125,
      "stitu": 3126,
      "t.": 3127,
      "tte": 3128,
      "tor": 3129,
      "tro": 3130,
      "tui": 3131,
      "tari": 3132,
      "ute": 3133,
      "ule": 3134,
      "uil": 3135,
      "udi": 3136,
      "uels": 3137,
      "vée": 3138,
      "vaise": 3139,
      "xand": 3140,
      "ze": 3141,
      "ètres": 3142,
      "_dos": 3143,
      "_dâ€™": 3144,
      "esse": 3145,
      "ession": 3146,
      "_lar": 3147,
      "_log": 3148,
      "_lut": 3149,
      "_lyri": 3150,
      "_lende": 3151,
      "enait": 3152,
      "enue": 3153,
      "one": 3154,
      "onon": 3155,
      "onde": 3156,
      "onné": 3157,
      "onnées": 3158,
      "_pi": 3159,
      "_pes": 3160,
      "_paient": 3161,
      "_polé": 3162,
      "_a,": 3163,
      "_aille": 3164,
      "_aid": 3165,
      "_aéronautique": 3166,
      "_ayant": 3167,
      "_dette": 3168,
      "_deuil": 3169,
      "_sh": 3170,
      "_sû": 3171,
      "_sen": 3172,
      "_sent": 3173,
      "_sait": 3174,
      "_sub": 3175,
      "_saison": 3176,
      "_co": 3177,
      "_cer": 3178,
      "_cre": 3179,
      "_cav": 3180,
      "_cÃ¢": 3181,
      "_coo": 3182,
      "_coû": 3183,
      "_cÅ“": 3184,
      "era": 3185,
      "eraient": 3186,
      "ane": 3187,
      "ank": 3188,
      "anch": 3189,
      "anie": 3190,
      "ange": 3191,
      "anmoins": 3192,
      "ur.": 3193,
      "aie": 3194,
      "quait": 3195,
      "quoi": 3196,
      "rection": 3197,
      "ent,": 3198,
      "ents,": 3199,
      "entaine": 3200,
      "tir": 3201,
      "tière": 3202,
      "tiss": 3203,
      "timé": 3204,
      "timents": 3205,
      "tirer": 3206,
      "is.": 3207,
      "isé": 3208,
      "ises": 3209,
      "isant": 3210,
      "istr": 3211,
      "issement": 3212,
      "_mand": 3213,
      "_mul": 3214,
      "_mess": 3215,
      "_myth": 3216,
      "ark": 3217,
      "arre": 3218,
      "arri": 3219,
      "arol": 3220,
      "arité": 3221,
      "inois": 3222,
      "ins,": 3223,
      "inion": 3224,
      "ints": 3225,
      "ouff": 3226,
      "_quant": 3227,
      "leur,": 3228,
      "lexand": 3229,
      "_num": 3230,
      "itz": 3231,
      "iter": 3232,
      "_fur": 3233,
      "_fut": 3234,
      "_fig": 3235,
      "_fail": 3236,
      "_flam": 3237,
      "_fédé": 3238,
      "_th": 3239,
      "_table": 3240,
      "_tard": 3241,
      "_type": 3242,
      "rép": 3243,
      "_desc": 3244,
      "_destin": 3245,
      "_l'\"": 3246,
      "_l'ab": 3247,
      "_l'oc": 3248,
      "_l'une": 3249,
      "_l'opé": 3250,
      "_l'off": 3251,
      "_l'entrée": 3252,
      "_l'idée": 3253,
      "_l'oratoire": 3254,
      "_lesquels": 3255,
      "_auteur": 3256,
      "ment,": 3257,
      "ment.": 3258,
      "ments,": 3259,
      "_d'h": 3260,
      "_d'ent": 3261,
      "_d'al": 3262,
      "_d'ac": 3263,
      "_d'ét": 3264,
      "_d'éc": 3265,
      "_d'urg": 3266,
      "_d'anci": 3267,
      "_d'opp": 3268,
      "_d'origine": 3269,
      "_end": 3270,
      "_vu": 3271,
      "_vale": 3272,
      "_venir": 3273,
      "_vites": 3274,
      "_voix": 3275,
      "_vague": 3276,
      "_voud": 3277,
      "rob": 3278,
      "ros": 3279,
      "rovi": 3280,
      "onté": 3281,
      "asp": 3282,
      "assi": 3283,
      "_Li": 3284,
      "ants,": 3285,
      "al.": 3286,
      "ales,": 3287,
      "alise": 3288,
      "alley": 3289,
      "rique": 3290,
      "riétaire": 3291,
      "_défic": 3292,
      "_dérou": 3293,
      "_déroul": 3294,
      "lique": 3295,
      "liers": 3296,
      "ligne": 3297,
      "rage": 3298,
      "raux": 3299,
      "ratég": 3300,
      "aise,": 3301,
      "dio": 3302,
      "diction": 3303,
      "_paris": 3304,
      "_parle": 3305,
      "_juri": 3306,
      "_jaune": 3307,
      "_ble": 3308,
      "_bat": 3309,
      "_bure": 3310,
      "_bonne": 3311,
      "atri": 3312,
      "ats,": 3313,
      "ir.": 3314,
      "euters": 3315,
      "ational": 3316,
      "ations,": 3317,
      "_pourront": 3318,
      "agin": 3319,
      "agné": 3320,
      "agner": 3321,
      "sim": 3322,
      "sibilité": 3323,
      "_investis": 3324,
      "_intéres": 3325,
      "_intro": 3326,
      "_rej": 3327,
      "_rem": 3328,
      "_rejet": 3329,
      "_rempl": 3330,
      "_relig": 3331,
      "_relève": 3332,
      "_Me": 3333,
      "_Mer": 3334,
      "_Cap": 3335,
      "_Califor": 3336,
      "_Carol": 3337,
      "resse": 3338,
      "ection": 3339,
      "_So": 3340,
      "_Sou": 3341,
      "_Sans": 3342,
      "_Str": 3343,
      "_Spé": 3344,
      "_Stac": 3345,
      "_Syri": 3346,
      "au,": 3347,
      "autres": 3348,
      "auvaise": 3349,
      "_gen": 3350,
      "_guer": 3351,
      "_gross": 3352,
      "_garder": 3353,
      "_prot": 3354,
      "_proven": 3355,
      "_provoqué": 3356,
      "ciers": 3357,
      "ciaire": 3358,
      "_réag": 3359,
      "_réac": 3360,
      "_réve": 3361,
      "_répar": 3362,
      "_réussi": 3363,
      "_réformes": 3364,
      "_plai": 3365,
      "ch,": 3366,
      "ches": 3367,
      "chés": 3368,
      "és\",": 3369,
      "_chac": 3370,
      "_chance": 3371,
      "_chiff": 3372,
      "_chute": 3373,
      "_chinois": 3374,
      "and-up": 3375,
      "oles": 3376,
      "olas": 3377,
      "ouvelle": 3378,
      "seur": 3379,
      "endu": 3380,
      "endes": 3381,
      "endarm": 3382,
      "_ru": 3383,
      "_rendre": 3384,
      "_route": 3385,
      "_raid": 3386,
      "_rassemb": 3387,
      "_concep": 3388,
      "_connu": 3389,
      "_consid": 3390,
      "_conduite": 3391,
      "ffaire": 3392,
      "_an.": 3393,
      "_anti": 3394,
      "_animé": 3395,
      "_\"O": 3396,
      "_\"c": 3397,
      "_\"f": 3398,
      "_\"l": 3399,
      "_\"s": 3400,
      "_\"les": 3401,
      "_\"dé": 3402,
      "_\"une": 3403,
      "_\"je": 3404,
      "iev": 3405,
      "_Dé": 3406,
      "_Dès": 3407,
      "_Deux": 3408,
      "_Dhla": 3409,
      "_Doer": 3410,
      "_sex": 3411,
      "_sexe": 3412,
      "pprivois": 3413,
      "ambre": 3414,
      "_qu'en": 3415,
      "_qu'on": 3416,
      "_qu'aur": 3417,
      "_empris": 3418,
      "act": 3419,
      "actur": 3420,
      "_Ainsi": 3421,
      "_Auc": 3422,
      "_Agen": 3423,
      "_Alexand": 3424,
      "_Bor": 3425,
      "_Bro": 3426,
      "_Bill": 3427,
      "_Bash": 3428,
      "_Bock": 3429,
      "_Bourse": 3430,
      "_Black": 3431,
      "_n'en": 3432,
      "_n'imp": 3433,
      "ve,": 3434,
      "mps,": 3435,
      "_Net": 3436,
      "_NYPD": 3437,
      "_National": 3438,
      "_Nouvelle": 3439,
      "aire.": 3440,
      "airement": 3441,
      "aient-": 3442,
      "_Irak": 3443,
      "_PS": 3444,
      "_Père": 3445,
      "_huit": 3446,
      "_18": 3447,
      "oser": 3448,
      "osée": 3449,
      "_21": 3450,
      "_22": 3451,
      "_24": 3452,
      "_2,5": 3453,
      "_Face": 3454,
      "_Fond": 3455,
      "_FARDC": 3456,
      "_Tex": 3457,
      "ueil": 3458,
      "érience": 3459,
      "_découver": 3460,
      "ence,": 3461,
      "_siège": 3462,
      "_Lach": 3463,
      "_of": 3464,
      "_op": 3465,
      "_actions": 3466,
      "_accessoires": 3467,
      "_Es": 3468,
      "_Europ": 3469,
      "ale.": 3470,
      "_établi": 3471,
      "_servir": 3472,
      "_liv": 3473,
      "_libre": 3474,
      "_lieux": 3475,
      "_livre": 3476,
      "_Ré": 3477,
      "_Rog": 3478,
      "_Rég": 3479,
      "_Rock": 3480,
      "_Rwand": 3481,
      "_Reuters": 3482,
      "_s'ins": 3483,
      "_s'eff": 3484,
      "_s'exprim": 3485,
      "_trentaine": 3486,
      "ance,": 3487,
      "_auxquelles": 3488,
      "_Guebuza": 3489,
      "_GPS": 3490,
      "fiquant": 3491,
      "fiants.": 3492,
      "léo": 3493,
      "ativement": 3494,
      "_pronon": 3495,
      "_contra": 3496,
      "_point": 3497,
      "ader": 3498,
      "tateurs": 3499,
      "trait": 3500,
      "forme": 3501,
      "_existe": 3502,
      "_exemp": 3503,
      "_vient": 3504,
      "péfiants.": 3505,
      "oyés": 3506,
      "_ram": 3507,
      "éral": 3508,
      "_frère": 3509,
      "_fruit": 3510,
      "_franç": 3511,
      "age.": 3512,
      "_ident": 3513,
      "elles.": 3514,
      "_perman": 3515,
      "_appré": 3516,
      "_appris": 3517,
      "_amen": 3518,
      "_améli": 3519,
      "_constitu": 3520,
      "_constamment": 3521,
      "_constit": 3522,
      "_trafiquant": 3523,
      "_autant": 3524,
      "_L'a": 3525,
      "_L'entreprise": 3526,
      "sion,": 3527,
      "icaces": 3528,
      "_O'M": 3529,
      "_yeux": 3530,
      "_disent": 3531,
      "_distrib": 3532,
      "_membre": 3533,
      "nements": 3534,
      "_attent": 3535,
      "_sod": 3536,
      "tement.": 3537,
      "_fini": 3538,
      "_financement": 3539,
      "alisé": 3540,
      "_partir": 3541,
      "_partis": 3542,
      "_passant": 3543,
      "_42": 3544,
      "_45": 3545,
      "_47": 3546,
      "igh": 3547,
      "_policiers": 3548,
      "_Har": 3549,
      "_Holland": 3550,
      "_Haw": 3551,
      "_Kam": 3552,
      "_Kiev": 3553,
      "_ressent": 3554,
      "_derrière": 3555,
      "angé": 3556,
      "_jour,": 3557,
      "_journal": 3558,
      "_Frank": 3559,
      "_(G": 3560,
      "_(le": 3561,
      "_31": 3562,
      "_32": 3563,
      "_lui-même": 3564,
      "_note": 3565,
      "_faire.": 3566,
      "_peut-être": 3567,
      "_devra": 3568,
      "formance": 3569,
      "_dernières": 3570,
      "_porté": 3571,
      "_portique": 3572,
      "_porte.": 3573,
      "ting": 3574,
      "tique,": 3575,
      "ssociation": 3576,
      "Ã¢ce": 3577,
      "_artis": 3578,
      "_arrê": 3579,
      "rivant": 3580,
      "ique.": 3581,
      "_écoute": 3582,
      "_économ": 3583,
      "_éclat": 3584,
      "_export": 3585,
      "_compte": 3586,
      "_complè": 3587,
      "_américains": 3588,
      "_premiers": 3589,
      "_force": 3590,
      "_forme": 3591,
      "_fortement": 3592,
      "_2011": 3593,
      "_2011,": 3594,
      "_entrev": 3595,
      "_droits": 3596,
      "_médiation": 3597,
      "_accomp": 3598,
      "_accusé": 3599,
      "_accroch": 3600,
      "_secr": 3601,
      "_second": 3602,
      "_juste": 3603,
      "_adul": 3604,
      "_addiction": 3605,
      "_adoles": 3606,
      "_mois,": 3607,
      "_l'Agence": 3608,
      "_l'APHP,": 3609,
      "tants,": 3610,
      "_publié": 3611,
      "_publique.": 3612,
      "_souh": 3613,
      "_souten": 3614,
      "_soutenir": 3615,
      "_aussi.": 3616,
      "_nombreuses": 3617,
      "_gouvernementales": 3618,
      "quiète": 3619,
      "_mars": 3620,
      "_marges": 3621,
      "_fermé": 3622,
      "_ferrovi": 3623,
      "_semaines": 3624,
      "_efficaces": 3625,
      "_West": 3626,
      "_donne": 3627,
      "_dit.": 3628,
      "_cartes": 3629,
      "_carrière": 3630,
      "_l'inc": 3631,
      "_l'ins": 3632,
      "venu": 3633,
      "ences,": 3634,
      "tissement": 3635,
      "_restrictions": 3636,
      "_difficile": 3637,
      "_Entre": 3638,
      "_travers": 3639,
      "_Vaus": 3640,
      "_État": 3641,
      "_poste": 3642,
      "_possible": 3643,
      "_mini": 3644,
      "_directri": 3645,
      "_millions,": 3646,
      "_millions.": 3647,
      "_mettait": 3648,
      "_territ": 3649,
      "ception": 3650,
      "_propriétaire": 3651,
      "_vendredi.": 3652,
      "vention": 3653,
      "_assure": 3654,
      "aliki": 3655,
      "_départs": 3656,
      "_Chine": 3657,
      "_Chaque": 3658,
      "_Chambre": 3659,
      "-t-il.": 3660,
      "_travaill": 3661,
      "_travailler": 3662,
      "_phas": 3663,
      "_phot": 3664,
      "_stratég": 3665,
      "_stand-up": 3666,
      "_encour": 3667,
      "_votre": 3668,
      "_voter,": 3669,
      "_titres": 3670,
      "_montre": 3671,
      "_montré": 3672,
      "_montrer": 3673,
      "_d'inter": 3674,
      "_généra": 3675,
      "_réguli": 3676,
      "_conférence": 3677,
      "_signes": 3678,
      "_offrir": 3679,
      "_esprit": 3680,
      "_estimé": 3681,
      "_aura": 3682,
      "_auront": 3683,
      "_auraient": 3684,
      "_néanmoins": 3685,
      "_tente": 3686,
      "_tentative": 3687,
      "_incar": 3688,
      "_annoncée": 3689,
      "_prévoir": 3690,
      "_prévue": 3691,
      "_drogue,": 3692,
      "_l'année,": 3693,
      "_programmes": 3694,
      "cupé": 3695,
      "_presque": 3696,
      "_pouvait": 3697,
      "_pouvaient": 3698,
      "_salari": 3699,
      "_quelque": 3700,
      "_défin": 3701,
      "_défend": 3702,
      "_retrouv": 3703,
      "_hommes,": 3704,
      "_monde.": 3705,
      "_permettre": 3706,
      "_autres,": 3707,
      "_urgent": 3708,
      "verse": 3709,
      "_pratiqu": 3710,
      "_seule": 3711,
      "_malgré": 3712,
      "_voulu": 3713,
      "_allant": 3714,
      "_crématis": 3715,
      "ôtels": 3716,
      "_60": 3717,
      "_localis": 3718,
      "_puisque": 3719,
      "_puisse": 3720,
      "_classi": 3721,
      "_corp": 3722,
      "_croy": 3723,
      "registre": 3724,
      "_Depuis": 3725,
      "_affirme": 3726,
      "_Snowden,": 3727,
      "rouilles": 3728,
      "_située": 3729,
      "_capitale": 3730,
      "_revenue": 3731,
      "_gratui": 3732,
      "_profit": 3733,
      "éroïne": 3734,
      "_durée": 3735,
      "_abs": 3736,
      "_abaiss": 3737,
      "_matière": 3738,
      "_d'accus": 3739,
      "_répon": 3740,
      "_allemande": 3741,
      "_collecte": 3742,
      "_pharmacie": 3743,
      ",5%": 3744,
      "_entendu": 3745,
      "_dollars.": 3746,
      "_plein": 3747,
      "_mieux": 3748,
      "_mile.": 3749,
      "_femmes": 3750,
      "_fond.": 3751,
      "_enquêtes": 3752,
      "_rendu": 3753,
      "_\"La": 3754,
      "_\"Le": 3755,
      "_Anne": 3756,
      "_décisions": 3757,
      "_soir,": 3758,
      "_moyens": 3759,
      "_l'Etat": 3760,
      "alité,": 3761,
      "ribu": 3762,
      "_Martin": 3763,
      "_choisi": 3764,
      "_congrég": 3765,
      "_n'avait": 3766,
      "_n'avais": 3767,
      "_américaine.": 3768,
      "_employés": 3769,
      "_voyageurs": 3770,
      "_palliatifs,": 3771,
      "_là,": 3772,
      "_sources": 3773,
      "_citrouilles": 3774,
      "_coupable": 3775,
      "tiquée": 3776,
      "_moments": 3777,
      "_l'UE": 3778,
      "_l'Ukraine": 3779,
      "_vertu": 3780,
      "_reprise": 3781,
      "_reprendre": 3782,
      "_CSSS": 3783,
      "_Sony": 3784,
      "_garçon": 3785,
      "_rêves": 3786,
      "_violence": 3787,
      "_automobiliste": 3788,
      "_préciser": 3789,
      "_blessés,": 3790,
      "_Bruxellois": 3791,
      "_renseignements": 3792,
      "_ordre": 3793,
      "_essais": 3794,
      "homme": 3795,
      "offrir": 3796,
      "_donner": 3797,
      "_patient": 3798,
      "_circul": 3799,
      "_moi,": 3800,
      "_enregistr": 3801,
      "_parcourus": 3802,
      "_boeuf": 3803,
      "_Russie": 3804,
      "_trouve": 3805,
      "_trouvé": 3806,
      "_vidéo.": 3807,
      "_appareil": 3808,
      "_techni": 3809,
      "_majeurs": 3810,
      "_impossible": 3811,
      "_téléphonique": 3812,
      "â€™est": 3813,
      "_Quant": 3814,
      "_Transports": 3815,
      "_médecins": 3816,
      "_ouverte": 3817,
      "_civi": 3818,
      "_mort.": 3819,
      "_fili": 3820,
      "_l'hôtel": 3821,
      "_auditions": 3822,
      "_engage": 3823,
      "_élev": 3824,
      "_élections": 3825,
      "_équip": 3826,
      "attaquer": 3827,
      "_Md$.": 3828,
      "_Star": 3829,
      "_Stand": 3830,
      "_connue": 3831,
      "_D'autres": 3832,
      "_Améri": 3833,
      "_habitu": 3834,
      "_histor": 3835,
      "_déclen": 3836,
      "_actuellement": 3837,
      "_2013,": 3838,
      "quiétude": 3839,
      "_instance": 3840,
      "_libérés": 3841,
      "_cuisines": 3842,
      "_Mazanga": 3843,
      "_Mazanga.": 3844,
      "_britannique": 3845,
      "ez-vous": 3846,
      "gnait": 3847,
      "ière.": 3848,
      "_sacs": 3849,
      "_centaines": 3850,
      "_manuf": 3851,
      "_bÃ¢timent": 3852,
      "_invité": 3853,
      "_refus": 3854,
      "_\"C'est": 3855,
      "_Plusieurs": 3856,
      "_limit": 3857,
      "_consomm": 3858,
      "_consult": 3859,
      "_consultant": 3860,
      "_Omar": 3861,
      "_Omnicom": 3862,
      "_Français": 3863,
      "_François": 3864,
      "_portefeu": 3865,
      "_justice": 3866,
      "_posséd": 3867,
      "_possession": 3868,
      "_assuré": 3869,
      "_libéraux": 3870,
      "_Québec.": 3871,
      "_Saint-Joseph": 3872,
      "_côté,": 3873,
      "_zone": 3874,
      "_Å“uvre": 3875,
      "humation": 3876,
      "_laissé": 3877,
      "onymat": 3878,
      "_apais": 3879,
      "_santé": 3880,
      "_caf": 3881,
      "_tensions": 3882,
      "_rebelles": 3883,
      "ault,": 3884,
      "_condam": 3885,
      "_qu'auc": 3886,
      "_Allemagne": 3887,
      "_Barack": 3888,
      "_Nicolas": 3889,
      "_décennies": 3890,
      "_opérations": 3891,
      "_controvers": 3892,
      "_perpétrés": 3893,
      "_conseill": 3894,
      "_interrog": 3895,
      "_candidat": 3896,
      "_Nevada": 3897,
      "_d'informations": 3898,
      "_conflits": 3899,
      "_démocratie": 3900,
      "_congolais": 3901,
      "_supervis": 3902,
      "_supérieurs": 3903,
      "_boîtes": 3904,
      "_immédiatement": 3905,
      "_supplémentaire": 3906,
      "_technologie": 3907,
      "_kilomét": 3908,
      "_maternité": 3909,
      "_Beaudoin": 3910,
      "201": 3911,
      "Ã¶be": 3912,
      "_dîner": 3913,
      "_doivent": 3914,
      "_situé": 3915,
      "_stupéfiants.": 3916,
      "_nature": 3917,
      "_auparavant.": 3918,
      "_d'abord": 3919,
      "_indemn": 3920,
      "_S&P": 3921,
      "_province": 3922,
      "_plupart": 3923,
      "_\"Je": 3924,
      "_préoccup": 3925,
      "_Bernard": 3926,
      "ueillir": 3927,
      "_acquis": 3928,
      "_serveurs": 3929,
      "_livraisons": 3930,
      "ograph": 3931,
      "truire": 3932,
      "_rapide": 3933,
      "_particulier": 3934,
      "_(NSA)": 3935,
      "_reconnu": 3936,
      "_secrétaire": 3937,
      "_Pourtant,": 3938,
      "_maintenant": 3939,
      "_modifier": 3940,
      "_disponibles": 3941,
      "_l'Elysée": 3942,
      "_garantir": 3943,
      "_l'économie": 3944,
      "_population": 3945,
      "_diplomatie": 3946,
      "_frontaliers": 3947,
      "_anniversaire": 3948,
      "_potentiel": 3949,
      "-Maliki": 3950,
      "-là": 3951,
      "casion": 3952,
      "munications": 3953,
      "_dossi": 3954,
      "_lendemain": 3955,
      "_polémique": 3956,
      "_ailleurs": 3957,
      "_aider": 3958,
      "_cÃ¢b": 3959,
      "_cÅ“ur": 3960,
      "_mandat": 3961,
      "_multi": 3962,
      "_mythes": 3963,
      "arrive": 3964,
      "_numéri": 3965,
      "_faillite": 3966,
      "_fédérale": 3967,
      "_l'occasion": 3968,
      "_d'anciens": 3969,
      "_vitesse": 3970,
      "_juridi": 3971,
      "_religie": 3972,
      "_StrÃ¶be": 3973,
      "_Spéléo": 3974,
      "_Stacy": 3975,
      "_chacun": 3976,
      "_concept": 3977,
      "_Dhlak": 3978,
      "_Doerks": 3979,
      "pprivoiser": 3980,
      "_qu'auraient-": 3981,
      "_Agency": 3982,
      "_Blackbur": 3983,
      "_n'importe": 3984,
      "_Fonds": 3985,
      "_Texas": 3986,
      "_Région": 3987,
      "_Rocket": 3988,
      "_constitue": 3989,
      "_O'Malley": 3990,
      "_Hawk": 3991,
      "_arrêté": 3992,
      "_accrochages": 3993,
      "_directrice": 3994,
      "_territoire": 3995,
      "_régulièrement": 3996,
      "_salariés": 3997,
      "_congrégation": 3998,
      "_manufactur": 3999,
      "_portefeuille": 4000,
      "%.": 4001,
      "'s": 4002,
      ",4": 4003,
      "-C": 4004,
      "-F": 4005,
      "-H": 4006,
      "-K": 4007,
      "-O": 4008,
      "-P": 4009,
      "-Q": 4010,
      "-T": 4011,
      "-V": 4012,
      "-a": 4013,
      "-b": 4014,
      "-c": 4015,
      "-ci": 4016,
      "-201": 4017,
      ".-d": 4018,
      ".000": 4019,
      "03": 4020,
      "0,8": 4021,
      "24": 4022,
      "25": 4023,
      "53": 4024,
      "53%": 4025,
      "7.": 4026,
      "B,": 4027,
      "BC": 4028,
      "Buis": 4029,
      "CH": 4030,
      "DD": 4031,
      "DG": 4032,
      "DN": 4033,
      "E)": 4034,
      "FO": 4035,
      "M.": 4036,
      "MP": 4037,
      "NU": 4038,
      "RT": 4039,
      "SF": 4040,
      "SRS": 4041,
      "Sher": 4042,
      "VG": 4043,
      "X)": 4044,
      "_;": 4045,
      "_u": 4046,
      "_w": 4047,
      "_us": 4048,
      "_ir": 4049,
      "_organ": 4050,
      "_wit": 4051,
      "ael": 4052,
      "ame": 4053,
      "app": 4054,
      "bel": 4055,
      "bro": 4056,
      "bri": 4057,
      "bres": 4058,
      "bert": 4059,
      "back": 4060,
      "blier": 4061,
      "ck": 4062,
      "ct": 4063,
      "cti": 4064,
      "ctif": 4065,
      "cot": 4066,
      "contré": 4067,
      "conte": 4068,
      "d,": 4069,
      "dus": 4070,
      "dri": 4071,
      "dist": 4072,
      "date": 4073,
      "fè": 4074,
      "fal": 4075,
      "fli": 4076,
      "fort": 4077,
      "fler": 4078,
      "frique": 4079,
      "fting": 4080,
      "g,": 4081,
      "gur": 4082,
      "hy": 4083,
      "hon": 4084,
      "has": 4085,
      "hors": 4086,
      "hér": 4087,
      "i,": 4088,
      "ik": 4089,
      "ire": 4090,
      "ite": 4091,
      "ile": 4092,
      "ior": 4093,
      "iment": 4094,
      "ifi": 4095,
      "ieux": 4096,
      "ible": 4097,
      "itions": 4098,
      "ives": 4099,
      "iration": 4100,
      "irac": 4101,
      "kh": 4102,
      "ky": 4103,
      "kel.": 4104,
      "lée": 4105,
      "lité": 4106,
      "lise": 4107,
      "line": 4108,
      "lum": 4109,
      "late": 4110,
      "m.": 4111,
      "mo": 4112,
      "mée": 4113,
      "mati": 4114,
      "moire": 4115,
      "mée.": 4116,
      "mocra": 4117,
      "mnicom": 4118,
      "nos": 4119,
      "native": 4120,
      "nov": 4121,
      "ntari": 4122,
      "oî": 4123,
      "où": 4124,
      "oke": 4125,
      "odin": 4126,
      "oky": 4127,
      "pj": 4128,
      "per": 4129,
      "pan": 4130,
      "por": 4131,
      "pré": 4132,
      "ples": 4133,
      "public": 4134,
      "ror": 4135,
      "rom": 4136,
      "ras": 4137,
      "rouv": 4138,
      "rain": 4139,
      "rond": 4140,
      "rante": 4141,
      "ruc": 4142,
      "rude": 4143,
      "rant,": 4144,
      "rup": 4145,
      "s\"": 4146,
      "sy": 4147,
      "sen": 4148,
      "son": 4149,
      "sit": 4150,
      "sra": 4151,
      "ty": 4152,
      "tan": 4153,
      "ts,": 4154,
      "tta": 4155,
      "tomobil": 4156,
      "tances": 4157,
      "tabilité": 4158,
      "trop": 4159,
      "tulaire": 4160,
      "talie": 4161,
      "uel": 4162,
      "uir": 4163,
      "uve": 4164,
      "uter": 4165,
      "utu": 4166,
      "utions": 4167,
      "ulier": 4168,
      "vè": 4169,
      "vres": 4170,
      "vec": 4171,
      "voy": 4172,
      "vail": 4173,
      "venir": 4174,
      "vants.": 4175,
      "vacu": 4176,
      "wa,": 4177,
      "xes": 4178,
      "xte": 4179,
      "xim": 4180,
      "ymp": 4181,
      "yale": 4182,
      "yber": 4183,
      "ygi": 4184,
      "çant": 4185,
      "èles": 4186,
      "ède": 4187,
      "èces": 4188,
      "ènes": 4189,
      "èvement": 4190,
      "ènent": 4191,
      "équ": 4192,
      "ére": 4193,
      "êchés": 4194,
      "ôle": 4195,
      "ôt,": 4196,
      "_dra": 4197,
      "_dès": 4198,
      "_dois": 4199,
      "_doute": 4200,
      "_danger": 4201,
      "_drac": 4202,
      "estin": 4203,
      "estions": 4204,
      "_lon": 4205,
      "_lent": 4206,
      "_lor": 4207,
      "_lux": 4208,
      "_locat": 4209,
      "_liste": 4210,
      "enus": 4211,
      "enci": 4212,
      "ens,": 4213,
      "enues": 4214,
      "onique": 4215,
      "_pne": 4216,
      "_pat": 4217,
      "_pau": 4218,
      "_pous": 4219,
      "_pie": 4220,
      "_peux": 4221,
      "_pÃ¢": 4222,
      "_pali": 4223,
      "_pense": 4224,
      "_p.-d": 4225,
      "_ali": 4226,
      "_axes": 4227,
      "_deme": 4228,
      "_demi": 4229,
      "_devient": 4230,
      "_dehors": 4231,
      "_sav": 4232,
      "_soup": 4233,
      "_subli": 4234,
      "_scep": 4235,
      "_sing": 4236,
      "_sites": 4237,
      "_sâ€™est": 4238,
      "_cou": 4239,
      "_cité": 4240,
      "_cul": 4241,
      "_clé": 4242,
      "_clar": 4243,
      "_cess": 4244,
      "_clin": 4245,
      "_crai": 4246,
      "_cÃ¢ble": 4247,
      "_cyber": 4248,
      "eron": 4249,
      "erait": 4250,
      "erté": 4251,
      "er\",": 4252,
      "erman": 4253,
      "ertissement": 4254,
      "ane.": 4255,
      "ane,": 4256,
      "angement": 4257,
      "annonce": 4258,
      "anonymat": 4259,
      "urer": 4260,
      "uraient": 4261,
      "urtri": 4262,
      "urity": 4263,
      "urrection": 4264,
      "qués": 4265,
      "quise": 4266,
      "ref": 4267,
      "ret": 4268,
      "reurs": 4269,
      "rets": 4270,
      "ent.": 4271,
      "enton": 4272,
      "entré": 4273,
      "entours": 4274,
      "ente.": 4275,
      "entral": 4276,
      "til": 4277,
      "tient": 4278,
      "timi": 4279,
      "tivis": 4280,
      "tier,": 4281,
      "tivement": 4282,
      "is,": 4283,
      "isc": 4284,
      "isme": 4285,
      "ister": 4286,
      "ispan": 4287,
      "_mor": 4288,
      "_mét": 4289,
      "_mains": 4290,
      "_miss": 4291,
      "_mobil": 4292,
      "_mission": 4293,
      "_moral": 4294,
      "_mauvaise": 4295,
      "ares": 4296,
      "arat": 4297,
      "arde": 4298,
      "arriv": 4299,
      "arlot": 4300,
      "ind": 4301,
      "ines,": 4302,
      "indre": 4303,
      "eté": 4304,
      "eter": 4305,
      "out": 4306,
      "ouis": 4307,
      "ouest": 4308,
      "out,": 4309,
      "outimi": 4310,
      "_las": 4311,
      "_laï": 4312,
      "_quelle": 4313,
      "_quasi": 4314,
      "_questions": 4315,
      "und": 4316,
      "unag": 4317,
      "unior": 4318,
      "tel": 4319,
      "teau": 4320,
      "lection": 4321,
      "orée": 4322,
      "orens": 4323,
      "ortement": 4324,
      "ortés": 4325,
      "ortir": 4326,
      "_lequel": 4327,
      "_leader": 4328,
      "our,": 4329,
      "oury": 4330,
      "ourmand": 4331,
      "_nor": 4332,
      "_nour": 4333,
      "_non,": 4334,
      "_noire": 4335,
      "it,": 4336,
      "ital": 4337,
      "its.": 4338,
      "_fl": 4339,
      "_fra": 4340,
      "_fans": 4341,
      "_fol": 4342,
      "_fab": 4343,
      "_fui": 4344,
      "_fum": 4345,
      "_foo": 4346,
      "_faus": 4347,
      "_fid": 4348,
      "_faud": 4349,
      "_festin": 4350,
      "_tas": 4351,
      "_tend": 4352,
      "_tué": 4353,
      "_tuer": 4354,
      "_tenu": 4355,
      "rée.": 4356,
      "_desti": 4357,
      "_l'I": 4358,
      "_l'ont": 4359,
      "_l'ac": 4360,
      "_l'ord": 4361,
      "_l'édi": 4362,
      "_l'Ã¢": 4363,
      "_l'ob": 4364,
      "_l'iss": 4365,
      "_l'été": 4366,
      "_l'esp": 4367,
      "_l'amb": 4368,
      "_l'assur": 4369,
      "_l'origine": 4370,
      "ombre": 4371,
      "ompé": 4372,
      "omic": 4373,
      "ommand": 4374,
      "omage,": 4375,
      "_unies": 4376,
      "_univers": 4377,
      "_d'I": 4378,
      "_d'an": 4379,
      "_d'ai": 4380,
      "_d'ail": 4381,
      "_d'op": 4382,
      "_d'exp": 4383,
      "_d'avocat": 4384,
      "_d'offrir": 4385,
      "_d'attaquer": 4386,
      "_d'où": 4387,
      "_ensui": 4388,
      "elà": 4389,
      "_von": 4390,
      "_vit": 4391,
      "_vas": 4392,
      "_vir": 4393,
      "_voc": 4394,
      "_vue": 4395,
      "_vul": 4396,
      "_vér": 4397,
      "_vingt": 4398,
      "_venu": 4399,
      "_villes": 4400,
      "rovision": 4401,
      "ontaire": 4402,
      "ont-de-": 4403,
      "as.": 4404,
      "ason": 4405,
      "ass,": 4406,
      "assent": 4407,
      "asser": 4408,
      "usion": 4409,
      "ustr": 4410,
      "usement": 4411,
      "ussit": 4412,
      "_Los": 4413,
      "_Lors": 4414,
      "_Liver": 4415,
      "_Louis": 4416,
      "ait.": 4417,
      "aitent": 4418,
      "antes.": 4419,
      "aller": 4420,
      "algré": 4421,
      "algo,": 4422,
      "rie": 4423,
      "rièvement": 4424,
      "_épuis": 4425,
      "_émis": 4426,
      "_élè": 4427,
      "_éner": 4428,
      "_éviter": 4429,
      "_énor": 4430,
      "_dég": 4431,
      "_déç": 4432,
      "_dément": 4433,
      "_déli": 4434,
      "_déra": 4435,
      "_dési": 4436,
      "_déter": 4437,
      "_dénon": 4438,
      "livi": 4439,
      "rave": 4440,
      "rable": 4441,
      "rages": 4442,
      "ansmise": 4443,
      "ais.": 4444,
      "aisie": 4445,
      "estations": 4446,
      "dieu": 4447,
      "diff": 4448,
      "ditions": 4449,
      "ditionn": 4450,
      "diciaire": 4451,
      "_paral": 4452,
      "_parol": 4453,
      "_parlé": 4454,
      "_parrain": 4455,
      "_que,": 4456,
      "_queue": 4457,
      "ne,": 4458,
      "neur": 4459,
      "neau,": 4460,
      "_bal": 4461,
      "_bons": 4462,
      "_bonn": 4463,
      "_bud": 4464,
      "_bpj": 4465,
      "ats.": 4466,
      "athi": 4467,
      "_aver": 4468,
      "irs": 4469,
      "irons": 4470,
      "tée.": 4471,
      "eubles": 4472,
      "ation\"": 4473,
      "_pourra": 4474,
      "_pourch": 4475,
      "agnos": 4476,
      "sie": 4477,
      "sive": 4478,
      "sionn": 4479,
      "sibles": 4480,
      "_inté": 4481,
      "_inau": 4482,
      "_inch": 4483,
      "_inqui": 4484,
      "_indép": 4485,
      "_indis": 4486,
      "_incident": 4487,
      "_revi": 4488,
      "_remi": 4489,
      "_repé": 4490,
      "_redres": 4491,
      "_retirer": 4492,
      "_requise": 4493,
      "_Mon": 4494,
      "_Mun": 4495,
      "_Main": 4496,
      "_Mad": 4497,
      "_Map": 4498,
      "_Même": 4499,
      "_Mercredi": 4500,
      "_Maur": 4501,
      "_Mile": 4502,
      "_Menton": 4503,
      "_Malgré": 4504,
      "_Mathi": 4505,
      "_Cons": 4506,
      "_Cam": 4507,
      "_Cert": 4508,
      "_Che": 4509,
      "_Calli": 4510,
      "_C'était": 4511,
      "_Cross": 4512,
      "_Crol": 4513,
      "_Central": 4514,
      "ress": 4515,
      "ression": 4516,
      "ressions": 4517,
      "onses": 4518,
      "ecture": 4519,
      "ecurity": 4520,
      "_SA": 4521,
      "_Sa": 4522,
      "_Se": 4523,
      "_Sh": 4524,
      "_Sé": 4525,
      "_Ser": 4526,
      "_Ste": 4527,
      "_Shi": 4528,
      "_Soci": 4529,
      "_SMU": 4530,
      "_Sark": 4531,
      "_Slate": 4532,
      "_Sorens": 4533,
      "_Security": 4534,
      "auté": 4535,
      "_pas.": 4536,
      "que\"": 4537,
      "que\".": 4538,
      "_gl": 4539,
      "_gé": 4540,
      "_gest": 4541,
      "_guit": 4542,
      "_gall": 4543,
      "_gros": 4544,
      "_gasp": 4545,
      "_gourmand": 4546,
      "_provis": 4547,
      "_procès": 4548,
      "cite": 4549,
      "cile": 4550,
      "_réin": 4551,
      "_rédi": 4552,
      "_rédu": 4553,
      "_réédi": 4554,
      "_résident": 4555,
      "_réveill": 4556,
      "_réorganis": 4557,
      "_réduit": 4558,
      "_réduire": 4559,
      "_réalise": 4560,
      "_rébel": 4561,
      "_plan": 4562,
      "char": 4563,
      "chement": 4564,
      "chètent": 4565,
      "change": 4566,
      "ésormais": 4567,
      "_surpr": 4568,
      "_surnom": 4569,
      "_chant": 4570,
      "_chÃ¢": 4571,
      "_chose": 4572,
      "ando": 4573,
      "andonn": 4574,
      "anda.": 4575,
      "ouvri": 4576,
      "ouvrir": 4577,
      "seurs": 4578,
      "semble": 4579,
      "ainien": 4580,
      "ous,": 4581,
      "endé": 4582,
      "endait": 4583,
      "endrait": 4584,
      "_rue": 4585,
      "_raisons": 4586,
      "_rwand": 4587,
      "_rôle": 4588,
      "_rentré": 4589,
      "_conv": 4590,
      "_conces": 4591,
      "_conformes": 4592,
      "_condition": 4593,
      "_conditions": 4594,
      "ersonne": 4595,
      "_an,": 4596,
      "_anim": 4597,
      "_\"B": 4598,
      "_\"D": 4599,
      "_\"M": 4600,
      "_\"P": 4601,
      "_\"le": 4602,
      "_\"il": 4603,
      "_\"ont": 4604,
      "_\"ét": 4605,
      "_\"tr": 4606,
      "_\"trop": 4607,
      "ie,": 4608,
      "_Dent": 4609,
      "_Dam": 4610,
      "_DSD": 4611,
      "_Désormais": 4612,
      "_préj": 4613,
      "_prés": 4614,
      "_prévis": 4615,
      "_présid": 4616,
      "_prévenu": 4617,
      "_seig": 4618,
      "les,": 4619,
      "amor": 4620,
      "_qu'est": 4621,
      "_qu'av": 4622,
      "acer": 4623,
      "acué": 4624,
      "_Af": 4625,
      "_Aux": 4626,
      "_Aéronautique": 4627,
      "_Amiens": 4628,
      "_Apprivoiser": 4629,
      "_Avec": 4630,
      "oissée": 4631,
      "_Be": 4632,
      "_Bo": 4633,
      "_Bog": 4634,
      "_Bell": 4635,
      "_Bunag": 4636,
      "abor": 4637,
      "abil": 4638,
      "_illum": 4639,
      "_div": 4640,
      "_diver": 4641,
      "_est-il": 4642,
      "_est-ce": 4643,
      "vite": 4644,
      "ère.": 4645,
      "tera": 4646,
      "terception": 4647,
      "ternative": 4648,
      "_Nord": 4649,
      "_Nation,": 4650,
      "_Narb": 4651,
      "_Nich": 4652,
      "_Nymp": 4653,
      "_Noury": 4654,
      "octé": 4655,
      "_Imp": 4656,
      "_Isra": 4657,
      "_Po": 4658,
      "_Pas": 4659,
      "_Pos": 4660,
      "_Puis": 4661,
      "_Pendant": 4662,
      "_Paul": 4663,
      "_Presse": 4664,
      "_PDG": 4665,
      "_Pont-de-": 4666,
      "_Personne": 4667,
      "_hors": 4668,
      "_hum": 4669,
      "_hôte": 4670,
      "_haut": 4671,
      "_hôtels": 4672,
      "_hispan": 4673,
      "_Lee": 4674,
      "_Lefè": 4675,
      "_1,3": 4676,
      "oile.": 4677,
      "osants": 4678,
      "ité,": 4679,
      "_23": 4680,
      "_26": 4681,
      "_FX": 4682,
      "_For": 4683,
      "_Fay": 4684,
      "_Fern": 4685,
      "_Fland": 4686,
      "_Festival": 4687,
      "_Fitz": 4688,
      "_Fund": 4689,
      "_Te": 4690,
      "_Th": 4691,
      "_Ter": 4692,
      "_Tro": 4693,
      "_Tra": 4694,
      "_Thom": 4695,
      "_Trier": 4696,
      "_Toky": 4697,
      "oir,": 4698,
      "ue,": 4699,
      "tes.": 4700,
      "érir": 4701,
      "ortant": 4702,
      "ortance": 4703,
      "ortants": 4704,
      "_décéd": 4705,
      "_décédé": 4706,
      "_siè": 4707,
      "_site.": 4708,
      "_cependant": 4709,
      "_Laval": 4710,
      "nien": 4711,
      "nion": 4712,
      "_acteurs": 4713,
      "_Et,": 4714,
      "_Europé": 4715,
      "_étages": 4716,
      "_établis": 4717,
      "_étape": 4718,
      "_étudi": 4719,
      "ayer": 4720,
      "ayer.": 4721,
      "ulf": 4722,
      "uler": 4723,
      "_liée": 4724,
      "_liées": 4725,
      "_Roy": 4726,
      "_Rob": 4727,
      "_RDC": 4728,
      "_s'ad": 4729,
      "_s'être": 4730,
      "_s'était": 4731,
      "_trai": 4732,
      "_troup": 4733,
      "_trente": 4734,
      "_trompé": 4735,
      "ure.": 4736,
      "_Gom": 4737,
      "_Gati": 4738,
      "_Gains": 4739,
      "_Gaz": 4740,
      "_Gendarm": 4741,
      "_Géral": 4742,
      "_touché": 4743,
      "_alli": 4744,
      "_alliés": 4745,
      "_al-Maliki": 4746,
      "_alentours": 4747,
      "fice": 4748,
      "lées": 4749,
      "léch": 4750,
      "léments": 4751,
      "lénaire": 4752,
      "_prê": 4753,
      "_prouv": 4754,
      "_prend": 4755,
      "_prennent": 4756,
      "_prestations": 4757,
      "_contenu": 4758,
      "_contact": 4759,
      "ette,": 4760,
      "ette.": 4761,
      "_points": 4762,
      "_commence": 4763,
      "_Jac": 4764,
      "mid": 4765,
      "tront": 4766,
      "_millénaire": 4767,
      "_exam": 4768,
      "_extéri": 4769,
      "_extérieur": 4770,
      "_monn": 4771,
      "_monétaire": 4772,
      "_vite": 4773,
      "_vigue": 4774,
      "_vivre": 4775,
      "_victi": 4776,
      "_payé": 4777,
      "_payent": 4778,
      "_payer.": 4779,
      "_payés.": 4780,
      "_racont": 4781,
      "_radio": 4782,
      "_raconte": 4783,
      "_rats,": 4784,
      "iens.": 4785,
      "onnés": 4786,
      "ques.": 4787,
      "érer": 4788,
      "éras": 4789,
      "érait": 4790,
      "_maisons": 4791,
      "_maison,": 4792,
      "_fronde": 4793,
      "_fromage,": 4794,
      "ageait": 4795,
      "_irak": 4796,
      "teur.": 4797,
      "_faits": 4798,
      "_faites": 4799,
      "ctions.": 4800,
      "_performance": 4801,
      "_appli": 4802,
      "_applic": 4803,
      "_approuv": 4804,
      "_approvision": 4805,
      "_constat": 4806,
      "_consist": 4807,
      "_construire": 4808,
      "_conséqu": 4809,
      "_trace": 4810,
      "_traces": 4811,
      "_traditionn": 4812,
      "_L'A": 4813,
      "_L'en": 4814,
      "_L'un": 4815,
      "_L'au": 4816,
      "_L'avi": 4817,
      "_L'agence": 4818,
      "_L'armée": 4819,
      "_L'In": 4820,
      "_L'homme": 4821,
      "_interjet": 4822,
      "_internes": 4823,
      "_interven": 4824,
      "_intervient": 4825,
      "_interromp": 4826,
      "_interpré": 4827,
      "_intervenir": 4828,
      "icoutimi": 4829,
      "_grÃ¢ce": 4830,
      "_Or": 4831,
      "_Ou": 4832,
      "_Or,": 4833,
      "_OMD": 4834,
      "_Otta": 4835,
      "_Olivi": 4836,
      "démocra": 4837,
      "mes.": 4838,
      "_disons": 4839,
      "_dispar": 4840,
      "_distin": 4841,
      "_dissim": 4842,
      "_meurtri": 4843,
      "nement,": 4844,
      "_att": 4845,
      "_finances": 4846,
      "_US": 4847,
      "_Unies": 4848,
      "_UFO": 4849,
      "_persu": 4850,
      "_passée": 4851,
      "_passages": 4852,
      "_passée.": 4853,
      "_passé.": 4854,
      "ablement": 4855,
      "_44": 4856,
      "_suites": 4857,
      "ard.": 4858,
      "ardant": 4859,
      "illage": 4860,
      "illade": 4861,
      "illings": 4862,
      "_politiqu": 4863,
      "ublique": 4864,
      "_Hans": 4865,
      "_Ham": 4866,
      "_Hass": 4867,
      "_Hid": 4868,
      "_Hague": 4869,
      "_High": 4870,
      "_Hirs": 4871,
      "_Kier": 4872,
      "_Kins": 4873,
      "_Khan": 4874,
      "_Krol": 4875,
      "_Keit": 4876,
      "_temp": 4877,
      "_texte": 4878,
      "_reste": 4879,
      "erts": 4880,
      "_jour.": 4881,
      "_journ": 4882,
      "_jours,": 4883,
      "_journée": 4884,
      "_chemin": 4885,
      "_(O": 4886,
      "_(R": 4887,
      "_(d": 4888,
      "_(53%": 4889,
      "_recommand": 4890,
      "_300": 4891,
      "_32,": 4892,
      "_not": 4893,
      "_million": 4894,
      "écution": 4895,
      "_devoir": 4896,
      "ailles": 4897,
      "mettre": 4898,
      "umé": 4899,
      "umati": 4900,
      "_portes": 4901,
      "_portés": 4902,
      "ées.": 4903,
      "_argent": 4904,
      "_arrière": 4905,
      "_argu": 4906,
      "_arrest": 4907,
      "_maxim": 4908,
      "rivilège": 4909,
      "_l'ajou": 4910,
      "_l'appel": 4911,
      "_écota": 4912,
      "_écran": 4913,
      "_écrivant": 4914,
      "ages.": 4915,
      "_indique": 4916,
      "_explo": 4917,
      "_compter": 4918,
      "_américaines": 4919,
      "ités,": 4920,
      "_forcer": 4921,
      "_forfait": 4922,
      "_formation": 4923,
      "_télés": 4924,
      "_2014": 4925,
      "_2015,": 4926,
      "_2014,": 4927,
      "icien": 4928,
      "lement,": 4929,
      "_accueillir": 4930,
      "_secrets": 4931,
      "_dépens": 4932,
      "_déplore": 4933,
      "_déposée": 4934,
      "_dépêchés": 4935,
      "_jeudi,": 4936,
      "_Mais,": 4937,
      "_impop": 4938,
      "_personnel": 4939,
      "_personnalités": 4940,
      "mbl": 4941,
      "_admet": 4942,
      "_adap": 4943,
      "_admis": 4944,
      "_adhér": 4945,
      "_l'AF": 4946,
      "_l'Alle": 4947,
      "_l'Association": 4948,
      "_l'ADN": 4949,
      "_l'annonce": 4950,
      "_j'all": 4951,
      "_j'avais": 4952,
      "_n'achètent": 4953,
      "_oblig": 4954,
      "_grand-m": 4955,
      "ements,": 4956,
      "_publique": 4957,
      "_publiques": 4958,
      "_publiquement": 4959,
      "_souligne": 4960,
      "_créé": 4961,
      "_création": 4962,
      "aux,": 4963,
      "_rencont": 4964,
      "_rencontré": 4965,
      "_renvoy": 4966,
      "accord": 4967,
      "accomp": 4968,
      "_gouvernementaux": 4969,
      "_mardi": 4970,
      "_marque": 4971,
      "_fermes": 4972,
      "_jugement": 4973,
      "_judiciaire": 4974,
      "_avantages": 4975,
      "_effet": 4976,
      "_effec": 4977,
      "_effectifs": 4978,
      "_effacé": 4979,
      "_Willi": 4980,
      "_carnet": 4981,
      "_court": 4982,
      "ante.": 4983,
      "_l'indépend": 4984,
      "_l'inhumation": 4985,
      "_l'interception": 4986,
      "_5,": 4987,
      "_500": 4988,
      "lèvement": 4989,
      "_certaine": 4990,
      "tisation": 4991,
      "tisse": 4992,
      "omber": 4993,
      "_visait": 4994,
      "_vision": 4995,
      "_visage": 4996,
      "_visite": 4997,
      "assé": 4998,
      "assée": 4999,
      "_progrès": 5000,
      "_restent": 5001,
      "_restaur": 5002,
      "_ans\",": 5003,
      "_diffusé": 5004,
      "_rappel,": 5005,
      "_rapproche": 5006,
      "_Vous": 5007,
      "_Vieux": 5008,
      "ophe": 5009,
      "érée": 5010,
      "_posée": 5011,
      "_post-": 5012,
      "_possibilité": 5013,
      "_suivre": 5014,
      "urgés": 5015,
      "_ministère": 5016,
      "_d'après-midi": 5017,
      "_président,": 5018,
      "_présidente": 5019,
      "_présidents": 5020,
      "_présidentielles": 5021,
      "_communes,": 5022,
      "_communauté": 5023,
      "aniac": 5024,
      "_mettant": 5025,
      "_termes": 5026,
      "_l'avait": 5027,
      "_l'avance": 5028,
      "_l'avortement": 5029,
      "_proposi": 5030,
      "_Pourquoi": 5031,
      "_transf": 5032,
      "_transition": 5033,
      "_transformer": 5034,
      "_police,": 5035,
      "_police.": 5036,
      "vre.": 5037,
      "vreté": 5038,
      "_agents": 5039,
      "_affaires": 5040,
      "_solutions": 5041,
      "_mesures": 5042,
      "_départ,": 5043,
      "_insta": 5044,
      "_insurgés": 5045,
      "_Chirac": 5046,
      "_Charlot": 5047,
      "_Chicoutimi": 5048,
      "_télécom": 5049,
      "_responsabilité": 5050,
      "_travaillé": 5051,
      "_trimestri": 5052,
      "_loi,": 5053,
      "_loi.": 5054,
      "_star": 5055,
      "_stations": 5056,
      "_stabilité": 5057,
      "_statis": 5058,
      "_stric": 5059,
      "_canette": 5060,
      "_m'attend": 5061,
      "_m'arrive": 5062,
      "_débat": 5063,
      "_proche": 5064,
      "_prochain": 5065,
      "_prochaines": 5066,
      "_prochain.": 5067,
      "_Neil": 5068,
      "_tir": 5069,
      "_titulaire": 5070,
      "ions,": 5071,
      "ions.": 5072,
      "lodist": 5073,
      "_montant": 5074,
      "_montrant": 5075,
      "ration,": 5076,
      "_baissé": 5077,
      "_régler": 5078,
      "_régulier": 5079,
      "_place,": 5080,
      "_continué": 5081,
      "_précau": 5082,
      "_précise": 5083,
      "_présenter": 5084,
      "_présentés": 5085,
      "_Très": 5086,
      "_True": 5087,
      "_Trust": 5088,
      "_signé": 5089,
      "_signal": 5090,
      "_liban": 5091,
      "_passager": 5092,
      "aret": 5093,
      "pectateurs": 5094,
      "_paie": 5095,
      "_néo-": 5096,
      "_facile": 5097,
      "_tenter": 5098,
      "_taxe,": 5099,
      "_taxes.": 5100,
      "_inciter": 5101,
      "_informé": 5102,
      "_informations.": 5103,
      "_relative": 5104,
      "_relativement": 5105,
      "_Comité": 5106,
      "_prévus": 5107,
      "_prévues": 5108,
      "_prévoit": 5109,
      "oire,": 5110,
      "_2004": 5111,
      "_l'année.": 5112,
      "_trimestre.": 5113,
      "-disant": 5114,
      "_pouvons": 5115,
      "_salaires": 5116,
      "_saluer": 5117,
      "_retransmise": 5118,
      "_10%": 5119,
      "_permettra": 5120,
      "_permettrait": 5121,
      "_jusqu'au": 5122,
      "vern": 5123,
      "_mode": 5124,
      "_modes": 5125,
      "_maladi": 5126,
      "_malade": 5127,
      "_vouloir": 5128,
      "_désaccord": 5129,
      "_Cependant": 5130,
      "_chanteur": 5131,
      "_chancel": 5132,
      "_charb": 5133,
      "_chargé": 5134,
      "_chargée": 5135,
      "ologne": 5136,
      "ologue": 5137,
      "ologique": 5138,
      "_allait": 5139,
      "_allés": 5140,
      "_crémation": 5141,
      "_petits": 5142,
      "_cocaïne.": 5143,
      "_Cogeco,": 5144,
      "_66": 5145,
      "opérations": 5146,
      "tricité": 5147,
      "udes": 5148,
      "çonné": 5149,
      "ères.": 5150,
      "_localité": 5151,
      "_localités": 5152,
      "_locale,": 5153,
      "_classe": 5154,
      "_corre": 5155,
      "_croit": 5156,
      "regon,": 5157,
      "titution": 5158,
      "titude": 5159,
      "titutionn": 5160,
      "_menées": 5161,
      "_fourni": 5162,
      "résil": 5163,
      "_d'automobil": 5164,
      "_concours": 5165,
      "_conclus": 5166,
      "_concocté": 5167,
      "_Parlement": 5168,
      "_Govern": 5169,
      "_apparaît": 5170,
      "_apparitions": 5171,
      "_affirm": 5172,
      "_société.": 5173,
      "_sociétés": 5174,
      "_blessé": 5175,
      "ierre": 5176,
      "rough": 5177,
      "élix": 5178,
      "_séance": 5179,
      "_sélection": 5180,
      "_situations": 5181,
      "ellent": 5182,
      "_ville.": 5183,
      "allés": 5184,
      "_graves": 5185,
      "_année.": 5186,
      "_heureux": 5187,
      "_196": 5188,
      "_197": 5189,
      "_J'avais": 5190,
      "_semaine,": 5191,
      "_rapports": 5192,
      "_durant": 5193,
      "_légiti": 5194,
      "_légèrement": 5195,
      "_légendes": 5196,
      "_soirée.": 5197,
      "_quitté": 5198,
      "_d'accueil": 5199,
      "_démarre": 5200,
      "_démonté": 5201,
      "aissance": 5202,
      "_M23,": 5203,
      "_Etats-Unis.": 5204,
      "_allemand,": 5205,
      "_allemands": 5206,
      "_autorou": 5207,
      "_financier": 5208,
      "_public,": 5209,
      "_publication": 5210,
      "_publicité": 5211,
      "_collecter": 5212,
      "_soldats.": 5213,
      "_expliqué.": 5214,
      "_pharmaciennes": 5215,
      "_développeurs": 5216,
      "_News": 5217,
      "_baisse,": 5218,
      "_porte-parole.": 5219,
      "_83": 5220,
      "_entrer": 5221,
      "_entière.": 5222,
      "valuer": 5223,
      "_penser": 5224,
      "_pensent": 5225,
      "_pensait": 5226,
      "_spécul": 5227,
      "_national": 5228,
      "_fonds": 5229,
      "_fondation": 5230,
      "_enquêteurs": 5231,
      "_besoins": 5232,
      "_probable": 5233,
      "_rendez-vous": 5234,
      "_activité": 5235,
      "_atteint": 5236,
      "_arrivés": 5237,
      "_arriver.": 5238,
      "_États-Unis,": 5239,
      "_contrôleur": 5240,
      "_révélée": 5241,
      "_prix,": 5242,
      "_criminelles.": 5243,
      "_cérémonies": 5244,
      "_90": 5245,
      "_96": 5246,
      "duira": 5247,
      "importance": 5248,
      "land,": 5249,
      "tenant,": 5250,
      "_achète": 5251,
      "_achètent": 5252,
      "_sorti": 5253,
      "_sorte": 5254,
      "_sortie": 5255,
      "_sorties": 5256,
      "_causé": 5257,
      "_moyenne": 5258,
      "_fusillade": 5259,
      "_l'Europ": 5260,
      "_autrefois": 5261,
      "_augmentant": 5262,
      "_Mary": 5263,
      "_Marie": 5264,
      "_CGR": 5265,
      "_combien": 5266,
      "_réfléch": 5267,
      "_congés": 5268,
      "ables.": 5269,
      "_n'avons": 5270,
      "_n'avaient": 5271,
      "_s'agissait": 5272,
      "_France.": 5273,
      "_médical": 5274,
      "_importants": 5275,
      "_représenter": 5276,
      "_représentant": 5277,
      "_nécessité": 5278,
      "_employé": 5279,
      "_employés.": 5280,
      "_pompiers,": 5281,
      "_internationale": 5282,
      "_Goodyear.": 5283,
      "_70": 5284,
      "osition": 5285,
      "turb": 5286,
      "enny": 5287,
      "ennes,": 5288,
      "_source": 5289,
      "_somme": 5290,
      "_sommet": 5291,
      "_susp": 5292,
      "_suscité": 5293,
      "_caméras": 5294,
      "_cuisine": 5295,
      "ances,": 5296,
      "_mercredi,": 5297,
      "_foncé": 5298,
      "_familles": 5299,
      "_tester": 5300,
      "_totalis": 5301,
      "_l'Oug": 5302,
      "_l'Ontari": 5303,
      "_l'Oregon,": 5304,
      "_l'accuse": 5305,
      "_au-delà": 5306,
      "_échou": 5307,
      "_janvier,": 5308,
      "_base": 5309,
      "_basé": 5310,
      "_bases": 5311,
      "_repris": 5312,
      "_Scarbrough": 5313,
      "_commenté": 5314,
      "_choses.": 5315,
      "_Airway": 5316,
      "_Titan,": 5317,
      "_reculé": 5318,
      "_maître": 5319,
      "_maîtres": 5320,
      "_terme.": 5321,
      "_transportent": 5322,
      "_paix,": 5323,
      "_paix.": 5324,
      "jourd'hui,": 5325,
      "_ça,": 5326,
      "_ordonn": 5327,
      "_essay": 5328,
      "homaniac": 5329,
      "lair": 5330,
      "psos": 5331,
      "ôpital": 5332,
      "_doux": 5333,
      "_douleur,": 5334,
      "_donnait": 5335,
      "_circu": 5336,
      "_circons": 5337,
      "_l'école": 5338,
      "_l'usine,": 5339,
      "_l'usine.": 5340,
      "_d'environ": 5341,
      "_d'administration": 5342,
      "ropri": 5343,
      "rophe": 5344,
      "_parcourir": 5345,
      "_avocat.": 5346,
      "_regarde": 5347,
      "_regardant": 5348,
      "_Canadi": 5349,
      "_Congo": 5350,
      "ectuer": 5351,
      "aud-N": 5352,
      "_réaliser": 5353,
      "_réalisateur": 5354,
      "_cherché": 5355,
      "_cherchent": 5356,
      "_250": 5357,
      "_vidéo": 5358,
      "_vidéos": 5359,
      "_immeubles": 5360,
      "_direction.": 5361,
      "_tels": 5362,
      "_telles": 5363,
      "_tellement": 5364,
      "_majeur": 5365,
      "_écouteur": 5366,
      "_renforce": 5367,
      "_voitures": 5368,
      "_Quel": 5369,
      "_kilos": 5370,
      "_Sainte-Croix,": 5371,
      "_Sainte-Croix.": 5372,
      "_matins,": 5373,
      "_financièrement": 5374,
      "_cérémonie.": 5375,
      "_octobre.": 5376,
      "_mondiale.": 5377,
      "_précédent.": 5378,
      "_principe": 5379,
      "_principale": 5380,
      "-de-Sher": 5381,
      "_médecin": 5382,
      "_médecine": 5383,
      "_ouvert,": 5384,
      "ozy,": 5385,
      "pool": 5386,
      "vron,": 5387,
      "_domin": 5388,
      "_domicile": 5389,
      "_portant": 5390,
      "_menti": 5391,
      "_massivement": 5392,
      "_mort,": 5393,
      "_tomber": 5394,
      "_l'hiver": 5395,
      "_l'établissement": 5396,
      "_l'étrang": 5397,
      "_l'ex-": 5398,
      "_audience": 5399,
      "_vécue": 5400,
      "_évacu": 5401,
      "_évacué": 5402,
      "_recevoir": 5403,
      "_recevabilité": 5404,
      "_comédie": 5405,
      "_comédiens": 5406,
      "_comédie.": 5407,
      "_récents": 5408,
      "_réclam": 5409,
      "_analyste": 5410,
      "_\"pour": 5411,
      "_\"privilège": 5412,
      "_D'ici": 5413,
      "_histoire": 5414,
      "_histoires": 5415,
      "_heureuse.": 5416,
      "_actuelle,": 5417,
      "_s'inquiète": 5418,
      "_allées": 5419,
      "_pop.": 5420,
      "_discours": 5421,
      "_attendons": 5422,
      "_clientèle": 5423,
      "_télévision,": 5424,
      "_canadienne": 5425,
      "ministra": 5426,
      "_fourniss": 5427,
      "_chaîne": 5428,
      "_1992,": 5429,
      "_cuisinier": 5430,
      "_fonctionnaires": 5431,
      "_spectacle": 5432,
      "_spectacles": 5433,
      "_spectacle,": 5434,
      "_planification": 5435,
      "_Montebourg,": 5436,
      "gués": 5437,
      "krainien": 5438,
      "_lancer": 5439,
      "_lunettes": 5440,
      "_pén": 5441,
      "_crime": 5442,
      "_critiquée": 5443,
      "_mémoire": 5444,
      "_mises": 5445,
      "_feu.": 5446,
      "_l'enquête": 5447,
      "_l'État.": 5448,
      "_Lars": 5449,
      "_Larry": 5450,
      "_élabor": 5451,
      "_épis": 5452,
      "_électr": 5453,
      "_électricité": 5454,
      "_détail": 5455,
      "_joué": 5456,
      "_jouer": 5457,
      "_biens": 5458,
      "_blog": 5459,
      "_barils": 5460,
      "_bÃ¢tisse": 5461,
      "_invités": 5462,
      "_refuse": 5463,
      "_procéder": 5464,
      "ciemment": 5465,
      "_plainte": 5466,
      "_plaintes": 5467,
      "_routes": 5468,
      "_routier": 5469,
      "_confiance": 5470,
      "_préfecture": 5471,
      "_européens": 5472,
      "prises,": 5473,
      "_hôpital": 5474,
      "_hôpitaux": 5475,
      "_Financi": 5476,
      "_Finistère": 5477,
      "_limité": 5478,
      "_Republic": 5479,
      "_consommer": 5480,
      "_sujet,": 5481,
      "_ressortir": 5482,
      "_justice,": 5483,
      "_effectué": 5484,
      "_différentes": 5485,
      "_suivante": 5486,
      "ingsuit": 5487,
      "iversité": 5488,
      "iversalité": 5489,
      "_contrôles.": 5490,
      "_confirme": 5491,
      "_confirmé": 5492,
      "_2008.": 5493,
      "_chargeur": 5494,
      "_Paris,": 5495,
      "_professeur": 5496,
      "_professionn": 5497,
      "_acheté": 5498,
      "_acheter": 5499,
      "_combattants,": 5500,
      "_l'Hôtel-Dieu,": 5501,
      "_Bruxelles.": 5502,
      "_israélien": 5503,
      "_israéliens": 5504,
      "-Nord": 5505,
      "_zéro": 5506,
      "_organisée": 5507,
      "holi": 5508,
      "_quart": 5509,
      "_quartier": 5510,
      "ley-H": 5511,
      "_noirs": 5512,
      "_nord-": 5513,
      "_facteurs": 5514,
      "_facture": 5515,
      "_l'ami": 5516,
      "_l'administration": 5517,
      "_l'essence": 5518,
      "_l'essence.": 5519,
      "_l'Institu": 5520,
      "_d'Amiens": 5521,
      "_d'obtenir": 5522,
      "_d'impôt": 5523,
      "_d'importants": 5524,
      "_boutique": 5525,
      "_indépendante,": 5526,
      "_Man,": 5527,
      "_compartiment": 5528,
      "_compartiments": 5529,
      "_réserves": 5530,
      "_rangés": 5531,
      "_règle": 5532,
      "_règles": 5533,
      "_conduis": 5534,
      "_annuelle": 5535,
      "_Day,": 5536,
      "_emboî": 5537,
      "_Berlin": 5538,
      "_Notre": 5539,
      "_NoÃ«l": 5540,
      "_2,6": 5541,
      "_décennie": 5542,
      "_Extra": 5543,
      "_Exchange": 5544,
      "_Glass": 5545,
      "_Glass,": 5546,
      "_Groupe": 5547,
      "_controverse": 5548,
      "_perdus": 5549,
      "_conseil": 5550,
      "_participer": 5551,
      "_(CSRS": 5552,
      "_l'avion": 5553,
      "_l'avion.": 5554,
      "_lorsqu'elle": 5555,
      "_accusent": 5556,
      "_accusations": 5557,
      "_impliquées": 5558,
      "_observer": 5559,
      "_bruxelloise": 5560,
      "_difficul": 5561,
      "_difficiles": 5562,
      "_candidate": 5563,
      "_conflit": 5564,
      "_continuité": 5565,
      "_espère": 5566,
      "_retraite.": 5567,
      "_retraite,": 5568,
      "_compromis": 5569,
      "_compromet": 5570,
      "_démocratique": 5571,
      "_autorisations": 5572,
      "_spécialiste": 5573,
      "_l'argent.": 5574,
      "_congolaise": 5575,
      "_Montréal-T": 5576,
      "_rêve.": 5577,
      "_maîtris": 5578,
      "_boîte": 5579,
      "_Canada": 5580,
      "_Canada,": 5581,
      "_s'appui": 5582,
      "_immédiate": 5583,
      "_kilomètres": 5584,
      "_mentionnée": 5585,
      "_mourir,": 5586,
      "_Beaudet.": 5587,
      "_documents": 5588,
      "_quotidien.": 5589,
      "%).": 5590,
      "_!\",": 5591,
      "_erreur": 5592,
      "_erreurs": 5593,
      "ice.": 5594,
      "_a-t-on": 5595,
      "_a-t-elle": 5596,
      "_devienne": 5597,
      "_sauver": 5598,
      "_statué": 5599,
      "_catholi": 5600,
      "_civil": 5601,
      "_civils": 5602,
      "_musique": 5603,
      "_musicien": 5604,
      "_faite": 5605,
      "_faible": 5606,
      "_tôt.": 5607,
      "_dessaisie": 5608,
      "_l'université": 5609,
      "_l'album": 5610,
      "_l'alternative": 5611,
      "_l'expérience": 5612,
      "_l'attaque": 5613,
      "_uniquement": 5614,
      "_d'attent": 5615,
      "_d'examen": 5616,
      "_d'association": 5617,
      "_d'assises": 5618,
      "_d'utiliser": 5619,
      "_émergé": 5620,
      "_inédits": 5621,
      "_inquiétudes": 5622,
      "_recherche": 5623,
      "_recherches": 5624,
      "_M$,": 5625,
      "_Michael": 5626,
      "_Michaud-N": 5627,
      "_Centre-V": 5628,
      "_S'ils": 5629,
      "_résidence": 5630,
      "_plateformes": 5631,
      "_considé": 5632,
      "_anglais": 5633,
      "_angoissée": 5634,
      "_empê": 5635,
      "_emporter": 5636,
      "_Arsen": 5637,
      "_Atomic": 5638,
      "_Audet.": 5639,
      "_Twitter": 5640,
      "_Twitter,": 5641,
      "_étrangers": 5642,
      "_s'étendre": 5643,
      "_position": 5644,
      "_positif": 5645,
      "_exigeant": 5646,
      "_raffinage": 5647,
      "_imagin": 5648,
      "_ici.": 5649,
      "_conserver": 5650,
      "_meilleure": 5651,
      "_4,1": 5652,
      "_suffrages": 5653,
      "_Kenya": 5654,
      "_Kenya.": 5655,
      "_cheveux,": 5656,
      "_recours,": 5657,
      "_38%": 5658,
      "_secouristes": 5659,
      "_obsè": 5660,
      "_souffrait": 5661,
      "_crédit.": 5662,
      "_semaines,": 5663,
      "_semaines.": 5664,
      "_donné.": 5665,
      "_progressivement": 5666,
      "_Ville.": 5667,
      "_associations": 5668,
      "_cancer.": 5669,
      "_repeindre": 5670,
      "_signifie": 5671,
      "_défunts": 5672,
      "_défenseurs": 5673,
      "_Inc,": 5674,
      "_Inc.": 5675,
      "_Internet": 5676,
      "_modèle": 5677,
      "_d'effectuer": 5678,
      "_d'emploi": 5679,
      "_d'employés": 5680,
      "_dispositif": 5681,
      "_législateurs": 5682,
      "_l'époque.": 5683,
      "_Angel": 5684,
      "_Angela": 5685,
      "_longtemps": 5686,
      "_manifestation": 5687,
      "_d'admission\"": 5688,
      "_enregistré": 5689,
      "_enregistrés": 5690,
      "_témoignage": 5691,
      "_syndicat": 5692,
      "_pilote": 5693,
      "_assez.": 5694,
      "_Lancashire": 5695,
      "_Lancashire,": 5696,
      "_Frelimo,": 5697,
      ".g.": 5698,
      "_royale": 5699,
      "_ultime": 5700,
      "_Ã¢me": 5701,
      "zek": 5702,
      "_large": 5703,
      "_lutte": 5704,
      "_shillings": 5705,
      "_sûr": 5706,
      "_subi": 5707,
      "_creux": 5708,
      "_coopé": 5709,
      "_coûts": 5710,
      "tissait": 5711,
      "_flammes": 5712,
      "_destinés": 5713,
      "_l'absence": 5714,
      "_d'héroïne": 5715,
      "_d'entrave": 5716,
      "_d'opposition": 5717,
      "_valeurs": 5718,
      "_voudrait": 5719,
      "_Like": 5720,
      "rage.": 5721,
      "_bleu": 5722,
      "_bureau": 5723,
      "atrices": 5724,
      "_investissements": 5725,
      "_rejoin": 5726,
      "_remani": 5727,
      "_remplacer": 5728,
      "_Medi": 5729,
      "_Merkel.": 5730,
      "_Capital": 5731,
      "_Californie": 5732,
      "_Carolines,": 5733,
      "_Sofal": 5734,
      "_Syrie": 5735,
      "_genre": 5736,
      "_guerre.": 5737,
      "_protest": 5738,
      "_provenant": 5739,
      "_réaction": 5740,
      "_réveil": 5741,
      "_chiffres": 5742,
      "_considérait": 5743,
      "_\"l'": 5744,
      "_sexuels": 5745,
      "_emprisonné": 5746,
      "_Ainsi,": 5747,
      "_Aucun": 5748,
      "_Born": 5749,
      "_Broad": 5750,
      "_Basharat": 5751,
      "_Netfli": 5752,
      "_FARDC.": 5753,
      "_découvert": 5754,
      "_Lachaise": 5755,
      "_Europe": 5756,
      "_Rwanda": 5757,
      "_s'effond": 5758,
      "_s'exprimer": 5759,
      "_contrat": 5760,
      "_exemple": 5761,
      "_français,": 5762,
      "_permanente": 5763,
      "_appréci": 5764,
      "_amené": 5765,
      "_amélioration": 5766,
      "_L'aéroport": 5767,
      "_soda": 5768,
      "_partisans": 5769,
      "_45%": 5770,
      "_Hollande": 5771,
      "_Franklin": 5772,
      "_artistes": 5773,
      "_économique": 5774,
      "_complètement": 5775,
      "_entrevue": 5776,
      "_accompagné": 5777,
      "_secrète": 5778,
      "_adulte": 5779,
      "_adolescents": 5780,
      "_souhaitent": 5781,
      "_soutenu": 5782,
      "_ferroviaire": 5783,
      "_l'incendi": 5784,
      "_États.": 5785,
      "_phases": 5786,
      "_urgentiste": 5787,
      "_crématisés": 5788,
      "_corps.": 5789,
      "registrement": 5790,
      "_gratuitement.": 5791,
      "_abaissé": 5792,
      "_d'accusation": 5793,
      "_répondent": 5794,
      "_CSSS.": 5795,
      "_garçon.": 5796,
      "_circulation": 5797,
      "_civile": 5798,
      "_filiale": 5799,
      "_l'hôtel.": 5800,
      "_engagement": 5801,
      "_Star,": 5802,
      "_Standard": 5803,
      "_Amérique,": 5804,
      "_habitude": 5805,
      "_historique": 5806,
      "_déclenché": 5807,
      "_bÃ¢timent,": 5808,
      "_limitrophe": 5809,
      "_consommateur": 5810,
      "_consultations": 5811,
      "_Omnicom,": 5812,
      "_possédait": 5813,
      "_Saint-Joseph,": 5814,
      "_apaiser": 5815,
      "_café": 5816,
      "_condamné": 5817,
      "_qu'aucune": 5818,
      "_Allemagne,": 5819,
      "_controversée": 5820,
      "_conseiller": 5821,
      "_candidats": 5822,
      "_supérieurs.": 5823,
      "_kilométrage.": 5824,
      "_indemnités": 5825,
      "_préoccupations": 5826,
      "_acquisition": 5827,
      "ographie": 5828,
      "_dossier": 5829,
      "_cÃ¢blodist": 5830,
      "_multiples": 5831,
      "_numériques": 5832,
      "_l'occasion,": 5833,
      "_religieuse": 5834,
      "_StrÃ¶bele": 5835,
      "_Dhlakama": 5836,
      "_qu'auraient-ils": 5837,
      "_Blackburn,": 5838,
      "_Région-de-Sher": 5839,
      "_Hawkins,": 5840,
      "_manufacturier": 5841,
      "-Kiv": 5842,
      "-Québec": 5843,
      "0,88": 5844,
      "CHQ": 5845,
      "_ukrainien": 5846,
      "_organise,": 5847,
      "_with": 5848,
      "brooke": 5849,
      "dustri": 5850,
      "hasa": 5851,
      "rastructure": 5852,
      "rondissement": 5853,
      "rudeau": 5854,
      "vacuation": 5855,
      "_dracon": 5856,
      "_lenteur": 5857,
      "_lors,": 5858,
      "_locataires": 5859,
      "_patron": 5860,
      "_pauvreté": 5861,
      "_pieds": 5862,
      "_p.-d.g.": 5863,
      "_aliment": 5864,
      "_demeure": 5865,
      "_soupçonné": 5866,
      "_couleurs": 5867,
      "_cultur": 5868,
      "_cesser": 5869,
      "_cliniques": 5870,
      "_craignait": 5871,
      "_cyber-": 5872,
      "tivistes": 5873,
      "_missiles": 5874,
      "unior.": 5875,
      "_frapp": 5876,
      "_fuite": 5877,
      "_foot": 5878,
      "_faudrait": 5879,
      "_l'Ã¢ge": 5880,
      "_l'issue": 5881,
      "_l'assurance": 5882,
      "_d'ailleurs": 5883,
      "_d'opinion": 5884,
      "_vulné": 5885,
      "_vérité": 5886,
      "ustralie": 5887,
      "_Liverpool": 5888,
      "_émissions": 5889,
      "_élèves": 5890,
      "_énorme": 5891,
      "_déliv": 5892,
      "_dératisation": 5893,
      "_détermin": 5894,
      "_bonnes": 5895,
      "_budg": 5896,
      "_inaugur": 5897,
      "_inchangé": 5898,
      "_inquiets": 5899,
      "_indépendant": 5900,
      "_remix": 5901,
      "_repéré": 5902,
      "_Maintenant,": 5903,
      "_Maput": 5904,
      "_Mercredi,": 5905,
      "_Mileage.": 5906,
      "_Cameron": 5907,
      "_Chevron,": 5908,
      "_Crossley-H": 5909,
      "_Société": 5910,
      "_SMUR": 5911,
      "_Sarkozy,": 5912,
      "_Sorensen,": 5913,
      "_réduits": 5914,
      "_résidents": 5915,
      "_rébelli": 5916,
      "_chÃ¢teau": 5917,
      "_concessions": 5918,
      "_animée": 5919,
      "_Désormais,": 5920,
      "_présidence": 5921,
      "_seigneur": 5922,
      "_Bogota": 5923,
      "_Bunagan": 5924,
      "_illumin": 5925,
      "_Nord-Kiv": 5926,
      "_Narbonne": 5927,
      "_Nichol": 5928,
      "_Nymphomaniac": 5929,
      "_IsraÃ«l": 5930,
      "_Post,": 5931,
      "_Pont-de-Buis": 5932,
      "_Lefèvre.": 5933,
      "_Fernando": 5934,
      "_Fitzback": 5935,
      "_Tokyo": 5936,
      "_décédée": 5937,
      "_établissements": 5938,
      "_troupes": 5939,
      "_Gatineau,": 5940,
      "_Gainsbourg": 5941,
      "_Gendarmerie": 5942,
      "_Gérald": 5943,
      "_victimes": 5944,
      "_raconter": 5945,
      "_irakien": 5946,
      "_approuvé": 5947,
      "_approvisionnements": 5948,
      "_consistant": 5949,
      "_conséquences": 5950,
      "_traditionnel": 5951,
      "_L'avion": 5952,
      "_interjeté": 5953,
      "_Olivier": 5954,
      "_meurtrier": 5955,
      "_politiques,": 5956,
      "_Hassan": 5957,
      "_Hidalgo,": 5958,
      "_Hague,": 5959,
      "_Highway": 5960,
      "_Kierzek": 5961,
      "_Kinshasa": 5962,
      "_Khan,": 5963,
      "_Kroll": 5964,
      "_Keith": 5965,
      "_maximum": 5966,
      "_l'ajout": 5967,
      "_écotaxe": 5968,
      "_téléspectateurs": 5969,
      "_l'Allemagne": 5970,
      "_j'allais": 5971,
      "_grand-mère": 5972,
      "_William": 5973,
      "_restaurant": 5974,
      "_Vieux-Québec": 5975,
      "_Charlotte": 5976,
      "_télécommunications": 5977,
      "_statistiques": 5978,
      "_néo-démocra": 5979,
      "_maladie": 5980,
      "_Cependant,": 5981,
      "_chancelière": 5982,
      "_d'automobilistes": 5983,
      "_l'Ouganda.": 5984,
      "_Airways": 5985,
      "_circonstances": 5986,
      "_d'administration,": 5987,
      "_l'Institut": 5988,
      "_(CSRS)": 5989,
      "_Montréal-Trudeau": 5990,
      "_Michaud-Nér": 5991,
      "_Centre-Ville": 5992,
      "_Arsenault,": 5993,
      "_Sofala,": 5994,
      "_Netflix": 5995,
      "_cÃ¢blodistribu": 5996,
      "_Région-de-Sherbrooke": 5997,
      "_Crossley-Holland": 5998
    },
    "merges": [
      [
        "_",
        "d"
      ],
      [
        "e",
        "s"
      ],
      [
        "_",
        "l"
      ],
      [
        "e",
        "n"
      ],
      [
        "o",
        "n"
      ],
      [
        "_",
        "p"
      ],
      [
        "_",
        "a"
      ],
      [
        "_d",
        "e"
      ],
      [
        "_",
        "s"
      ],
      [
        "_",
        "c"
      ],
      [
        "e",
        "r"
      ],
      [
        "a",
        "n"
      ],
      [
        "u",
        "r"
      ],
      [
        "a",
        "i"
      ],
      [
        "q",
        "u"
      ],
      [
        "r",
        "e"
      ],
      [
        "en",
        "t"
      ],
      [
        "t",
        "i"
      ],
      [
        "i",
        "s"
      ],
      [
        "_",
        "m"
      ],
      [
        "a",
        "r"
      ],
      [
        "i",
        "n"
      ],
      [
        "e",
        "t"
      ],
      [
        "o",
        "u"
      ],
      [
        "_l",
        "a"
      ],
      [
        "_",
        "qu"
      ],
      [
        "u",
        "n"
      ],
      [
        "t",
        "e"
      ],
      [
        "l",
        "e"
      ],
      [
        "o",
        "r"
      ],
      [
        "_l",
        "e"
      ],
      [
        "o",
        "ur"
      ],
      [
        "i",
        "l"
      ],
      [
        "_",
        "n"
      ],
      [
        "i",
        "t"
      ],
      [
        "_",
        "à"
      ],
      [
        "_",
        "f"
      ],
      [
        "_",
        "t"
      ],
      [
        "r",
        "é"
      ],
      [
        "_",
        "et"
      ],
      [
        "_d",
        "es"
      ],
      [
        "_l",
        "'"
      ],
      [
        "_l",
        "es"
      ],
      [
        "o",
        "m"
      ],
      [
        "_a",
        "u"
      ],
      [
        "ti",
        "on"
      ],
      [
        "_",
        "un"
      ],
      [
        "m",
        "ent"
      ],
      [
        "_d",
        "'"
      ],
      [
        "_",
        "en"
      ],
      [
        "e",
        "l"
      ],
      [
        "_",
        "v"
      ],
      [
        "r",
        "o"
      ],
      [
        "c",
        "e"
      ],
      [
        "on",
        "t"
      ],
      [
        "a",
        "s"
      ],
      [
        "u",
        "s"
      ],
      [
        "_",
        "L"
      ],
      [
        "ai",
        "t"
      ],
      [
        "an",
        "t"
      ],
      [
        "a",
        "l"
      ],
      [
        "r",
        "i"
      ],
      [
        "_",
        "é"
      ],
      [
        "_d",
        "é"
      ],
      [
        "l",
        "i"
      ],
      [
        "r",
        "a"
      ],
      [
        "an",
        "s"
      ],
      [
        "ai",
        "s"
      ],
      [
        "es",
        "t"
      ],
      [
        "d",
        "i"
      ],
      [
        "_p",
        "ar"
      ],
      [
        "_",
        "j"
      ],
      [
        "_qu",
        "e"
      ],
      [
        "n",
        "e"
      ],
      [
        "_",
        "b"
      ],
      [
        "a",
        "t"
      ],
      [
        "_a",
        "v"
      ],
      [
        "i",
        "r"
      ],
      [
        "t",
        "é"
      ],
      [
        "e",
        "u"
      ],
      [
        "a",
        "tion"
      ],
      [
        "_p",
        "our"
      ],
      [
        "_d",
        "u"
      ],
      [
        "a",
        "g"
      ],
      [
        "s",
        "i"
      ],
      [
        "_",
        "in"
      ],
      [
        "_",
        "re"
      ],
      [
        "_",
        "M"
      ],
      [
        "_",
        "C"
      ],
      [
        "m",
        "e"
      ],
      [
        "r",
        "es"
      ],
      [
        "_d",
        "ans"
      ],
      [
        "on",
        "s"
      ],
      [
        "e",
        "c"
      ],
      [
        "_",
        "S"
      ],
      [
        "a",
        "u"
      ],
      [
        "_p",
        "as"
      ],
      [
        "qu",
        "e"
      ],
      [
        "_qu",
        "i"
      ],
      [
        "_",
        "g"
      ],
      [
        "_p",
        "ro"
      ],
      [
        "c",
        "i"
      ],
      [
        "_c",
        "om"
      ],
      [
        "_",
        "ré"
      ],
      [
        "é",
        "e"
      ],
      [
        "_p",
        "l"
      ],
      [
        "c",
        "h"
      ],
      [
        "é",
        "s"
      ],
      [
        "_s",
        "ur"
      ],
      [
        "_c",
        "h"
      ],
      [
        "an",
        "d"
      ],
      [
        "o",
        "l"
      ],
      [
        "ou",
        "v"
      ],
      [
        "s",
        "e"
      ],
      [
        "ai",
        "n"
      ],
      [
        "ou",
        "s"
      ],
      [
        "_un",
        "e"
      ],
      [
        "en",
        "d"
      ],
      [
        "_",
        "r"
      ],
      [
        "_c",
        "on"
      ],
      [
        "er",
        "s"
      ],
      [
        "f",
        "f"
      ],
      [
        "_a",
        "n"
      ],
      [
        "t",
        "re"
      ],
      [
        "_",
        "\""
      ],
      [
        "i",
        "e"
      ],
      [
        "_",
        "D"
      ],
      [
        "è",
        "s"
      ],
      [
        "_p",
        "ré"
      ],
      [
        "_s",
        "e"
      ],
      [
        "el",
        "le"
      ],
      [
        "l",
        "es"
      ],
      [
        "p",
        "p"
      ],
      [
        "a",
        "m"
      ],
      [
        "_qu",
        "'"
      ],
      [
        "_",
        "e"
      ],
      [
        "a",
        "c"
      ],
      [
        "ur",
        "s"
      ],
      [
        "_",
        "A"
      ],
      [
        "o",
        "is"
      ],
      [
        "p",
        "r"
      ],
      [
        "_",
        "B"
      ],
      [
        "a",
        "b"
      ],
      [
        "_",
        "il"
      ],
      [
        "_n",
        "'"
      ],
      [
        "_d",
        "i"
      ],
      [
        "_",
        "est"
      ],
      [
        "v",
        "e"
      ],
      [
        "v",
        "i"
      ],
      [
        "m",
        "p"
      ],
      [
        "è",
        "re"
      ],
      [
        "t",
        "er"
      ],
      [
        "_pl",
        "us"
      ],
      [
        "_",
        "N"
      ],
      [
        "ai",
        "re"
      ],
      [
        "o",
        "c"
      ],
      [
        "u",
        "i"
      ],
      [
        "ai",
        "ent"
      ],
      [
        "_",
        "I"
      ],
      [
        "_",
        "P"
      ],
      [
        "_s",
        "on"
      ],
      [
        "_",
        "h"
      ],
      [
        "d",
        "e"
      ],
      [
        "_L",
        "e"
      ],
      [
        "_",
        "1"
      ],
      [
        "_",
        "ont"
      ],
      [
        "o",
        "i"
      ],
      [
        "o",
        "s"
      ],
      [
        "it",
        "é"
      ],
      [
        "_",
        "2"
      ],
      [
        "_d'",
        "un"
      ],
      [
        "_",
        "F"
      ],
      [
        "_",
        "T"
      ],
      [
        "o",
        "ir"
      ],
      [
        "s",
        "."
      ],
      [
        "u",
        "e"
      ],
      [
        "s",
        ","
      ],
      [
        "_n",
        "e"
      ],
      [
        "c",
        "es"
      ],
      [
        "t",
        "es"
      ],
      [
        "_é",
        "té"
      ],
      [
        "n",
        "é"
      ],
      [
        "é",
        "ri"
      ],
      [
        "or",
        "t"
      ],
      [
        "_dé",
        "c"
      ],
      [
        "en",
        "ce"
      ],
      [
        "_s",
        "i"
      ],
      [
        "_c",
        "e"
      ],
      [
        "_L",
        "a"
      ],
      [
        "_",
        "o"
      ],
      [
        "b",
        "re"
      ],
      [
        "n",
        "i"
      ],
      [
        "_a",
        "c"
      ],
      [
        "_",
        "E"
      ],
      [
        "a",
        "le"
      ],
      [
        "our",
        "s"
      ],
      [
        "_é",
        "t"
      ],
      [
        "_",
        "»"
      ],
      [
        "u",
        "is"
      ],
      [
        "_",
        "«"
      ],
      [
        "a",
        "y"
      ],
      [
        "en",
        "s"
      ],
      [
        "g",
        "e"
      ],
      [
        "u",
        "x"
      ],
      [
        "_s",
        "er"
      ],
      [
        "_av",
        "ec"
      ],
      [
        "a",
        "v"
      ],
      [
        "u",
        "l"
      ],
      [
        "_l",
        "i"
      ],
      [
        "_",
        "R"
      ],
      [
        "i",
        "on"
      ],
      [
        "_s",
        "'"
      ],
      [
        "_t",
        "r"
      ],
      [
        "ur",
        "e"
      ],
      [
        "ation",
        "s"
      ],
      [
        "_L",
        "es"
      ],
      [
        "an",
        "ce"
      ],
      [
        "_au",
        "x"
      ],
      [
        "_j",
        "e"
      ],
      [
        "_",
        "G"
      ],
      [
        "é",
        "t"
      ],
      [
        "_s",
        "ont"
      ],
      [
        "_t",
        "ou"
      ],
      [
        "pr",
        "ès"
      ],
      [
        "_a",
        "l"
      ],
      [
        "f",
        "i"
      ],
      [
        "l",
        "é"
      ],
      [
        "a",
        "ti"
      ],
      [
        "_p",
        "r"
      ],
      [
        "_c",
        "ont"
      ],
      [
        "t",
        "at"
      ],
      [
        "et",
        "te"
      ],
      [
        "l",
        "ar"
      ],
      [
        "es",
        ","
      ],
      [
        "_p",
        "o"
      ],
      [
        "qu",
        "é"
      ],
      [
        "_I",
        "l"
      ],
      [
        "_qu'",
        "il"
      ],
      [
        "0",
        "0"
      ],
      [
        "_com",
        "m"
      ],
      [
        "_",
        "J"
      ],
      [
        "a",
        "d"
      ],
      [
        "m",
        "i"
      ],
      [
        "o",
        "g"
      ],
      [
        "\"",
        ","
      ],
      [
        "t",
        "a"
      ],
      [
        "t",
        "r"
      ],
      [
        "_m",
        "il"
      ],
      [
        "f",
        "or"
      ],
      [
        "o",
        "in"
      ],
      [
        "_e",
        "x"
      ],
      [
        "_m",
        "on"
      ],
      [
        "_n",
        "ous"
      ],
      [
        "_v",
        "i"
      ],
      [
        "p",
        "é"
      ],
      [
        "_p",
        "ay"
      ],
      [
        "_s",
        "es"
      ],
      [
        "p",
        "ar"
      ],
      [
        "ê",
        "tre"
      ],
      [
        "or",
        "s"
      ],
      [
        "eu",
        "x"
      ],
      [
        "o",
        "y"
      ],
      [
        "_av",
        "ait"
      ],
      [
        "ouv",
        "er"
      ],
      [
        "_",
        "ra"
      ],
      [
        "i",
        "en"
      ],
      [
        "on",
        "n"
      ],
      [
        "qu",
        "es"
      ],
      [
        "ent",
        "re"
      ],
      [
        "d",
        "ent"
      ],
      [
        "é",
        "r"
      ],
      [
        "is",
        "e"
      ],
      [
        "_m",
        "ais"
      ],
      [
        "il",
        "le"
      ],
      [
        "_f",
        "r"
      ],
      [
        "ag",
        "e"
      ],
      [
        "_",
        "i"
      ],
      [
        "_",
        "ou"
      ],
      [
        "t",
        "u"
      ],
      [
        "u",
        "b"
      ],
      [
        "te",
        "ur"
      ],
      [
        "_f",
        "ait"
      ],
      [
        "el",
        "les"
      ],
      [
        "c",
        "tion"
      ],
      [
        "_p",
        "er"
      ],
      [
        "_s",
        "a"
      ],
      [
        "_déc",
        "lar"
      ],
      [
        "_a",
        "pp"
      ],
      [
        "or",
        "d"
      ],
      [
        "d",
        "u"
      ],
      [
        "é",
        "di"
      ],
      [
        "_a",
        "m"
      ],
      [
        "_c",
        "ons"
      ],
      [
        "_t",
        "ra"
      ],
      [
        "_au",
        "t"
      ],
      [
        "_L",
        "'"
      ],
      [
        "si",
        "on"
      ],
      [
        "_in",
        "ter"
      ],
      [
        "i",
        "c"
      ],
      [
        "t",
        "-"
      ],
      [
        "_g",
        "r"
      ],
      [
        "_d'un",
        "e"
      ],
      [
        "_déclar",
        "é"
      ],
      [
        "_",
        "O"
      ],
      [
        "_",
        "y"
      ],
      [
        "c",
        "é"
      ],
      [
        "d",
        "é"
      ],
      [
        "m",
        "es"
      ],
      [
        "m",
        "and"
      ],
      [
        "_d",
        "is"
      ],
      [
        "_de",
        "ux"
      ],
      [
        "_m",
        "e"
      ],
      [
        "_n",
        "ouv"
      ],
      [
        "_a",
        "près"
      ],
      [
        "ent",
        "s"
      ],
      [
        "in",
        "e"
      ],
      [
        "_t",
        "ro"
      ],
      [
        "ne",
        "ment"
      ],
      [
        "_M",
        "."
      ],
      [
        "_a",
        "t"
      ],
      [
        "_s",
        "o"
      ],
      [
        "ou",
        "p"
      ],
      [
        "te",
        "ment"
      ],
      [
        "_f",
        "in"
      ],
      [
        "_",
        "elle"
      ],
      [
        "j",
        "et"
      ],
      [
        "u",
        "t"
      ],
      [
        "es",
        "s"
      ],
      [
        "_c",
        "ette"
      ],
      [
        "ai",
        "ne"
      ],
      [
        "_",
        "U"
      ],
      [
        "n",
        "ée"
      ],
      [
        "_p",
        "ers"
      ],
      [
        "al",
        "is"
      ],
      [
        "_par",
        "ti"
      ],
      [
        "_pas",
        "s"
      ],
      [
        "ab",
        "le"
      ],
      [
        "'",
        "est"
      ],
      [
        "_",
        "4"
      ],
      [
        "i",
        "g"
      ],
      [
        "p",
        "uis"
      ],
      [
        "_s",
        "u"
      ],
      [
        "ar",
        "d"
      ],
      [
        "il",
        "l"
      ],
      [
        "_di",
        "re"
      ],
      [
        "_»",
        ","
      ],
      [
        "_po",
        "li"
      ],
      [
        "ub",
        "li"
      ],
      [
        "_",
        "H"
      ],
      [
        "_",
        "K"
      ],
      [
        "_",
        "te"
      ],
      [
        "_",
        "res"
      ],
      [
        "a",
        "ce"
      ],
      [
        "e",
        "au"
      ],
      [
        "s",
        "ent"
      ],
      [
        "è",
        "me"
      ],
      [
        "_de",
        "r"
      ],
      [
        "er",
        "t"
      ],
      [
        "an",
        "g"
      ],
      [
        "_j",
        "our"
      ],
      [
        "_ch",
        "e"
      ],
      [
        "end",
        "re"
      ],
      [
        "_F",
        "r"
      ],
      [
        "_",
        "("
      ],
      [
        "e",
        "."
      ],
      [
        "m",
        "bre"
      ],
      [
        "v",
        "is"
      ],
      [
        "é",
        "né"
      ],
      [
        "te",
        "urs"
      ],
      [
        "_le",
        "ur"
      ],
      [
        "ri",
        "m"
      ],
      [
        "_re",
        "c"
      ],
      [
        "_",
        "3"
      ],
      [
        "b",
        "le"
      ],
      [
        "_l",
        "ui"
      ],
      [
        "_n",
        "o"
      ],
      [
        "_f",
        "aire"
      ],
      [
        "_2",
        "0"
      ],
      [
        "_ét",
        "ait"
      ],
      [
        "_mil",
        "li"
      ],
      [
        "é",
        "c"
      ],
      [
        "on",
        "d"
      ],
      [
        "_p",
        "eu"
      ],
      [
        "_de",
        "v"
      ],
      [
        "ai",
        "l"
      ],
      [
        "ain",
        "s"
      ],
      [
        "éri",
        "c"
      ],
      [
        "tat",
        "s"
      ],
      [
        "for",
        "m"
      ],
      [
        "oin",
        "s"
      ],
      [
        "_der",
        "ni"
      ],
      [
        "e",
        "x"
      ],
      [
        "m",
        "et"
      ],
      [
        "r",
        "ait"
      ],
      [
        "u",
        "m"
      ],
      [
        "_p",
        "or"
      ],
      [
        "ai",
        "res"
      ],
      [
        "ti",
        "n"
      ],
      [
        "ti",
        "que"
      ],
      [
        "n",
        "is"
      ],
      [
        "s",
        "s"
      ],
      [
        "Ã",
        "¢"
      ],
      [
        "é",
        "es"
      ],
      [
        "_a",
        "r"
      ],
      [
        "_m",
        "a"
      ],
      [
        "ri",
        "v"
      ],
      [
        "_com",
        "me"
      ],
      [
        "a",
        "p"
      ],
      [
        "c",
        "er"
      ],
      [
        "i",
        "que"
      ],
      [
        "_p",
        "re"
      ],
      [
        "_de",
        "puis"
      ],
      [
        "is",
        "t"
      ],
      [
        "_l'",
        "a"
      ],
      [
        "ant",
        "s"
      ],
      [
        "_é",
        "c"
      ],
      [
        "ag",
        "es"
      ],
      [
        "_in",
        "di"
      ],
      [
        "_ser",
        "vi"
      ],
      [
        "_ex",
        "p"
      ],
      [
        "e",
        "ur"
      ],
      [
        "ê",
        "me"
      ],
      [
        "_c",
        "es"
      ],
      [
        "_com",
        "p"
      ],
      [
        "_am",
        "éric"
      ],
      [
        "_pre",
        "mi"
      ],
      [
        "\"",
        "."
      ],
      [
        "er",
        ","
      ],
      [
        "_n",
        "om"
      ],
      [
        "it",
        "és"
      ],
      [
        "_f",
        "or"
      ],
      [
        "_t",
        "é"
      ],
      [
        "_b",
        "ien"
      ],
      [
        "si",
        "dent"
      ],
      [
        "_tro",
        "is"
      ],
      [
        "_20",
        "1"
      ],
      [
        "_",
        "entre"
      ],
      [
        "i",
        "ci"
      ],
      [
        "n",
        "es"
      ],
      [
        "_d",
        "ro"
      ],
      [
        "_l",
        "ors"
      ],
      [
        "_c",
        "ours"
      ],
      [
        "_m",
        "édi"
      ],
      [
        "le",
        "ment"
      ],
      [
        "eu",
        "di"
      ],
      [
        "_ac",
        "c"
      ],
      [
        "_",
        "être"
      ],
      [
        "e",
        ","
      ],
      [
        "m",
        "é"
      ],
      [
        "_s",
        "ec"
      ],
      [
        "tion",
        "s"
      ],
      [
        "el",
        "s"
      ],
      [
        "_dé",
        "p"
      ],
      [
        "_j",
        "us"
      ],
      [
        "_j",
        "eudi"
      ],
      [
        "_M",
        "ais"
      ],
      [
        "_g",
        "ouver"
      ],
      [
        "_tou",
        "t"
      ],
      [
        "_i",
        "mp"
      ],
      [
        "_pers",
        "onn"
      ],
      [
        "-",
        "t-"
      ],
      [
        "_",
        "on"
      ],
      [
        "h",
        "e"
      ],
      [
        "m",
        "b"
      ],
      [
        "s",
        "er"
      ],
      [
        "s",
        "si"
      ],
      [
        "t",
        "ent"
      ],
      [
        "v",
        "es"
      ],
      [
        "_a",
        "d"
      ],
      [
        "_de",
        "mand"
      ],
      [
        "qu",
        "'"
      ],
      [
        "ti",
        "f"
      ],
      [
        "_m",
        "ois"
      ],
      [
        "ar",
        "m"
      ],
      [
        "_l'",
        "A"
      ],
      [
        "_l'",
        "an"
      ],
      [
        "ment",
        "s"
      ],
      [
        "_j",
        "'"
      ],
      [
        "_pro",
        "jet"
      ],
      [
        "_n'",
        "a"
      ],
      [
        "_o",
        "b"
      ],
      [
        "_gr",
        "and"
      ],
      [
        "e",
        "ment"
      ],
      [
        "j",
        "ours"
      ],
      [
        "l",
        "er"
      ],
      [
        "t",
        "s"
      ],
      [
        "t",
        "ant"
      ],
      [
        "u",
        "é"
      ],
      [
        "en",
        "ir"
      ],
      [
        "_p",
        "ubli"
      ],
      [
        "_s",
        "ou"
      ],
      [
        "_c",
        "ré"
      ],
      [
        "_le",
        "urs"
      ],
      [
        "_au",
        "ssi"
      ],
      [
        "el",
        "on"
      ],
      [
        "au",
        "x"
      ],
      [
        "_r",
        "en"
      ],
      [
        "ac",
        "c"
      ],
      [
        "_nom",
        "bre"
      ],
      [
        "_gouver",
        "nement"
      ],
      [
        "m",
        "is"
      ],
      [
        "o",
        "o"
      ],
      [
        "o",
        "w"
      ],
      [
        "é",
        "g"
      ],
      [
        "es",
        "."
      ],
      [
        "_c",
        "li"
      ],
      [
        "_c",
        "ol"
      ],
      [
        "er",
        "."
      ],
      [
        "qu",
        "i"
      ],
      [
        "_m",
        "ar"
      ],
      [
        "_f",
        "er"
      ],
      [
        "_j",
        "u"
      ],
      [
        "_av",
        "ant"
      ],
      [
        "_se",
        "m"
      ],
      [
        "_e",
        "ff"
      ],
      [
        "_n'",
        "est"
      ],
      [
        "_tou",
        "jours"
      ],
      [
        "_J",
        "e"
      ],
      [
        "_",
        "W"
      ],
      [
        "l",
        "is"
      ],
      [
        "n",
        "on"
      ],
      [
        "o",
        "b"
      ],
      [
        "p",
        "ort"
      ],
      [
        "t",
        ","
      ],
      [
        "_d",
        "on"
      ],
      [
        "_d",
        "it"
      ],
      [
        "_c",
        "ar"
      ],
      [
        "_c",
        "our"
      ],
      [
        "an",
        "te"
      ],
      [
        "un",
        "e"
      ],
      [
        "_l'",
        "in"
      ],
      [
        "mp",
        "l"
      ],
      [
        "_o",
        "ù"
      ],
      [
        "_res",
        "p"
      ],
      [
        "-",
        "U"
      ],
      [
        "S",
        "A"
      ],
      [
        "_",
        "5"
      ],
      [
        "a",
        ","
      ],
      [
        "a",
        "us"
      ],
      [
        "l",
        "è"
      ],
      [
        "p",
        "h"
      ],
      [
        "t",
        "res"
      ],
      [
        "v",
        "en"
      ],
      [
        "en",
        "ces"
      ],
      [
        "_c",
        "'est"
      ],
      [
        "_c",
        "ert"
      ],
      [
        "ti",
        "s"
      ],
      [
        "om",
        "b"
      ],
      [
        "om",
        "p"
      ],
      [
        "el",
        "a"
      ],
      [
        "_v",
        "is"
      ],
      [
        "as",
        "s"
      ],
      [
        "_b",
        "r"
      ],
      [
        "_av",
        "oir"
      ],
      [
        "_pro",
        "g"
      ],
      [
        "_r",
        "est"
      ],
      [
        "_an",
        "s"
      ],
      [
        "_di",
        "ff"
      ],
      [
        "oc",
        "at"
      ],
      [
        "_E",
        "n"
      ],
      [
        "ale",
        "ment"
      ],
      [
        "_cont",
        "r"
      ],
      [
        "_cont",
        "re"
      ],
      [
        "_ra",
        "pp"
      ],
      [
        "_fr",
        "ais"
      ],
      [
        "_tra",
        "v"
      ],
      [
        "tats",
        "-U"
      ],
      [
        "_indi",
        "qué"
      ],
      [
        "tats-U",
        "nis"
      ],
      [
        "_",
        "V"
      ],
      [
        "_",
        "É"
      ],
      [
        "o",
        "p"
      ],
      [
        "o",
        "t"
      ],
      [
        "v",
        "é"
      ],
      [
        "y",
        "s"
      ],
      [
        "é",
        "ré"
      ],
      [
        "_p",
        "os"
      ],
      [
        "_s",
        "ui"
      ],
      [
        "ur",
        "g"
      ],
      [
        "_m",
        "in"
      ],
      [
        "it",
        "s"
      ],
      [
        "_d'",
        "a"
      ],
      [
        "_v",
        "endre"
      ],
      [
        "end",
        "ant"
      ],
      [
        "_pré",
        "sident"
      ],
      [
        "né",
        "es"
      ],
      [
        "_comm",
        "un"
      ],
      [
        "_dire",
        "c"
      ],
      [
        "_milli",
        "ons"
      ],
      [
        "g",
        "ue"
      ],
      [
        "n",
        "er"
      ],
      [
        "on",
        ","
      ],
      [
        "_p",
        "e"
      ],
      [
        "an",
        "i"
      ],
      [
        "ti",
        "v"
      ],
      [
        "ti",
        "er"
      ],
      [
        "is",
        "s"
      ],
      [
        "_m",
        "et"
      ],
      [
        "_m",
        "ême"
      ],
      [
        "te",
        "-"
      ],
      [
        "_t",
        "er"
      ],
      [
        "_l'",
        "av"
      ],
      [
        "ce",
        "p"
      ],
      [
        "_pro",
        "p"
      ],
      [
        "_P",
        "our"
      ],
      [
        "_tr",
        "ans"
      ],
      [
        "_poli",
        "ce"
      ],
      [
        "_vendre",
        "di"
      ],
      [
        "a",
        "te"
      ],
      [
        "m",
        "me"
      ],
      [
        "o",
        ","
      ],
      [
        "v",
        "re"
      ],
      [
        "v",
        "ent"
      ],
      [
        "en",
        "ne"
      ],
      [
        "on",
        "g"
      ],
      [
        "_a",
        "g"
      ],
      [
        "_a",
        "ff"
      ],
      [
        "_a",
        "ss"
      ],
      [
        "_s",
        "c"
      ],
      [
        "_s",
        "ol"
      ],
      [
        "_m",
        "es"
      ],
      [
        "in",
        "g"
      ],
      [
        "in",
        "si"
      ],
      [
        "ou",
        "l"
      ],
      [
        "le",
        "c"
      ],
      [
        "it",
        "u"
      ],
      [
        "_f",
        "ois"
      ],
      [
        "_t",
        "rim"
      ],
      [
        "al",
        "i"
      ],
      [
        "_dé",
        "par"
      ],
      [
        "_in",
        "s"
      ],
      [
        "_C",
        "h"
      ],
      [
        "se",
        "ment"
      ],
      [
        "_U",
        "ne"
      ],
      [
        "_che",
        "f"
      ],
      [
        "_exp",
        "li"
      ],
      [
        "_té",
        "lé"
      ],
      [
        "-t-",
        "il"
      ],
      [
        "_resp",
        "ons"
      ],
      [
        "_trav",
        "ail"
      ],
      [
        "_trim",
        "est"
      ],
      [
        "_",
        "$"
      ],
      [
        "g",
        "ne"
      ],
      [
        "i",
        "v"
      ],
      [
        "j",
        "ou"
      ],
      [
        "u",
        "er"
      ],
      [
        "u",
        "ti"
      ],
      [
        "u",
        "it"
      ],
      [
        "é",
        "d"
      ],
      [
        "_l",
        "oi"
      ],
      [
        "_p",
        "h"
      ],
      [
        "_s",
        "t"
      ],
      [
        "_c",
        "an"
      ],
      [
        "_c",
        "as"
      ],
      [
        "ti",
        "ques"
      ],
      [
        "_m",
        "'"
      ],
      [
        "_m",
        "ain"
      ],
      [
        "_d'",
        "être"
      ],
      [
        "_en",
        "c"
      ],
      [
        "_v",
        "o"
      ],
      [
        "_v",
        "ol"
      ],
      [
        "_v",
        "ie"
      ],
      [
        "_é",
        "g"
      ],
      [
        "_dé",
        "b"
      ],
      [
        "_dé",
        "v"
      ],
      [
        "_pro",
        "ch"
      ],
      [
        "ain",
        "es"
      ],
      [
        "_qu'",
        "elle"
      ],
      [
        "_il",
        "s"
      ],
      [
        "_N",
        "e"
      ],
      [
        "_N",
        "SA"
      ],
      [
        "ces",
        "s"
      ],
      [
        "_servi",
        "ce"
      ],
      [
        "_personn",
        "es"
      ],
      [
        "_contr",
        "ô"
      ],
      [
        "_",
        "Y"
      ],
      [
        "_",
        "ti"
      ],
      [
        "a",
        "x"
      ],
      [
        "i",
        "ons"
      ],
      [
        "l",
        "o"
      ],
      [
        "l",
        "le"
      ],
      [
        "m",
        "in"
      ],
      [
        "r",
        "aient"
      ],
      [
        "é",
        "té"
      ],
      [
        "ï",
        "ne"
      ],
      [
        "ô",
        "te"
      ],
      [
        "en",
        "am"
      ],
      [
        "_s",
        "ans"
      ],
      [
        "_s",
        "elon"
      ],
      [
        "_m",
        "ont"
      ],
      [
        "_qu",
        "at"
      ],
      [
        "te",
        "."
      ],
      [
        "or",
        "g"
      ],
      [
        "il",
        "s"
      ],
      [
        "it",
        "ta"
      ],
      [
        "_t",
        "ous"
      ],
      [
        "_d'",
        "in"
      ],
      [
        "ra",
        "tion"
      ],
      [
        "_b",
        "ais"
      ],
      [
        "_re",
        "p"
      ],
      [
        "_re",
        "t"
      ],
      [
        "_S",
        "i"
      ],
      [
        "_g",
        "éné"
      ],
      [
        "_pro",
        "du"
      ],
      [
        "_ré",
        "g"
      ],
      [
        "_pl",
        "ace"
      ],
      [
        "_con",
        "f"
      ],
      [
        "_con",
        "tin"
      ],
      [
        "_D",
        "itta"
      ],
      [
        "_pré",
        "c"
      ],
      [
        "_pré",
        "sent"
      ],
      [
        "_T",
        "r"
      ],
      [
        "_si",
        "g"
      ],
      [
        "_o",
        "ff"
      ],
      [
        "_li",
        "b"
      ],
      [
        "_R",
        "enam"
      ],
      [
        "fi",
        "c"
      ],
      [
        "_pay",
        "er"
      ],
      [
        "_so",
        "it"
      ],
      [
        "_pass",
        "ag"
      ],
      [
        "vis",
        "ion"
      ],
      [
        "_ég",
        "alement"
      ],
      [
        "_",
        "es"
      ],
      [
        "a",
        "z"
      ],
      [
        "a",
        "re"
      ],
      [
        "f",
        "ois"
      ],
      [
        "i",
        "es"
      ],
      [
        "i",
        "ème"
      ],
      [
        "j",
        "à"
      ],
      [
        "n",
        "alis"
      ],
      [
        "o",
        "le"
      ],
      [
        "p",
        "ec"
      ],
      [
        "u",
        "c"
      ],
      [
        "â",
        "€"
      ],
      [
        "_p",
        "ai"
      ],
      [
        "_a",
        "ur"
      ],
      [
        "_a",
        "insi"
      ],
      [
        "_c",
        "in"
      ],
      [
        "an",
        "ci"
      ],
      [
        "_n",
        "é"
      ],
      [
        "it",
        "an"
      ],
      [
        "_f",
        "a"
      ],
      [
        "_t",
        "ent"
      ],
      [
        "_t",
        "ax"
      ],
      [
        "ais",
        "on"
      ],
      [
        "_b",
        "ag"
      ],
      [
        "_in",
        "c"
      ],
      [
        "_in",
        "form"
      ],
      [
        "_re",
        "l"
      ],
      [
        "_C",
        "om"
      ],
      [
        "_ré",
        "vé"
      ],
      [
        "ch",
        "e"
      ],
      [
        "ch",
        "é"
      ],
      [
        "_an",
        "non"
      ],
      [
        "ie",
        "urs"
      ],
      [
        "_pré",
        "v"
      ],
      [
        "mp",
        "s"
      ],
      [
        "oc",
        "a"
      ],
      [
        "oi",
        "re"
      ],
      [
        "_2",
        "00"
      ],
      [
        "ge",
        "ment"
      ],
      [
        "_li",
        "eu"
      ],
      [
        "_nouv",
        "eau"
      ],
      [
        "_so",
        "ci"
      ],
      [
        "_Fr",
        "on"
      ],
      [
        "éné",
        "fi"
      ],
      [
        "_dro",
        "gue"
      ],
      [
        "_l'an",
        "née"
      ],
      [
        "_prog",
        "ra"
      ],
      [
        "_trimest",
        "re"
      ],
      [
        "-",
        "d"
      ],
      [
        "-",
        "m"
      ],
      [
        "_",
        "eu"
      ],
      [
        "c",
        "u"
      ],
      [
        "d",
        "y"
      ],
      [
        "i",
        "d"
      ],
      [
        "l",
        "in"
      ],
      [
        "o",
        "û"
      ],
      [
        "o",
        "pp"
      ],
      [
        "on",
        "ne"
      ],
      [
        "_p",
        "res"
      ],
      [
        "_p",
        "ouv"
      ],
      [
        "_s",
        "al"
      ],
      [
        "_c",
        "oca"
      ],
      [
        "qu",
        "ê"
      ],
      [
        "is",
        "tre"
      ],
      [
        "_m",
        "oins"
      ],
      [
        "ou",
        "te"
      ],
      [
        "_qu",
        "el"
      ],
      [
        "te",
        "in"
      ],
      [
        "_v",
        "ous"
      ],
      [
        "us",
        "si"
      ],
      [
        "_dé",
        "f"
      ],
      [
        "_dé",
        "jà"
      ],
      [
        "_par",
        "t"
      ],
      [
        "_pour",
        "rait"
      ],
      [
        "_re",
        "tr"
      ],
      [
        "ée",
        "."
      ],
      [
        "és",
        "."
      ],
      [
        "_se",
        "p"
      ],
      [
        "_e",
        "mpl"
      ],
      [
        "_N",
        "ous"
      ],
      [
        "_I",
        "n"
      ],
      [
        "_h",
        "om"
      ],
      [
        "_1",
        "0"
      ],
      [
        "ét",
        "ait"
      ],
      [
        "_mon",
        "de"
      ],
      [
        "_per",
        "met"
      ],
      [
        "_aut",
        "res"
      ],
      [
        "_comp",
        "ag"
      ],
      [
        "_améric",
        "ain"
      ],
      [
        "_jus",
        "qu'"
      ],
      [
        "org",
        "an"
      ],
      [
        "_",
        "?"
      ],
      [
        "_",
        "Q"
      ],
      [
        "_",
        "k"
      ],
      [
        "_",
        "urg"
      ],
      [
        "a",
        "."
      ],
      [
        "d",
        "at"
      ],
      [
        "h",
        "i"
      ],
      [
        "i",
        "x"
      ],
      [
        "s",
        "ence"
      ],
      [
        "u",
        "té"
      ],
      [
        "v",
        "er"
      ],
      [
        "ô",
        "t"
      ],
      [
        "_p",
        "ra"
      ],
      [
        "_s",
        "eu"
      ],
      [
        "is",
        "te"
      ],
      [
        "_m",
        "o"
      ],
      [
        "_m",
        "al"
      ],
      [
        "_v",
        "a"
      ],
      [
        "_v",
        "oul"
      ],
      [
        "_dé",
        "s"
      ],
      [
        "_b",
        "les"
      ],
      [
        "_b",
        "énéfi"
      ],
      [
        "_C",
        "e"
      ],
      [
        "_C",
        "og"
      ],
      [
        "_com",
        "pr"
      ],
      [
        "_ch",
        "an"
      ],
      [
        "_ch",
        "ar"
      ],
      [
        "ol",
        "og"
      ],
      [
        "ve",
        "ment"
      ],
      [
        "ve",
        "mbre"
      ],
      [
        "_ser",
        "ait"
      ],
      [
        "_al",
        "l"
      ],
      [
        "_pay",
        "s"
      ],
      [
        "_no",
        "vembre"
      ],
      [
        "_médi",
        "as"
      ],
      [
        "_j'",
        "ai"
      ],
      [
        "_cré",
        "m"
      ],
      [
        "_cert",
        "ains"
      ],
      [
        "_pe",
        "ti"
      ],
      [
        "_déb",
        "ut"
      ],
      [
        "ôte",
        "l"
      ],
      [
        "_passag",
        "ers"
      ],
      [
        "_bag",
        "ages"
      ],
      [
        "_Fron",
        "tier"
      ],
      [
        "_coca",
        "ïne"
      ],
      [
        "_Cog",
        "ec"
      ],
      [
        "_",
        "6"
      ],
      [
        "a",
        "ci"
      ],
      [
        "d",
        "en"
      ],
      [
        "n",
        "ow"
      ],
      [
        "o",
        "re"
      ],
      [
        "o",
        "pé"
      ],
      [
        "r",
        "er"
      ],
      [
        "t",
        "ri"
      ],
      [
        "u",
        "d"
      ],
      [
        "u",
        "es"
      ],
      [
        "ç",
        "on"
      ],
      [
        "è",
        "res"
      ],
      [
        "_d",
        "ont"
      ],
      [
        "_l",
        "oc"
      ],
      [
        "_p",
        "uis"
      ],
      [
        "_a",
        "éri"
      ],
      [
        "_a",
        "-t-il"
      ],
      [
        "_a",
        "jou"
      ],
      [
        "_s",
        "ous"
      ],
      [
        "_s",
        "éc"
      ],
      [
        "_c",
        "l"
      ],
      [
        "_c",
        "or"
      ],
      [
        "_c",
        "ro"
      ],
      [
        "re",
        "g"
      ],
      [
        "ti",
        "tu"
      ],
      [
        "_m",
        "en"
      ],
      [
        "te",
        ","
      ],
      [
        "_f",
        "our"
      ],
      [
        "ré",
        "s"
      ],
      [
        "_au",
        "près"
      ],
      [
        "_d'",
        "e"
      ],
      [
        "_d'",
        "au"
      ],
      [
        "_v",
        "oy"
      ],
      [
        "ec",
        "tif"
      ],
      [
        "_S",
        "ain"
      ],
      [
        "_S",
        "now"
      ],
      [
        "ci",
        "p"
      ],
      [
        "_ré",
        "s"
      ],
      [
        "_ch",
        "a"
      ],
      [
        "_con",
        "c"
      ],
      [
        "_an",
        "s."
      ],
      [
        "_D",
        "e"
      ],
      [
        "ve",
        "ill"
      ],
      [
        "_plus",
        "ieurs"
      ],
      [
        "_P",
        "ar"
      ],
      [
        "_T",
        "he"
      ],
      [
        "_ac",
        "tion"
      ],
      [
        "_ét",
        "aient"
      ],
      [
        "av",
        "oir"
      ],
      [
        "_tr",
        "ès"
      ],
      [
        "_G",
        "o"
      ],
      [
        "_al",
        "ors"
      ],
      [
        "_pr",
        "ès"
      ],
      [
        "_qu'il",
        "s"
      ],
      [
        "00",
        "0"
      ],
      [
        "ér",
        "ence"
      ],
      [
        "_app",
        "ar"
      ],
      [
        "_te",
        "mps"
      ],
      [
        "_premi",
        "er"
      ],
      [
        "mis",
        "sion"
      ],
      [
        "_cli",
        "ents"
      ],
      [
        "ob",
        "il"
      ],
      [
        "_aff",
        "ir"
      ],
      [
        "uti",
        "lis"
      ],
      [
        "_soci",
        "été"
      ],
      [
        "_jusqu'",
        "à"
      ],
      [
        "organ",
        "is"
      ],
      [
        "_bles",
        "s"
      ],
      [
        "_séc",
        "ur"
      ],
      [
        "_Snow",
        "den"
      ],
      [
        "2",
        "3"
      ],
      [
        "e",
        "urs"
      ],
      [
        "e",
        "ure"
      ],
      [
        "i",
        "er"
      ],
      [
        "m",
        "m"
      ],
      [
        "n",
        "ie"
      ],
      [
        "o",
        "ci"
      ],
      [
        "r",
        "ou"
      ],
      [
        "t",
        "end"
      ],
      [
        "v",
        "ir"
      ],
      [
        "é",
        "li"
      ],
      [
        "_p",
        "ri"
      ],
      [
        "_s",
        "é"
      ],
      [
        "_s",
        "ouv"
      ],
      [
        "_s",
        "oins"
      ],
      [
        "_s",
        "itu"
      ],
      [
        "_c",
        "ad"
      ],
      [
        "_c",
        "ap"
      ],
      [
        "er",
        "c"
      ],
      [
        "is",
        "tes"
      ],
      [
        "ar",
        "di"
      ],
      [
        "_qu",
        "and"
      ],
      [
        "le",
        "."
      ],
      [
        "il",
        "ité"
      ],
      [
        "_n",
        "i"
      ],
      [
        "_n",
        "on"
      ],
      [
        "_en",
        "f"
      ],
      [
        "el",
        "l"
      ],
      [
        "_v",
        "eu"
      ],
      [
        "_v",
        "ille"
      ],
      [
        "us",
        "e"
      ],
      [
        "al",
        "l"
      ],
      [
        "al",
        "li"
      ],
      [
        "ation",
        ","
      ],
      [
        "_re",
        "ven"
      ],
      [
        "_g",
        "ra"
      ],
      [
        "_pro",
        "f"
      ],
      [
        "se",
        "ig"
      ],
      [
        "_con",
        "cer"
      ],
      [
        "_an",
        "née"
      ],
      [
        "_D",
        "es"
      ],
      [
        "am",
        "ment"
      ],
      [
        "_qu'",
        "un"
      ],
      [
        "_h",
        "eur"
      ],
      [
        "_1",
        "9"
      ],
      [
        "_si",
        "te"
      ],
      [
        "_s'",
        "est"
      ],
      [
        "_J",
        "'"
      ],
      [
        "_gr",
        "oup"
      ],
      [
        "_dis",
        "p"
      ],
      [
        "_tro",
        "p"
      ],
      [
        "_parti",
        "e"
      ],
      [
        "ex",
        "p"
      ],
      [
        "_premi",
        "ère"
      ],
      [
        "_demand",
        "e"
      ],
      [
        "_sem",
        "aine"
      ],
      [
        "_rapp",
        "ort"
      ],
      [
        "_quat",
        "re"
      ],
      [
        "_progra",
        "mme"
      ],
      [
        "_Cogec",
        "o"
      ],
      [
        "_cad",
        "re"
      ],
      [
        "_",
        "%"
      ],
      [
        "_",
        ":"
      ],
      [
        "a",
        "vi"
      ],
      [
        "a",
        "teurs"
      ],
      [
        "d",
        "re"
      ],
      [
        "g",
        "ment"
      ],
      [
        "i",
        "b"
      ],
      [
        "l",
        "us"
      ],
      [
        "m",
        "on"
      ],
      [
        "r",
        "it"
      ],
      [
        "r",
        "al"
      ],
      [
        "t",
        "h"
      ],
      [
        "t",
        "o"
      ],
      [
        "t",
        "ra"
      ],
      [
        "t",
        "ac"
      ],
      [
        "t",
        "ure"
      ],
      [
        "é",
        "ro"
      ],
      [
        "_d",
        "ur"
      ],
      [
        "_l",
        "ég"
      ],
      [
        "_a",
        "b"
      ],
      [
        "_s",
        "ais"
      ],
      [
        "_s",
        "oi"
      ],
      [
        "er",
        "n"
      ],
      [
        "_m",
        "ati"
      ],
      [
        "_m",
        "ise"
      ],
      [
        "ar",
        "b"
      ],
      [
        "in",
        "s"
      ],
      [
        "et",
        "tes"
      ],
      [
        "_qu",
        "it"
      ],
      [
        "te",
        "mbre"
      ],
      [
        "le",
        "mand"
      ],
      [
        "or",
        "k"
      ],
      [
        "_l'",
        "é"
      ],
      [
        "_d'",
        "acc"
      ],
      [
        "el",
        "opp"
      ],
      [
        "_dé",
        "m"
      ],
      [
        "ais",
        "s"
      ],
      [
        "_b",
        "eau"
      ],
      [
        "ag",
        "ne"
      ],
      [
        "ag",
        "ence"
      ],
      [
        "_M",
        "23"
      ],
      [
        "que",
        ","
      ],
      [
        "_g",
        "ens"
      ],
      [
        "_ré",
        "p"
      ],
      [
        "ol",
        "lar"
      ],
      [
        "_D",
        "ans"
      ],
      [
        "_pré",
        "sence"
      ],
      [
        "_B",
        "r"
      ],
      [
        "_B",
        "omb"
      ],
      [
        "ni",
        "es"
      ],
      [
        "_E",
        "tats-Unis"
      ],
      [
        "_al",
        "lemand"
      ],
      [
        "ati",
        "f"
      ],
      [
        "_Il",
        "s"
      ],
      [
        "_comm",
        "er"
      ],
      [
        "par",
        "ole"
      ],
      [
        "_aut",
        "or"
      ],
      [
        "_O",
        "n"
      ],
      [
        "_at",
        "ta"
      ],
      [
        "_fin",
        "anci"
      ],
      [
        "_por",
        "te-"
      ],
      [
        "_servi",
        "ces"
      ],
      [
        "arm",
        "aci"
      ],
      [
        "_publi",
        "c"
      ],
      [
        "_col",
        "lec"
      ],
      [
        "_min",
        "istre"
      ],
      [
        "_direc",
        "teur"
      ],
      [
        "_sol",
        "dat"
      ],
      [
        "_expli",
        "qué"
      ],
      [
        "_ph",
        "armaci"
      ],
      [
        "_enc",
        "ore"
      ],
      [
        "_dév",
        "elopp"
      ],
      [
        "_Ne",
        "w"
      ],
      [
        "_bais",
        "se"
      ],
      [
        "_Renam",
        "o"
      ],
      [
        "_ajou",
        "té"
      ],
      [
        "ectif",
        "s"
      ],
      [
        "_Go",
        "og"
      ],
      [
        "_sécur",
        "ité"
      ],
      [
        "_Bomb",
        "ardi"
      ],
      [
        "_porte-",
        "parole"
      ],
      [
        ",",
        "5"
      ],
      [
        "_",
        "8"
      ],
      [
        "_",
        "ent"
      ],
      [
        "_",
        "000"
      ],
      [
        "a",
        "di"
      ],
      [
        "c",
        "om"
      ],
      [
        "c",
        "oup"
      ],
      [
        "d",
        "es"
      ],
      [
        "g",
        "h"
      ],
      [
        "g",
        "é"
      ],
      [
        "i",
        "m"
      ],
      [
        "i",
        "ch"
      ],
      [
        "i",
        "ers"
      ],
      [
        "m",
        "er"
      ],
      [
        "n",
        "ant"
      ],
      [
        "t",
        "amment"
      ],
      [
        "v",
        "al"
      ],
      [
        "é",
        ","
      ],
      [
        "ê",
        "t"
      ],
      [
        "_d",
        "ollar"
      ],
      [
        "en",
        "nes"
      ],
      [
        "_p",
        "le"
      ],
      [
        "_p",
        "ens"
      ],
      [
        "_p",
        "omp"
      ],
      [
        "_s",
        "éri"
      ],
      [
        "_s",
        "pé"
      ],
      [
        "_c",
        "rim"
      ],
      [
        "_c",
        "ela"
      ],
      [
        "_c",
        "éré"
      ],
      [
        "an",
        "ç"
      ],
      [
        "re",
        "di"
      ],
      [
        "_m",
        "i"
      ],
      [
        "or",
        "i"
      ],
      [
        "_n",
        "ation"
      ],
      [
        "_f",
        "e"
      ],
      [
        "_f",
        "ond"
      ],
      [
        "om",
        "obil"
      ],
      [
        "_d'",
        "é"
      ],
      [
        "_d'",
        "ess"
      ],
      [
        "_en",
        "quê"
      ],
      [
        "_v",
        "ers"
      ],
      [
        "ont",
        "ré"
      ],
      [
        "as",
        "h"
      ],
      [
        "us",
        "ine"
      ],
      [
        "al",
        "es"
      ],
      [
        "li",
        "g"
      ],
      [
        "_b",
        "es"
      ],
      [
        "_av",
        "ons"
      ],
      [
        "té",
        "s"
      ],
      [
        "_C",
        "ette"
      ],
      [
        "_C",
        "'est"
      ],
      [
        "_pro",
        "b"
      ],
      [
        "_r",
        "end"
      ],
      [
        "_an",
        "s,"
      ],
      [
        "_\"",
        "L"
      ],
      [
        "ac",
        "k"
      ],
      [
        "_A",
        "n"
      ],
      [
        "_n'",
        "y"
      ],
      [
        "_déc",
        "is"
      ],
      [
        "_ac",
        "tiv"
      ],
      [
        "_»",
        "."
      ],
      [
        "_li",
        "gne"
      ],
      [
        "_mil",
        "es"
      ],
      [
        "_inter",
        "n"
      ],
      [
        "ic",
        "ations"
      ],
      [
        "_nouv",
        "elle"
      ],
      [
        "_at",
        "tein"
      ],
      [
        "_U",
        "n"
      ],
      [
        "ill",
        "et"
      ],
      [
        "ang",
        "er"
      ],
      [
        "_rec",
        "ours"
      ],
      [
        "_ar",
        "riv"
      ],
      [
        "_ju",
        "ge"
      ],
      [
        "_É",
        "tats-Unis"
      ],
      [
        "_contrô",
        "le"
      ],
      [
        "_Y",
        "ork"
      ],
      [
        "_révé",
        "l"
      ],
      [
        "oû",
        "t"
      ],
      [
        "_sep",
        "tembre"
      ],
      [
        "_urg",
        "ences"
      ],
      [
        "_bénéfi",
        "ce"
      ],
      [
        "_pri",
        "x"
      ],
      [
        "erc",
        "redi"
      ],
      [
        "_Goog",
        "le"
      ],
      [
        "_crim",
        "in"
      ],
      [
        "_céré",
        "mon"
      ],
      [
        "_",
        "9"
      ],
      [
        "_",
        "oc"
      ],
      [
        "d",
        "'"
      ],
      [
        "d",
        "ui"
      ],
      [
        "e",
        "ar"
      ],
      [
        "i",
        "mp"
      ],
      [
        "j",
        "our"
      ],
      [
        "l",
        "and"
      ],
      [
        "n",
        "u"
      ],
      [
        "o",
        "se"
      ],
      [
        "r",
        "y"
      ],
      [
        "r",
        "ent"
      ],
      [
        "t",
        "en"
      ],
      [
        "t",
        "ème"
      ],
      [
        "v",
        "o"
      ],
      [
        "v",
        "it"
      ],
      [
        "v",
        "ers"
      ],
      [
        "è",
        "te"
      ],
      [
        "é",
        "."
      ],
      [
        "_l",
        "ong"
      ],
      [
        "en",
        "se"
      ],
      [
        "on",
        "te"
      ],
      [
        "_p",
        "endant"
      ],
      [
        "_p",
        "alli"
      ],
      [
        "_a",
        "i"
      ],
      [
        "_a",
        "ch"
      ],
      [
        "_s",
        "or"
      ],
      [
        "_s",
        "oir"
      ],
      [
        "_s",
        "uis"
      ],
      [
        "_s",
        "ys"
      ],
      [
        "_c",
        "aus"
      ],
      [
        "an",
        "c"
      ],
      [
        "qu",
        "ant"
      ],
      [
        "re",
        "."
      ],
      [
        "ent",
        "e"
      ],
      [
        "ti",
        "e"
      ],
      [
        "_m",
        "oy"
      ],
      [
        "our",
        "g"
      ],
      [
        "it",
        "es"
      ],
      [
        "_f",
        "us"
      ],
      [
        "ré",
        "sent"
      ],
      [
        "_l'",
        "E"
      ],
      [
        "_l'",
        "ar"
      ],
      [
        "_l'",
        "agence"
      ],
      [
        "_au",
        "tre"
      ],
      [
        "_au",
        "gment"
      ],
      [
        "as",
        "se"
      ],
      [
        "al",
        ","
      ],
      [
        "al",
        "ité"
      ],
      [
        "ri",
        "b"
      ],
      [
        "li",
        "er"
      ],
      [
        "si",
        "ons"
      ],
      [
        "_M",
        "ar"
      ],
      [
        "_C",
        "G"
      ],
      [
        "ci",
        "en"
      ],
      [
        "_com",
        "b"
      ],
      [
        "_ré",
        "f"
      ],
      [
        "ée",
        ","
      ],
      [
        "_sur",
        "veill"
      ],
      [
        "_ch",
        "ois"
      ],
      [
        "_r",
        "aison"
      ],
      [
        "_con",
        "g"
      ],
      [
        "_D",
        "avi"
      ],
      [
        "pp",
        "el"
      ],
      [
        "ab",
        "les"
      ],
      [
        "_n'",
        "ont"
      ],
      [
        "_n'",
        "av"
      ],
      [
        "_1",
        "00"
      ],
      [
        "_si",
        "mp"
      ],
      [
        "_E",
        "t"
      ],
      [
        "_E",
        "lle"
      ],
      [
        "_s'",
        "ag"
      ],
      [
        "_G",
        "oo"
      ],
      [
        "_pr",
        "is"
      ],
      [
        "_comm",
        "and"
      ],
      [
        "_mon",
        "di"
      ],
      [
        "ction",
        "s"
      ],
      [
        "dé",
        "p"
      ],
      [
        "_su",
        "p"
      ],
      [
        "_Fr",
        "ance"
      ],
      [
        "_derni",
        "er"
      ],
      [
        "_améric",
        "aine"
      ],
      [
        "_médi",
        "c"
      ],
      [
        "_imp",
        "ort"
      ],
      [
        "_ob",
        "j"
      ],
      [
        "_sui",
        "te"
      ],
      [
        "_met",
        "tre"
      ],
      [
        "ing",
        "t"
      ],
      [
        "_dépar",
        "tement"
      ],
      [
        "_respons",
        "able"
      ],
      [
        "_rep",
        "résent"
      ],
      [
        "_ret",
        "our"
      ],
      [
        "_géné",
        "ral"
      ],
      [
        "_né",
        "cess"
      ],
      [
        "_inform",
        "ations"
      ],
      [
        "dy",
        "ear"
      ],
      [
        "_empl",
        "oy"
      ],
      [
        "_voy",
        "age"
      ],
      [
        "_rés",
        "ul"
      ],
      [
        "vir",
        "on"
      ],
      [
        "to",
        "bre"
      ],
      [
        "_beau",
        "coup"
      ],
      [
        "_pomp",
        "iers"
      ],
      [
        "_intern",
        "ation"
      ],
      [
        "_palli",
        "atif"
      ],
      [
        "_sys",
        "tème"
      ],
      [
        "_Davi",
        "d"
      ],
      [
        "_Goo",
        "dyear"
      ],
      [
        ".",
        "."
      ],
      [
        "_",
        "7"
      ],
      [
        "_",
        "eux"
      ],
      [
        "_",
        "â€"
      ],
      [
        "_",
        "utilis"
      ],
      [
        "a",
        "ur"
      ],
      [
        "a",
        "de"
      ],
      [
        "b",
        "ourg"
      ],
      [
        "c",
        "our"
      ],
      [
        "c",
        "arb"
      ],
      [
        "g",
        "es"
      ],
      [
        "g",
        "ent"
      ],
      [
        "h",
        "ui"
      ],
      [
        "l",
        "ent"
      ],
      [
        "m",
        "an"
      ],
      [
        "m",
        "ais"
      ],
      [
        "m",
        "oi"
      ],
      [
        "n",
        "age"
      ],
      [
        "o",
        "it"
      ],
      [
        "o",
        "si"
      ],
      [
        "o",
        "de"
      ],
      [
        "p",
        "it"
      ],
      [
        "r",
        "ai"
      ],
      [
        "r",
        "is"
      ],
      [
        "t",
        "ur"
      ],
      [
        "t",
        "enir"
      ],
      [
        "u",
        "de"
      ],
      [
        "Å",
        "“"
      ],
      [
        "è",
        "ne"
      ],
      [
        "è",
        "ge"
      ],
      [
        "es",
        "p"
      ],
      [
        "_l",
        "à"
      ],
      [
        "en",
        ","
      ],
      [
        "en",
        "n"
      ],
      [
        "en",
        "y"
      ],
      [
        "_s",
        "our"
      ],
      [
        "_s",
        "om"
      ],
      [
        "_s",
        "us"
      ],
      [
        "_c",
        "it"
      ],
      [
        "_c",
        "am"
      ],
      [
        "_c",
        "uis"
      ],
      [
        "_c",
        "oup"
      ],
      [
        "an",
        "vi"
      ],
      [
        "an",
        "ces"
      ],
      [
        "ti",
        "qu"
      ],
      [
        "_m",
        "om"
      ],
      [
        "_m",
        "ani"
      ],
      [
        "_m",
        "ercredi"
      ],
      [
        "ar",
        "i"
      ],
      [
        "or",
        "ig"
      ],
      [
        "it",
        "aires"
      ],
      [
        "_f",
        "on"
      ],
      [
        "_f",
        "am"
      ],
      [
        "_t",
        "est"
      ],
      [
        "_t",
        "ot"
      ],
      [
        "_l'",
        "H"
      ],
      [
        "_l'",
        "O"
      ],
      [
        "_l'",
        "U"
      ],
      [
        "_l'",
        "ai"
      ],
      [
        "_l'",
        "acc"
      ],
      [
        "_au",
        "c"
      ],
      [
        "_au",
        "-d"
      ],
      [
        "_v",
        "er"
      ],
      [
        "ro",
        "ix"
      ],
      [
        "ant",
        ","
      ],
      [
        "ri",
        "ère"
      ],
      [
        "_é",
        "ch"
      ],
      [
        "ais",
        "e"
      ],
      [
        "_j",
        "am"
      ],
      [
        "_j",
        "anvi"
      ],
      [
        "_b",
        "as"
      ],
      [
        "_av",
        "ions"
      ],
      [
        "té",
        "ri"
      ],
      [
        "si",
        "d"
      ],
      [
        "_re",
        "pr"
      ],
      [
        "_M",
        "ontré"
      ],
      [
        "_C",
        "S"
      ],
      [
        "_C",
        "ela"
      ],
      [
        "_S",
        "on"
      ],
      [
        "_S",
        "carb"
      ],
      [
        "au",
        "t"
      ],
      [
        "que",
        "."
      ],
      [
        "que",
        "ment"
      ],
      [
        "_g",
        "ar"
      ],
      [
        "_com",
        "ment"
      ],
      [
        "_ch",
        "os"
      ],
      [
        "and",
        "is"
      ],
      [
        "_r",
        "ê"
      ],
      [
        "_pré",
        "cé"
      ],
      [
        "elle",
        "ment"
      ],
      [
        "am",
        "b"
      ],
      [
        "_A",
        "ir"
      ],
      [
        "ab",
        "lis"
      ],
      [
        "ab",
        "ilité"
      ],
      [
        "_di",
        "ri"
      ],
      [
        "_T",
        "itan"
      ],
      [
        "ati",
        "ve"
      ],
      [
        "_pr",
        "in"
      ],
      [
        "tr",
        "uc"
      ],
      [
        "_vi",
        "ol"
      ],
      [
        "_aut",
        "omobil"
      ],
      [
        "_nouv",
        "elles"
      ],
      [
        "_poli",
        "tique"
      ],
      [
        "ubli",
        "c"
      ],
      [
        "_jour",
        "nalis"
      ],
      [
        "_rec",
        "ul"
      ],
      [
        "_peu",
        "vent"
      ],
      [
        "met",
        "ure"
      ],
      [
        "Ã¢",
        "ble"
      ],
      [
        "_ma",
        "î"
      ],
      [
        "_dép",
        "uté"
      ],
      [
        "arm",
        "ée"
      ],
      [
        "_ren",
        "seig"
      ],
      [
        "_fer",
        "meture"
      ],
      [
        "_don",
        "nées"
      ],
      [
        "ph",
        "on"
      ],
      [
        "_ter",
        "me"
      ],
      [
        "_trans",
        "port"
      ],
      [
        "_préc",
        "is"
      ],
      [
        "_Tr",
        "ans"
      ],
      [
        "_pai",
        "x"
      ],
      [
        "_cin",
        "q"
      ],
      [
        "_fa",
        "çon"
      ],
      [
        "_annon",
        "cé"
      ],
      [
        "_compag",
        "nie"
      ],
      [
        "_bless",
        "és"
      ],
      [
        "_J'",
        "ai"
      ],
      [
        "_Br",
        "ux"
      ],
      [
        "_séri",
        "e"
      ],
      [
        "_bes",
        "oin"
      ],
      [
        "_activ",
        "ités"
      ],
      [
        "d'",
        "hui"
      ],
      [
        "jour",
        "d'hui"
      ],
      [
        "_surveill",
        "ance"
      ],
      [
        "_simp",
        "lement"
      ],
      [
        "_command",
        "es"
      ],
      [
        "_â€",
        "“"
      ],
      [
        "_jam",
        "ais"
      ],
      [
        "_renseig",
        "nement"
      ],
      [
        "'",
        "était"
      ],
      [
        "-",
        "D"
      ],
      [
        "-",
        "de"
      ],
      [
        "C",
        "roix"
      ],
      [
        "I",
        "n"
      ],
      [
        "R",
        "S"
      ],
      [
        "_",
        "À"
      ],
      [
        "_",
        "ç"
      ],
      [
        "_",
        "ri"
      ],
      [
        "_",
        "ord"
      ],
      [
        "_",
        "ess"
      ],
      [
        "a",
        "h"
      ],
      [
        "a",
        "teur"
      ],
      [
        "b",
        "er"
      ],
      [
        "b",
        "ec"
      ],
      [
        "c",
        "teurs"
      ],
      [
        "d",
        "it"
      ],
      [
        "h",
        "om"
      ],
      [
        "i",
        "eu"
      ],
      [
        "i",
        "qué"
      ],
      [
        "k",
        "s"
      ],
      [
        "l",
        "ai"
      ],
      [
        "l",
        "am"
      ],
      [
        "m",
        "ment"
      ],
      [
        "o",
        "."
      ],
      [
        "o",
        "ff"
      ],
      [
        "p",
        "s"
      ],
      [
        "r",
        "ont"
      ],
      [
        "r",
        "ès"
      ],
      [
        "ô",
        "pit"
      ],
      [
        "_d",
        "ou"
      ],
      [
        "_d",
        "onn"
      ],
      [
        "es",
        "tion"
      ],
      [
        "en",
        "u"
      ],
      [
        "on",
        "."
      ],
      [
        "on",
        "om"
      ],
      [
        "_p",
        "u"
      ],
      [
        "_p",
        "ère"
      ],
      [
        "_p",
        "éri"
      ],
      [
        "_p",
        "ati"
      ],
      [
        "_p",
        "riv"
      ],
      [
        "_s",
        "y"
      ],
      [
        "_s",
        "pec"
      ],
      [
        "_c",
        "ir"
      ],
      [
        "an",
        "ti"
      ],
      [
        "ur",
        "opé"
      ],
      [
        "qu",
        "elles"
      ],
      [
        "ti",
        "me"
      ],
      [
        "is",
        "sion"
      ],
      [
        "_m",
        "oi"
      ],
      [
        "_m",
        "éd"
      ],
      [
        "in",
        "t"
      ],
      [
        "ou",
        "gh"
      ],
      [
        "or",
        "mais"
      ],
      [
        "or",
        "ough"
      ],
      [
        "il",
        "les"
      ],
      [
        "_n",
        "et"
      ],
      [
        "_f",
        "ou"
      ],
      [
        "ré",
        "e"
      ],
      [
        "_l'",
        "éc"
      ],
      [
        "_l'",
        "usine"
      ],
      [
        "_d'",
        "en"
      ],
      [
        "_d'",
        "ad"
      ],
      [
        "_en",
        "reg"
      ],
      [
        "ro",
        "p"
      ],
      [
        "ce",
        "v"
      ],
      [
        "us",
        "é"
      ],
      [
        "ant",
        "."
      ],
      [
        "ant",
        "s."
      ],
      [
        "ri",
        "r"
      ],
      [
        "ri",
        "er"
      ],
      [
        "di",
        "c"
      ],
      [
        "_par",
        "ce"
      ],
      [
        "_par",
        "cour"
      ],
      [
        "ne",
        "y"
      ],
      [
        "_b",
        "o"
      ],
      [
        "_av",
        "aient"
      ],
      [
        "_av",
        "ocat"
      ],
      [
        "eu",
        "f"
      ],
      [
        "ag",
        "er"
      ],
      [
        "si",
        "ble"
      ],
      [
        "_re",
        "g"
      ],
      [
        "_C",
        "es"
      ],
      [
        "_C",
        "an"
      ],
      [
        "_C",
        "ong"
      ],
      [
        "ec",
        "tu"
      ],
      [
        "_S",
        "ur"
      ],
      [
        "_S",
        "elon"
      ],
      [
        "au",
        "d"
      ],
      [
        "_ré",
        "se"
      ],
      [
        "_ré",
        "alis"
      ],
      [
        "_pl",
        "ani"
      ],
      [
        "ch",
        "er"
      ],
      [
        "_ch",
        "er"
      ],
      [
        "_A",
        "près"
      ],
      [
        "_di",
        "x"
      ],
      [
        "vi",
        "ent"
      ],
      [
        "_1",
        "5"
      ],
      [
        "oi",
        "x"
      ],
      [
        "_2",
        "5"
      ],
      [
        "_ac",
        "cep"
      ],
      [
        "_ser",
        "a"
      ],
      [
        "_ser",
        "ont"
      ],
      [
        "_R",
        "ussi"
      ],
      [
        "_s'",
        "a"
      ],
      [
        "_tr",
        "ouv"
      ],
      [
        "_tr",
        "ouver"
      ],
      [
        "_pr",
        "êt"
      ],
      [
        "_vi",
        "dé"
      ],
      [
        "_i",
        "mm"
      ],
      [
        "_per",
        "du"
      ],
      [
        "_app",
        "are"
      ],
      [
        "_me",
        "mb"
      ],
      [
        "_pers",
        "onne"
      ],
      [
        "_su",
        "pp"
      ],
      [
        "_dire",
        "ction"
      ],
      [
        "_te",
        "l"
      ],
      [
        "_te",
        "ch"
      ],
      [
        "_no",
        "tamment"
      ],
      [
        "_milli",
        "ard"
      ],
      [
        "_dev",
        "ant"
      ],
      [
        "_dev",
        "rait"
      ],
      [
        "_derni",
        "ère"
      ],
      [
        "_ma",
        "j"
      ],
[...]
