{
  "version": "1.0",
  "truncation": null,
  "padding": null,
  "added_tokens": [
    {
      "id": 0,
      "content": "<s>",
      "single_word": false,
      "lstrip": false,
      "rstrip": false,
      "normalized": false,
      "special": true
    },
    {
      "id": 1,
      "content": "<pad>",
      "single_word": false,
      "lstrip": false,
      "rstrip": false,
      "normalized": false,
      "special": true
    },
    {
      "id": 2,
      "content": "</s>",
      "single_word": false,
      "lstrip": false,
      "rstrip": false,
      "normalized": false,
      "special": true
    },
    {
      "id": 3,
      "content": "<unk>",
      "single_word": false,
      "lstrip": false,
      "rstrip": false,
      "normalized": false,
      "special": true
    }
  ],
  "normalizer": null,
  "pre_tokenizer": {
    "type": "Metaspace",
    "replacement": "_",
    "prepend_scheme": "always",
    "split": true
  },
  "post_processor": {
    "type": "TemplateProcessing",
    "single": [
      {
        "SpecialToken": {
          "id": "<s>",
          "type_id": 0
        }
      },
      {
        "Sequence": {
          "id": "A",
          "type_id": 0
        }
      },
      {
        "SpecialToken": {
          "id": "</s>",
          "type_id": 0
        }
      }
    ],
    "pair": [
      {
        "SpecialToken": {
          "id": "<s>",
          "type_id": 0
        }
      },
      {
        "Sequence": {
          "id": "A",
          "type_id": 0
        }
      },
      {
        "SpecialToken": {
          "id": "</s>",
          "type_id": 0
        }
      },
      {
        "Sequence": {
          "id": "B",
          "type_id": 1
        }
      },
      {
        "SpecialToken": {
          "id": "</s>",
          "type_id": 1
        }
      }
    ],
    "special_tokens": {
      "</s>": {
        "id": "</s>",
        "ids": [
          2
        ],
        "tokens": [
          "</s>"
        ]
      },
      "<s>": {
        "id": "<s>",
        "ids": [
          0
        ],
        "tokens": [
          "<s>"
        ]
      }
    }
  },
  "decoder": {
    "type": "Metaspace",
    "replacement": "_",
    "prepend_scheme": "always",
    "split": true
  },
  "model": {
    "type": "BPE",
    "dropout": null,
    "unk_token": "<unk>",
    "continuing_subword_prefix": null,
    "end_of_word_suffix": null,
    "fuse_unk": false,
    "byte_fallback": false,
    "ignore_merges": false,
    "vocab": {
      "<s>": 0,
      "<pad>": 1,
      "</s>": 2,
      "<unk>": 3,
      "!": 4,
      "\"": 5,
      "$": 6,
      "%": 7,
      "&": 8,
      "'": 9,
      "(": 10,
      ")": 11,
      "+": 12,
      ",": 13,
      "-": 14,
      ".": 15,
      "/": 16,
      "0": 17,
      "1": 18,
      "2": 19,
      "3": 20,
      "4": 21,
      "5": 22,
      "6": 23,
      "7": 24,
      "8": 25,
      "9": 26,
      ":": 27,
      ";": 28,
      "?": 29,
      "A": 30,
      "B": 31,
      "C": 32,
      "D": 33,
      "E": 34,
      "F": 35,
      "G": 36,
      "H": 37,
      "I": 38,
      "J": 39,
      "K": 40,
      "L": 41,
      "M": 42,
      "N": 43,
      "O": 44,
      "P": 45,
      "Q": 46,
      "R": 47,
      "S": 48,
      "T": 49,
      "U": 50,
      "V": 51,
      "W": 52,
      "X": 53,
      "Y": 54,
      "Z": 55,
      "[": 56,
      "]": 57,
      "_": 58,
      "a": 59,
      "b": 60,
      "c": 61,
      "d": 62,
      "e": 63,
      "f": 64,
      "g": 65,
      "h": 66,
      "i": 67,
      "j": 68,
      "k": 69,
      "l": 70,
      "m": 71,
      "n": 72,
      "o": 73,
      "p": 74,
      "q": 75,
      "r": 76,
      "s": 77,
      "t": 78,
      "u": 79,
      "v": 80,
      "w": 81,
      "x": 82,
      "y": 83,
      "z": 84,
      "¢": 85,
      "£": 86,
      "«": 87,
      "¬": 88,
      "¶": 89,
      "¼": 90,
      "Â": 91,
      "Ã": 92,
      "É": 93,
      "à": 94,
      "â": 95,
      "ç": 96,
      "è": 97,
      "é": 98,
      "ê": 99,
      "ï": 100,
      "ô": 101,
      "‚": 102,
      "_t": 103,
      "he": 104,
      "_a": 105,
      "in": 106,
      "_the": 107,
      "re": 108,
      "on": 109,
      "er": 110,
      "_s": 111,
      "_w": 112,
      "_o": 113,
      "en": 114,
      "at": 115,
      "_c": 116,
      "ed": 117,
      "is": 118,
      "an": 119,
      "or": 120,
      "it": 121,
      "_b": 122,
      "es": 123,
      "_p": 124,
      "ing": 125,
      "_of": 126,
      "_in": 127,
      "_f": 128,
      "_to": 129,
      "ar": 130,
      "al": 131,
      "_an": 132,
      "_h": 133,
      "_m": 134,
      "ic": 135,
      "ou": 136,
      "as": 137,
      "_d": 138,
      "ion": 139,
      "le": 140,
      "_and": 141,
      "om": 142,
      "_th": 143,
      "il": 144,
      "ent": 145,
      "_re": 146,
      "id": 147,
      "_T": 148,
      "ve": 149,
      "_be": 150,
      "_n": 151,
      "_e": 152,
      "st": 153,
      "ro": 154,
      "_l": 155,
      "_on": 156,
      "_A": 157,
      "_g": 158,
      "ct": 159,
      "ce": 160,
      "ay": 161,
      "ol": 162,
      "ad": 163,
      "ot": 164,
      "ut": 165,
      "ur": 166,
      "_S": 167,
      "ly": 168,
      "ir": 169,
      "_is": 170,
      "se": 171,
      "ver": 172,
      "_I": 173,
      "_for": 174,
      "_\"": 175,
      "ow": 176,
      "_that": 177,
      "_C": 178,
      "et": 179,
      "_The": 180,
      "ation": 181,
      "_he": 182,
      "ig": 183,
      "im": 184,
      "_M": 185,
      "ill": 186,
      "_st": 187,
      "am": 188,
      "_u": 189,
      "_B": 190,
      "ers": 191,
      "_wh": 192,
      "el": 193,
      "_it": 194,
      "_was": 195,
      "ac": 196,
      "ter": 197,
      "_as": 198,
      "ith": 199,
      "_F": 200,
      "_con": 201,
      "_with": 202,
      "ri": 203,
      "_at": 204,
      "_de": 205,
      "'s": 206,
      "_al": 207,
      "_we": 208,
      "ld": 209,
      "ch": 210,
      "pe": 211,
      "ment": 212,
      "ra": 213,
      "_H": 214,
      "ul": 215,
      "s.": 216,
      "_P": 217,
      "nd": 218,
      "s,": 219,
      "_ha": 220,
      "_sa": 221,
      "us": 222,
      "_by": 223,
      "ge": 224,
      "ist": 225,
      "her": 226,
      "and": 227,
      "op": 228,
      "_y": 229,
      "_pro": 230,
      "_N": 231,
      "_are": 232,
      "res": 233,
      "_se": 234,
      "_ex": 235,
      "ak": 236,
      "if": 237,
      "ort": 238,
      "_com": 239,
      "_has": 240,
      "est": 241,
      "_said": 242,
      "_ne": 243,
      "ate": 244,
      "rom": 245,
      "ies": 246,
      "_ch": 247,
      "ore": 248,
      "_G": 249,
      "_D": 250,
      "_E": 251,
      "ain": 252,
      "_have": 253,
      "_not": 254,
      "_O": 255,
      "red": 256,
      "art": 257,
      "ear": 258,
      "our": 259,
      "_R": 260,
      "igh": 261,
      "th": 262,
      "ould": 263,
      "_r": 264,
      "os": 265,
      "_from": 266,
      "ren": 267,
      "_W": 268,
      "_his": 269,
      "_U": 270,
      "end": 271,
      "_v": 272,
      "_su": 273,
      "_will": 274,
      "_or": 275,
      "ity": 276,
      "_sh": 277,
      ",\"": 278,
      "_1": 279,
      "ack": 280,
      "ab": 281,
      "ess": 282,
      "_2": 283,
      "oc": 284,
      "em": 285,
      "_L": 286,
      "qu": 287,
      "ive": 288,
      "pp": 289,
      "iv": 290,
      "ice": 291,
      "_le": 292,
      "un": 293,
      "ust": 294,
      "cc": 295,
      "ard": 296,
      "_ab": 297,
      "_been": 298,
      "oo": 299,
      "ber": 300,
      "ant": 301,
      "_this": 302,
      "ich": 303,
      "mer": 304,
      "_who": 305,
      "ast": 306,
      "rou": 307,
      "00": 308,
      "ight": 309,
      "ie": 310,
      "_year": 311,
      "_whe": 312,
      "all": 313,
      "ord": 314,
      "gh": 315,
      "ial": 316,
      "out": 317,
      "ost": 318,
      "oun": 319,
      "ud": 320,
      "_had": 321,
      "_ad": 322,
      "ff": 323,
      "ical": 324,
      "_j": 325,
      "_their": 326,
      "_tr": 327,
      "_pl": 328,
      "_Th": 329,
      "_which": 330,
      "um": 331,
      "ance": 332,
      "_k": 333,
      "ther": 334,
      "_ag": 335,
      "_int": 336,
      "_were": 337,
      "_off": 338,
      "pt": 339,
      "ue": 340,
      "_do": 341,
      "pl": 342,
      "day": 343,
      "_In": 344,
      "_its": 345,
      "ire": 346,
      "ag": 347,
      "ong": 348,
      "_J": 349,
      "ous": 350,
      "_-": 351,
      "_they": 352,
      "_but": 353,
      "ence": 354,
      "ome": 355,
      "ident": 356,
      "over": 357,
      "_out": 358,
      "_cl": 359,
      "ell": 360,
      "ry": 361,
      "_wor": 362,
      "per": 363,
      "ated": 364,
      "_acc": 365,
      "es,": 366,
      "ass": 367,
      "age": 368,
      "_Fr": 369,
      "ect": 370,
      "ine": 371,
      "ia": 372,
      "ary": 373,
      "_un": 374,
      "_up": 375,
      "ans": 376,
      "_me": 377,
      "_new": 378,
      "one": 379,
      "_cont": 380,
      "old": 381,
      "_pe": 382,
      "_pol": 383,
      "fter": 384,
      "ub": 385,
      "ure": 386,
      "ide": 387,
      "au": 388,
      "port": 389,
      "_sp": 390,
      "_res": 391,
      "ople": 392,
      "_about": 393,
      "low": 394,
      "_comp": 395,
      "_would": 396,
      "enc": 397,
      "_inc": 398,
      "ake": 399,
      "so": 400,
      "ild": 401,
      "ays": 402,
      "ime": 403,
      "_can": 404,
      "_man": 405,
      "od": 406,
      "_per": 407,
      "_St": 408,
      "ult": 409,
      "aw": 410,
      "_tw": 411,
      "ed.": 412,
      "es.": 413,
      "ction": 414,
      "_Ch": 415,
      "_people": 416,
      "ree": 417,
      "are": 418,
      "ations": 419,
      "ign": 420,
      "ian": 421,
      "_ser": 422,
      "_also": 423,
      "_K": 424,
      "ru": 425,
      "_ar": 426,
      "vel": 427,
      "very": 428,
      "_after": 429,
      "ite": 430,
      "able": 431,
      "ace": 432,
      "ep": 433,
      "ew": 434,
      "ven": 435,
      "_other": 436,
      "_pres": 437,
      "_rec": 438,
      "ke": 439,
      "_im": 440,
      "hed": 441,
      "ap": 442,
      "ove": 443,
      "ond": 444,
      "_dis": 445,
      "_He": 446,
      "_one": 447,
      "erm": 448,
      "_all": 449,
      "een": 450,
      "og": 451,
      "ib": 452,
      "ks": 453,
      "ition": 454,
      "_more": 455,
      "overn": 456,
      "orm": 457,
      "own": 458,
      "illion": 459,
      "_20": 460,
      "ase": 461,
      "_bec": 462,
      "_us": 463,
      "_two": 464,
      ".\"": 465,
      "_(": 466,
      "_there": 467,
      "_she": 468,
      "_part": 469,
      "_It": 470,
      "ual": 471,
      "itt": 472,
      "_when": 473,
      "ile": 474,
      "uro": 475,
      "_Mr": 476,
      "du": 477,
      "rent": 478,
      "ose": 479,
      "_so": 480,
      "ip": 481,
      "y.": 482,
      "_spe": 483,
      "_over": 484,
      "_inter": 485,
      "_my": 486,
      "ame": 487,
      "overnment": 488,
      "'t": 489,
      "_Y": 490,
      "ied": 491,
      "king": 492,
      "lic": 493,
      "anc": 494,
      "ctor": 495,
      "_dec": 496,
      "ount": 497,
      "vic": 498,
      "wn": 499,
      "arg": 500,
      "a,": 501,
      "y,": 502,
      "ious": 503,
      "_pre": 504,
      "_inv": 505,
      "_fir": 506,
      "_bet": 507,
      "ail": 508,
      "ric": 509,
      "_her": 510,
      "ording": 511,
      "_qu": 512,
      "ier": 513,
      "_car": 514,
      "nder": 515,
      "ough": 516,
      "oy": 517,
      "rit": 518,
      "sion": 519,
      "_sur": 520,
      "_time": 521,
      "_them": 522,
      "_\"T": 523,
      "_into": 524,
      "_him": 525,
      "_being": 526,
      "_could": 527,
      "_first": 528,
      "ont": 529,
      "_sc": 530,
      "ish": 531,
      "_Euro": 532,
      "_no": 533,
      "_att": 534,
      "_sec": 535,
      "_Un": 536,
      "ft": 537,
      "form": 538,
      "_government": 539,
      "ood": 540,
      "ving": 541,
      "_mon": 542,
      "ced": 543,
      "ec": 544,
      "ates": 545,
      "ited": 546,
      "_million": 547,
      "sel": 548,
      "_201": 549,
      "_V": 550,
      "_en": 551,
      "ning": 552,
      "_te": 553,
      "ince": 554,
      "_\"I": 555,
      "_conf": 556,
      "meric": 557,
      "fore": 558,
      "ath": 559,
      "ating": 560,
      "_ind": 561,
      "_fe": 562,
      "urs": 563,
      "_said.": 564,
      "_plan": 565,
      "_Europe": 566,
      "_fin": 567,
      "ark": 568,
      "_than": 569,
      "now": 570,
      "ved": 571,
      "ound": 572,
      "_Americ": 573,
      "pect": 574,
      "_$": 575,
      "ph": 576,
      "ade": 577,
      "_But": 578,
      "_child": 579,
      "_where": 580,
      "_ap": 581,
      "_air": 582,
      "_li": 583,
      "uring": 584,
      "ational": 585,
      "_add": 586,
      "_again": 587,
      "ause": 588,
      "_tra": 589,
      "int": 590,
      "_med": 591,
      "ased": 592,
      "vices": 593,
      "_some": 594,
      "_Is": 595,
      "_under": 596,
      "erson": 597,
      "_Thurs": 598,
      "ublic": 599,
      "_Thursday": 600,
      "iz": 601,
      "eng": 602,
      "_back": 603,
      "_cons": 604,
      "air": 605,
      "ween": 606,
      "ang": 607,
      "ors": 608,
      "ally": 609,
      "_before": 610,
      "_ass": 611,
      "_you": 612,
      "act": 613,
      "_count": 614,
      "ision": 615,
      "ange": 616,
      "_ph": 617,
      "_em": 618,
      "ress": 619,
      "_comm": 620,
      "round": 621,
      "ok": 622,
      "ities": 623,
      "_ann": 624,
      "_reg": 625,
      "_ele": 626,
      "_On": 627,
      "_just": 628,
      "av": 629,
      "ll": 630,
      "_these": 631,
      "_down": 632,
      "_US": 633,
      "_years": 634,
      "_between": 635,
      "_ro": 636,
      "fe": 637,
      "land": 638,
      "vers": 639,
      "roup": 640,
      "_work": 641,
      "_according": 642,
      "_law": 643,
      "_go": 644,
      "_prov": 645,
      "_3": 646,
      "_cre": 647,
      "_pass": 648,
      "ollow": 649,
      "_\"The": 650,
      "_appe": 651,
      "te": 652,
      "_say": 653,
      "_bu": 654,
      "_Ob": 655,
      "_imp": 656,
      "_if": 657,
      "ax": 658,
      "med": 659,
      "_am": 660,
      "ens": 661,
      "_three": 662,
      "_Sc": 663,
      "_offic": 664,
      "_4": 665,
      "ject": 666,
      "ines": 667,
      "er,": 668,
      "ank": 669,
      "_bl": 670,
      "iday": 671,
      "_supp": 672,
      "_because": 673,
      "_spec": 674,
      "_aut": 675,
      "_cent": 676,
      "omet": 677,
      "_An": 678,
      "_get": 679,
      "urn": 680,
      "_show": 681,
      "_200": 682,
      "rough": 683,
      "_police": 684,
      "erman": 685,
      "_month": 686,
      "ek": 687,
      "ob": 688,
      "ris": 689,
      "_says": 690,
      "ory": 691,
      "als": 692,
      "ach": 693,
      "_This": 694,
      "_ra": 695,
      "sib": 696,
      "_tak": 697,
      "ised": 698,
      "ing,": 699,
      "_report": 700,
      "_even": 701,
      "_state": 702,
      "_German": 703,
      "ency": 704,
      "ever": 705,
      "gan": 706,
      "_our": 707,
      "ings": 708,
      "_make": 709,
      "omm": 710,
      "_what": 711,
      "_Friday": 712,
      "lud": 713,
      "ty": 714,
      "reat": 715,
      "_want": 716,
      "_any": 717,
      "_most": 718,
      "other": 719,
      "_New": 720,
      "ared": 721,
      "e,": 722,
      "ral": 723,
      "xt": 724,
      "ern": 725,
      "_way": 726,
      "_des": 727,
      "ions": 728,
      "_use": 729,
      "_United": 730,
      "ss": 731,
      "_act": 732,
      "_call": 733,
      "_mem": 734,
      "_group": 735,
      "_start": 736,
      "_19": 737,
      "_against": 738,
      "_very": 739,
      "ked": 740,
      "und": 741,
      "_pos": 742,
      "_follow": 743,
      "_during": 744,
      "ists": 745,
      "rench": 746,
      "_should": 747,
      "fit": 748,
      "_take": 749,
      "read": 750,
      "ork": 751,
      "_br": 752,
      "_now": 753,
      "_last": 754,
      "_need": 755,
      "_world": 756,
      "_compan": 757,
      "_invest": 758,
      "SA": 759,
      "hing": 760,
      "year": 761,
      "_sm": 762,
      "_since": 763,
      "_rel": 764,
      "_rele": 765,
      "_And": 766,
      "_still": 767,
      "_expl": 768,
      "ific": 769,
      "_like": 770,
      "_5": 771,
      "hor": 772,
      "vent": 773,
      "_bus": 774,
      "arly": 775,
      "alth": 776,
      "row": 777,
      "_gen": 778,
      "_French": 779,
      "_week": 780,
      "_trans": 781,
      "_contin": 782,
      "\".": 783,
      "ere": 784,
      "ured": 785,
      "_tri": 786,
      "_own": 787,
      "_che": 788,
      "ital": 789,
      "_public": 790,
      "arl": 791,
      "_min": 792,
      "_dire": 793,
      "_bel": 794,
      "_every": 795,
      "_former": 796,
      "_includ": 797,
      "_announ": 798,
      "aj": 799,
      "ient": 800,
      "n't": 801,
      "o,": 802,
      "ram": 803,
      "yst": 804,
      "_test": 805,
      "hen": 806,
      "eral": 807,
      "_fl": 808,
      "_did": 809,
      "_long": 810,
      "_only": 811,
      "_gu": 812,
      "_\"W": 813,
      "_conc": 814,
      "_How": 815,
      "_We": 816,
      "_such": 817,
      "ock": 818,
      "_lead": 819,
      "_know": 820,
      "_disc": 821,
      "_attack": 822,
      "_official": 823,
      "ajor": 824,
      "ck": 825,
      "con": 826,
      "ted": 827,
      "ward": 828,
      "iness": 829,
      "_well": 830,
      "ise": 831,
      "_pa": 832,
      "_how": 833,
      "_dif": 834,
      "cept": 835,
      "amp": 836,
      "000": 837,
      "a.": 838,
      "oint": 839,
      "ather": 840,
      "_cour": 841,
      "ission": 842,
      "arch": 843,
      "_major": 844,
      "_through": 845,
      "_rem": 846,
      "_At": 847,
      "eli": 848,
      "_def": 849,
      "ife": 850,
      "ful": 851,
      "mber": 852,
      "ool": 853,
      "_around": 854,
      "_cur": 855,
      "_person": 856,
      "_told": 857,
      "_hand": 858,
      "ick": 859,
      "ict": 860,
      "_day": 861,
      "_dri": 862,
      "_head": 863,
      "ook": 864,
      "_France": 865,
      "_end": 866,
      "vice": 867,
      "ing.": 868,
      "_ins": 869,
      "_four": 870,
      "_may": 871,
      "_mark": 872,
      "_rep": 873,
      "_giv": 874,
      "ution": 875,
      "ers,": 876,
      "_produ": 877,
      "iew": 878,
      "_American": 879,
      ",000": 880,
      "ered": 881,
      "nes": 882,
      "ober": 883,
      "_cr": 884,
      "ed,": 885,
      "ister": 886,
      "_fam": 887,
      "_fire": 888,
      "ale": 889,
      "_high": 890,
      "_ret": 891,
      "_Al": 892,
      "_Air": 893,
      "_expect": 894,
      "_Wh": 895,
      "_left": 896,
      "_many": 897,
      "_Obam": 898,
      "sible": 899,
      "_business": 900,
      "ne": 901,
      "nal": 902,
      "ts": 903,
      "up": 904,
      "_found": 905,
      "ctober": 906,
      "urity": 907,
      "ation,": 908,
      "_Brit": 909,
      "_see": 910,
      "_sever": 911,
      "self": 912,
      "_author": 913,
      "_ident": 914,
      "man": 915,
      "the": 916,
      "uch": 917,
      "on,": 918,
      "_war": 919,
      "_inst": 920,
      "_loc": 921,
      "_They": 922,
      "ers.": 923,
      "_exper": 924,
      "_children": 925,
      "-d": 926,
      "-year": 927,
      "ave": 928,
      "bs": 929,
      "ble": 930,
      "eb": 931,
      "ting": 932,
      "ures": 933,
      "ying": 934,
      "ator": 935,
      "ouse": 936,
      "_requ": 937,
      "_hel": 938,
      "chool": 939,
      "_10": 940,
      "_adm": 941,
      "_surve": 942,
      "_European": 943,
      "engers": 944,
      "_country": 945,
      "ever,": 946,
      "ee": 947,
      "ger": 948,
      "ix": 949,
      "ind": 950,
      "ene": 951,
      "ative": 952,
      "_pri": 953,
      "_fore": 954,
      "arge": 955,
      "_made": 956,
      "_rest": 957,
      "_num": 958,
      "_eff": 959,
      "_devel": 960,
      "used": 961,
      "osed": 962,
      "_place": 963,
      "_ke": 964,
      "_does": 965,
      "_Isra": 966,
      "_elect": 967,
      "_several": 968,
      "_develop": 969,
      "az": 970,
      "led": 971,
      "mon": 972,
      "_tax": 973,
      "_app": 974,
      "inist": 975,
      "_inj": 976,
      "_mat": 977,
      "_dat": 978,
      "_Br": 979,
      "_devices": 980,
      "resident": 981,
      "_exp": 982,
      "ies.": 983,
      "_October": 984,
      "_right": 985,
      "ender": 986,
      "_organ": 987,
      "_belie": 988,
      "_Obama": 989,
      "S.": 990,
      "ah": 991,
      "gency": 992,
      "line": 993,
      "ret": 994,
      "_sold": 995,
      "_col": 996,
      "ism": 997,
      "_move": 998,
      "_those": 999,
      "_though": 1000,
      "ility": 1001,
      "_ref": 1002,
      "_la": 1003,
      "_There": 1004,
      "_while": 1005,
      "_For": 1006,
      "_dep": 1007,
      "ified": 1008,
      "orth": 1009,
      "_come": 1010,
      "artment": 1011,
      "rence": 1012,
      "_ord": 1013,
      "_press": 1014,
      "_Scot": 1015,
      "_\"We": 1016,
      "_ent": 1017,
      "_ve": 1018,
      "gle": 1019,
      "iol": 1020,
      "ink": 1021,
      "inal": 1022,
      "_bo": 1023,
      "_pr": 1024,
      "_mus": 1025,
      "_rece": 1026,
      "_Sy": 1027,
      "_Cl": 1028,
      "_Comm": 1029,
      "ploy": 1030,
      "_incre": 1031,
      "_support": 1032,
      "_investig": 1033,
      "ystem": 1034,
      "conom": 1035,
      "_famil": 1036,
      "_help": 1037,
      "ged": 1038,
      "lin": 1039,
      "tain": 1040,
      "ug": 1041,
      "ves": 1042,
      "way": 1043,
      "_then": 1044,
      "_set": 1045,
      "_system": 1046,
      "orn": 1047,
      "_pay": 1048,
      "omb": 1049,
      "_life": 1050,
      "_Aust": 1051,
      "ation.": 1052,
      "imes": 1053,
      "els": 1054,
      "ular": 1055,
      "s,\"": 1056,
      "_your": 1057,
      "_sex": 1058,
      "_next": 1059,
      "_De": 1060,
      "_Re": 1061,
      "ages": 1062,
      "_news": 1063,
      "rug": 1064,
      "_arm": 1065,
      "_medical": 1066,
      "ready": 1067,
      "\",": 1068,
      "get": 1069,
      "oh": 1070,
      "_sit": 1071,
      "_somet": 1072,
      "atic": 1073,
      "aris": 1074,
      "_dist": 1075,
      "ents": 1076,
      "_econom": 1077,
      "_iss": 1078,
      "illance": 1079,
      "_str": 1080,
      "_stud": 1081,
      "tern": 1082,
      "_already": 1083,
      "ract": 1084,
      "_President": 1085,
      "_prog": 1086,
      "_U.": 1087,
      "oci": 1088,
      "_year,": 1089,
      "arget": 1090,
      "iously": 1091,
      "_second": 1092,
      "_build": 1093,
      "_taken": 1094,
      "_surveillance": 1095,
      "_Austral": 1096,
      "-s": 1097,
      "_'": 1098,
      "_6": 1099,
      "ces": 1100,
      "_target": 1101,
      "_ac": 1102,
      "_same": 1103,
      "_oper": 1104,
      "_co": 1105,
      "_care": 1106,
      "ished": 1107,
      "esp": 1108,
      "_pat": 1109,
      "_free": 1110,
      "_home": 1111,
      "_mil": 1112,
      "_mak": 1113,
      "_ev": 1114,
      "_lat": 1115,
      "_Acc": 1116,
      "_gr": 1117,
      "_gas": 1118,
      "_Co": 1119,
      "elle": 1120,
      "rib": 1121,
      "_happ": 1122,
      "_ext": 1123,
      "_trad": 1124,
      "_dog": 1125,
      "_States": 1126,
      "_president": 1127,
      "_carry": 1128,
      "_find": 1129,
      "_going": 1130,
      "_passengers": 1131,
      "_concern": 1132,
      "_However,": 1133,
      "_number": 1134,
      "-old": 1135,
      "_7": 1136,
      "_8": 1137,
      "app": 1138,
      "den": 1139,
      "gy": 1140,
      "ways": 1141,
      "_term": 1142,
      "ons": 1143,
      "on't": 1144,
      "_ca": 1145,
      "_cust": 1146,
      "iss": 1147,
      "_inf": 1148,
      "_mor": 1149,
      "ided": 1150,
      "ross": 1151,
      "_loo": 1152,
      "_As": 1153,
      "_good": 1154,
      "_health": 1155,
      "_NSA": 1156,
      "_ris": 1157,
      "_vot": 1158,
      "_sub": 1159,
      "_kill": 1160,
      "_polit": 1161,
      "_polic": 1162,
      "ody": 1163,
      "_services": 1164,
      "_travel": 1165,
      "_following": 1166,
      "_director": 1167,
      "_market": 1168,
      "_Syri": 1169,
      "iers": 1170,
      "ivers": 1171,
      "o.": 1172,
      "_cost": 1173,
      "_point": 1174,
      "aring": 1175,
      "_ant": 1176,
      "_much": 1177,
      "_emer": 1178,
      "ull": 1179,
      "_chang": 1180,
      "_change": 1181,
      "ially": 1182,
      "_adv": 1183,
      "_close": 1184,
      "ellig": 1185,
      "_spok": 1186,
      "_resp": 1187,
      "_recent": 1188,
      "_used": 1189,
      "_invol": 1190,
      "_activ": 1191,
      "_diffe": 1192,
      "-year-old": 1193,
      "_data": 1194,
      "_U.S.": 1195,
      "_custom": 1196,
      "_9": 1197,
      "aim": 1198,
      "bers": 1199,
      "ched": 1200,
      "i-": 1201,
      "most": 1202,
      "ues": 1203,
      "_tal": 1204,
      "er.": 1205,
      "_sign": 1206,
      "_wat": 1207,
      "_inform": 1208,
      "_thir": 1209,
      "_lo": 1210,
      "_Sec": 1211,
      "_stop": 1212,
      "_always": 1213,
      "_profit": 1214,
      "_seat": 1215,
      "_Ex": 1216,
      "osp": 1217,
      "ffic": 1218,
      "ically": 1219,
      "day,": 1220,
      "_meet": 1221,
      "ovember": 1222,
      "_including": 1223,
      "_injured": 1224,
      "23": 1225,
      "cess": 1226,
      "i,": 1227,
      "ls": 1228,
      "ron": 1229,
      "hes": 1230,
      "on.": 1231,
      "_card": 1232,
      "_cap": 1233,
      "_case": 1234,
      "_pop": 1235,
      "ash": 1236,
      "_det": 1237,
      "_net": 1238,
      "_grow": 1239,
      "ety": 1240,
      "_Pal": 1241,
      "_having": 1242,
      "_November": 1243,
      "ately": 1244,
      "ies,": 1245,
      "_able": 1246,
      "_year.": 1247,
      "_decision": 1248,
      "_confir": 1249,
      "_feel": 1250,
      "_media": 1251,
      "_employ": 1252,
      "_called": 1253,
      "erest": 1254,
      "_announced": 1255,
      "_court": 1256,
      "elligence": 1257,
      "-b": 1258,
      "ault": 1259,
      "les": 1260,
      "ns": 1261,
      "ront": 1262,
      "_aff": 1263,
      "ins": 1264,
      "_sent": 1265,
      "_sus": 1266,
      "_school": 1267,
      "_wom": 1268,
      "_ob": 1269,
      "_occ": 1270,
      "ense": 1271,
      "_bre": 1272,
      "_put": 1273,
      "_past": 1274,
      "_fil": 1275,
      "_face": 1276,
      "_took": 1277,
      "arm": 1278,
      "_di": 1279,
      "_drug": 1280,
      "ute": 1281,
      "_Sh": 1282,
      "_Can": 1283,
      "_FA": 1284,
      "_National": 1285,
      "_Goo": 1286,
      "ended": 1287,
      "_Lond": 1288,
      "_interest": 1289,
      "_service": 1290,
      "rict": 1291,
      "_financ": 1292,
      "_regul": 1293,
      "_explain": 1294,
      "_current": 1295,
      "_given": 1296,
      "_expected": 1297,
      "_British": 1298,
      "_Israeli": 1299,
      "_Google": 1300,
      "-t": 1301,
      "cent": 1302,
      "ner": 1303,
      "view": 1304,
      "_ter": 1305,
      "_cor": 1306,
      "ednes": 1307,
      "its": 1308,
      "_fight": 1309,
      "_town": 1310,
      "_hour": 1311,
      "_mar": 1312,
      "_mid": 1313,
      "outh": 1314,
      "ion,": 1315,
      "_rese": 1316,
      "_great": 1317,
      "olic": 1318,
      "_Se": 1319,
      "_Bar": 1320,
      "ried": 1321,
      "_almost": 1322,
      "chn": 1323,
      "_prot": 1324,
      "_Wednes": 1325,
      "ending": 1326,
      "ember": 1327,
      "ief": 1328,
      "_play": 1329,
      "ump": 1330,
      "_claim": 1331,
      "augh": 1332,
      "_record": 1333,
      "ually": 1334,
      "_quar": 1335,
      "_company": 1336,
      "),": 1337,
      "1.": 1338,
      "CA": 1339,
      "ex": 1340,
      "hip": 1341,
      "ik": 1342,
      "ling": 1343,
      "ope": 1344,
      "ror": 1345,
      "work": 1346,
      "ined": 1347,
      "itor": 1348,
      "_bro": 1349,
      "ars": 1350,
      "_think": 1351,
      "_Tw": 1352,
      "olog": 1353,
      "ower": 1354,
      "_M23": 1355,
      "_Bo": 1356,
      "_Bro": 1357,
      "change": 1358,
      "ments": 1359,
      "_Paris": 1360,
      "uss": 1361,
      "ussel": 1362,
      "_project": 1363,
      "_said:": 1364,
      "_Ren": 1365,
      "_viol": 1366,
      "_short": 1367,
      "_Le": 1368,
      "pped": 1369,
      "ivil": 1370,
      "_kn": 1371,
      "_contro": 1372,
      "epend": 1373,
      "_\"It": 1374,
      "inistr": 1375,
      "_Brussel": 1376,
      "_receiv": 1377,
      "_program": 1378,
      "_According": 1379,
      "_information": 1380,
      "..": 1381,
      "2.": 1382,
      "_Q": 1383,
      "aff": 1384,
      "ior": 1385,
      "ired": 1386,
      "lam": 1387,
      "ned": 1388,
      "welle": 1389,
      "inc": 1390,
      "ony": 1391,
      "ederal": 1392,
      "_bank": 1393,
      "_post": 1394,
      "_five": 1395,
      "_too": 1396,
      "alf": 1397,
      "_hold": 1398,
      "_met": 1399,
      "_mone": 1400,
      "_read": 1401,
      "_To": 1402,
      "rop": 1403,
      "_list": 1404,
      "oth": 1405,
      "_Mont": 1406,
      "_Bwelle": 1407,
      "_dem": 1408,
      "_death": 1409,
      "_allow": 1410,
      "_Pro": 1411,
      "_never": 1412,
      "_charg": 1413,
      "_rul": 1414,
      "ives": 1415,
      "_whether": 1416,
      "_track": 1417,
      "_intelligence": 1418,
      "_result": 1419,
      "_perform": 1420,
      "_partic": 1421,
      "_security": 1422,
      "_members": 1423,
      "_release": 1424,
      "_parent": 1425,
      "_foreign": 1426,
      "_keep": 1427,
      "_Scotland": 1428,
      "ronic": 1429,
      "io": 1430,
      "nel": 1431,
      "_turn": 1432,
      "ones": 1433,
      "_opp": 1434,
      "_came": 1435,
      "_crit": 1436,
      "_another": 1437,
      "_men": 1438,
      "icult": 1439,
      "ases": 1440,
      "_don't": 1441,
      "le,": 1442,
      "_really": 1443,
      "_beh": 1444,
      "_each": 1445,
      "stit": 1446,
      "_Ar": 1447,
      "_I'": 1448,
      "_Cong": 1449,
      "_Min": 1450,
      "_stay": 1451,
      "_without": 1452,
      "_Hall": 1453,
      "_youn": 1454,
      "unic": 1455,
      "_jud": 1456,
      "_comple": 1457,
      "ogn": 1458,
      "ances": 1459,
      "_better": 1460,
      "_tele": 1461,
      "_appeal": 1462,
      "_possible": 1463,
      "_bring": 1464,
      "blem": 1465,
      "_situ": 1466,
      "_morning": 1467,
      "_political": 1468,
      "_emergency": 1469,
      "'re": 1470,
      "-p": 1471,
      "hic": 1472,
      "ience": 1473,
      "light": 1474,
      "lines": 1475,
      "lished": 1476,
      "not": 1477,
      "ness": 1478,
      "ten": 1479,
      "uber": 1480,
      "_cle": 1481,
      "_civil": 1482,
      "_host": 1483,
      "_died": 1484,
      "_reb": 1485,
      "_Ad": 1486,
      "_got": 1487,
      "_gender": 1488,
      "oll": 1489,
      "_Snow": 1490,
      "_form": 1491,
      "ries": 1492,
      "_deb": 1493,
      "_Was": 1494,
      "_15": 1495,
      "ocr": 1496,
      "_leave": 1497,
      "_office": 1498,
      "_Joh": 1499,
      "_--": 1500,
      "ruction": 1501,
      "_recogn": 1502,
      "_using": 1503,
      "_It's": 1504,
      "duct": 1505,
      "_York": 1506,
      "ctors": 1507,
      "ecut": 1508,
      "_team": 1509,
      "_plane": 1510,
      "_repres": 1511,
      "_local": 1512,
      "_priv": 1513,
      "_electronic": 1514,
      "_vehic": 1515,
      "ospital": 1516,
      "_protect": 1517,
      "_Minister": 1518,
      "_young": 1519,
      "_Snowden": 1520,
      "co": 1521,
      "iod": 1522,
      "oot": 1523,
      "pa": 1524,
      "t.": 1525,
      "til": 1526,
      "vision": 1527,
      "ys": 1528,
      "ream": 1529,
      "ering": 1530,
      "_sim": 1531,
      "_big": 1532,
      "_book": 1533,
      "_bene": 1534,
      "ese": 1535,
      "_reve": 1536,
      "_Tr": 1537,
      "_national": 1538,
      "_less": 1539,
      "_large": 1540,
      "_Ab": 1541,
      "_give": 1542,
      "_She": 1543,
      "_staff": 1544,
      "_Be": 1545,
      "acy": 1546,
      "ops": 1547,
      "_problem": 1548,
      "_seem": 1549,
      "ournal": 1550,
      "_run": 1551,
      "_vis": 1552,
      "ively": 1553,
      "_leg": 1554,
      "_least": 1555,
      "ants": 1556,
      "ia,": 1557,
      "_compet": 1558,
      "_period": 1559,
      "_quest": 1560,
      "ized": 1561,
      "_region": 1562,
      "_started": 1563,
      "_continue": 1564,
      "_remain": 1565,
      "_return": 1566,
      "_soldiers": 1567,
      "_music": 1568,
      "_different": 1569,
      "_quarter": 1570,
      "_Brussels": 1571,
      "2,": 1572,
      "a's": 1573,
      "aul": 1574,
      "cue": 1575,
      "ele": 1576,
      "ficult": 1577,
      "uck": 1578,
      "_av": 1579,
      "ero": 1580,
      "_sw": 1581,
      "_sing": 1582,
      "_sol": 1583,
      "_sour": 1584,
      "_wr": 1585,
      "_went": 1586,
      "_op": 1587,
      "_camp": 1588,
      "ising": 1589,
      "itary": 1590,
      "_pub": 1591,
      "_pract": 1592,
      "_fac": 1593,
      "_toget": 1594,
      "_house": 1595,
      "_half": 1596,
      "_might": 1597,
      "_real": 1598,
      "_land": 1599,
      "_light": 1600,
      "_Am": 1601,
      "_After": 1602,
      "_Ass": 1603,
      "_gl": 1604,
      "ural": 1605,
      "_If": 1606,
      "_\"L": 1607,
      "_Mon": 1608,
      "_Ber": 1609,
      "_it.": 1610,
      "_it's": 1611,
      "_asked": 1612,
      "_conduct": 1613,
      "rip": 1614,
      "riend": 1615,
      "_deal": 1616,
      "_webs": 1617,
      "ment,": 1618,
      "raft": 1619,
      "istic": 1620,
      "_proper": 1621,
      "_Ne": 1622,
      "_comes": 1623,
      "_Dav": 1624,
      "_EU": 1625,
      "_En": 1626,
      "aine": 1627,
      "_Or": 1628,
      "_succ": 1629,
      "ity,": 1630,
      "_share": 1631,
      "ocaine": 1632,
      "que": 1633,
      "ivid": 1634,
      "_Intern": 1635,
      "_access": 1636,
      "_Front": 1637,
      "_arri": 1638,
      "_decl": 1639,
      "_prev": 1640,
      "_techn": 1641,
      "_independ": 1642,
      "_phone": 1643,
      "_appear": 1644,
      "_saying": 1645,
      "medi": 1646,
      "_continu": 1647,
      "_authorities": 1648,
      "_family": 1649,
      "_third": 1650,
      "_FAA": 1651,
      "_London": 1652,
      "_financial": 1653,
      "_research": 1654,
      "_together": 1655,
      "-f": 1656,
      "50": 1657,
      "aign": 1658,
      "ike": 1659,
      "me": 1660,
      "mical": 1661,
      "_bill": 1662,
      "_based": 1663,
      "_body": 1664,
      "_today": 1665,
      "_mod": 1666,
      "lement": 1667,
      "ention": 1668,
      "_lot": 1669,
      "_gir": 1670,
      "_\"H": 1671,
      "oween": 1672,
      "_Cent": 1673,
      "eter": 1674,
      "_execut": 1675,
      "_Gl": 1676,
      "_Ditt": 1677,
      "_With": 1678,
      "ession": 1679,
      "ptember": 1680,
      "_clos": 1681,
      "_present": 1682,
      "_immedi": 1683,
      "_\"Th": 1684,
      "_2011": 1685,
      "_Thursday,": 1686,
      "_black": 1687,
      "undred": 1688,
      "_small": 1689,
      "arlier": 1690,
      "_flight": 1691,
      "ney": 1692,
      "_Commission": 1693,
      "_army": 1694,
      "_looking": 1695,
      "_risk": 1696,
      "_killed": 1697,
      "_anti-": 1698,
      "_confirmed": 1699,
      "_employe": 1700,
      "_Canad": 1701,
      "_September": 1702,
      "_Renam": 1703,
      "_Halloween": 1704,
      "_represent": 1705,
      "_benefit": 1706,
      "_website": 1707,
      "-on": 1708,
      "_ver": 1709,
      "_est": 1710,
      "ait": 1711,
      "actor": 1712,
      "craft": 1713,
      "gl": 1714,
      "iam": 1715,
      "ov": 1716,
      "rist": 1717,
      "side": 1718,
      "umer": 1719,
      "ym": 1720,
      "head": 1721,
      "in,": 1722,
      "inals": 1723,
      "_site": 1724,
      "_six": 1725,
      "_cocaine": 1726,
      "_prom": 1727,
      "_power": 1728,
      "_far": 1729,
      "_fall": 1730,
      "_full": 1731,
      "_top": 1732,
      "_toward": 1733,
      "al.": 1734,
      "_hospital": 1735,
      "_hundred": 1736,
      "_den": 1737,
      "lect": 1738,
      "_and,": 1739,
      "_revel": 1740,
      "_early": 1741,
      "rove": 1742,
      "_litt": 1743,
      "otor": 1744,
      "_\"P": 1745,
      "_\"s": 1746,
      "_Mors": 1747,
      "_stand": 1748,
      "_states": 1749,
      "amas": 1750,
      "pec": 1751,
      "_House": 1752,
      "_exchange": 1753,
      "_chief": 1754,
      "_Rep": 1755,
      "_Wor": 1756,
      "_view": 1757,
      "_18": 1758,
      "ably": 1759,
      "_That": 1760,
      "ueb": 1761,
      "_until": 1762,
      "portation": 1763,
      "_percent": 1764,
      "_presence": 1765,
      "_become": 1766,
      "itted": 1767,
      "_sched": 1768,
      "_Islam": 1769,
      "_associ": 1770,
      "_election": 1771,
      "_implement": 1772,
      "_among": 1773,
      "_months": 1774,
      "_reported": 1775,
      "ification": 1776,
      "_crim": 1777,
      "_economic": 1778,
      "_respon": 1779,
      "_activities": 1780,
      "_customers": 1781,
      "_growth": 1782,
      "_Wednesday": 1783,
      "inistration": 1784,
      "_campaign": 1785,
      "_Frontier": 1786,
      "0,": 1787,
      "_Â": 1788,
      "_es": 1789,
      "for": 1790,
      "fety": 1791,
      "ges": 1792,
      "gest": 1793,
      "iomet": 1794,
      "por": 1795,
      "ton": 1796,
      "uc": 1797,
      "uge": 1798,
      "_tre": 1799,
      "_ten": 1800,
      "_tun": 1801,
      "_action": 1802,
      "ining": 1803,
      "ination": 1804,
      "rest": 1805,
      "ertain": 1806,
      "_sal": 1807,
      "ening": 1808,
      "att": 1809,
      "ators": 1810,
      "_cand": 1811,
      "_city": 1812,
      "_bord": 1813,
      "_billion": 1814,
      "_pur": 1815,
      "_port": 1816,
      "_paw": 1817,
      "_puber": 1818,
      "_init": 1819,
      "_father": 1820,
      "_front": 1821,
      "_hot": 1822,
      "_main": 1823,
      "asing": 1824,
      "_due": 1825,
      "_redu": 1826,
      "idence": 1827,
      "_night": 1828,
      "_event": 1829,
      "_low": 1830,
      "urther": 1831,
      "_South": 1832,
      "sec": 1833,
      "sex": 1834,
      "_\"F": 1835,
      "_Cour": 1836,
      "et.": 1837,
      "_Mal": 1838,
      "_Ph": 1839,
      "_Pol": 1840,
      "_North": 1841,
      "aking": 1842,
      "_Ed": 1843,
      "_Russ": 1844,
      "renc": 1845,
      "_UK": 1846,
      "_vide": 1847,
      "empt": 1848,
      "_La": 1849,
      "ude": 1850,
      "_journal": 1851,
      "ption": 1852,
      "_class": 1853,
      "ia.": 1854,
      "_Chin": 1855,
      "_soon": 1856,
      "argest": 1857,
      "_prevent": 1858,
      "ailed": 1859,
      "_carried": 1860,
      "_himself": 1861,
      "_secret": 1862,
      "_2013": 1863,
      "_Val": 1864,
      "_indust": 1865,
      "_individ": 1866,
      "_$3": 1867,
      "_added": 1868,
      "ressed": 1869,
      "_One": 1870,
      "_lawy": 1871,
      "_provide": 1872,
      "_centre": 1873,
      "_2008": 1874,
      "eremon": 1875,
      "_chemical": 1876,
      "_minister": 1877,
      "_longer": 1878,
      "_officials": 1879,
      "_difficult": 1880,
      "_effort": 1881,
      "_effect": 1882,
      "_believe": 1883,
      "_laun": 1884,
      "_investigation": 1885,
      "_Australian": 1886,
      "_military": 1887,
      "_grand": 1888,
      "_policy": 1889,
      "_woman": 1890,
      "_film": 1891,
      "_violence": 1892,
      "_money": 1893,
      "_demand": 1894,
      "_Washing": 1895,
      "_reveal": 1896,
      "_Renamo": 1897,
      "_little": 1898,
      "_Â£": 1899,
      "iometric": 1900,
      "MCA": 1901,
      "_ed": 1902,
      "ai": 1903,
      "com": 1904,
      "eing": 1905,
      "ienc": 1906,
      "lim": 1907,
      "lus": 1908,
      "less": 1909,
      "oke": 1910,
      "pris": 1911,
      "uly": 1912,
      "ument": 1913,
      "reen": 1914,
      "erry": 1915,
      "_wait": 1916,
      "en,": 1917,
      "_ceremon": 1918,
      "isation": 1919,
      "an,": 1920,
      "ani": 1921,
      "_bag": 1922,
      "_often": 1923,
      "_fund": 1924,
      "_friend": 1925,
      "arn": 1926,
      "al,": 1927,
      "_hope": 1928,
      "ics": 1929,
      "asis": 1930,
      "_dest": 1931,
      "_daugh": 1932,
      "_rev": 1933,
      "ider": 1934,
      "_Af": 1935,
      "_Aug": 1936,
      "cember": 1937,
      "irth": 1938,
      "_Ira": 1939,
      "_force": 1940,
      "_\"the": 1941,
      "_Care": 1942,
      "_Cath": 1943,
      "ets": 1944,
      "_May": 1945,
      "_Mart": 1946,
      "amb": 1947,
      "_Bank": 1948,
      "_alle": 1949,
      "s.\"": 1950,
      "_Pr": 1951,
      "_hair": 1952,
      "though": 1953,
      "_When": 1954,
      "_sum": 1955,
      "_level": 1956,
      "_years.": 1957,
      "_trying": 1958,
      "_Jan": 1959,
      "_cannot": 1960,
      "_manag": 1961,
      "ruct": 1962,
      "_others": 1963,
      "overed": 1964,
      "_became": 1965,
      "_interview": 1966,
      "_YMCA": 1967,
      "_decided": 1968,
      "_surger": 1969,
      "_indic": 1970,
      "_Americans": 1971,
      "_aircraft": 1972,
      "_phot": 1973,
      "_road": 1974,
      "ference": 1975,
      "_statement": 1976,
      "_Friday.": 1977,
      "_design": 1978,
      "_relations": 1979,
      "_released": 1980,
      "_course": 1981,
      "_currenc": 1982,
      "_product": 1983,
      "_production": 1984,
      "_Airb": 1985,
      "_development": 1986,
      "_department": 1987,
      "_December": 1988,
      "_something": 1989,
      "_sometimes": 1990,
      "_building": 1991,
      "_making": 1992,
      "_Coge": 1993,
      "gypt": 1994,
      "iversity": 1995,
      "_spokes": 1996,
      "_Security": 1997,
      "_network": 1998,
      "_Two": 1999,
      "_received": 2000,
      "_I'm": 2001,
      "_simp": 2002,
      "_published": 2003,
      "_success": 2004,
      "_declared": 2005,
      "_individual": 2006,
      "_August": 2007,
      "_Catholic": 2008,
      "-l": 2009,
      "20": 2010,
      "4.": 2011,
      "5%": 2012,
      "DC": 2013,
      "Mal": 2014,
      "_0": 2015,
      "dition": 2016,
      "ef": 2017,
      "hold": 2018,
      "ians": 2019,
      "no": 2020,
      "ois": 2021,
      "hest": 2022,
      "real": 2023,
      "erv": 2024,
      "ened": 2025,
      "ither": 2026,
      "_both": 2027,
      "_pot": 2028,
      "_fre": 2029,
      "_fig": 2030,
      "_few": 2031,
      "_federal": 2032,
      "_factor": 2033,
      "arb": 2034,
      "_hop": 2035,
      "_mo": 2036,
      "_mother": 2037,
      "_dra": 2038,
      "_doc": 2039,
      "_days": 2040,
      "le.": 2041,
      "lex": 2042,
      "_reach": 2043,
      "_non": 2044,
      "_el": 2045,
      "_equ": 2046,
      "_live": 2047,
      "_once": 2048,
      "_Ser": 2049,
      "_Ind": 2050,
      "et,": 2051,
      "_MP": 2052,
      "_Ms": 2053,
      "_stor": 2054,
      "_stri": 2055,
      "_stated": 2056,
      "_step": 2057,
      "_Bl": 2058,
      "acc": 2059,
      "_weap": 2060,
      "_His": 2061,
      "_area": 2062,
      "_exc": 2063,
      "ify": 2064,
      "_Gaz": 2065,
      "_Egypt": 2066,
      "redit": 2067,
      "_Res": 2068,
      "_rather": 2069,
      "_vict": 2070,
      "_1,": 2071,
      "_let": 2072,
      "_agree": 2073,
      "_agency": 2074,
      "ected": 2075,
      "ary,": 2076,
      "_resident": 2077,
      "_incident": 2078,
      "_Chines": 2079,
      "_Ken": 2080,
      "_import": 2081,
      "_disp": 2082,
      "_intern": 2083,
      "_him.": 2084,
      "_attempt": 2085,
      "_$1": 2086,
      "_Thursday.": 2087,
      "_communic": 2088,
      "_species": 2089,
      "_rail": 2090,
      "_evening": 2091,
      "_desc": 2092,
      "_199": 2093,
      "arliam": 2094,
      "_Britain": 2095,
      "_appro": 2096,
      "_organiz": 2097,
      "_movement": 2098,
      "_board": 2099,
      "ombard": 2100,
      "_sexual": 2101,
      "_strong": 2102,
      "esperson": 2103,
      "_dogs": 2104,
      "_concerned": 2105,
      "_changes": 2106,
      "_spokesperson": 2107,
      "_suspect": 2108,
      "_hours": 2109,
      "_parents": 2110,
      "_judge": 2111,
      "_television": 2112,
      "_Trans": 2113,
      "_World": 2114,
      "_Iraq": 2115,
      "_Cogeco": 2116,
      "_spokesman": 2117,
      "_Chinese": 2118,
      "'ve": 2119,
      "_X": 2120,
      "_Z": 2121,
      "aud": 2122,
      "dle": 2123,
      "e.": 2124,
      "ean": 2125,
      "eor": 2126,
      "fact": 2127,
      "gin": 2128,
      "iat": 2129,
      "ium": 2130,
      "ler": 2131,
      "ring": 2132,
      "t,": 2133,
      "ters": 2134,
      "u,": 2135,
      "use": 2136,
      "y's": 2137,
      "_ty": 2138,
      "_tell": 2139,
      "_tail": 2140,
      "_aim": 2141,
      "rew": 2142,
      "erve": 2143,
      "_sen": 2144,
      "_wal": 2145,
      "is,": 2146,
      "orough": 2147,
      "itc": 2148,
      "itz": 2149,
      "_biometric": 2150,
      "_ple": 2151,
      "_pack": 2152,
      "_anal": 2153,
      "_hig": 2154,
      "_hist": 2155,
      "_hard": 2156,
      "_must": 2157,
      "ason": 2158,
      "_du": 2159,
      "omp": 2160,
      "_thing": 2161,
      "ential": 2162,
      "_repl": 2163,
      "_et": 2164,
      "_lim": 2165,
      "_line": 2166,
      "_largest": 2167,
      "_online": 2168,
      "_All": 2169,
      "cement": 2170,
      "aded": 2171,
      "_Sp": 2172,
      "_Sing": 2173,
      "_Some": 2174,
      "_Since": 2175,
      "_\"M": 2176,
      "_\"O": 2177,
      "_\"d": 2178,
      "_\"t": 2179,
      "_Con": 2180,
      "_here": 2181,
      "_held": 2182,
      "_Man": 2183,
      "_Mar": 2184,
      "_Mich": 2185,
      "amed": 2186,
      "ached": 2187,
      "_condition": 2188,
      "_within": 2189,
      "_although": 2190,
      "raph": 2191,
      "_Hol": 2192,
      "ussion": 2193,
      "_prob": 2194,
      "_process": 2195,
      "ate.": 2196,
      "_charge": 2197,
      "ored": 2198,
      "_Gu": 2199,
      "_Government": 2200,
      "_Dep": 2201,
      "aint": 2202,
      "_rad": 2203,
      "osing": 2204,
      "ends": 2205,
      "_vol": 2206,
      "_suff": 2207,
      "_sha": 2208,
      "_shop": 2209,
      "_11": 2210,
      "ocial": 2211,
      "usted": 2212,
      "_agenc": 2213,
      "_ago.": 2214,
      "_doing": 2215,
      "_working": 2216,
      "_accident": 2217,
      "_Franc": 2218,
      "_meas": 2219,
      "_means": 2220,
      "_contain": 2221,
      "_rescue": 2222,
      "_Charl": 2223,
      "_seriously": 2224,
      "_arrest": 2225,
      "_internal": 2226,
      "_prec": 2227,
      "_surpris": 2228,
      "_2012": 2229,
      "_addition": 2230,
      "_traffic": 2231,
      "_common": 2232,
      "_crem": 2233,
      "_buy": 2234,
      "_amb": 2235,
      "_shows": 2236,
      "_taking": 2237,
      "_reports": 2238,
      "_explos": 2239,
      "_gener": 2240,
      "_leaders": 2241,
      "_majority": 2242,
      "_personal": 2243,
      "_identity": 2244,
      "_newspa": 2245,
      "_issue": 2246,
      "_across": 2247,
      "_patient": 2248,
      "_caused": 2249,
      "_recently": 2250,
      "_involved": 2251,
      "_capital": 2252,
      "_explained": 2253,
      "_terror": 2254,
      "_Queb": 2255,
      "_Montreal": 2256,
      "_situation": 2257,
      "_John": 2258,
      "_question": 2259,
      "_David": 2260,
      "_Ditta": 2261,
      "_immediately": 2262,
      "_towards": 2263,
      "_Morsi": 2264,
      "_puberty": 2265,
      "_video": 2266,
      "_lawyer": 2267,
      "_Airbus": 2268,
      "arliament": 2269,
      "_Department": 2270,
      "_newspaper": 2271,
      "_Quebec": 2272,
      "-Q": 2273,
      "30": 2274,
      "5,": 2275,
      "6.": 2276,
      "_ri": 2277,
      "_ice": 2278,
      "_enc": 2279,
      "aid": 2280,
      "aving": 2281,
      "cher": 2282,
      "erence": 2283,
      "ij": 2284,
      "iation": 2285,
      "ique": 2286,
      "joy": 2287,
      "lt": 2288,
      "mak": 2289,
      "oice": 2290,
      "tel": 2291,
      "ufact": 2292,
      "here": 2293,
      "_aud": 2294,
      "ert": 2295,
      "_sens": 2296,
      "_win": 2297,
      "ature": 2298,
      "_cell": 2299,
      "orse": 2300,
      "_bar": 2301,
      "_bur": 2302,
      "_best": 2303,
      "_boy": 2304,
      "_fut": 2305,
      "_fell": 2306,
      "_foot": 2307,
      "ar,": 2308,
      "ices": 2309,
      "_dom": 2310,
      "_doll": 2311,
      "_things": 2312,
      "enton": 2313,
      "_rein": 2314,
      "_reform": 2315,
      "iding": 2316,
      "_north": 2317,
      "_earlier": 2318,
      "stand": 2319,
      "_liv": 2320,
      "_lost": 2321,
      "_ground": 2322,
      "_So": 2323,
      "_\"A": 2324,
      "_\"w": 2325,
      "_that,": 2326,
      "_CA": 2327,
      "_Mo": 2328,
      "_March": 2329,
      "_stock": 2330,
      "_Bow": 2331,
      "_Bombard": 2332,
      "_white": 2333,
      "acu": 2334,
      "_const": 2335,
      "_dead": 2336,
      "_demon": 2337,
      "rab": 2338,
      "_Pl": 2339,
      "_safety": 2340,
      "oper": 2341,
      "_Nou": 2342,
      "_Not": 2343,
      "_exam": 2344,
      "ift": 2345,
      "estin": 2346,
      "_choo": 2347,
      "_chall": 2348,
      "_Geor": 2349,
      "_East": 2350,
      "_Even": 2351,
      "_rat": 2352,
      "oss": 2353,
      "_West": 2354,
      "_val": 2355,
      "_sure": 2356,
      "_adult": 2357,
      "_job": 2358,
      "ance,": 2359,
      "_ago,": 2360,
      "_offer": 2361,
      "ague": 2362,
      "_July": 2363,
      "_accused": 2364,
      "age,": 2365,
      "_contact": 2366,
      "idered": 2367,
      "_spot": 2368,
      "_manufact": 2369,
      "_series": 2370,
      "_art": 2371,
      "_University": 2372,
      "_Vill": 2373,
      "_enjoy": 2374,
      "_conference": 2375,
      "_airline": 2376,
      "_considered": 2377,
      "_assist": 2378,
      "_countries": 2379,
      "_annual": 2380,
      "_improve": 2381,
      "ensive": 2382,
      "_desp": 2383,
      "_member": 2384,
      "_direct": 2385,
      "_announcement": 2386,
      "_guid": 2387,
      "_drivers": 2388,
      "_Why": 2389,
      "_country's": 2390,
      "_price": 2391,
      "_musical": 2392,
      "_increase": 2393,
      "_life.": 2394,
      "_district": 2395,
      "_carry-on": 2396,
      "_talk": 2397,
      "_watch": 2398,
      "_popul": 2399,
      "_susp": 2400,
      "_occur": 2401,
      "_Boeing": 2402,
      "_particip": 2403,
      "_complete": 2404,
      "_wrong": 2405,
      "_independent": 2406,
      "_employees": 2407,
      "_Republic": 2408,
      "_criminal": 2409,
      "_tunnel": 2410,
      "_Martin": 2411,
      "_international": 2412,
      "_describ": 2413,
      "_senior": 2414,
      "_Francis": 2415,
      "_future": 2416,
      "_Bombardier": 2417,
      "_demonst": 2418,
      "_choose": 2419,
      ").": 2420,
      "-G": 2421,
      "-w": 2422,
      "-up": 2423,
      "3.": 2424,
      "77": 2425,
      "BS": 2426,
      "RDC": 2427,
      "_ill": 2428,
      "aut": 2429,
      "arent": 2430,
      "br": 2431,
      "back": 2432,
      "cing": 2433,
      "cast": 2434,
      "ead": 2435,
      "ha": 2436,
      "iative": 2437,
      "o-": 2438,
      "uz": 2439,
      "ule": 2440,
      "uary": 2441,
      "val": 2442,
      "yl": 2443,
      "_treat": 2444,
      "_aw": 2445,
      "_age": 2446,
      "reg": 2447,
      "onment": 2448,
      "_sk": 2449,
      "_side": 2450,
      "_wid": 2451,
      "_writ": 2452,
      "enn": 2453,
      "eneral": 2454,
      "atre": 2455,
      "atory": 2456,
      "_cover": 2457,
      "_certain": 2458,
      "itan": 2459,
      "_born": 2460,
      "_basis": 2461,
      "_birth": 2462,
      "_par": 2463,
      "_pus": 2464,
      "_foc": 2465,
      "_fav": 2466,
      "_hack": 2467,
      "_hum": 2468,
      "_mess": 2469,
      "_mass": 2470,
      "_male": 2471,
      "_miss": 2472,
      "_motor": 2473,
      "icot": 2474,
      "oud": 2475,
      "_dam": 2476,
      "_deli": 2477,
      "_drop": 2478,
      "_threat": 2479,
      "ides": 2480,
      "_name": 2481,
      "_ep": 2482,
      "_ever": 2483,
      "_look": 2484,
      "_Aff": 2485,
      "_Agency": 2486,
      "olk": 2487,
      "ott": 2488,
      "_School": 2489,
      "irc": 2490,
      "_\"m": 2491,
      "_CG": 2492,
      "ations.": 2493,
      "_heart": 2494,
      "_heard": 2495,
      "_story": 2496,
      "ames": 2497,
      "_ult": 2498,
      "elt": 2499,
      "_Fire": 2500,
      "_Hamas": 2501,
      "uled": 2502,
      "_saw": 2503,
      "uses": 2504,
      "using": 2505,
      "hern": 2506,
      "_Nor": 2507,
      "_coming": 2508,
      "_comment": 2509,
      "_compl": 2510,
      "_near": 2511,
      "_nearly": 2512,
      "_necess": 2513,
      "_Good": 2514,
      "_Dem": 2515,
      "_Roy": 2516,
      "_Rob": 2517,
      "thing": 2518,
      "_var": 2519,
      "_vacc": 2520,
      "_orig": 2521,
      "_16": 2522,
      "_21": 2523,
      "_Lord": 2524,
      "quent": 2525,
      "unity": 2526,
      "_aband": 2527,
      "_whose": 2528,
      "_years,": 2529,
      "_try": 2530,
      "_plans": 2531,
      "agn": 2532,
      "agan": 2533,
      "_Jun": 2534,
      "age.": 2535,
      "one.": 2536,
      "_peace": 2537,
      "_poll": 2538,
      "_can't": 2539,
      "_State": 2540,
      "_afterno": 2541,
      "venue": 2542,
      "_Health": 2543,
      "ograph": 2544,
      "ittee": 2545,
      "_intercept": 2546,
      "_You": 2547,
      "ailable": 2548,
      "_time,": 2549,
      "_million,": 2550,
      "_fee": 2551,
      "_planning": 2552,
      "_added.": 2553,
      "_assault": 2554,
      "_justice": 2555,
      "_cream": 2556,
      "_40": 2557,
      "_suppl": 2558,
      "_takes": 2559,
      "_possib": 2560,
      "_world's": 2561,
      "_companies": 2562,
      "_genet": 2563,
      "_tried": 2564,
      "_tests": 2565,
      "_didn't": 2566,
      "_discover": 2567,
      "_attacks": 2568,
      "_paper": 2569,
      "iction": 2570,
      "_inside": 2571,
      "_What": 2572,
      "_instit": 2573,
      "-de": 2574,
      "_Israel": 2575,
      "_matter": 2576,
      "_coll": 2577,
      "_thought": 2578,
      "_order": 2579,
      "_orders": 2580,
      "_60": 2581,
      "_evidence": 2582,
      "_later": 2583,
      "_terms": 2584,
      "_vote": 2585,
      "_respond": 2586,
      "_Secret": 2587,
      "_cardinals": 2588,
      "_Palestin": 2589,
      "_sentenc": 2590,
      "_regulator": 2591,
      "_currently": 2592,
      "_Barack": 2593,
      "_claims": 2594,
      "_Board": 2595,
      "_knew": 2596,
      "_known": 2597,
      "_behind": 2598,
      "stitution": 2599,
      "_glob": 2600,
      "_Berlin": 2601,
      "_executive": 2602,
      "umerous": 2603,
      "_revelations": 2604,
      "pecially": 2605,
      "secut": 2606,
      "_Court": 2607,
      "_revealed": 2608,
      "_simply": 2609,
      "_document": 2610,
      "_victim": 2611,
      "_volun": 2612,
      "_demonstr": 2613,
      "icotine": 2614,
      "_Goodyear": 2615,
      "-D": 2616,
      "-h": 2617,
      "-o": 2618,
      "-and": 2619,
      "_z": 2620,
      "_ide": 2621,
      "c.": 2622,
      "che": 2623,
      "come": 2624,
      "eid": 2625,
      "eople": 2626,
      "go": 2627,
      "ggest": 2628,
      "hile": 2629,
      "n,": 2630,
      "new": 2631,
      "oor": 2632,
      "tal": 2633,
      "_table": 2634,
      "_tick": 2635,
      "_times": 2636,
      "_away": 2637,
      "_ahead": 2638,
      "inary": 2639,
      "_sort": 2640,
      "_oil": 2641,
      "_old": 2642,
      "_cab": 2643,
      "_coun": 2644,
      "_credit": 2645,
      "edy": 2646,
      "or,": 2647,
      "it.": 2648,
      "iting": 2649,
      "_bod": 2650,
      "_brough": 2651,
      "_bomb": 2652,
      "ester": 2653,
      "_food": 2654,
      "_further": 2655,
      "arant": 2656,
      "alif": 2657,
      "_anim": 2658,
      "_hill": 2659,
      "_huge": 2660,
      "_mom": 2661,
      "_mob": 2662,
      "oura": 2663,
      "_dr": 2664,
      "_dream": 2665,
      "omatic": 2666,
      "iles": 2667,
      "_Trip": 2668,
      "_begin": 2669,
      "_ear": 2670,
      "_euro": 2671,
      "rodu": 2672,
      "_lin": 2673,
      "_gold": 2674,
      "ay,": 2675,
      "ury": 2676,
      "_SA": 2677,
      "ly.": 2678,
      "set": 2679,
      "_\"D": 2680,
      "_\"S": 2681,
      "_\"c": 2682,
      "_Com": 2683,
      "_Cam": 2684,
      "_Bun": 2685,
      "_asking": 2686,
      "_Fin": 2687,
      "_Ford": 2688,
      "_along": 2689,
      "_Now": 2690,
      "_seen": 2691,
      "_search": 2692,
      "estiv": 2693,
      "_neigh": 2694,
      "_chan": 2695,
      "ore,": 2696,
      "_GM": 2697,
      "_Dr": 2698,
      "_Other": 2699,
      "_Rock": 2700,
      "_rus": 2701,
      "_super": 2702,
      "_suggest": 2703,
      "_17": 2704,
      "_abs": 2705,
      "alliative": 2706,
      "_adop": 2707,
      "ffee": 2708,
      "_true": 2709,
      "_trade": 2710,
      "_aged": 2711,
      "_spying": 2712,
      "_manage": 2713,
      "_Christ": 2714,
      "_serious": 2715,
      "_Kerry": 2716,
      "_arg": 2717,
      "ible": 2718,
      "_becom": 2719,
      "_Mr.": 2720,
      "vices.": 2721,
      "_prep": 2722,
      "aily": 2723,
      "_qual": 2724,
      "_themsel": 2725,
      "_scene": 2726,
      "_env": 2727,
      "_\"If": 2728,
      "_conflic": 2729,
      "ounds": 2730,
      "_airport": 2731,
      "_airlines": 2732,
      "_consult": 2733,
      "_emb": 2734,
      "_commission": 2735,
      "_province": 2736,
      "_provided": 2737,
      "_Obeid": 2738,
      "_bloc": 2739,
      "_Ang": 2740,
      "_showing": 2741,
      "_Friday,": 2742,
      "_wanted": 2743,
      "_News": 2744,
      "_position": 2745,
      "_likely": 2746,
      "_50": 2747,
      "_transportation": 2748,
      "_trip": 2749,
      "_trial": 2750,
      "_check": 2751,
      "_guarant": 2752,
      "_hands": 2753,
      "_request": 2754,
      "_require": 2755,
      "_required": 2756,
      "_administration": 2757,
      "_prior": 2758,
      "_restrict": 2759,
      "_organisation": 2760,
      "_Obama's": 2761,
      "_princ": 2762,
      "_receive": 2763,
      "_increased": 2764,
      "_increasing": 2765,
      "_issu": 2766,
      "_student": 2767,
      "_evacu": 2768,
      "_latest": 2769,
      "_carrying": 2770,
      "_subject": 2771,
      "_Syrian": 2772,
      "_signific": 2773,
      "_seats": 2774,
      "-based": 2775,
      "_affair": 2776,
      "_women": 2777,
      "_dipl": 2778,
      "_drugs": 2779,
      "_fighting": 2780,
      "_recorded": 2781,
      "iki": 2782,
      "_Prof": 2783,
      "_critical": 2784,
      "_clear": 2785,
      "_Adm": 2786,
      "_recognition": 2787,
      "_avo": 2788,
      "_girl": 2789,
      "_Centre": 2790,
      "_\"This": 2791,
      "_responsible": 2792,
      "_especially": 2793,
      "_trend": 2794,
      "_candid": 2795,
      "_border": 2796,
      "_industry": 2797,
      "_efforts": 2798,
      "_Washington": 2799,
      "_Afric": 2800,
      "_Prime": 2801,
      "_relationship": 2802,
      "_else": 2803,
      "_weapons": 2804,
      "_agreement": 2805,
      "_highest": 2806,
      "_Singap": 2807,
      "_despite": 2808,
      "_ultim": 2809,
      "_brought": 2810,
      "_Tripod": 2811,
      "_Bunagan": 2812,
      "_neighb": 2813,
      "_princip": 2814,
      "-c": 2815,
      "-m": 2816,
      ".4": 2817,
      "25": 2818,
      "FP": 2819,
      "_ir": 2820,
      "action": 2821,
      "by": 2822,
      "cial": 2823,
      "ech": 2824,
      "fort": 2825,
      "g,": 2826,
      "gr": 2827,
      "ging": 2828,
      "gand": 2829,
      "gage": 2830,
      "iant": 2831,
      "men": 2832,
      "ners": 2833,
      "oking": 2834,
      "pr": 2835,
      "pos": 2836,
      "press": 2837,
      "ran": 2838,
      "rad": 2839,
      "sh": 2840,
      "sy": 2841,
      "tit": 2842,
      "uk": 2843,
      "yn": 2844,
      "Ã¢": 2845,
      "hered": 2846,
      "_aver": 2847,
      "reet": 2848,
      "oned": 2849,
      "ergy": 2850,
      "_sl": 2851,
      "_son": 2852,
      "_slow": 2853,
      "_sense": 2854,
      "atur": 2855,
      "_cult": 2856,
      "_cause": 2857,
      "_cases": 2858,
      "isc": 2859,
      "isney": 2860,
      "an.": 2861,
      "anks": 2862,
      "ories": 2863,
      "itive": 2864,
      "_bit": 2865,
      "_bal": 2866,
      "_bra": 2867,
      "ess.": 2868,
      "_pil": 2869,
      "_pred": 2870,
      "_pump": 2871,
      "_parliament": 2872,
      "_fem": 2873,
      "_fun": 2874,
      "_fact": 2875,
      "_failed": 2876,
      "_total": 2877,
      "aract": 2878,
      "_mile": 2879,
      "ico": 2880,
      "_div": 2881,
      "_die": 2882,
      "_dram": 2883,
      "_daily": 2884,
      "let": 2885,
      "ille": 2886,
      "ilities": 2887,
      "_reached": 2888,
      "_Tur": 2889,
      "_Tim": 2890,
      "_below": 2891,
      "_numerous": 2892,
      "rown": 2893,
      "_late": 2894,
      "_Act": 2895,
      "_Alex": 2896,
      "_AFP": 2897,
      "_gun": 2898,
      "otion": 2899,
      "urb": 2900,
      "urd": 2901,
      "_Su": 2902,
      "_Sen": 2903,
      "ironment": 2904,
      "_forced": 2905,
      "_\"B": 2906,
      "_\"E": 2907,
      "_CS": 2908,
      "_Che": 2909,
      "_Cou": 2910,
      "_City": 2911,
      "_Cross": 2912,
      "ations,": 2913,
      "_he'": 2914,
      "_Mer": 2915,
      "_More": 2916,
      "_Moh": 2917,
      "_stat": 2918,
      "_ask": 2919,
      "_Feb": 2920,
      "rief": 2921,
      "_device": 2922,
      "_HS": 2923,
      "_Part": 2924,
      "ands": 2925,
      "oph": 2926,
      "_prof": 2927,
      "_proced": 2928,
      "ression": 2929,
      "_examp": 2930,
      "_exha": 2931,
      "_comb": 2932,
      "_Group": 2933,
      "_General": 2934,
      "_Do": 2935,
      "_notice": 2936,
      "_Off": 2937,
      "_Rub": 2938,
      "_rating": 2939,
      "_Ugand": 2940,
      "_vice": 2941,
      "_12": 2942,
      "_14": 2943,
      "abor": 2944,
      "essions": 2945,
      "_leak": 2946,
      "_leaving": 2947,
      "_above": 2948,
      "_whole": 2949,
      "ume": 2950,
      "ancell": 2951,
      "_kid": 2952,
      "_Inter": 2953,
      "_Just": 2954,
      "_client": 2955,
      "_account": 2956,
      "ection": 2957,
      "_unp": 2958,
      "_spent": 2959,
      "_spend": 2960,
      "_respect": 2961,
      "_compared": 2962,
      "_Stat": 2963,
      "_recall": 2964,
      "aps": 2965,
      "_usually": 2966,
      "itten": 2967,
      "itting": 2968,
      "_speed": 2969,
      "_decade": 2970,
      "ails": 2971,
      "_quick": 2972,
      "ierre": 2973,
      "ought": 2974,
      "_time.": 2975,
      "_millions": 2976,
      "_enough": 2977,
      "phone": 2978,
      "_training": 2979,
      "_understand": 2980,
      "_consist": 2981,
      "_consider": 2982,
      "ally,": 2983,
      "_pharm": 2984,
      "_role": 2985,
      "_room": 2986,
      "_work,": 2987,
      "_create": 2988,
      "_created": 2989,
      "ollowing": 2990,
      "_appeals": 2991,
      "_says.": 2992,
      "_imposed": 2993,
      "_Scarb": 2994,
      "_special": 2995,
      "_specific": 2996,
      "_getting": 2997,
      "_calls": 2998,
      "_groups": 2999,
      "_investment": 3000,
      "_smart": 3001,
      "_week,": 3002,
      "_belong": 3003,
      "_discussion": 3004,
      "_defin": 3005,
      "_hand,": 3006,
      "_driving": 3007,
      "_Airlines": 3008,
      "_experience": 3009,
      "_key": 3010,
      "_believes": 3011,
      "_collect": 3012,
      "_Def": 3013,
      "_issues": 3014,
      "_Australia": 3015,
      "_accept": 3016,
      "_happen": 3017,
      "_extra": 3018,
      "_trading": 3019,
      "_infl": 3020,
      "_costs": 3021,
      "_advis": 3022,
      "_involving": 3023,
      "_loved": 3024,
      "_Palmer": 3025,
      "_confirm": 3026,
      "_obtain": 3027,
      "_break": 3028,
      "_territ": 3029,
      "_mid-": 3030,
      "_middle": 3031,
      "_control": 3032,
      "_controvers": 3033,
      "_receiving": 3034,
      "...": 3035,
      "_ready": 3036,
      "_particular": 3037,
      "_clearly": 3038,
      "_hostage": 3039,
      "_rebels": 3040,
      "_regional": 3041,
      "_available": 3042,
      "_Internet": 3043,
      "_previously": 3044,
      "_Glas": 3045,
      "_presented": 3046,
      "_estim": 3047,
      "glish": 3048,
      "_hundreds": 3049,
      "_scheduled": 3050,
      "_Islamic": 3051,
      "_implemented": 3052,
      "_pawn": 3053,
      "_hotel": 3054,
      "_launch": 3055,
      "_destro": 3056,
      "_January": 3057,
      "_Gaza": 3058,
      "_Keny": 3059,
      "_important": 3060,
      "_communications": 3061,
      "_package": 3062,
      "_measures": 3063,
      "_CAD": 3064,
      "_occurred": 3065,
      "_CGT": 3066,
      "_Democr": 3067,
      "_vaccine": 3068,
      "_genetic": 3069,
      "_institution": 3070,
      "_Palestinian": 3071,
      "_global": 3072,
      "_moment": 3073,
      "_Camero": 3074,
      "_Dr.": 3075,
      "_environment": 3076,
      "_restrictions": 3077,
      "_significant": 3078,
      "_Tripodi": 3079,
      "sych": 3080,
      "_average": 3081,
      "_pilot": 3082,
      "_Febru": 3083,
      "-in": 3084,
      "-re": 3085,
      "RC": 3086,
      "_esp": 3087,
      "aire": 3088,
      "bro": 3089,
      "band": 3090,
      "ces.": 3091,
      "eal": 3092,
      "gow": 3093,
      "hab": 3094,
      "iber": 3095,
      "iated": 3096,
      "ipped": 3097,
      "km": 3098,
      "lish": 3099,
      "mn": 3100,
      "mit": 3101,
      "pm": 3102,
      "par": 3103,
      "us,": 3104,
      "ère": 3105,
      "inated": 3106,
      "_theatre": 3107,
      "erg": 3108,
      "ery": 3109,
      "er's": 3110,
      "_sad": 3111,
      "_sell": 3112,
      "_slight": 3113,
      "_sym": 3114,
      "_wel": 3115,
      "_ways": 3116,
      "_opt": 3117,
      "athered": 3118,
      "_cat": 3119,
      "_cas": 3120,
      "_cut": 3121,
      "_cash": 3122,
      "_cele": 3123,
      "_circ": 3124,
      "anese": 3125,
      "orter": 3126,
      "itiz": 3127,
      "_bad": 3128,
      "_boo": 3129,
      "_bud": 3130,
      "_pen": 3131,
      "inger": 3132,
      "_fr": 3133,
      "_fou": 3134,
      "_folk": 3135,
      "arian": 3136,
      "_hom": 3137,
      "_mission": 3138,
      "_mention": 3139,
      "_murd": 3140,
      "_dou": 3141,
      "_del": 3142,
      "_date": 3143,
      "lew": 3144,
      "_thous": 3145,
      "ils": 3146,
      "ilt": 3147,
      "ily": 3148,
      "_Tra": 3149,
      "_Titan": 3150,
      "_began": 3151,
      "_nicotine": 3152,
      "_ey": 3153,
      "_eas": 3154,
      "stain": 3155,
      "_lay": 3156,
      "_love": 3157,
      "_Ag": 3158,
      "_gathered": 3159,
      "ols": 3160,
      "olution": 3161,
      "urning": 3162,
      "_Sa": 3163,
      "_Sund": 3164,
      "irm": 3165,
      "_\"N": 3166,
      "_\"g": 3167,
      "_\"un": 3168,
      "_that's": 3169,
      "_Cor": 3170,
      "_Car": 3171,
      "_hear": 3172,
      "_My": 3173,
      "_Med": 3174,
      "_Mus": 3175,
      "_Minist": 3176,
      "_why": 3177,
      "_itself": 3178,
      "acity": 3179,
      "_Federal": 3180,
      "_Pre": 3181,
      "_Pak": 3182,
      "_Pate": 3183,
      "_Paw": 3184,
      "_Public": 3185,
      "_safe": 3186,
      "_Nort": 3187,
      "_Niss": 3188,
      "_seven": 3189,
      "_export": 3190,
      "_except": 3191,
      "iff": 3192,
      "estic": 3193,
      "_neg": 3194,
      "ate,": 3195,
      "ateg": 3196,
      "_cho": 3197,
      "_charact": 3198,
      "_During": 3199,
      "_Dale": 3200,
      "_Disney": 3201,
      "_nothing": 3202,
      "_O'": 3203,
      "ourg": 3204,
      "osition": 3205,
      "_Wall": 3206,
      "_UN": 3207,
      "_subs": 3208,
      "_sustain": 3209,
      "_shut": 3210,
      "_shared": 3211,
      "ability": 3212,
      "ablish": 3213,
      "emeter": 3214,
      "_Lou": 3215,
      "_Leb": 3216,
      "ard,": 3217,
      "ieu": 3218,
      "_jo": 3219,
      "_jet": 3220,
      "_plac": 3221,
      "umb": 3222,
      "_intended": 3223,
      "plan": 3224,
      "_Jew": 3225,
      "ence.": 3226,
      "_outside": 3227,
      "_clin": 3228,
      "ated,": 3229,
      "_upd": 3230,
      "_me,": 3231,
      "_meant": 3232,
      "urer": 3233,
      "aux": 3234,
      "_space": 3235,
      "aret": 3236,
      "rupt": 3237,
      "able.": 3238,
      "_recomm": 3239,
      "onde": 3240,
      "_(C": 3241,
      "itte": 3242,
      "_speak": 3243,
      "_speech": 3244,
      "_intersex": 3245,
      "_myself": 3246,
      "_carri": 3247,
      "_them.": 3248,
      "_government.": 3249,
      "_monitor": 3250,
      "_planes": 3251,
      "_final": 3252,
      "_America": 3253,
      "_address": 3254,
      "_again,": 3255,
      "_assign": 3256,
      "_emph": 3257,
      "_emotion": 3258,
      "ressing": 3259,
      "_creation": 3260,
      "_\"They": 3261,
      "_\"There": 3262,
      "_45": 3263,
      "_anyone": 3264,
      "_general": 3265,
      "_continues": 3266,
      "_minor": 3267,
      "_discovered": 3268,
      "_paid": 3269,
      "_Att": 3270,
      "_driver": 3271,
      "_driven": 3272,
      "_insur": 3273,
      "_gives": 3274,
      "_giving": 3275,
      "_crime": 3276,
      "_White": 3277,
      "_identified": 3278,
      "_expert": 3279,
      "_experienc": 3280,
      "_admitted": 3281,
      "_doesn't": 3282,
      "_Scott": 3283,
      "_students": 3284,
      "_operations": 3285,
      "_miles": 3286,
      "_makes": 3287,
      "_happy": 3288,
      "_traders": 3289,
      "apping": 3290,
      "_capt": 3291,
      "_Syria": 3292,
      "_water": 3293,
      "_thirty": 3294,
      "_Express": 3295,
      "_decisions": 3296,
      "_schools": 3297,
      "_object": 3298,
      "_Wednesday,": 3299,
      "_broad": 3300,
      "ology": 3301,
      "_Brother": 3302,
      "_Toffee": 3303,
      "_charges": 3304,
      "_ruling": 3305,
      "_turned": 3306,
      "_critic": 3307,
      "_behav": 3308,
      "_bringing": 3309,
      "_civilian": 3310,
      "_private": 3311,
      "_seems": 3312,
      "_legal": 3313,
      "_returned": 3314,
      "_English": 3315,
      "_previous": 3316,
      "_\"He": 3317,
      "_denied": 3318,
      "porate": 3319,
      "_sales": 3320,
      "_purch": 3321,
      "_Police": 3322,
      "_grandm": 3323,
      "ructure": 3324,
      "_indicated": 3325,
      "_potential": 3326,
      "_figure": 3327,
      "_suspected": 3328,
      "_histor": 3329,
      "_etc.": 3330,
      "_Holy": 3331,
      "_probably": 3332,
      "_explosion": 3333,
      "_barre": 3334,
      "_reinfor": 3335,
      "_challeng": 3336,
      "_directly": 3337,
      "_guidel": 3338,
      "_described": 3339,
      "_writing": 3340,
      "_human": 3341,
      "_deliver": 3342,
      "_Royal": 3343,
      "_June": 3344,
      "_possibility": 3345,
      "_Secretary": 3346,
      "_sentenced": 3347,
      "esterday": 3348,
      "_mobile": 3349,
      "_management": 3350,
      "_Angel": 3351,
      "_evacuated": 3352,
      "_diplomatic": 3353,
      "_Turk": 3354,
      "_Couls": 3355,
      "_Ruby": 3356,
      "_territory": 3357,
      "_Glasgow": 3358,
      "_destroy": 3359,
      "_espion": 3360,
      "_circum": 3361,
      "_Pakist": 3362,
      "_Patek": 3363,
      "-A": 3364,
      "-Mal": 3365,
      "BC": 3366,
      "EO": 3367,
      "P,": 3368,
      "RS": 3369,
      "_er": 3370,
      "_ur": 3371,
      "ael": 3372,
      "apt": 3373,
      "apl": 3374,
      "bum": 3375,
      "cil": 3376,
      "down": 3377,
      "hood": 3378,
      "ires": 3379,
      "iour": 3380,
      "kin": 3381,
      "kes": 3382,
      "kra": 3383,
      "like": 3384,
      "mas": 3385,
      "mark": 3386,
      "nels": 3387,
      "ped": 3388,
      "rim": 3389,
      "sc": 3390,
      "tar": 3391,
      "ties": 3392,
      "uan": 3393,
      "uit": 3394,
      "vant": 3395,
      "wand": 3396,
      "where": 3397,
      "while": 3398,
      "ôtel": 3399,
      "_tro": 3400,
      "_tim": 3401,
      "_tend": 3402,
      "hel": 3403,
      "inj": 3404,
      "rem": 3405,
      "rect": 3406,
      "onath": 3407,
      "erc": 3408,
      "_sle": 3409,
      "_sil": 3410,
      "_social": 3411,
      "_wond": 3412,
      "_wife": 3413,
      "_obs": 3414,
      "enge": 3415,
      "_cou": 3416,
      "_cris": 3417,
      "_cemeter": 3418,
      "iter": 3419,
      "itter": 3420,
      "_blow": 3421,
      "_pet": 3422,
      "_pain": 3423,
      "_pris": 3424,
      "_psych": 3425,
      "_fill": 3426,
      "_ful": 3427,
      "_festiv": 3428,
      "_tour": 3429,
      "_marg": 3430,
      "_danc": 3431,
      "_dark": 3432,
      "ley": 3433,
      "om,": 3434,
      "iled": 3435,
      "entially": 3436,
      "_red": 3437,
      "_reass": 3438,
      "_react": 3439,
      "_reject": 3440,
      "_TV": 3441,
      "_Te": 3442,
      "_Tal": 3443,
      "_Tex": 3444,
      "_beaut": 3445,
      "_nor": 3446,
      "_nine": 3447,
      "_east": 3448,
      "_eight": 3449,
      "_led": 3450,
      "_leng": 3451,
      "_lives": 3452,
      "_Aut": 3453,
      "_gone": 3454,
      "ayed": 3455,
      "olese": 3456,
      "otic": 3457,
      "_Sam": 3458,
      "_Sever": 3459,
      "_Saint": 3460,
      "ird": 3461,
      "irit": 3462,
      "vert": 3463,
      "_forward": 3464,
      "_forces": 3465,
      "_\"C": 3466,
      "_\"e": 3467,
      "_\"f": 3468,
      "owitz": 3469,
      "_CN": 3470,
      "_Cable": 3471,
      "_Chen": 3472,
      "_Calif": 3473,
      "_CEO": 3474,
      "_hero": 3475,
      "_Mor": 3476,
      "_Mid": 3477,
      "_Move": 3478,
      "_Maz": 3479,
      "_Mean": 3480,
      "_By": 3481,
      "ternal": 3482,
      "_Fore": 3483,
      "_Fenton": 3484,
      "_Following": 3485,
      "_conn": 3486,
      "_conv": 3487,
      "rial": 3488,
      "riff": 3489,
      "_album": 3490,
      "_weak": 3491,
      "chie": 3492,
      "raz": 3493,
      "_Hôtel": 3494,
      "_Pri": 3495,
      "_Pass": 3496,
      "_Pitc": 3497,
      "_People": 3498,
      "_Pierre": 3499,
      "isted": 3500,
      "_yet": 3501,
      "_yesterday": 3502,
      "_Net": 3503,
      "_section": 3504,
      "_exist": 3505,
      "_commer": 3506,
      "_comfort": 3507,
      "_Gr": 3508,
      "_DRC": 3509,
      "_Em": 3510,
      "_Over": 3511,
      "_Rue": 3512,
      "_Rog": 3513,
      "_RBS": 3514,
      "_Rwand": 3515,
      "_rig": 3516,
      "_rate": 3517,
      "_Ukra": 3518,
      "_vast": 3519,
      "_via": 3520,
      "_voice": 3521,
      "ity.": 3522,
      "_13": 3523,
      "_2.": 3524,
      "_26": 3525,
      "ards": 3526,
      "antic": 3527,
      "antly": 3528,
      "ie,": 3529,
      "ordable": 3530,
      "_truck": 3531,
      "_plat": 3532,
      "ance.": 3533,
      "_kitten": 3534,
      "_ago": 3535,
      "_introdu": 3536,
      "_offering": 3537,
      "_doctors": 3538,
      "_Instit": 3539,
      "_Jo": 3540,
      "_out,": 3541,
      "ia's": 3542,
      "_unable": 3543,
      "_me.": 3544,
      "_mean": 3545,
      "_spy": 3546,
      "_spread": 3547,
      "_spending": 3548,
      "_comprom": 3549,
      "ences": 3550,
      "_Child": 3551,
      "_Chief": 3552,
      "_Kapl": 3553,
      "ruption": 3554,
      "_arr": 3555,
      "_arch": 3556,
      "_dise": 3557,
      "_disch": 3558,
      "_disapp": 3559,
      "_allies": 3560,
      "_allerg": 3561,
      "_there,": 3562,
      "_Ital": 3563,
      "ipment": 3564,
      "_overse": 3565,
      "_interference": 3566,
      "_scand": 3567,
      "_scient": 3568,
      "_screen": 3569,
      "_enable": 3570,
      "_energy": 3571,
      "_\"In": 3572,
      "_confront": 3573,
      "_planned": 3574,
      "phones": 3575,
      "_airlin": 3576,
      "_addiction": 3577,
      "_consum": 3578,
      "_countri": 3579,
      "_phones": 3580,
      "_phys": 3581,
      "_committee": 3582,
      "_worked": 3583,
      "_passeng": 3584,
      "_appeared": 3585,
      "_specif": 3586,
      "_species.": 3587,
      "_cents": 3588,
      "_central": 3589,
      "_showed": 3590,
      "risk": 3591,
      "_raised": 3592,
      "_reporting": 3593,
      "_Germany": 3594,
      "_wants": 3595,
      "_way,": 3596,
      "_196": 3597,
      "_197": 3598,
      "_198": 3599,
      "_followed": 3600,
      "_brings": 3601,
      "vention": 3602,
      "_genital": 3603,
      "_week.": 3604,
      "_minist": 3605,
      "_include": 3606,
      "_includes": 3607,
      "ysts": 3608,
      "_leading": 3609,
      "_knowing": 3610,
      "_France,": 3611,
      "_fourth": 3612,
      "_mayor": 3613,
      "_While": 3614,
      "_seeing": 3615,
      "_instruction": 3616,
      "_forecast": 3617,
      "azi": 3618,
      "_Brig": 3619,
      "_expensive": 3620,
      "_October.": 3621,
      "_colle": 3622,
      "_Former": 3623,
      "_entire": 3624,
      "_box": 3625,
      "_economy": 3626,
      "_Australia.": 3627,
      "_operation": 3628,
      "_patent": 3629,
      "ribut": 3630,
      "_777": 3631,
      "_talking": 3632,
      "_injured.": 3633,
      "_cardinal": 3634,
      "_capacity": 3635,
      "_popular": 3636,
      "_growing": 3637,
      "_occas": 3638,
      "_occup": 3639,
      "_breast": 3640,
      "_FARDC": 3641,
      "_corporate": 3642,
      "_brother": 3643,
      "_Twitter": 3644,
      "_Broad": 3645,
      "_\"It's": 3646,
      "ropri": 3647,
      "_Monteb": 3648,
      "_rules": 3649,
      "_performed": 3650,
      "_release.": 3651,
      "_Congolese": 3652,
      "_Johns": 3653,
      "_vehicle": 3654,
      "_competition": 3655,
      "_questions": 3656,
      "_quarter,": 3657,
      "_source": 3658,
      "_practice": 3659,
      "_Associ": 3660,
      "_conducted": 3661,
      "_property": 3662,
      "_arrived": 3663,
      "_technical": 3664,
      "_continued": 3665,
      "-frisk": 3666,
      "_girls": 3667,
      "_Central": 3668,
      "_benefits": 3669,
      "_version": 3670,
      "_establish": 3671,
      "_powerful": 3672,
      "_Edward": 3673,
      "_journalist": 3674,
      "_daughter": 3675,
      "_daughters": 3676,
      "_Mayor": 3677,
      "_photos": 3678,
      "_designed": 3679,
      "_successful": 3680,
      "_frequent": 3681,
      "_residents": 3682,
      "_$100": 3683,
      "_organization": 3684,
      "_Transportation": 3685,
      "_radio": 3686,
      "_shares": 3687,
      "_additional": 3688,
      "_patients": 3689,
      "makers": 3690,
      "_domestic": 3691,
      "_dollars": 3692,
      "_Bowie": 3693,
      "_Nouri": 3694,
      "_spotted": 3695,
      "_manufacturer": 3696,
      "_favour": 3697,
      "_missiles": 3698,
      "_complain": 3699,
      "_necessary": 3700,
      "_victims": 3701,
      "_volunte": 3702,
      "-off": 3703,
      "-and-frisk": 3704,
      "_idea": 3705,
      "_Christmas": 3706,
      "_becoming": 3707,
      "_prepared": 3708,
      "_conflict": 3709,
      "_guarantee": 3710,
      "_Administration": 3711,
      "_avoid": 3712,
      "_Singapore": 3713,
      "_ultimately": 3714,
      "_female": 3715,
      "_example,": 3716,
      "_pharmac": 3717,
      "_Scarborough": 3718,
      "_Cameroon": 3719,
      "_celebr": 3720,
      "_founder": 3721,
      "_thousands": 3722,
      "_Sunday": 3723,
      "_Ministry": 3724,
      "_Nissan": 3725,
      "_character": 3726,
      "_O'Mal": 3727,
      "_subsid": 3728,
      "_clinics": 3729,
      "_behaviour": 3730,
      "_grandmother": 3731,
      "_Coulson": 3732,
      "_espionage": 3733,
      "while,": 3734,
      "_length": 3735,
      "_Several": 3736,
      "_Movement": 3737,
      "_Mazang": 3738,
      "_Meanwhile,": 3739,
      "_Foreign": 3740,
      "_Hôtel-D": 3741,
      "_Passengers": 3742,
      "_Pitcair": 3743,
      "_commercial": 3744,
      "_Kaplowitz": 3745,
      "%)": 3746,
      "-B": 3747,
      "-P": 3748,
      "-S": 3749,
      "-g": 3750,
      "0.": 3751,
      "1,": 3752,
      "200": 3753,
      "4,": 3754,
      "5.": 3755,
      "?\"": 3756,
      "PC": 3757,
      "_[": 3758,
      "aur": 3759,
      "aise": 3760,
      "be": 3761,
      "bed": 3762,
      "bies": 3763,
      "body": 3764,
      "cu": 3765,
      "ced.": 3766,
      "comm": 3767,
      "ei": 3768,
      "equ": 3769,
      "fer": 3770,
      "fight": 3771,
      "han": 3772,
      "hire": 3773,
      "hod": 3774,
      "iver": 3775,
      "iers.": 3776,
      "kins": 3777,
      "lb": 3778,
      "les,": 3779,
      "log": 3780,
      "mar": 3781,
      "more,": 3782,
      "of": 3783,
      "part": 3784,
      "sw": 3785,
      "sé": 3786,
      "sure": 3787,
      "serv": 3788,
      "uff": 3789,
      "we": 3790,
      "zb": 3791,
      "_tas": 3792,
      "_tear": 3793,
      "_trou": 3794,
      "_tong": 3795,
      "_tank": 3796,
      "_af": 3797,
      "_ack": 3798,
      "_achie": 3799,
      "rec": 3800,
      "reed": 3801,
      "reast": 3802,
      "reme": 3803,
      "erard": 3804,
      "_squ": 3805,
      "_song": 3806,
      "_wit": 3807,
      "_wall": 3808,
      "_word": 3809,
      "_worth": 3810,
      "_won't": 3811,
      "_oath": 3812,
      "_option": 3813,
      "eness": 3814,
      "ats": 3815,
      "atched": 3816,
      "_cig": 3817,
      "_cast": 3818,
      "_citiz": 3819,
      "is.": 3820,
      "ison": 3821,
      "anic": 3822,
      "oring": 3823,
      "orks": 3824,
      "orrow": 3825,
      "itch": 3826,
      "itical": 3827,
      "_bab": 3828,
      "_pric": 3829,
      "_pounds": 3830,
      "ingd": 3831,
      "_inn": 3832,
      "_fly": 3833,
      "_fail": 3834,
      "_finger": 3835,
      "arious": 3836,
      "ali": 3837,
      "_answ": 3838,
      "_hon": 3839,
      "_hit": 3840,
      "_horm": 3841,
      "_mas": 3842,
      "_mut": 3843,
      "_mult": 3844,
      "_mix": 3845,
      "icians": 3846,
      "oul": 3847,
      "ouin": 3848,
      "ous.": 3849,
      "as,": 3850,
      "_din": 3851,
      "_dro": 3852,
      "_dut": 3853,
      "_done": 3854,
      "ilty": 3855,
      "enty": 3856,
      "_review": 3857,
      "_reference": 3858,
      "_reason": 3859,
      "_revenue": 3860,
      "ids": 3861,
      "_Times": 3862,
      "_norm": 3863,
      "roll": 3864,
      "_loss": 3865,
      "_Aud": 3866,
      "_ge": 3867,
      "_glow": 3868,
      "_govern": 3869,
      "oted": 3870,
      "urch": 3871,
      "_Sw": 3872,
      "_San": 3873,
      "_Sil": 3874,
      "_Squ": 3875,
      "_Such": 3876,
      "_Satur": 3877,
      "lysé": 3878,
      "_Im": 3879,
      "_\"Y": 3880,
      "_\"p": 3881,
      "_that.": 3882,
      "etary": 3883,
      "_These": 3884,
      "_helic": 3885,
      "igr": 3886,
      "imary": 3887,
      "_Me": 3888,
      "_stren": 3889,
      "_stage": 3890,
      "_strug": 3891,
      "_structure": 3892,
      "amm": 3893,
      "_us,": 3894,
      "_Bid": 3895,
      "_Bam": 3896,
      "_Bern": 3897,
      "_whom": 3898,
      "eld": 3899,
      "eline": 3900,
      "_it,": 3901,
      "terror": 3902,
      "_Fl": 3903,
      "_From": 3904,
      "_Further": 3905,
      "_devices.": 3906,
      "_alone": 3907,
      "_altit": 3908,
      "_wearing": 3909,
      "_we're": 3910,
      "raint": 3911,
      "_Hu": 3912,
      "_Hy": 3913,
      "_Hare": 3914,
      "_Palliative": 3915,
      "opter": 3916,
      "_Nations": 3917,
      "_seas": 3918,
      "_seiz": 3919,
      "_separ": 3920,
      "akes": 3921,
      "iful": 3922,
      "ortion": 3923,
      "_said,": 3924,
      "atever": 3925,
      "_chair": 3926,
      "_Green": 3927,
      "_Gerard": 3928,
      "_Down": 3929,
      "_Damas": 3930,
      "_Delt": 3931,
      "_Earlier": 3932,
      "_Elysé": 3933,
      "_Offic": 3934,
      "ours": 3935,
      "ouring": 3936,
      "_vill": 3937,
      "_shock": 3938,
      "_shops": 3939,
      "_Lar": 3940,
      "_Last": 3941,
      "_learn": 3942,
      "_ability": 3943,
      "berg": 3944,
      "anted": 3945,
      "_year's": 3946,
      "order": 3947,
      "outhern": 3948,
      "_jailed": 3949,
      "_kil": 3950,
      "_kind": 3951,
      "_inte": 3952,
      "_offers": 3953,
      "_offered": 3954,
      "_doz": 3955,
      "_doctor": 3956,
      "_Jean": 3957,
      "ouses": 3958,
      "_they're": 3959,
      "_closed": 3960,
      "_cloud": 3961,
      "_worst": 3962,
      "_works": 3963,
      "_unc": 3964,
      "_unit": 3965,
      "_unus": 3966,
      "_units": 3967,
      "_unlike": 3968,
      "_contract": 3969,
      "ure,": 3970,
      "ports": 3971,
      "_reserve": 3972,
      "_comput": 3973,
      "_Ste": 3974,
      "_Stand": 3975,
      "_Stock": 3976,
      "ction.": 3977,
      "_Chouin": 3978,
      "_people.": 3979,
      "_serve": 3980,
      "_Ke": 3981,
      "_Kat": 3982,
      "_Kingd": 3983,
      "_(F": 3984,
      "_(the": 3985,
      "_therefore": 3986,
      "_party,": 3987,
      "_Mrs": 3988,
      "_soft": 3989,
      "_Yah": 3990,
      "_herself": 3991,
      "_sche": 3992,
      "_novel": 3993,
      "_government,": 3994,
      "_eng": 3995,
      "_enab": 3996,
      "_ensure": 3997,
      "_Europe,": 3998,
      "_Europe's": 3999,
      "nowled": 4000,
      "ounded": 4001,
      "_But,": 4002,
      "_liber": 4003,
      "_likes": 4004,
      "_someone": 4005,
      "_Island": 4006,
      "_undert": 4007,
      "_back.": 4008,
      "_consumer": 4009,
      "_command": 4010,
      "_community": 4011,
      "aval": 4012,
      "_USA": 4013,
      "_workers": 4014,
      "_laws": 4015,
      "_goals": 4016,
      "_38": 4017,
      "_crew": 4018,
      "_built": 4019,
      "_Observ": 4020,
      "_blue": 4021,
      "_blood": 4022,
      "_specul": 4023,
      "_Another": 4024,
      "_rabies": 4025,
      "_evening,": 4026,
      "_Germany,": 4027,
      "_brand": 4028,
      "_smoking": 4029,
      "rowd": 4030,
      "_trib": 4031,
      "_guilty": 4032,
      "_leader": 4033,
      "_discuss": 4034,
      "_throughout": 4035,
      "_remember": 4036,
      "_day.": 4037,
      "_inspe": 4038,
      "_famous": 4039,
      "_businesses": 4040,
      "_seeking": 4041,
      "_identify": 4042,
      "_warning": 4043,
      "_instead": 4044,
      "_located": 4045,
      "_experts": 4046,
      "_children's": 4047,
      "_survey": 4048,
      "_elected": 4049,
      "_match": 4050,
      "_expand": 4051,
      "_rights": 4052,
      "_believed": 4053,
      "_refused": 4054,
      "_laid": 4055,
      "_depart": 4056,
      "_ordered": 4057,
      "_entr": 4058,
      "_Clint": 4059,
      "_Common": 4060,
      "ornia": 4061,
      "_strateg": 4062,
      "_study": 4063,
      "-sc": 4064,
      "_targeted": 4065,
      "_operating": 4066,
      "_co-": 4067,
      "_home.": 4068,
      "_presidential": 4069,
      "_concerns": 4070,
      "_80": 4071,
      "_infring": 4072,
      "_suburb": 4073,
      "_Syria,": 4074,
      "_antib": 4075,
      "_changed": 4076,
      "_loaded": 4077,
      "_stop-and-frisk": 4078,
      "_Exchange": 4079,
      "_meeting": 4080,
      "_determ": 4081,
      "_sentence": 4082,
      "_filed": 4083,
      "_diagn": 4084,
      "_explains": 4085,
      "_marine": 4086,
      "_greater": 4087,
      "olicitor": 4088,
      "_claimed": 4089,
      "_brok": 4090,
      "_Brown": 4091,
      "_Renault": 4092,
      "_holding": 4093,
      "_money.": 4094,
      "_Today,": 4095,
      "_death.": 4096,
      "_charged": 4097,
      "_results": 4098,
      "_performance": 4099,
      "_opport": 4100,
      "_Arm": 4101,
      "_debt": 4102,
      "_debate": 4103,
      "_privile": 4104,
      "_vehicles": 4105,
      "_protected": 4106,
      "_Snowden,": 4107,
      "_Abb": 4108,
      "_Abd": 4109,
      "_Beij": 4110,
      "_problems": 4111,
      "_musician": 4112,
      "_sources": 4113,
      "_open": 4114,
      "_Nev": 4115,
      "_Next": 4116,
      "_Eng": 4117,
      "_Organ": 4118,
      "_share,": 4119,
      "_arriving": 4120,
      "_Without": 4121,
      "_closure": 4122,
      "_employees.": 4123,
      "_Canadian": 4124,
      "_website.": 4125,
      "_That's": 4126,
      "_associated": 4127,
      "_esc": 4128,
      "_initially": 4129,
      "_reduce": 4130,
      "_\"For": 4131,
      "_Phuk": 4132,
      "_journalists": 4133,
      "_China": 4134,
      "_demanded": 4135,
      "_Washingt": 4136,
      "_editor": 4137,
      "_waiting": 4138,
      "_ceremony": 4139,
      "_alleg": 4140,
      "_alleged": 4141,
      "_levels": 4142,
      "_surgery": 4143,
      "_course,": 4144,
      "_products": 4145,
      "_individuals": 4146,
      "_figures": 4147,
      "_factory": 4148,
      "_hopes": 4149,
      "_draw": 4150,
      "_strike": 4151,
      "_letter": 4152,
      "_approach": 4153,
      "_Iraqi": 4154,
      "iatric": 4155,
      "_typ": 4156,
      "_type": 4157,
      "_walk": 4158,
      "_limit": 4159,
      "_Michaux": 4160,
      "_conditions": 4161,
      "_shape": 4162,
      "_Charles": 4163,
      "_arrested": 4164,
      "_ambit": 4165,
      "_terrorist": 4166,
      "_newspaper,": 4167,
      "_encoura": 4168,
      "_living": 4169,
      "_Georges": 4170,
      "_musicals": 4171,
      "_completely": 4172,
      "_width": 4173,
      "_focus": 4174,
      "_damage": 4175,
      "_Affordable": 4176,
      "_vari": 4177,
      "_afternoon.": 4178,
      "_discovery": 4179,
      "-de-G": 4180,
      "_cabin": 4181,
      "_counter": 4182,
      "_earning": 4183,
      "_channel": 4184,
      "_rushed": 4185,
      "_adopted": 4186,
      "_issued": 4187,
      "_cultural": 4188,
      "_division": 4189,
      "_Senate": 4190,
      "_HS2": 4191,
      "_Office": 4192,
      "_influ": 4193,
      "_controversial": 4194,
      "_estimated": 4195,
      "_Democratic": 4196,
      "_February": 4197,
      "_slightly": 4198,
      "_homes": 4199,
      "_mentioned": 4200,
      "_Nortel": 4201,
      "_negative": 4202,
      "_Daley": 4203,
      "planes": 4204,
      "_Jewish": 4205,
      "_Turkest": 4206,
      "_circumst": 4207,
      "onathan": 4208,
      "_prison": 4209,
      "_festival": 4210,
      "_Author": 4211,
      "_CNN": 4212,
      "_California": 4213,
      "_platform": 4214,
      "_Institute": 4215,
      "_disease": 4216,
      "_disappoint": 4217,
      "_passenger": 4218,
      "_Broadway": 4219,
      "_Montebourg": 4220,
      "_Mazanga": 4221,
      "fighters": 4222,
      "_tongue": 4223,
      "_acknowled": 4224,
      "_cigaret": 4225,
      "_helicopter": 4226,
      "_streng": 4227,
      "_Delta": 4228,
      "_Yahoo": 4229,
      "'O": 4230,
      "-E": 4231,
      "-L": 4232,
      "-M": 4233,
      "-st": 4234,
      "-ele": 4235,
      "2-year-old": 4236,
      "36": 4237,
      "300": 4238,
      "53": 4239,
      "6,": 4240,
      "7.": 4241,
      "IM": 4242,
      "MF": 4243,
      "NA": 4244,
      "PD": 4245,
      "SC": 4246,
      "SE": 4247,
      "SW": 4248,
      "TC": 4249,
      "_ess": 4250,
      "ape": 4251,
      "bur": 4252,
      "book": 4253,
      "cl": 4254,
      "ces,": 4255,
      "ches": 4256,
      "do": 4257,
      "dog": 4258,
      "eer": 4259,
      "eur": 4260,
      "ement": 4261,
      "ford": 4262,
      "fire": 4263,
      "fect": 4264,
      "gn": 4265,
      "gry": 4266,
      "ground": 4267,
      "ham": 4268,
      "hib": 4269,
      "haul": 4270,
      "iqu": 4271,
      "ied.": 4272,
      "iens": 4273,
      "ield": 4274,
      "lo": 4275,
      "met": 4276,
      "mish": 4277,
      "mitted": 4278,
      "oic": 4279,
      "os,": 4280,
      "o-d": 4281,
      "ping": 4282,
      "ple": 4283,
      "prom": 4284,
      "pose": 4285,
      "tic": 4286,
      "ty.": 4287,
      "uct": 4288,
      "uous": 4289,
      "ves.": 4290,
      "viously": 4291,
      "yond": 4292,
      "zh": 4293,
      "zamb": 4294,
      "çois": 4295,
      "_tit": 4296,
      "_tem": 4297,
      "iny": 4298,
      "oning": 4299,
      "ones,": 4300,
      "er\"": 4301,
      "eries": 4302,
      "erved": 4303,
      "erful": 4304,
      "_sat": 4305,
      "_solicitor": 4306,
      "_wide": 4307,
      "_wake": 4308,
      "en.": 4309,
      "atically": 4310,
      "atural": 4311,
      "_cave": 4312,
      "_cross": 4313,
      "_crowd": 4314,
      "ediatric": 4315,
      "isations": 4316,
      "ité": 4317,
      "_bin": 4318,
      "_bed": 4319,
      "_bid": 4320,
      "_brief": 4321,
      "_bought": 4322,
      "_pow": 4323,
      "_pover": 4324,
      "_path": 4325,
      "_pick": 4326,
      "_pict": 4327,
      "_poor": 4328,
      "_inhab": 4329,
      "_fif": 4330,
      "_fast": 4331,
      "_fine": 4332,
      "_fair": 4333,
      "_tom": 4334,
      "ala": 4335,
      "ality": 4336,
      "alition": 4337,
      "_har": 4338,
      "_hol": 4339,
      "_hun": 4340,
      "_horse": 4341,
      "_mer": 4342,
      "_mis": 4343,
      "_mal": 4344,
      "_mot": 4345,
      "_mist": 4346,
      "_mand": 4347,
      "_mag": 4348,
      "_math": 4349,
      "icro": 4350,
      "icious": 4351,
      "asa": 4352,
      "asc": 4353,
      "ashed": 4354,
      "asman": 4355,
      "ashes": 4356,
      "_dang": 4357,
      "_dressed": 4358,
      "lemish": 4359,
      "oms": 4360,
      "omin": 4361,
      "oman": 4362,
      "_thin": 4363,
      "_thus": 4364,
      "iling": 4365,
      "_repe": 4366,
      "_renew": 4367,
      "_Tasman": 4368,
      "_nar": 4369,
      "_nort": 4370,
      "_eag": 4371,
      "_either": 4372,
      "struction": 4373,
      "_lack": 4374,
      "_lab": 4375,
      "_log": 4376,
      "_lang": 4377,
      "_lower": 4378,
      "_ones": 4379,
      "_Ac": 4380,
      "_gain": 4381,
      "_grip": 4382,
      "_giant": 4383,
      "olf": 4384,
      "add": 4385,
      "ador": 4386,
      "ading": 4387,
      "ots": 4388,
      "utes": 4389,
      "utions": 4390,
      "urph": 4391,
      "_S&": 4392,
      "_Sun": 4393,
      "_Seb": 4394,
      "_Soci": 4395,
      "_Social": 4396,
      "ly,": 4397,
      "iry": 4398,
      "_island": 4399,
      "_IMF": 4400,
      "_\"b": 4401,
      "_\"not": 4402,
      "owed": 4403,
      "_Col": 4404,
      "_Coun": 4405,
      "_Cai": 4406,
      "_Then": 4407,
      "_Their": 4408,
      "_heav": 4409,
      "_hearing": 4410,
      "igade": 4411,
      "_Mil": 4412,
      "_Mary": 4413,
      "_Mark": 4414,
      "_Mull": 4415,
      "_Motor": 4416,
      "_Murph": 4417,
      "ills": 4418,
      "_stra": 4419,
      "_stood": 4420,
      "_stress": 4421,
      "_stored": 4422,
      "_Ben": 4423,
      "_Bill": 4424,
      "_Bul": 4425,
      "_Braz": 4426,
      "els,": 4427,
      "_it,\"": 4428,
      "_wasn't": 4429,
      "aces": 4430,
      "acher": 4431,
      "acy.": 4432,
      "term": 4433,
      "_asse": 4434,
      "_asyl": 4435,
      "_Fed": 4436,
      "_Four": 4437,
      "_Flight": 4438,
      "_convic": 4439,
      "_convers": 4440,
      "_concept": 4441,
      "_constitution": 4442,
      "_consecut": 4443,
      "_dev": 4444,
      "_deep": 4445,
      "_alive": 4446,
      "_al-Q": 4447,
      "chang": 4448,
      "raid": 4449,
      "_Hence": 4450,
      "_Horse": 4451,
      "_Per": 4452,
      "_Pen": 4453,
      "_Pat": 4454,
      "_Pope": 4455,
      "_Paul": 4456,
      "_Peter": 4457,
      "_hab": 4458,
      "istle": 4459,
      "_prop": 4460,
      "_proces": 4461,
      "_Never": 4462,
      "_NSW": 4463,
      "_exerc": 4464,
      "aken": 4465,
      "_comed": 4466,
      "_neither": 4467,
      "_chain": 4468,
      "_chose": 4469,
      "_GC": 4470,
      "_Grou": 4471,
      "_Gree": 4472,
      "_Great": 4473,
      "_Die": 4474,
      "_DNA": 4475,
      "_Every": 4476,
      "_noted": 4477,
      "_Of": 4478,
      "_OPC": 4479,
      "ighur": 4480,
      "_rac": 4481,
      "_rates": 4482,
      "_rule": 4483,
      "osen": 4484,
      "ossible": 4485,
      "_War": 4486,
      "_Wal": 4487,
      "_Under": 4488,
      "_Uighur": 4489,
      "_vir": 4490,
      "_120": 4491,
      "essor": 4492,
      "_25": 4493,
      "ems": 4494,
      "_Law": 4495,
      "_Llew": 4496,
      "unch": 4497,
      "arded": 4498,
      "_abuse": 4499,
      "berl": 4500,
      "ant,": 4501,
      "antage": 4502,
      "_this,": 4503,
      "iev": 4504,
      "ghold": 4505,
      "_advent": 4506,
      "_advert": 4507,
      "_truc": 4508,
      "_Thail": 4509,
      "umes": 4510,
      "_agent": 4511,
      "_agreed": 4512,
      "_door": 4513,
      "plit": 4514,
      "place": 4515,
      "day.": 4516,
      "ages,": 4517,
      "_Jac": 4518,
      "_Jomb": 4519,
      "over,": 4520,
      "_clim": 4521,
      "_club": 4522,
      "_accomm": 4523,
      "_Fran": 4524,
      "_Frank": 4525,
      "_unve": 4526,
      "_univers": 4527,
      "_contra": 4528,
      "ureau": 4529,
      "_resum": 4530,
      "_wouldn't": 4531,
      "_income": 4532,
      "ode": 4533,
      "_Street": 4534,
      "_twice": 4535,
      "_people,": 4536,
      "_Kiv": 4537,
      "_armed": 4538,
      "_imm": 4539,
      "_Here": 4540,
      "_Hezb": 4541,
      "_all,": 4542,
      "ibility": 4543,
      "_parties": 4544,
      "oseph": 4545,
      "_so,": 4546,
      "_sole": 4547,
      "_spect": 4548,
      "_overhaul": 4549,
      "_Yet,": 4550,
      "_Yorks": 4551,
      "_decide": 4552,
      "vices,": 4553,
      "arged": 4554,
      "_pregn": 4555,
      "_firm": 4556,
      "oys": 4557,
      "_surround": 4558,
      "_attend": 4559,
      "_Vatic": 4560,
      "_text": 4561,
      "_confident": 4562,
      "_feat": 4563,
      "_thanks": 4564,
      "_$2": 4565,
      "_$1.": 4566,
      "_$2.": 4567,
      "_$4.": 4568,
      "_apartment": 4569,
      "_train": 4570,
      "_undergo": 4571,
      "izes": 4572,
      "airs": 4573,
      "_Only": 4574,
      "_down,": 4575,
      "_rob": 4576,
      "_rock": 4577,
      "_lawmakers": 4578,
      "_goal": 4579,
      "_provision": 4580,
      "_provinc": 4581,
      "_providing": 4582,
      "_33": 4583,
      "_30,": 4584,
      "_passing": 4585,
      "_impossible": 4586,
      "_officer": 4587,
      "_autom": 4588,
      "_gets": 4589,
      "_2009": 4590,
      "_police,": 4591,
      "_months.": 4592,
      "_raise": 4593,
      "_raising": 4594,
      "ernity": 4595,
      "_group's": 4596,
      "_brigade": 4597,
      "_now,": 4598,
      "_needs": 4599,
      "_world,": 4600,
      "_world.": 4601,
      "SA)": 4602,
      "_Anderson": 4603,
      "_transition": 4604,
      "_owners": 4605,
      "_mind": 4606,
      "_everything": 4607,
      "_announced.": 4608,
      "_officially": 4609,
      "_well.": 4610,
      "_however,": 4611,
      "_defend": 4612,
      "_defence": 4613,
      "_handle": 4614,
      "_day,": 4615,
      "_heads": 4616,
      "_ended": 4617,
      "_repair": 4618,
      "_reporter": 4619,
      "ness,": 4620,
      "_firefighters": 4621,
      "_Also": 4622,
      "_Al-Q": 4623,
      "_authorised": 4624,
      "_identification": 4625,
      "theles": 4626,
      "_war.": 4627,
      "_warned": 4628,
      "_experim": 4629,
      "_children,": 4630,
      "atorium": 4631,
      "_requires": 4632,
      "_administr": 4633,
      "_country,": 4634,
      "_effic": 4635,
      "_place.": 4636,
      "_electric": 4637,
      "_developed": 4638,
      "_applic": 4639,
      "_apparent": 4640,
      "_maternity": 4641,
      "ism,": 4642,
      "_reflect": 4643,
      "_refuge": 4644,
      "_pressure": 4645,
      "_entry": 4646,
      "iolog": 4647,
      "_primary": 4648,
      "_Class": 4649,
      "_famili": 4650,
      "_families": 4651,
      "_helped": 4652,
      "_setting": 4653,
      "_sites": 4654,
      "_President,": 4655,
      "_buildings": 4656,
      "_'L": 4657,
      "_targeting": 4658,
      "_acqu": 4659,
      "_patents": 4660,
      "_granted": 4661,
      "_extrad": 4662,
      "_tradition": 4663,
      "_finding": 4664,
      "_findings": 4665,
      "_70": 4666,
      "appropri": 4667,
      "_looks": 4668,
      "_looked": 4669,
      "_NSA's": 4670,
      "_voted": 4671,
      "_voting": 4672,
      "iversary": 4673,
      "_points": 4674,
      "_advoc": 4675,
      "_advantage": 4676,
      "_involve": 4677,
      "_difference": 4678,
      "_customer": 4679,
      "_90": 4680,
      "_talks": 4681,
      "_stopped": 4682,
      "_November.": 4683,
      "_feeling": 4684,
      "_affect": 4685,
      "_Shi": 4686,
      "_interesting": 4687,
      "_correct": 4688,
      "_corruption": 4689,
      "_towns": 4690,
      "aught": 4691,
      "_quarry": 4692,
      "ological": 4693,
      "_violent": 4694,
      "_shortly": 4695,
      "_Qu": 4696,
      "onym": 4697,
      "_postp": 4698,
      "_holds": 4699,
      "_method": 4700,
      "_democr": 4701,
      "_death,": 4702,
      "_allowing": 4703,
      "_ruled": 4704,
      "_men,": 4705,
      "_I've": 4706,
      "unications": 4707,
      "_judges": 4708,
      "_appealing": 4709,
      "_morning.": 4710,
      "_hostages": 4711,
      "_rebell": 4712,
      "ollah": 4713,
      "_recognised": 4714,
      "_protection": 4715,
      "_biggest": 4716,
      "_Beaud": 4717,
      "_running": 4718,
      "_visit": 4719,
      "_swe": 4720,
      "_singer": 4721,
      "_opin": 4722,
      "_facilities": 4723,
      "_household": 4724,
      "_Amiens": 4725,
      "_conducting": 4726,
      "_Davis": 4727,
      "_International": 4728,
      "_technology": 4729,
      "_independence": 4730,
      "_continuing": 4731,
      "_modern": 4732,
      "_immediate": 4733,
      "_\"That": 4734,
      "_2011,": 4735,
      "_schedule": 4736,
      "_association": 4737,
      "_elections": 4738,
      "_response": 4739,
      "_Frontier's": 4740,
      "_reduced": 4741,
      "_prevented": 4742,
      "_industrial": 4743,
      "_$325": 4744,
      "_launched": 4745,
      "_Â£1": 4746,
      "_educ": 4747,
      "lusive": 4748,
      "_ceremonies": 4749,
      "aniel": 4750,
      "_baggage": 4751,
      "_revolution": 4752,
      "_summon": 4753,
      "_manager": 4754,
      "_surgeries": 4755,
      "_statement.": 4756,
      "_currency": 4757,
      "_08": 4758,
      "_freed": 4759,
      "_hoping": 4760,
      "_moved": 4761,
      "_equipped": 4762,
      "_Services": 4763,
      "_Blair": 4764,
      "_Gazprom": 4765,
      "_dispute": 4766,
      "_Xinj": 4767,
      "_telling": 4768,
      "_aimed": 4769,
      "ompan": 4770,
      "_replace": 4771,
      "_limited": 4772,
      "_Spirit": 4773,
      "_\"My": 4774,
      "_Many": 4775,
      "_Marie": 4776,
      "_Michael": 4777,
      "_suffered": 4778,
      "_suffering": 4779,
      "_agency,": 4780,
      "_contained": 4781,
      "_precarious": 4782,
      "_surprise": 4783,
      "_cremation": 4784,
      "_generally": 4785,
      "ijuan": 4786,
      "_buried": 4787,
      "_dollar": 4788,
      "_Moore": 4789,
      "_Mozamb": 4790,
      "operating": 4791,
      "_Georg": 4792,
      "_population": 4793,
      "_participating": 4794,
      "_wrongdo": 4795,
      "_Republican": 4796,
      "_pushing": 4797,
      "_hacking": 4798,
      "_massive": 4799,
      "_origin": 4800,
      "_original": 4801,
      "_abandoned": 4802,
      "_interception": 4803,
      "_supplies": 4804,
      "_bodies": 4805,
      "_animal": 4806,
      "_beginning": 4807,
      "_SAS": 4808,
      "_Comedy": 4809,
      "_Rockst": 4810,
      "_suggests": 4811,
      "_themselves": 4812,
      "_blocks": 4813,
      "_increasingly": 4814,
      "_African": 4815,
      "_Bunagana": 4816,
      "_principle": 4817,
      "print": 4818,
      "Ã¢te": 4819,
      "_balance": 4820,
      "_predict": 4821,
      "_pumpkin": 4822,
      "_dramatic": 4823,
      "_Timberl": 4824,
      "_Alexand": 4825,
      "_gunfire": 4826,
      "_CSeries": 4827,
      "_he'll": 4828,
      "_Moreover,": 4829,
      "_Mohamed": 4830,
      "_Party": 4831,
      "ophistic": 4832,
      "_profession": 4833,
      "_exhausted": 4834,
      "ancellor": 4835,
      "_States,": 4836,
      "_discussions": 4837,
      "_hostage-t": 4838,
      "brok": 4839,
      "mnic": 4840,
      "_symb": 4841,
      "_books": 4842,
      "_Carol": 4843,
      "_sustainable": 4844,
      "_shutdown": 4845,
      "_Lebanese": 4846,
      "_recommended": 4847,
      "_Scottish": 4848,
      "_purchase": 4849,
      "_guidelines": 4850,
      "_Pakistani": 4851,
      "_crisis": 4852,
      "_psychiat": 4853,
      "_Techn": 4854,
      "_beautiful": 4855,
      "_Roger": 4856,
      "_Rwanda": 4857,
      "_Ukraine": 4858,
      "_Children": 4859,
      "_discharged": 4860,
      "_scientists": 4861,
      "_Brigitte": 4862,
      "_volunteers": 4863,
      "_pharmacists": 4864,
      "_O'Malley": 4865,
      "_Hôtel-Dieu": 4866,
      "_afraid": 4867,
      "_witness": 4868,
      "_dinner": 4869,
      "_Square": 4870,
      "_Biden": 4871,
      "_Bamford": 4872,
      "_Bernard": 4873,
      "_Furthermore,": 4874,
      "_integr": 4875,
      "_unusual": 4876,
      "_Standard": 4877,
      "_Chouinard": 4878,
      "_Clinton": 4879,
      "-scale": 4880,
      "_privilege": 4881,
      "_Abbott": 4882,
      "_Abdel": 4883,
      "_Beijing": 4884,
      "_Nevad": 4885,
      "_England": 4886,
      "_Phuket": 4887,
      "_Washington.": 4888,
      "_allegations": 4889,
      "_ambitious": 4890,
      "_encourage": 4891,
      "_counterpart": 4892,
      "_earnings": 4893,
      "_Turkestan": 4894,
      "_circumstances": 4895,
      "_langu": 4896,
      "_Council": 4897,
      "_Cairo": 4898,
      "_Bulg": 4899,
      "_Brazil": 4900,
      "_asylum": 4901,
      "_consecutive": 4902,
      "_Nevertheles": 4903,
      "_Grouw": 4904,
      "_OPCW": 4905,
      "_Llewyn": 4906,
      "_trucks": 4907,
      "_Thailand": 4908,
      "_Jomba,": 4909,
      "_accommod": 4910,
      "_Hezbollah": 4911,
      "_Yorkshire": 4912,
      "_Vatican": 4913,
      "_Xinjian": 4914,
      "_Mozambique": 4915,
      "_Nevertheless,": 4916,
      "'m": 4917,
      "-N": 4918,
      "-r": 4919,
      "-ab": 4920,
      "-per": 4921,
      "-the": 4922,
      "-sex": 4923,
      ".8": 4924,
      ".30": 4925,
      "/1": 4926,
      "08": 4927,
      "0s,": 4928,
      "2%": 4929,
      "45": 4930,
      "64": 4931,
      "7%": 4932,
      "90": 4933,
      "DG": 4934,
      "EC": 4935,
      "EU": 4936,
      "Max": 4937,
      "October": 4938,
      "YPD": 4939,
      "_&": 4940,
      "_à": 4941,
      "af": 4942,
      "aound": 4943,
      "bt": 4944,
      "bre": 4945,
      "bass": 4946,
      "born": 4947,
      "buz": 4948,
      "cul": 4949,
      "cus": 4950,
      "da": 4951,
      "dd": 4952,
      "ding": 4953,
      "dra": 4954,
      "ees": 4955,
      "eak": 4956,
      "eks": 4957,
      "fV": 4958,
      "fill": 4959,
      "fold": 4960,
      "fish": 4961,
      "father": 4962,
      "go,": 4963,
      "h.": 4964,
      "hl": 4965,
      "hous": 4966,
      "hind": 4967,
      "haps": 4968,
      "hasa": 4969,
      "i.": 4970,
      "iet": 4971,
      "iary": 4972,
      "io,": 4973,
      "iers,": 4974,
      "jerm": 4975,
      "kel": 4976,
      "lated": 4977,
      "ni": 4978,
      "nce": 4979,
      "nab": 4980,
      "night": 4981,
      "ner,": 4982,
      "ox": 4983,
      "oz": 4984,
      "oom": 4985,
      "oard": 4986,
      "ps": 4987,
      "pid": 4988,
      "pay": 4989,
      "pir": 4990,
      "pond": 4991,
      "person": 4992,
      "pired": 4993,
      "panic": 4994,
      "rid": 4995,
      "rich": 4996,
      "sun": 4997,
      "session": 4998,
      "to": 4999,
      "tle": 5000,
      "telligence": 5001,
      "uin": 5002,
      "uer": 5003,
      "uine": 5004,
      "van": 5005,
      "vill": 5006,
      "vest": 5007,
      "viv": 5008,
      "vious": 5009,
      "viation": 5010,
      "yp": 5011,
      "ze": 5012,
      "Â¢": 5013,
      "Ã¶": 5014,
      "éd": 5015,
      "ér": 5016,
      "_tense": 5017,
      "_turning": 5018,
      "_tiny": 5019,
      "hes,": 5020,
      "_au": 5021,
      "_aer": 5022,
      "_aid": 5023,
      "ines,": 5024,
      "inations": 5025,
      "inberg": 5026,
      "rets": 5027,
      "relim": 5028,
      "onated": 5029,
      "onghold": 5030,
      "eration": 5031,
      "erted": 5032,
      "_south": 5033,
      "_sessions": 5034,
      "_southern": 5035,
      "_split": 5036,
      "_sophistic": 5037,
      "_won": 5038,
      "_wro": 5039,
      "_wag": 5040,
      "_wild": 5041,
      "_wave": 5042,
      "ension": 5043,
      "ater": 5044,
      "ats,": 5045,
      "_cam": 5046,
      "_cru": 5047,
      "_cable": 5048,
      "_covered": 5049,
      "_cancell": 5050,
      "isd": 5051,
      "isf": 5052,
      "isl": 5053,
      "isse": 5054,
      "ane": 5055,
      "anl": 5056,
      "ann": 5057,
      "anist": 5058,
      "organ": 5059,
      "orically": 5060,
      "orney": 5061,
      "itant": 5062,
      "itarian": 5063,
      "_ball": 5064,
      "_base": 5065,
      "_bish": 5066,
      "_batt": 5067,
      "_banks": 5068,
      "_pic": 5069,
      "_pip": 5070,
      "_park": 5071,
      "_pony": 5072,
      "_poth": 5073,
      "_palliative": 5074,
      "_pediatric": 5075,
      "ingu": 5076,
      "ings.": 5077,
      "_ink": 5078,
      "_inqu": 5079,
      "_inappropri": 5080,
      "_fu": 5081,
      "_fat": 5082,
      "_fal": 5083,
      "_fle": 5084,
      "_fear": 5085,
      "_fab": 5086,
      "_fram": 5087,
      "_farm": 5088,
      "_felt": 5089,
      "_too,": 5090,
      "_tools": 5091,
      "arak": 5092,
      "aries": 5093,
      "archer": 5094,
      "alm": 5095,
      "ales": 5096,
      "alysts": 5097,
      "_anc": 5098,
      "_anx": 5099,
      "_anger": 5100,
      "_angry": 5101,
      "_anonym": 5102,
      "_hus": 5103,
      "_hall": 5104,
      "_hump": 5105,
      "_mort": 5106,
      "_mount": 5107,
      "ic,": 5108,
      "icit": 5109,
      "ous,": 5110,
      "oured": 5111,
      "asy": 5112,
      "asure": 5113,
      "_dig": 5114,
      "_dug": 5115,
      "ion.": 5116,
      "leg": 5117,
      "lear": 5118,
      "lease": 5119,
      "omen": 5120,
      "ilos": 5121,
      "ented": 5122,
      "ental": 5123,
      "iders": 5124,
      "idem": 5125,
      "idden": 5126,
      "_Turn": 5127,
      "_Tues": 5128,
      "_Tony": 5129,
      "_Tele": 5130,
      "_beyond": 5131,
      "_nom": 5132,
      "_nation": 5133,
      "_natural": 5134,
      "_ec": 5135,
      "_ease": 5136,
      "_earn": 5137,
      "road": 5138,
      "rofit": 5139,
      "_lif": 5140,
      "_lose": 5141,
      "_laugh": 5142,
      "_luck": 5143,
      "_losing": 5144,
      "_liter": 5145,
      "_App": 5146,
      "_Arab": 5147,
      "_Apr": 5148,
      "_ABC": 5149,
      "_Aviation": 5150,
      "_gig": 5151,
      "_gra": 5152,
      "_gest": 5153,
      "_grew": 5154,
      "_gate.": 5155,
      "ctic": 5156,
      "ceed": 5157,
      "ays,": 5158,
      "olute": 5159,
      "olitical": 5160,
      "adem": 5161,
      "ote": 5162,
      "otel": 5163,
      "uts": 5164,
      "urt": 5165,
      "ury,": 5166,
      "_Sk": 5167,
      "_Sur": 5168,
      "_Sup": 5169,
      "_Spec": 5170,
      "lyfish": 5171,
      "_isn't": 5172,
      "sek": 5173,
      "sequ": 5174,
      "sequent": 5175,
      "verse": 5176,
      "_IT": 5177,
      "_forcing": 5178,
      "_\"R": 5179,
      "_\"a": 5180,
      "_\"re": 5181,
      "_\"th": 5182,
      "_\"very": 5183,
      "_\"ex": 5184,
      "_that,\"": 5185,
      "_Cr": 5186,
      "_Cort": 5187,
      "_Card": 5188,
      "_Crown": 5189,
      "etro": 5190,
      "ettel": 5191,
      "ation,\"": 5192,
      "igious": 5193,
      "iguous": 5194,
      "_Most": 5195,
      "_Mub": 5196,
      "_Mex": 5197,
      "_Monde": 5198,
      "_Mbuz": 5199,
      "ill,": 5200,
      "_star": 5201,
      "_store": 5202,
      "_stages": 5203,
      "_stuck": 5204,
      "_stressed": 5205,
      "_stability": 5206,
      "am,": 5207,
      "ama": 5208,
      "ammed": 5209,
      "_us.": 5210,
      "_Ba": 5211,
      "_Bur": 5212,
      "_Bus": 5213,
      "_Bru": 5214,
      "_Bock": 5215,
      "_Bali": 5216,
      "_whatever": 5217,
      "_whistle": 5218,
      "ellyfish": 5219,
      "_items": 5220,
      "acle": 5221,
      "_Face": 5222,
      "_Fund": 5223,
      "_Flemish": 5224,
      "_Frelim": 5225,
      "_constit": 5226,
      "_consequ": 5227,
      "_withdra": 5228,
      "rian": 5229,
      "_deploy": 5230,
      "_weight": 5231,
      "_we've": 5232,
      "_weeks": 5233,
      "peaking": 5234,
      "ment.": 5235,
      "_Hom": 5236,
      "_High": 5237,
      "_Hero": 5238,
      "_Hague": 5239,
      "_Hotel": 5240,
      "ulf": 5241,
      "ulner": 5242,
      "_Press": 5243,
      "_Perry": 5244,
      "_Parliament": 5245,
      "_Parent": 5246,
      "_save": 5247,
      "ge,": 5248,
      "ge.": 5249,
      "geoys": 5250,
      "istance": 5251,
      "_proved": 5252,
      "_prote": 5253,
      "_propos": 5254,
      "_prohib": 5255,
      "_No": 5256,
      "_Nic": 5257,
      "_Nav": 5258,
      "_Nazi": 5259,
      "_NYPD": 5260,
      "_aren": 5261,
      "_areas": 5262,
      "ress.": 5263,
      "rescher": 5264,
      "respond": 5265,
      "_sees": 5266,
      "_seized": 5267,
      "_season": 5268,
      "_exit": 5269,
      "_external": 5270,
      "_comedy": 5271,
      "_has,": 5272,
      "_hasn't": 5273,
      "romos": 5274,
      "_chore": 5275,
      "_chance": 5276,
      "_choice": 5277,
      "_chromos": 5278,
      "_GP": 5279,
      "_Gom": 5280,
      "_Den": 5281,
      "_Day,": 5282,
      "_Djerm": 5283,
      "_Drescher": 5284,
      "_Ell": 5285,
      "ains": 5286,
      "_Old": 5287,
      "_Opp": 5288,
      "_Osc": 5289,
      "_Omnic": 5290,
      "arters": 5291,
      "ourgeoys": 5292,
      "_Run": 5293,
      "_Right": 5294,
      "_Rec": 5295,
      "_Rio": 5296,
      "ighter": 5297,
      "than": 5298,
      "_ring": 5299,
      "_rid": 5300,
      "_Wild": 5301,
      "_vent": 5302,
      "_vary": 5303,
      "_vision": 5304,
      "_voic": 5305,
      "_vulner": 5306,
      "_willing": 5307,
      "_ship": 5308,
      "_sharing": 5309,
      "_shift": 5310,
      "_100": 5311,
      "_1,000": 5312,
      "_12.": 5313,
      "abil": 5314,
      "_24": 5315,
      "_27": 5316,
      "_28": 5317,
      "ema": 5318,
      "_Ly": 5319,
      "_Lat": 5320,
      "_Lad": 5321,
      "_Let": 5322,
      "_Lance": 5323,
      "_Lib": 5324,
      "_Lanc": 5325,
      "pping": 5326,
      "_lear": 5327,
      "_leases": 5328,
      "unk": 5329,
      "unted": 5330,
      "ustr": 5331,
      "uster": 5332,
      "_abortion": 5333,
      "_this.": 5334,
      "mer,": 5335,
      "ghanist": 5336,
      "udes": 5337,
      "_adj": 5338,
      "_adapt": 5339,
      "_jail": 5340,
      "_jellyfish": 5341,
      "_trut": 5342,
      "_kitc": 5343,
      "_intention": 5344,
      "_offences": 5345,
      "ueMax": 5346,
      "ples": 5347,
      "_Inst": 5348,
      "_Intelligence": 5349,
      "agin": 5350,
      "aged": 5351,
      "aging": 5352,
      "_Jim": 5353,
      "_Jap": 5354,
      "_Journal": 5355,
      "_Jonathan": 5356,
      "_out.": 5357,
      "_outcome": 5358,
      "_cliff": 5359,
      "_clashes": 5360,
      "elled": 5361,
      "_accusing": 5362,
      "_accompan": 5363,
      "_meat": 5364,
      "_content": 5365,
      "_contribut": 5366,
      "olders": 5367,
      "ublished": 5368,
      "ures.": 5369,
      "_resour": 5370,
      "_comparis": 5371,
      "_incur": 5372,
      "_canc": 5373,
      "_manip": 5374,
      "_manner": 5375,
      "_permit": 5376,
      "_Str": 5377,
      "_Stream": 5378,
      "_Strip": 5379,
      "_twenty": 5380,
      "ed.\"": 5381,
      "ction,": 5382,
      "_Chair": 5383,
      "_Champ": 5384,
      "_Church": 5385,
      "_Chancellor": 5386,
      "ian,": 5387,
      "_server": 5388,
      "_served": 5389,
      "_services.": 5390,
      "_Kins": 5391,
      "itely": 5392,
      "ework": 5393,
      "_press.": 5394,
      "keys": 5395,
      "appe": 5396,
      "_disappe": 5397,
      "_Head": 5398,
      "_one.": 5399,
      "_all.": 5400,
      "eenag": 5401,
      "iban": 5402,
      "_202": 5403,
      "_users.": 5404,
      "_(M": 5405,
      "_(N": 5406,
      "_(T": 5407,
      "_shell": 5408,
      "_parts": 5409,
      "_party": 5410,
      "_partly": 5411,
      "_Its": 5412,
      "ile.": 5413,
      "ips": 5414,
      "_overhead": 5415,
      "_interven": 5416,
      "_intervention": 5417,
      "_myst": 5418,
      "_Year": 5419,
      "_Yaound": 5420,
      "ancial": 5421,
      "ances.": 5422,
      "_decad": 5423,
      "ounty": 5424,
      "arguer": 5425,
      "_prelim": 5426,
      "_invis": 5427,
      "rick": 5428,
      "_her,": 5429,
      "_quite": 5430,
      "_quoted": 5431,
      "_cars": 5432,
      "_him,": 5433,
      "_couldn't": 5434,
      "_first,": 5435,
      "_nobody": 5436,
      "_attention": 5437,
      "_secrets": 5438,
      "_million.": 5439,
      "_2014": 5440,
      "_2011.": 5441,
      "_2012,": 5442,
      "_2010,": 5443,
      "_Vettel": 5444,
      "_teacher": 5445,
      "_\"I'm": 5446,
      "_feed": 5447,
      "_feet": 5448,
      "_fees,": 5449,
      "_plann": 5450,
      "_planners": 5451,
      "_Europe.": 5452,
      "_America,": 5453,
      "_wherever": 5454,
      "ize": 5455,
      "ization": 5456,
      "orsese": 5457,
      "actic": 5458,
      "_philos": 5459,
      "_commit": 5460,
      "_committed": 5461,
      "_anniversary": 5462,
      "_regard": 5463,
      "_regular": 5464,
      "_rose": 5465,
      "_roll": 5466,
      "land,": 5467,
      "_work,\"": 5468,
      "_law,": 5469,
      "_30": 5470,
      "_31": 5471,
      "_35": 5472,
      "_creating": 5473,
      "_passage": 5474,
      "_passport": 5475,
      "_appears": 5476,
      "te.": 5477,
      "_amid": 5478,
      "_Scorsese": 5479,
      "_officers": 5480,
      "_42,": 5481,
      "_43.": 5482,
      "iness.": 5483,
      "_blonde": 5484,
      "_supply": 5485,
      "_supposed": 5486,
      "_auto": 5487,
      "_Analysts": 5488,
      "_2004": 5489,
      "_month.": 5490,
      "rising": 5491,
      "_rare": 5492,
      "_rapid": 5493,
      "_evening.": 5494,
      "_state's": 5495,
      "_acts": 5496,
      "_actually": 5497,
      "_memb": 5498,
      "_memory": 5499,
      "_possession": 5500,
      "_shouldn't": 5501,
      "_take-off": 5502,
      "_needed": 5503,
      "_companies.": 5504,
      "_investors": 5505,
      "SAS": 5506,
      "_smug": 5507,
      "_relation": 5508,
      "_relax": 5509,
      "_relative": 5510,
      "_religious": 5511,
      "_relevant": 5512,
      "_And,": 5513,
      "_Andrew": 5514,
      "_53": 5515,
      "_500": 5516,
      "_5,000": 5517,
      "_genuine": 5518,
      "_weekend": 5519,
      "_transaction": 5520,
      "_owned": 5521,
      "_cheap": 5522,
      "_publication": 5523,
      "_minim": 5524,
      "_included": 5525,
      "_testing": 5526,
      "_testified": 5527,
      "hens": 5528,
      "hentic": 5529,
      "_flat": 5530,
      "_guy": 5531,
      "_guit": 5532,
      "_leaders,": 5533,
      "_knows": 5534,
      "_attack.": 5535,
      "wards.": 5536,
      "_well,": 5537,
      "_remo": 5538,
      "_defect": 5539,
      "_defending": 5540,
      "_personnel": 5541,
      "_days.": 5542,
      "_drive": 5543,
      "_France.": 5544,
      "_inspired": 5545,
      "_marked": 5546,
      "_crack": 5547,
      "_highly": 5548,
      "_highway": 5549,
      "_retire": 5550,
      "_Airport": 5551,
      "man,": 5552,
      "_warr": 5553,
      "ators.": 5554,
      "_10.": 5555,
      "_10,000": 5556,
      "_admitting": 5557,
      "_restaur": 5558,
      "_numbers": 5559,
      "_kept": 5560,
      "_taxes": 5561,
      "_taxes.": 5562,
      "_taxpay": 5563,
      "_appoint": 5564,
      "_matters": 5565,
      "_data.": 5566,
      "_exposed": 5567,
      "_October,": 5568,
      "_soldiers.": 5569,
      "ism.": 5570,
      "_enter": 5571,
      "_entertain": 5572,
      "_Commun": 5573,
      "_investigate": 5574,
      "_system,": 5575,
      "_systems": 5576,
      "ornograph": 5577,
      "_paying": 5578,
      "_sexy": 5579,
      "_Reg": 5580,
      "_Reed": 5581,
      "_Reut": 5582,
      "_army,": 5583,
      "_strang": 5584,
      "_stronghold": 5585,
      "ternative": 5586,
      "_progress": 5587,
      "_second-year": 5588,
      "_same-sex": 5589,
      "_coast": 5590,
      "espite": 5591,
      "espread": 5592,
      "_pattern": 5593,
      "_freely": 5594,
      "_home,": 5595,
      "_later,": 5596,
      "_grad": 5597,
      "_Coen": 5598,
      "ribution": 5599,
      "_happening": 5600,
      "_trader": 5601,
      "_dog's": 5602,
      "_president,": 5603,
      "_morph": 5604,
      "_Asia": 5605,
      "_rising": 5606,
      "_risks": 5607,
      "_vote,": 5608,
      "_subsequent": 5609,
      "_killing": 5610,
      "_policies": 5611,
      "_travelling": 5612,
      "_market.": 5613,
      "_Syria.": 5614,
      "_costumes": 5615,
      "_advances": 5616,
      "_closely": 5617,
      "_activist": 5618,
      "_activists": 5619,
      "_signs": 5620,
      "_profits": 5621,
      "_Exper": 5622,
      "fficient": 5623,
      "_capable": 5624,
      "ashire": 5625,
      "_detected": 5626,
      "_details": 5627,
      "-blow": 5628,
      "nsh": 5629,
      "_affected": 5630,
      "_past,": 5631,
      "_died.": 5632,
      "_London,": 5633,
      "_interests": 5634,
      "_interested": 5635,
      "_service.": 5636,
      "_Google,": 5637,
      "-tra": 5638,
      "-time": 5639,
      "-to-": 5640,
      "_correspond": 5641,
      "_marri": 5642,
      "_married": 5643,
      "_researcher": 5644,
      "_played": 5645,
      "ually,": 5646,
      "_company's": 5647,
      "hip.": 5648,
      "_Paris,": 5649,
      "_project,": 5650,
      "_League": 5651,
      "_controls": 5652,
      "_programs": 5653,
      "_bankrupt": 5654,
      "_posts": 5655,
      "_posted": 5656,
      "_reading": 5657,
      "_listen": 5658,
      "_listed": 5659,
      "_allowed": 5660,
      "_Prot": 5661,
      "_charging": 5662,
      "_tracks": 5663,
      "_tracking": 5664,
      "_Scotland,": 5665,
      "_opposed": 5666,
      "_opposition": 5667,
      "_criter": 5668,
      "_Arctic": 5669,
      "_Congress": 5670,
      "_Congreg": 5671,
      "_stayed": 5672,
      "_complex": 5673,
      "_completed": 5674,
      "-president": 5675,
      "_rebels,": 5676,
      "_formal": 5677,
      "_debt.": 5678,
      "_15,": 5679,
      "_privacy": 5680,
      "_vehicle,": 5681,
      "_vehicles,": 5682,
      "_Minister,": 5683,
      "parent": 5684,
      "_simil": 5685,
      "_reveals": 5686,
      "_largely": 5687,
      "_large-scale": 5688,
      "_seemed": 5689,
      "_visiting": 5690,
      "_legisl": 5691,
      "_remains": 5692,
      "aulle": 5693,
      "_switch": 5694,
      "_solution": 5695,
      "_solos,": 5696,
      "_write": 5697,
      "_opened": 5698,
      "_pubic": 5699,
      "_practices": 5700,
      "_Assad": 5701,
      "_Assange": 5702,
      "_\"La": 5703,
      "_\"Le": 5704,
      "_Monday,": 5705,
      "_Monkeys": 5706,
      "_properly": 5707,
      "_properties": 5708,
      "_Oracle": 5709,
      "_Internet.": 5710,
      "_appearance": 5711,
      "_model": 5712,
      "_\"His": 5713,
      "_executives": 5714,
      "_Ditta,": 5715,
      "_closer": 5716,
      "_Commission,": 5717,
      "_anti-EU": 5718,
      "_Canada": 5719,
      "_Canada,": 5720,
      "_represented": 5721,
      "_representing": 5722,
      "_representative": 5723,
      "_prompt": 5724,
      "_promised": 5725,
      "_promise": 5726,
      "_Morsi,": 5727,
      "uebuz": 5728,
      "_presence,": 5729,
      "_Islamist": 5730,
      "_amongst": 5731,
      "_criminals": 5732,
      "_activities.": 5733,
      "poral": 5734,
      "porary": 5735,
      "_tension": 5736,
      "_billion.": 5737,
      "_purpose": 5738,
      "_pawnsh": 5739,
      "_initial": 5740,
      "_initiated": 5741,
      "_maintain": 5742,
      "_night,": 5743,
      "_Court.": 5744,
      "_Malays": 5745,
      "_Maliki": 5746,
      "_Edis": 5747,
      "_Russia,": 5748,
      "_China.": 5749,
      "_2013,": 5750,
      "_2013.": 5751,
      "_Valero": 5752,
      "_ValueMax": 5753,
      "_added:": 5754,
      "_2008,": 5755,
      "_chemicals": 5756,
      "_effective": 5757,
      "_effectively": 5758,
      "_grandfather": 5759,
      "iences": 5760,
      "_bags": 5761,
      "_funding": 5762,
      "_friends,": 5763,
      "_Afghanist": 5764,
      "_hair,": 5765,
      "_managing": 5766,
      "_surgery,": 5767,
      "_photo": 5768,
      "_currencies": 5769,
      "_productions": 5770,
      "_simple": 5771,
      "201": 5772,
      "ervation": 5773,
      "_potentially": 5774,
      "_moving": 5775,
      "_equipment": 5776,
      "_Independ": 5777,
      "_stories": 5778,
      "_Black": 5779,
      "_weapon": 5780,
      "_Hispanic": 5781,
      "_Egyptian": 5782,
      "_Rescue": 5783,
      "_dispatched": 5784,
      "_approved": 5785,
      "_Transport": 5786,
      "_pleased": 5787,
      "_analyst": 5788,
      "_analys": 5789,
      "_history": 5790,
      "_replac": 5791,
      "_\"Our": 5792,
      "_Holland": 5793,
      "_radical": 5794,
      "_shop,": 5795,
      "_agency.": 5796,
      "_crematorium": 5797,
      "_recently,": 5798,
      "_encl": 5799,
      "_audience": 5800,
      "_sensitive": 5801,
      "_boys": 5802,
      "_footage": 5803,
      "_earlier.": 5804,
      "_construction": 5805,
      "_constantly": 5806,
      "_Pliber": 5807,
      "_Nouvel": 5808,
      "_examine": 5809,
      "_challenge": 5810,
      "_Evening": 5811,
      "_valid": 5812,
      "_value": 5813,
      "_jobs": 5814,
      "_artists": 5815,
      "_improvement": 5816,
      "_watchdog": 5817,
      "_suspended": 5818,
      "_describing": 5819,
      "_aware": 5820,
      "_message": 5821,
      "_messages": 5822,
      "_massac": 5823,
      "_epidem": 5824,
      "ottom": 5825,
      "_collabor": 5826,
      "_tablet": 5827,
      "_tablets": 5828,
      "_ticket": 5829,
      "_animals": 5830,
      "_hills": 5831,
      "_drink": 5832,
      "_links": 5833,
      "_linked": 5834,
      "_Finally,": 5835,
      "_Financial": 5836,
      "_channels": 5837,
      "_rush": 5838,
      "_absolute": 5839,
      "_adopt": 5840,
      "_argu": 5841,
      "_argue": 5842,
      "_embass": 5843,
      "_50ft": 5844,
      "_requirement": 5845,
      "_Professor": 5846,
      "_candidates": 5847,
      "_Bunagana,": 5848,
      "_principally": 5849,
      "_brain": 5850,
      "_parliamentary": 5851,
      "_\"Every": 5852,
      "_Chev": 5853,
      "_he'd": 5854,
      "_Merkel": 5855,
      "_Mohammed": 5856,
      "_status": 5857,
      "_exhaust": 5858,
      "_combined": 5859,
      "_vice-president": 5860,
      "_kidn": 5861,
      "_clients": 5862,
      "_respectively": 5863,
      "_States.": 5864,
      "_quickly": 5865,
      "_belonging": 5866,
      "_collected": 5867,
      "_Defense": 5868,
      "_mid-October": 5869,
      "_Kenyan": 5870,
      "_welcome": 5871,
      "_cases,": 5872,
      "_budget": 5873,
      "_murdered": 5874,
      "_double": 5875,
      "_doubt": 5876,
      "_Traffic": 5877,
      "_easier": 5878,
      "_layout": 5879,
      "_Safety": 5880,
      "_Corporal": 5881,
      "_Muslim": 5882,
      "_Pawlb": 5883,
      "_Publicis": 5884,
      "_safely": 5885,
      "_exception": 5886,
      "_join": 5887,
      "_update": 5888,
      "_carrier": 5889,
      "_emphas": 5890,
      "_emphasis": 5891,
      "_457": 5892,
      "_Attack": 5893,
      "_insurance": 5894,
      "_broadcast": 5895,
      "_historic": 5896,
      "_barrel": 5897,
      "_barrels": 5898,
      "_reinforce": 5899,
      "_challenging": 5900,
      "-Malik": 5901,
      "_erotic": 5902,
      "_urged": 5903,
      "market": 5904,
      "_troops": 5905,
      "_sleep": 5906,
      "_wonderful": 5907,
      "_cemetery": 5908,
      "_fully": 5909,
      "_margin": 5910,
      "_dancers": 5911,
      "_Taliban": 5912,
      "_Samsun": 5913,
      "_Saint-": 5914,
      "_Middle": 5915,
      "_Grand": 5916,
      "_introduced": 5917,
      "_arrange": 5918,
      "_scandal": 5919,
      "_airliners": 5920,
      "_consumers": 5921,
      "_countries,": 5922,
      "_physical": 5923,
      "_mayor.": 5924,
      "_brothers": 5925,
      "_Johnson": 5926,
      "_Pitcairn,": 5927,
      "_songs": 5928,
      "_words": 5929,
      "_prices": 5930,
      "_fingerprint": 5931,
      "_answer": 5932,
      "_hormones": 5933,
      "_master": 5934,
      "_dropped": 5935,
      "_duty": 5936,
      "_normal": 5937,
      "_Silver": 5938,
      "terrorist": 5939,
      "_Huaw": 5940,
      "_separate": 5941,
      "_chairman": 5942,
      "_Damascus": 5943,
      "_Elysée": 5944,
      "_Officer": 5945,
      "_kilomet": 5946,
      "_unlikely": 5947,
      "_Steinberg": 5948,
      "_Keith": 5949,
      "_Katie": 5950,
      "_Kingdom": 5951,
      "_scheme": 5952,
      "_liberal": 5953,
      "_Observatory": 5954,
      "_inspectors": 5955,
      "_departure": 5956,
      "_antibod": 5957,
      "_broken": 5958,
      "_opportunity": 5959,
      "_Army": 5960,
      "_allegedly": 5961,
      "_Charles-de-G": 5962,
      "_variety": 5963,
      "_platforms": 5964,
      "SCO": 5965,
      "burgh": 5966,
      "_tomorrow": 5967,
      "_holiday": 5968,
      "_mandate": 5969,
      "_magic": 5970,
      "_renewed": 5971,
      "_eager": 5972,
      "structionism": 5973,
      "_grips": 5974,
      "_S&P": 5975,
      "_Sebeli": 5976,
      "_Society": 5977,
      "_Murphy": 5978,
      "_assets": 5979,
      "_GCSE": 5980,
      "_François": 5981,
      "_provincial": 5982,
      "_Al-Qaid": 5983,
      "_apparently": 5984,
      "_familiar": 5985,
      "_extradition": 5986,
      "_Shiite": 5987,
      "_postpone": 5988,
      "ijuana": 5989,
      "_wrongdoing.": 5990,
      "_Rockstar": 5991,
      "_Timberlake": 5992,
      "brokers": 5993,
      "_psychiatrist": 5994,
      "_Chouinard's": 5995,
      "_Abdel-Malik": 5996,
      "_Nevada": 5997,
      "_Grouwels": 5998,
      "-abreast": 5999,
      "_camer": 6000,
      "_pipeline": 6001,
      "_potholders": 6002,
      "_false": 6003,
      "_fabric": 6004,
      "_framework": 6005,
      "_husband": 6006,
      "_humpback": 6007,
      "_literature": 6008,
      "_April": 6009,
      "_Supreme": 6010,
      "_Special": 6011,
      "_Corteen": 6012,
      "_Mubarak": 6013,
      "_Bruce": 6014,
      "_Facebook": 6015,
      "_Parents": 6016,
      "_protein": 6017,
      "_chromosom": 6018,
      "_Djermoun": 6019,
      "_voicem": 6020,
      "_Lancashire": 6021,
      "_manipul": 6022,
      "_Kinshasa": 6023,
      "arguerite": 6024,
      "_preliminary": 6025,
      "_Congregation": 6026,
      "uebuza": 6027,
      "_Afghanistan,": 6028,
      "_Plibersek": 6029,
      "_Charles-de-Gaulle": 6030,
      "'E": 6031,
      "'d": 6032,
      "-C": 6033,
      "-T": 6034,
      "-V": 6035,
      "-a": 6036,
      "-out": 6037,
      "-day": 6038,
      "-ass": 6039,
      "-read": 6040,
      "-ex": 6041,
      "-ran": 6042,
      "-equ": 6043,
      "-201": 6044,
      "21": 6045,
      "2,000": 6046,
      "3,": 6047,
      "37": 6048,
      "47": 6049,
      "500": 6050,
      "6%": 6051,
      "66": 6052,
      "6-year-old": 6053,
      "78": 6054,
      "9,": 6055,
      "9-year-old": 6056,
      "AM": 6057,
      "ARDC": 6058,
      "Cap": 6059,
      "Do": 6060,
      "F.": 6061,
      "Joseph": 6062,
      "Leak": 6063,
      "PH": 6064,
      "SS": 6065,
      "SCA": 6066,
      "_ign": 6067,
      "aed": 6068,
      "aper": 6069,
      "aussion": 6070,
      "aume": 6071,
      "bn": 6072,
      "ball": 6073,
      "blow": 6074,
      "bank": 6075,
      "burn": 6076,
      "bled": 6077,
      "bah": 6078,
      "board": 6079,
      "cr": 6080,
      "cy": 6081,
      "cation": 6082,
      "care": 6083,
      "caire": 6084,
      "dro": 6085,
      "dden": 6086,
      "eu": 6087,
      "eres": 6088,
      "ext": 6089,
      "eah": 6090,
      "fir": 6091,
      "from": 6092,
      "face": 6093,
      "gen": 6094,
      "gent": 6095,
      "got": 6096,
      "gged": 6097,
      "gins": 6098,
      "h,": 6099,
      "hs": 6100,
      "hy": 6101,
      "hum": 6102,
      "ien": 6103,
      "ias": 6104,
      "iest": 6105,
      "ios": 6106,
      "iance": 6107,
      "iable": 6108,
      "iency": 6109,
      "ious.": 6110,
      "iCap": 6111,
      "jured": 6112,
      "k.": 6113,
      "kn": 6114,
      "kie": 6115,
      "lig": 6116,
      "lif": 6117,
      "loo": 6118,
      "ler,": 6119,
      "lix": 6120,
      "lantic": 6121,
      "m.": 6122,
      "mo": 6123,
      "min": 6124,
      "mes": 6125,
      "mall": 6126,
      "mission": 6127,
      "miss": 6128,
      "named": 6129,
      "nicotine": 6130,
      "oin": 6131,
      "oes": 6132,
      "oop": 6133,
      "ores": 6134,
      "pool": 6135,
      "rin": 6136,
      "rum": 6137,
      "rance": 6138,
      "s\"": 6139,
      "sen": 6140,
      "ses": 6141,
      "td": 6142,
      "tary": 6143,
      "time": 6144,
      "turn": 6145,
      "tages": 6146,
      "ties,": 6147,
      "uation": 6148,
      "us.": 6149,
      "upp": 6150,
      "ugh": 6151,
      "vit": 6152,
      "ves,": 6153,
      "vised": 6154,
      "volution": 6155,
      "west": 6156,
      "wart": 6157,
      "wich": 6158,
      "well": 6159,
      "ware": 6160,
      "wise": 6161,
      "xic": 6162,
      "yo": 6163,
      "yr": 6164,
      "yle": 6165,
      "zed": 6166,
      "_ton": 6167,
      "_tack": 6168,
      "_tab": 6169,
      "_tip": 6170,
      "_tens": 6171,
      "_tender": 6172,
      "_tired": 6173,
      "_tai": 6174,
      "_taught": 6175,
      "_tactic": 6176,
      "hes.": 6177,
      "heast": 6178,
      "_actors": 6179,
      "ina": 6180,
      "ino": 6181,
      "inct": 6182,
      "inate": 6183,
      "in,\"": 6184,
      "ines.": 6185,
      "inced": 6186,
      "inating": 6187,
      "ined,": 6188,
      "inolog": 6189,
      "inema": 6190,
      "inburgh": 6191,
      "rely": 6192,
      "rend": 6193,
      "reced": 6194,
      "reets": 6195,
      "onents": 6196,
      "er,\"": 6197,
      "erary": 6198,
      "erks": 6199,
      "erves": 6200,
      "erring": 6201,
      "_sn": 6202,
      "_sy": 6203,
      "_san": 6204,
      "_sel": 6205,
      "_sod": 6206,
      "_sister": 6207,
      "_soci": 6208,
      "_sending": 6209,
      "_sides": 6210,
      "_sought": 6211,
      "_ware": 6212,
      "_wish": 6213,
      "_woke": 6214,
      "_wounded": 6215,
      "enes": 6216,
      "enri": 6217,
      "enuin": 6218,
      "atz": 6219,
      "atch": 6220,
      "ates.": 6221,
      "_cop": 6222,
      "_core": 6223,
      "_cited": 6224,
      "_cities": 6225,
      "_cert": 6226,
      "_code": 6227,
      "_cinema": 6228,
      "isi": 6229,
      "ises": 6230,
      "ised.": 6231,
      "isition": 6232,
      "ise,": 6233,
      "issible": 6234,
      "ishes": 6235,
      "ano": 6236,
      "anz": 6237,
      "anon": 6238,
      "ans,": 6239,
      "orid": 6240,
      "oration": 6241,
      "oront": 6242,
      "itim": 6243,
      "itate": 6244,
      "itiv": 6245,
      "itime": 6246,
      "itors": 6247,
      "itals": 6248,
      "itched": 6249,
      "itants": 6250,
      "_bat": 6251,
      "_bot": 6252,
      "_bow": 6253,
      "_band": 6254,
      "_bast": 6255,
      "_bail": 6256,
      "_bother": 6257,
      "_bins": 6258,
      "_bureau": 6259,
      "_biolog": 6260,
      "_bottom": 6261,
      "ese,": 6262,
      "_pH": 6263,
      "_po": 6264,
      "_pra": 6265,
      "_pays": 6266,
      "_pian": 6267,
      "_pace": 6268,
      "_purs": 6269,
      "_pair": 6270,
      "_phen": 6271,
      "_pup": 6272,
      "_pages": 6273,
      "_pope": 6274,
      "_penn": 6275,
      "_pornograph": 6276,
      "ingham": 6277,
      "_inau": 6278,
      "_inner": 6279,
      "_inhum": 6280,
      "_fans": 6281,
      "_fond": 6282,
      "_fier": 6283,
      "_fix": 6284,
      "_fault": 6285,
      "_fisc": 6286,
      "_flew": 6287,
      "_fasc": 6288,
      "_fighter": 6289,
      "_to.": 6290,
      "_tool": 6291,
      "_touch": 6292,
      "_too.": 6293,
      "_today,": 6294,
      "_toler": 6295,
      "_toxic": 6296,
      "arke": 6297,
      "arks": 6298,
      "arched": 6299,
      "aling": 6300,
      "alty": 6301,
      "_angle": 6302,
      "_ho": 6303,
      "_hy": 6304,
      "_hosp": 6305,
      "_harm": 6306,
      "_houses": 6307,
      "_hidden": 6308,
      "_mice": 6309,
      "_mach": 6310,
      "_munic": 6311,
      "_mov": 6312,
      "_mamm": 6313,
      "_micro": 6314,
      "icine": 6315,
      "icide": 6316,
      "icip": 6317,
      "ouble": 6318,
      "as.": 6319,
      "ased.": 6320,
      "asons": 6321,
      "_dol": 6322,
      "_dub": 6323,
      "_dump": 6324,
      "ley,": 6325,
      "leased": 6326,
      "ompl": 6327,
      "_thorough": 6328,
      "_thwart": 6329,
      "ila": 6330,
      "ilkie": 6331,
      "ent,": 6332,
      "_reun": 6333,
      "_reaction": 6334,
      "_re-re": 6335,
      "_reasons": 6336,
      "_Tri": 6337,
      "_Tian": 6338,
      "_Tah": 6339,
      "_Toront": 6340,
      "_beef": 6341,
      "_nav": 6342,
      "_named": 6343,
      "_nature": 6344,
      "_names": 6345,
      "_eat": 6346,
      "stood": 6347,
      "stream": 6348,
      "rol": 6349,
      "roved": 6350,
      "_les": 6351,
      "_lic": 6352,
      "_lies": 6353,
      "_lord": 6354,
      "_lines": 6355,
      "_link": 6356,
      "_lug": 6357,
      "_less.": 6358,
      "_AC": 6359,
      "_Ap": 6360,
      "_Are": 6361,
      "_Aren": 6362,
      "_Auber": 6363,
      "_ARS": 6364,
      "_APH": 6365,
      "_gay": 6366,
      "_gad": 6367,
      "_gate": 6368,
      "_gather": 6369,
      "_gave": 6370,
      "_gym": 6371,
      "_grown": 6372,
      "_grief": 6373,
      "ceased": 6374,
      "olas": 6375,
      "olved": 6376,
      "olitan": 6377,
      "ad.": 6378,
      "ado": 6379,
      "ads": 6380,
      "otors": 6381,
      "utral": 6382,
      "urate": 6383,
      "urrent": 6384,
      "urisd": 6385,
      "_S$": 6386,
      "_Sim": 6387,
      "_Sier": 6388,
      "_Somet": 6389,
      "_So,": 6390,
      "_Sony": 6391,
      "_Sisi": 6392,
      "irt": 6393,
      "iring": 6394,
      "irst": 6395,
      "irac": 6396,
      "verted": 6397,
      "_forb": 6398,
      "_forget": 6399,
      "_\"J": 6400,
      "_\"he": 6401,
      "_\"se": 6402,
      "_\"no": 6403,
      "_\"SAS": 6404,
      "ow,": 6405,
      "_CC": 6406,
      "_Cre": 6407,
      "_Cit": 6408,
      "_Cap": 6409,
      "_Cons": 6410,
      "_Caring": 6411,
      "_Civil": 6412,
      "_Credit": 6413,
      "_Circ": 6414,
      "_Cyr": 6415,
      "eterm": 6416,
      "ety.": 6417,
      "etween": 6418,
      "ette": 6419,
      "_heat": 6420,
      "igar": 6421,
      "igation": 6422,
      "ighed": 6423,
      "imism": 6424,
      "imull": 6425,
      "_Ma": 6426,
      "_Mc": 6427,
      "_Mill": 6428,
      "_Mul": 6429,
      "_Math": 6430,
      "_Meng": 6431,
      "_Menton": 6432,
      "_Marguerite": 6433,
      "_Motors": 6434,
      "illed": 6435,
      "_station": 6436,
      "_stamp": 6437,
      "_stret": 6438,
      "_strict": 6439,
      "_star,": 6440,
      "_stuff": 6441,
      "amar": 6442,
      "_und": 6443,
      "_Bat": 6444,
      "_Big": 6445,
      "_Back": 6446,
      "_Bild": 6447,
      "_Bec": 6448,
      "_Born": 6449,
      "_Bash": 6450,
      "_Both": 6451,
      "_Biometric": 6452,
      "_Birm": 6453,
      "_Border": 6454,
      "_BfV": 6455,
      "_Banl": 6456,
      "ers:": 6457,
      "eless": 6458,
      "acific": 6459,
      "aches": 6460,
      "ter.": 6461,
      "_aspect": 6462,
      "_Festiv": 6463,
      "_conject": 6464,
      "_deceased": 6465,
      "_alternative": 6466,
      "_wealth": 6467,
      "_Har": 6468,
      "_Hel": 6469,
      "_Hist": 6470,
      "_Hak": 6471,
      "_Hum": 6472,
      "_Hong": 6473,
      "_Hass": 6474,
      "_Haw": 6475,
      "_Hospital": 6476,
      "_Halif": 6477,
      "_HTC": 6478,
      "_Henri": 6479,
      "_Pam": 6480,
      "_Port": 6481,
      "_Post": 6482,
      "_Pia": 6483,
      "_Père": 6484,
      "_Pacific": 6485,
      "_haven": 6486,
      "_saved": 6487,
      "ush": 6488,
      "istol": 6489,
      "istant": 6490,
      "ando": 6491,
      "_yell": 6492,
      "_prosecut": 6493,
      "_Near": 6494,
      "_Nath": 6495,
      "_Nov": 6496,
      "_NEC": 6497,
      "_sector": 6498,
      "_searched": 6499,
      "_exterm": 6500,
      "_exchang": 6501,
      "aker": 6502,
      "ifest": 6503,
      "iform": 6504,
      "ifficult": 6505,
      "ortigar": 6506,
      "_comeb": 6507,
      "_comments": 6508,
      "est,": 6509,
      "_neutral": 6510,
      "_Gir": 6511,
      "_Gra": 6512,
      "_Gold": 6513,
      "_Guebuza": 6514,
      "_DC": 6515,
      "_Da": 6516,
      "_Dan": 6517,
      "_Day": 6518,
      "_Dut": 6519,
      "_Due": 6520,
      "_Daw": 6521,
      "_Dhab": 6522,
      "_Dhl": 6523,
      "_Despite": 6524,
      "_Ev": 6525,
      "_End": 6526,
      "_Edu": 6527,
      "_Each": 6528,
      "_Ener": 6529,
      "_Ethan": 6530,
      "ainst": 6531,
      "_not,": 6532,
      "_note": 6533,
      "_notes": 6534,
      "_not,\"": 6535,
      "_Ol": 6536,
      "_Os": 6537,
      "_Out": 6538,
      "_Omar": 6539,
      "arti": 6540,
      "earing": 6541,
      "our,": 6542,
      "_Ro": 6543,
      "_Ron": 6544,
      "_Rom": 6545,
      "_Rad": 6546,
      "_Rab": 6547,
      "_Rover": 6548,
      "_Rather": 6549,
      "_Reb": 6550,
      "_RSCA": 6551,
      "ths": 6552,
      "_ran": 6553,
      "_ric": 6554,
      "_rout": 6555,
      "_ride": 6556,
      "_rough": 6557,
      "_round": 6558,
      "_rise": 6559,
      "_ring.": 6560,
      "_rural": 6561,
      "_ratt": 6562,
      "osis": 6563,
      "oses": 6564,
      "osite": 6565,
      "rences": 6566,
      "_Will": 6567,
      "_Wiki": 6568,
      "_Wilkie": 6569,
      "_UBS": 6570,
      "endar": 6571,
      "enders": 6572,
      "_sufficient": 6573,
      "_sudden": 6574,
      "_suicide": 6575,
      "_shown": 6576,
      "_130": 6577,
      "acket": 6578,
      "aby": 6579,
      "ession,": 6580,
      "_2,": 6581,
      "_23": 6582,
      "_2,000": 6583,
      "_250": 6584,
      "_25,": 6585,
      "ocent": 6586,
      "ocks": 6587,
      "emen": 6588,
      "_LG": 6589,
      "_Land": 6590,
      "_Los": 6591,
      "_Lab": 6592,
      "_Lau": 6593,
      "_Lach": 6594,
      "_Lee": 6595,
      "_Like": 6596,
      "_Labor": 6597,
      "_Liber": 6598,
      "_Liver": 6599,
      "_Laval": 6600,
      "_Ltd": 6601,
      "quid": 6602,
      "quarters": 6603,
      "pport": 6604,
      "_lect": 6605,
      "_league": 6606,
      "unction": 6607,
      "_abus": 6608,
      "_abroad": 6609,
      "bert": 6610,
      "ants,": 6611,
      "_who,": 6612,
      "ights": 6613,
      "ieue": 6614,
      "_year.\"": 6615,
      "allortigar": 6616,
      "ounced": 6617,
      "ical.": 6618,
      "_joy": 6619,
      "_joint": 6620,
      "_jurisd": 6621,
      "_trig": 6622,
      "_trust": 6623,
      "_trick": 6624,
      "_truly": 6625,
      "_plus": 6626,
      "_agents": 6627,
      "ptoms": 6628,
      "_dose": 6629,
      "pled": 6630,
      "_Injured": 6631,
      "irector": 6632,
      "agger": 6633,
      "_Jack": 6634,
      "_James": 6635,
      "ence,": 6636,
      "_clar": 6637,
      "elling": 6638,
      "ellite": 6639,
      "ry,": 6640,
      "ry.": 6641,
      "ryst": 6642,
      "_worried": 6643,
      "ated,\"": 6644,
      "_accus": 6645,
      "_accompl": 6646,
      "assam": 6647,
      "_unh": 6648,
      "_uns": 6649,
      "_union": 6650,
      "_unity": 6651,
      "_uncon": 6652,
      "_unique": 6653,
      "_up.": 6654,
      "_uprising": 6655,
      "_mech": 6656,
      "_merely": 6657,
      "_newborn": 6658,
      "oney": 6659,
      "_contam": 6660,
      "_contest": 6661,
      "_contem": 6662,
      "_context": 6663,
      "ure.": 6664,
      "au,": 6665,
      "_spite": 6666,
      "_spons": 6667,
      "_resign": 6668,
      "_rescu": 6669,
      "_inches": 6670,
      "_inclus": 6671,
      "_cannab": 6672,
      "_manual": 6673,
      "_manifest": 6674,
      "_perman": 6675,
      "_perfect": 6676,
      "_Star": 6677,
      "_Stud": 6678,
      "_Stage": 6679,
      "_Step": 6680,
      "_Stacy": 6681,
      "_Still,": 6682,
      "_twin": 6683,
      "_Chic": 6684,
      "_Chall": 6685,
      "_Chris": 6686,
      "_ChÃ¢te": 6687,
      "_Chirac": 6688,
      "_services,": 6689,
      "_Kir": 6690,
      "_Kong": 6691,
      "_Kamp": 6692,
      "_Khan": 6693,
      "_Kiev": 6694,
      "ruit": 6695,
      "_afterwards.": 6696,
      "itement": 6697,
      "_other.": 6698,
      "_presents": 6699,
      "_recover": 6700,
      "ke,": 6701,
      "_image": 6702,
      "_images": 6703,
      "_diss": 6704,
      "_disorder": 6705,
      "_dismiss": 6706,
      "_more,": 6707,
      "_more.": 6708,
      "_us:": 6709,
      "_(E": 6710,
      "_(G": 6711,
      "_(S": 6712,
      "_(w": 6713,
      "_there.": 6714,
      "_there's": 6715,
      "_sheriff": 6716,
      "_part,": 6717,
      "_partial": 6718,
      "_partners": 6719,
      "_partner,": 6720,
      "ipal": 6721,
      "iple": 6722,
      "_speaking": 6723,
      "_overnight": 6724,
      "_overturn": 6725,
      "_interp": 6726,
      "ame.": 6727,
      "_Youn": 6728,
      "_Yeah": 6729,
      "anced": 6730,
      "ctoral": 6731,
      "_decor": 6732,
      "_decline": 6733,
      "_declin": 6734,
      "arger": 6735,
      "_prem": 6736,
      "_pret": 6737,
      "_prefer": 6738,
      "_invited": 6739,
      "ricult": 6740,
      "_car.": 6741,
      "_surge": 6742,
      "_them,": 6743,
      "_them,\"": 6744,
      "_\"To": 6745,
      "_scr": 6746,
      "_science": 6747,
      "_secure": 6748,
      "_Until": 6749,
      "ft,": 6750,
      "formation": 6751,
      "_governments": 6752,
      "_government's": 6753,
      "_monetary": 6754,
      "_2015,": 6755,
      "_2015.": 6756,
      "_Van": 6757,
      "_Vir": 6758,
      "_Vice": 6759,
      "_Viol": 6760,
      "_Vaussion": 6761,
      "_Vallortigar": 6762,
      "_enfor": 6763,
      "_confidence": 6764,
      "_confusing": 6765,
      "merican": 6766,
      "_index": 6767,
      "_fees": 6768,
      "_feast": 6769,
      "_feels": 6770,
      "_Europeans": 6771,
      "_fined": 6772,
      "_finally": 6773,
      "_America's": 6774,
      "_$9": 6775,
      "_$50": 6776,
      "phin": 6777,
      "phones,": 6778,
      "_child's": 6779,
      "_apolog": 6780,
      "_airplanes": 6781,
      "_liver": 6782,
      "_liquid": 6783,
      "_adds": 6784,
      "_adding": 6785,
      "_added,": 6786,
      "_traged": 6787,
      "into": 6788,
      "_medium": 6789,
      "_mediation": 6790,
      "_underground": 6791,
      "_understood": 6792,
      "izz": 6793,
      "_backed": 6794,
      "_backlog": 6795,
      "_consc": 6796,
      "_consens": 6797,
      "anging": 6798,
      "_assur": 6799,
      "_assass": 6800,
      "_asserted": 6801,
      "actly": 6802,
      "active": 6803,
      "_counting": 6804,
      "_emails": 6805,
      "resses": 6806,
      "ities,": 6807,
      "_region,": 6808,
      "_element": 6809,
      "_Ontar": 6810,
      "_justified": 6811,
      "_US,": 6812,
      "_US.": 6813,
      "_row": 6814,
      "_roles": 6815,
      "_work.": 6816,
      "_worker": 6817,
      "_law.": 6818,
      "_providers": 6819,
      "_31.": 6820,
      "_passed": 6821,
      "tered": 6822,
      "_impact": 6823,
      "_impression": 6824,
      "_amount": 6825,
      "_amaz": 6826,
      "_Sciences": 6827,
      "_offices": 6828,
      "_4.": 6829,
      "_44": 6830,
      "_45%": 6831,
      "_specified": 6832,
      "_authentic": 6833,
      "_century": 6834,
      "_century,": 6835,
      "_Anim": 6836,
      "_Anne": 6837,
      "_2005": 6838,
      "_2007": 6839,
      "_2006.": 6840,
      "_months,": 6841,
      "obody": 6842,
      "_raid": 6843,
      "_race": 6844,
      "_report.": 6845,
      "_Germany.": 6846,
      "_Germany's": 6847,
      "luded": 6848,
      "_anyway": 6849,
      "_way.": 6850,
      "_use.": 6851,
      "_acting": 6852,
      "_memor": 6853,
      "_memories": 6854,
      "_group,": 6855,
      "_starts": 6856,
      "_starting": 6857,
      "_now.": 6858,
      "_company.": 6859,
      "_company,": 6860,
      "_companies,": 6861,
      "_smok": 6862,
      "_relating": 6863,
      "_relayed": 6864,
      "_releasing": 6865,
      "_released.": 6866,
      "_explan": 6867,
      "_5,": 6868,
      "rowing": 6869,
      "_weeks.": 6870,
      "_weeks,": 6871,
      "_transport": 6872,
      "_transfer": 6873,
      "_transparent": 6874,
      "_transmission": 6875,
      "_trial,": 6876,
      "_owner": 6877,
      "_chec": 6878,
      "_chef": 6879,
      "_cheaper": 6880,
      "_cheese,": 6881,
      "_public.": 6882,
      "_publicly": 6883,
      "_mining": 6884,
      "_direction": 6885,
      "_everyone": 6886,
      "_announcing": 6887,
      "_flag": 6888,
      "_long-d": 6889,
      "_long-h": 6890,
      "_guest": 6891,
      "_guarded": 6892,
      "_\"While": 6893,
      "_concer": 6894,
      "_discrim": 6895,
      "_attacked": 6896,
      "coni": 6897,
      "wards": 6898,
      "ception,": 6899,
      "_remind": 6900,
      "_Atlantic": 6901,
      "_define": 6902,
      "fully": 6903,
      "_heading": 6904,
      "_end,": 6905,
      "_endocr": 6906,
      "vice,": 6907,
      "_insist": 6908,
      "_insisted": 6909,
      "_produce": 6910,
      "_produced": 6911,
      "_producing": 6912,
      "_crude": 6913,
      "_firemen": 6914,
      "_high-p": 6915,
      "_retired": 6916,
      "_returning": 6917,
      "_expected.": 6918,
      "_left.": 6919,
      "_Obama,": 6920,
      "_businesses,": 6921,
      "_foundation": 6922,
      "_severance": 6923,
      "_authoritarian": 6924,
      "_identif": 6925,
      "thening": 6926,
      "_warns": 6927,
      "_instant": 6928,
      "_locks": 6929,
      "_children.": 6930,
      "ator,": 6931,
      "_requiring": 6932,
      "_helmet": 6933,
      "_10%": 6934,
      "_10am": 6935,
      "_10-abreast": 6936,
      "_admission": 6937,
      "inds": 6938,
      "_restruct": 6939,
      "_restraint": 6940,
      "_place,": 6941,
      "_elective": 6942,
      "_developers": 6943,
      "_development,": 6944,
      "_taxi": 6945,
      "_appl": 6946,
      "_injur": 6947,
      "_expressed": 6948,
      "_expressing": 6949,
      "_organised": 6950,
      "_colours": 6951,
      "_though.": 6952,
      "_thoughts": 6953,
      "_refining": 6954,
      "_referring": 6955,
      "_There's": 6956,
      "_Forces": 6957,
      "_depend": 6958,
      "_order.": 6959,
      "_\"We're": 6960,
      "_entered": 6961,
      "_veter": 6962,
      "_veins": 6963,
      "_boat": 6964,
      "_boast": 6965,
      "_boy.": 6966,
      "_Clive": 6967,
      "_Clarke": 6968,
      "_Communications": 6969,
      "_supports": 6970,
      "_supported": 6971,
      "_supporters": 6972,
      "_investigating": 6973,
      "_helps": 6974,
      "_system.": 6975,
      "_systems,": 6976,
      "_system,\"": 6977,
      "_Reports": 6978,
      "_Revolution": 6979,
      "_Released": 6980,
      "_army.": 6981,
      "gets": 6982,
      "_distance": 6983,
      "_distingu": 6984,
      "_economies": 6985,
      "-sh": 6986,
      "_coalition": 6987,
      "_care.": 6988,
      "ished.": 6989,
      "_free,": 6990,
      "_free.": 6991,
      "_maker": 6992,
      "_makers": 6993,
      "_evol": 6994,
      "_gas.": 6995,
      "_happy.": 6996,
      "_happens": 6997,
      "_happened": 6998,
      "_extended": 6999,
      "_extends": 7000,
      "_extrem": 7001,
      "_700": 7002,
      "apped": 7003,
      "_caf": 7004,
      "_Asian": 7005,
      "_goodby": 7006,
      "_healthcare": 7007,
      "_NSA,": 7008,
      "_subtle": 7009,
      "_politicians": 7010,
      "_policemen": 7011,
      "_travelled": 7012,
      "_director.": 7013,
      "_market,": 7014,
      "_anticip": 7015,
      "_emerg": 7016,
      "_emerged": 7017,
      "_changing": 7018,
      "_change.": 7019,
      "_differences": 7020,
      "_signed": 7021,
      "_watched": 7022,
      "_informed": 7023,
      "_stops": 7024,
      "_seatback": 7025,
      "_Execut": 7026,
      "ospace": 7027,
      "_meetings": 7028,
      "_cards": 7029,
      "_case,": 7030,
      "_case.": 7031,
      "_Palace": 7032,
      "ately,": 7033,
      "_feelings": 7034,
      "ault,": 7035,
      "nsyl": 7036,
      "_affil": 7037,
      "_obstructionism": 7038,
      "_putting": 7039,
      "_past.": 7040,
      "_face,": 7041,
      "_drugs.": 7042,
      "_Share": 7043,
      "_Cannes": 7044,
      "_regulation": 7045,
      "_regulations": 7046,
      "_regularly": 7047,
      "_regulators": 7048,
      "_regulatory": 7049,
      "_Google's": 7050,
      "_fighters": 7051,
      "_hours,": 7052,
      "_marks": 7053,
      "_marijuana": 7054,
      "_maritime": 7055,
      "_Sea": 7056,
      "_Barcl": 7057,
      "_Baratz": 7058,
      "_protest": 7059,
      "_records": 7060,
      "iki,": 7061,
      "_broke": 7062,
      "_M23,": 7063,
      "_Paris.": 7064,
      "_projects": 7065,
      "_program.": 7066,
      "_programme": 7067,
      "lames": 7068,
      "_bankers": 7069,
      "ropolitan": 7070,
      "_listening": 7071,
      "_Project": 7072,
      "_Prosecut": 7073,
      "_charges,": 7074,
      "_intelligence,": 7075,
      "_result,": 7076,
      "_parental": 7077,
      "_parents,": 7078,
      "_opposing": 7079,
      "_opposite": 7080,
      "_another.": 7081,
      "icultural": 7082,
      "_behalf": 7083,
      "_Armed": 7084,
      "_Congo": 7085,
      "_Hall,": 7086,
      "_telephone": 7087,
      "_possible,": 7088,
      "_situation,": 7089,
      "_situation.": 7090,
      "_morning,": 7091,
      "-page": 7092,
      "_Adolf": 7093,
      "_format": 7094,
      "ocrat": 7095,
      "_plane's": 7096,
      "_represents": 7097,
      "ooting": 7098,
      "_True": 7099,
      "_Abu": 7100,
      "_staff,": 7101,
      "_Behind": 7102,
      "_legitim": 7103,
      "_quarter.": 7104,
      "_quarterly": 7105,
      "_singing": 7106,
      "_single": 7107,
      "_singers": 7108,
      "_solid": 7109,
      "_solutions": 7110,
      "_sources.": 7111,
      "_sources,": 7112,
      "_opening": 7113,
      "_faced": 7114,
      "_facing": 7115,
      "_facility": 7116,
      "_house.": 7117,
      "_realise": 7118,
      "_landing": 7119,
      "_landing.": 7120,
      "_lights": 7121,
      "_Amirth": 7122,
      "_Monday": 7123,
      "_Monetary": 7124,
      "_Berlus": 7125,
      "_dealing": 7126,
      "_EU,": 7127,
      "_EU.": 7128,
      "_Enter": 7129,
      "_share.": 7130,
      "_arrival": 7131,
      "_appear.": 7132,
      "_London's": 7133,
      "_together.": 7134,
      "-flight": 7135,
      "_today.": 7136,
      "_lots": 7137,
      "_\"How": 7138,
      "_Glass": 7139,
      "_closing": 7140,
      "_closest": 7141,
      "_anti-nicotine": 7142,
      "_Halloween,": 7143,
      "_Halloween.": 7144,
      "_topic": 7145,
      "_denies": 7146,
      "_denial": 7147,
      "_revelation": 7148,
      "_\"People": 7149,
      "_\"sp": 7150,
      "_stands": 7151,
      "_standard": 7152,
      "_standup": 7153,
      "_standards": 7154,
      "_view),": 7155,
      "_elections,": 7156,
      "_activities,": 7157,
      "_Wednesday.": 7158,
      "_treated": 7159,
      "_tunnels": 7160,
      "_candy,": 7161,
      "_border,": 7162,
      "_billion,": 7163,
      "_front-page": 7164,
      "_events": 7165,
      "_Maliki,": 7166,
      "_Phil": 7167,
      "_Phase": 7168,
      "_Russia": 7169,
      "_Russian": 7170,
      "_Russia's": 7171,
      "_Laur": 7172,
      "_Laun": 7173,
      "_classified": 7174,
      "_China,": 7175,
      "_sooner": 7176,
      "_preventing": 7177,
      "_secretary": 7178,
      "_2008.": 7179,
      "_minister,": 7180,
      "_Â£3": 7181,
      "com.": 7182,
      "comed": 7183,
      "liminated": 7184,
      "_waiting.": 7185,
      "_fundam": 7186,
      "_friends": 7187,
      "_hopeful": 7188,
      "_destruction": 7189,
      "_force,": 7190,
      "_May.": 7191,
      "_aircraft,": 7192,
      "_designs": 7193,
      "_currency,": 7194,
      "_departments": 7195,
      "_December.": 7196,
      "_individuals.": 7197,
      "_Catholics": 7198,
      "holders": 7199,
      "_drawn": 7200,
      "_docu": 7201,
      "_India": 7202,
      "_storage": 7203,
      "_story.": 7204,
      "_steps": 7205,
      "_excited": 7206,
      "_excitement": 7207,
      "_Reserve": 7208,
      "_victory": 7209,
      "_let's": 7210,
      "_residents.": 7211,
      "_imported": 7212,
      "_attempted": 7213,
      "_Britain's": 7214,
      "_approval": 7215,
      "_spokesman,": 7216,
      "_Zeal": 7217,
      "_Zoom": 7218,
      "_tells": 7219,
      "_tails": 7220,
      "_wallet": 7221,
      "_biometrics": 7222,
      "_pleasure": 7223,
      "_analysts": 7224,
      "_higher": 7225,
      "_things,": 7226,
      "_\"Once": 7227,
      "_\"Otages": 7228,
      "_Conf": 7229,
      "_Constitution": 7230,
      "_Marine": 7231,
      "_Guard": 7232,
      "_shopping": 7233,
      "_11am": 7234,
      "_agencies": 7235,
      "_measure": 7236,
      "_contains": 7237,
      "_Charlie": 7238,
      "_arrests": 7239,
      "_ambul": 7240,
      "_ambiguous": 7241,
      "_generations": 7242,
      "_terrorism": 7243,
      "_lawyer's": 7244,
      "_rif": 7245,
      "_rivers": 7246,
      "maker": 7247,
      "_winner": 7248,
      "_fellow": 7249,
      "_reinst": 7250,
      "_reforms": 7251,
      "_reforming": 7252,
      "_lived": 7253,
      "_ground.": 7254,
      "_ground-to-": 7255,
      "_Bowler": 7256,
      "operate": 7257,
      "_NotW": 7258,
      "_examinations": 7259,
      "_rats": 7260,
      "_adults": 7261,
      "_job.": 7262,
      "_manufacturing": 7263,
      "_Villiers": 7264,
      "_Villiers,": 7265,
      "_assistant": 7266,
      "_guidance": 7267,
      "_participate": 7268,
      "_Bombardier's": 7269,
      "_illness": 7270,
      "_treatment": 7271,
      "regular": 7272,
      "_widespread": 7273,
      "_covering": 7274,
      "_push": 7275,
      "_pushed": 7276,
      "_motorb": 7277,
      "_motorist": 7278,
      "oud,": 7279,
      "_damaged": 7280,
      "_threatened": 7281,
      "_epis": 7282,
      "_Affair": 7283,
      "_Nora": 7284,
      "_necessity": 7285,
      "_various": 7286,
      "_afternoon,": 7287,
      "_assaulted": 7288,
      "_justice,": 7289,
      "_justice.": 7290,
      "_possibly": 7291,
      "_Israel,": 7292,
      "_collaps": 7293,
      "_responding": 7294,
      "_regulator,": 7295,
      "_documents.": 7296,
      "_Goodyear.": 7297,
      "_zone": 7298,
      "ches,": 7299,
      "_tickets": 7300,
      "_away.": 7301,
      "inary.": 7302,
      "_sorts": 7303,
      "_drone": 7304,
      "_dream.": 7305,
      "_euroz": 7306,
      "_\"Double": 7307,
      "_Ford,": 7308,
      "_Ford's": 7309,
      "_alongside": 7310,
      "_Nowad": 7311,
      "_Others": 7312,
      "_Rocket": 7313,
      "_absence": 7314,
      "_quality": 7315,
      "_qualification": 7316,
      "_themselves.": 7317,
      "_consultations": 7318,
      "_province,": 7319,
      "_Obeid,": 7320,
      "_positions": 7321,
      "_guarantees": 7322,
      "_requested": 7323,
      "_subjects": 7324,
      "_girl.": 7325,
      "_candidate": 7326,
      "_elsewhere": 7327,
      "_Singapore,": 7328,
      "_ultimate": 7329,
      "_neighbouring": 7330,
      "-cl": 7331,
      "iscover": 7332,
      "_predomin": 7333,
      "_funeral": 7334,
      "_fact,": 7335,
      "_mileage": 7336,
      "_Super": 7337,
      "_Suisse": 7338,
      "ophical": 7339,
      "_procedure": 7340,
      "_procedures": 7341,
      "_combat": 7342,
      "_Does": 7343,
      "_Doerks": 7344,
      "_Ugandan": 7345,
      "_Uganda.": 7346,
      "_leaked": 7347,
      "_Justin": 7348,
      "_unpreced": 7349,
      "_recalls": 7350,
      "_recalled": 7351,
      "_consideration.": 7352,
      "_definition": 7353,
      "_definitely": 7354,
      "_advisers": 7355,
      "_confirms": 7356,
      "_obtained": 7357,
      "_controversy": 7358,
      "_estimates": 7359,
      "_pawnbrokers": 7360,
      "_Kenya's": 7361,
      "_environmental": 7362,
      "_February,": 7363,
      "km2,": 7364,
      "_symptoms": 7365,
      "_welcomed": 7366,
      "_options": 7367,
      "_casual": 7368,
      "_cuts": 7369,
      "_budding": 7370,
      "_penalty": 7371,
      "_frustr": 7372,
      "_murder": 7373,
      "_Travel": 7374,
      "_eye": 7375,
      "_eyes": 7376,
      "_easy": 7377,
      "_Agenc": 7378,
      "_Against": 7379,
      "_Safir": 7380,
      "irmishes": 7381,
      "_\"No": 7382,
      "_\"gender": 7383,
      "_\"genuin": 7384,
      "_choosing": 7385,
      "_sustained": 7386,
      "_Louis": 7387,
      "_Lebanon": 7388,
      "_intersex.": 7389,
      "_carriers": 7390,
      "_experienced": 7391,
      "_experiencing": 7392,
      "_captured": 7393,
      "_Brotherhood": 7394,
      "_criticised": 7395,
      "_civilians,": 7396,
      "_reinforced": 7397,
      "_Angela": 7398,
      "_Angeles": 7399,
      "_destroyed": 7400,
      "_Pakistan": 7401,
      "-American": 7402,
      "-Maliki": 7403,
      "riminal": 7404,
      "_times,": 7405,
      "_slee": 7406,
      "_silent": 7407,
      "_observed": 7408,
      "_blown": 7409,
      "_fulfill": 7410,
      "_tourist": 7411,
      "_reacts": 7412,
      "_rejected": 7413,
      "_\"ext": 7414,
      "_Morris": 7415,
      "_connect": 7416,
      "_convinced": 7417,
      "_weaker": 7418,
      "_Prix": 7419,
      "_Network": 7420,
      "_existing": 7421,
      "_Joe": 7422,
      "_Joel": 7423,
      "_meaning": 7424,
      "_compromised.": 7425,
      "_allergies": 7426,
      "_Italian": 7427,
      "_screen.": 7428,
      "_confrontation": 7429,
      "_countries.": 7430,
      "_specifically": 7431,
      "_genitalia": 7432,
      "_ministers": 7433,
      "_instructions": 7434,
      "_collection": 7435,
      "_patents.": 7436,
      "_777X": 7437,
      "_breasts": 7438,
      "_FARDC,": 7439,
      "_Association": 7440,
      "_establishment": 7441,
      "_frequently": 7442,
      "_manufacturers": 7443,
      "_complaints": 7444,
      "_Scarborough,": 7445,
      "_celebrated": 7446,
      "_characteristic": 7447,
      "_behaviour,": 7448,
      "_Pitcairn": 7449,
      "-Bourgeoys": 7450,
      "wealth": 7451,
      "_tasks": 7452,
      "_tasked": 7453,
      "_trouble": 7454,
      "eness\"": 7455,
      "_citizen": 7456,
      "_innocent": 7457,
      "_flying": 7458,
      "_failure": 7459,
      "_geop": 7460,
      "_Swed": 7461,
      "_\"You": 7462,
      "igration": 7463,
      "_Mehs": 7464,
      "_struggle": 7465,
      "_Florid": 7466,
      "_altitude": 7467,
      "_altitudes": 7468,
      "_Hydro": 7469,
      "_Hyeres": 7470,
      "_season,": 7471,
      "_season.": 7472,
      "_Greenwich": 7473,
      "_Larry": 7474,
      "_dozen": 7475,
      "_dozens": 7476,
      "_Jean-L": 7477,
      "_(FARDC": 7478,
      "_software": 7479,
      "_engine": 7480,
      "_enables": 7481,
      "_lawsuit": 7482,
      "_discussed": 7483,
      "_Commonwealth": 7484,
      "_strategies": 7485,
      "_co-operating": 7486,
      "_infringement": 7487,
      "_determined": 7488,
      "_diagnosed": 7489,
      "_diagnosis": 7490,
      "_typically": 7491,
      "_Authority": 7492,
      "_disappointed": 7493,
      "_cigarette": 7494,
      "_strengthening": 7495,
      "-election": 7496,
      "_essential": 7497,
      "zhou": 7498,
      "_titled": 7499,
      "_satellite": 7500,
      "_briefly": 7501,
      "_powers": 7502,
      "_poverty": 7503,
      "_pickup": 7504,
      "_pictures": 7505,
      "_fifth": 7506,
      "_fairly": 7507,
      "_harness": 7508,
      "_hunting": 7509,
      "_merger": 7510,
      "_motiv": 7511,
      "_mistakes": 7512,
      "_maths": 7513,
      "_danger": 7514,
      "_thinks": 7515,
      "_repeated": 7516,
      "_Tasmania's": 7517,
      "_narrow": 7518,
      "_northern": 7519,
      "_heavier": 7520,
      "_Muller": 7521,
      "_convicted": 7522,
      "_Pennsyl": 7523,
      "_Patrick": 7524,
      "_habit": 7525,
      "_proposed": 7526,
      "_process.": 7527,
      "_exercise": 7528,
      "_Greek": 7529,
      "_Everything": 7530,
      "_virus": 7531,
      "_advertising": 7532,
      "_Jacqu": 7533,
      "_unveiled": 7534,
      "_contractor": 7535,
      "_resumption": 7536,
      "_Kivu,": 7537,
      "_solemn": 7538,
      "_pregnanc": 7539,
      "_surrounding": 7540,
      "_confidential": 7541,
      "_featuring": 7542,
      "_rocket": 7543,
      "_333": 7544,
      "_experiment": 7545,
      "_efficiency": 7546,
      "_involvement": 7547,
      "_rebellion": 7548,
      "_Beaudoin": 7549,
      "_summons": 7550,
      "_Spirit's": 7551,
      "_Georgia": 7552,
      "_professionals": 7553,
      "_hostage-tak": 7554,
      "_Technical": 7555,
      "_Bulgar": 7556,
      "_Xinjiang,": 7557,
      "villiers": 7558,
      "édies": 7559,
      "_tense.": 7560,
      "_wrote": 7561,
      "_bishops": 7562,
      "_battle": 7563,
      "_picked": 7564,
      "_inquiry": 7565,
      "_inappropriately": 7566,
      "_fears": 7567,
      "_ancient": 7568,
      "_digital": 7569,
      "_Tuesday": 7570,
      "_life,": 7571,
      "_grave": 7572,
      "_Mexico": 7573,
      "_Business": 7574,
      "_whistleblow": 7575,
      "_withdraw": 7576,
      "_deployed": 7577,
      "_Highway": 7578,
      "ulfed": 7579,
      "_Nicolas": 7580,
      "_arena": 7581,
      "_choreograph": 7582,
      "_Ellison": 7583,
      "_Oscar": 7584,
      "_Runy": 7585,
      "_Lyri": 7586,
      "_Latak": 7587,
      "_learned": 7588,
      "usterity": 7589,
      "_Japanese": 7590,
      "_Journalists": 7591,
      "_accompanied": 7592,
      "_incursion": 7593,
      "_cancer.": 7594,
      "_StrÃ¶": 7595,
      "_mystery": 7596,
      "_invisible": 7597,
      "_attention.": 7598,
      "_philosophical": 7599,
      "_commitment": 7600,
      "_members.": 7601,
      "_relatively": 7602,
      "_guitar": 7603,
      "_removed": 7604,
      "_warrant": 7605,
      "_taxpayers": 7606,
      "_entertainment": 7607,
      "_Communist": 7608,
      "_Reuters": 7609,
      "_subsequently": 7610,
      "_Experts": 7611,
      "_researchers": 7612,
      "_Protection": 7613,
      "_criteria": 7614,
      "_similar": 7615,
      "_Assad's": 7616,
      "_pawnshop": 7617,
      "_Independent": 7618,
      "_Blackburn": 7619,
      "_enclave": 7620,
      "_epidemic": 7621,
      "_collaboration": 7622,
      "_absolutely": 7623,
      "_embassy": 7624,
      "_\"Everyone": 7625,
      "_Merkel's": 7626,
      "_Pawlby's": 7627,
      "_Samsung,": 7628,
      "_Saint-Joseph": 7629,
      "_arrangement": 7630,
      "_Silverado": 7631,
      "_Huawei": 7632,
      "_antibodies.": 7633,
      "_Sebelius": 7634,
      "_Al-Qaida.": 7635,
      "_cameras": 7636,
      "_Specialist": 7637,
      "_manipulation": 7638,
      "-ranking": 7639,
      "DoS": 7640,
      "Leaks": 7641,
      "iCapri": 7642,
      "known": 7643,
      "_tonight": 7644,
      "_tackle": 7645,
      "inologist": 7646,
      "_self": 7647,
      "_copy": 7648,
      "_certific": 7649,
      "_bureaucr": 7650,
      "_phenomen": 7651,
      "_pupils": 7652,
      "_inaug": 7653,
      "_fierce": 7654,
      "_fiscal": 7655,
      "_hospitals": 7656,
      "_municipal": 7657,
      "_dubbed": 7658,
      "_dumping": 7659,
      "_thwarted": 7660,
      "_reunited": 7661,
      "_re-release": 7662,
      "_Toronto": 7663,
      "_luggage": 7664,
      "_Arena": 7665,
      "_Aubervilliers": 7666,
      "_gadgets": 7667,
      "_Sierra": 7668,
      "_Conservation": 7669,
      "_Caringbah": 7670,
      "imullah": 7671,
      "_Miller": 7672,
      "_Mulcaire": 7673,
      "_Marguerite-Bourgeoys": 7674,
      "_Bashar": 7675,
      "_Biometrics": 7676,
      "_Birmingham": 7677,
      "_Banlieue": 7678,
      "_Historically": 7679,
      "_Hakimullah": 7680,
      "_Halifax": 7681,
      "_haven't": 7682,
      "_extermination": 7683,
      "_comeback": 7684,
      "_Golden": 7685,
      "_Dhabi": 7686,
      "_Dhlak": 7687,
      "_Education": 7688,
      "_Energy": 7689,
      "_WikiLeaks": 7690,
      "_suddenly": 7691,
      "_Lachaise": 7692,
      "_Liverpool": 7693,
      "_unconstitution": 7694,
      "_inclusion": 7695,
      "_permanent": 7696,
      "_Kampala": 7697,
      "_partnership": 7698,
      "_transmissions": 7699,
      "_long-distance": 7700,
      "_long-haul": 7701,
      "_endocrinologist": 7702,
      "_restructuring": 7703,
      "_Amirthaling": 7704,
      "_Berlusconi": 7705,
      "_Zealand": 7706,
      "_Zooml": 7707,
      "_ground-to-air": 7708,
      "_\"genuineness\"": 7709,
      "_Mehsud": 7710,
      "_(FARDC)": 7711,
      "_Pennsylvan": 7712,
      "!\"": 7713,
      "%,": 7714,
      "'\"": 7715,
      "',": 7716,
      "'A": 7717,
      "'É": 7718,
      ",4": 7719,
      "-1": 7720,
      "-F": 7721,
      "-H": 7722,
      "-O": 7723,
      "-W": 7724,
      "-y": 7725,
      "-or": 7726,
      "-ro": 7727,
      "-se": 7728,
      "-ch": 7729,
      "-res": 7730,
      "-ap": 7731,
      "-eng": 7732,
      "-te": 7733,
      "-con": 7734,
      "-mon": 7735,
      "-com": 7736,
      "-new": 7737,
      "-term": 7738,
      "-into": 7739,
      ".'": 7740,
      ".3": 7741,
      ".5": 7742,
      ".7": 7743,
      ".g": 7744,
      ".5%": 7745,
      ".6%": 7746,
      "06": 7747,
      "0s.": 7748,
      "0km": 7749,
      "15": 7750,
      "1.\"": 7751,
      "178": 7752,
      "24": 7753,
      "26": 7754,
      "29": 7755,
      "35": 7756,
      "350": 7757,
      "3Â¢": 7758,
      "40": 7759,
      "46": 7760,
      "42,": 7761,
      "55": 7762,
      "56": 7763,
      "57": 7764,
      "65": 7765,
      "600": 7766,
      "700": 7767,
      "7.4": 7768,
      "8%": 7769,
      "8.": 7770,
      "95": 7771,
      "9:": 7772,
      "AP": 7773,
      "BI": 7774,
      "B's": 7775,
      "C,": 7776,
      "CE": 7777,
      "Cs": 7778,
      "CB's": 7779,
      "DP,": 7780,
      "E)": 7781,
      "FO": 7782,
      "Fi": 7783,
      "First": 7784,
      "HQ": 7785,
      "IA": 7786,
      "IL": 7787,
      "IS": 7788,
      "MP": 7789,
      "Morgan": 7790,
      "N.": 7791,
      "NU": 7792,
      "New": 7793,
      "Nazi": 7794,
      "ONU": 7795,
      "PMorgan": 7796,
      "RTC": 7797,
      "RF.": 7798,
      "SD": 7799,
      "SG": 7800,
      "SS.": 7801,
      "SRS": 7802,
      "TV": 7803,
      "TIM": 7804,
      "Un": 7805,
      "VIM": 7806,
      "_.": 7807,
      "_ut": 7808,
      "_ire": 7809,
      "_'t": 7810,
      "_000": 7811,
      "_...": 7812,
      "aac": 7813,
      "ares": 7814,
      "aqu": 7815,
      "aun": 7816,
      "aution": 7817,
      "aude": 7818,
      "auses": 7819,
      "bon": 7820,
      "bing": 7821,
      "bel": 7822,
      "bra": 7823,
      "base": 7824,
      "by,": 7825,
      "bele": 7826,
      "bourg": 7827,
      "biqu": 7828,
      "cle": 7829,
      "cri": 7830,
      "cited": 7831,
      "cade": 7832,
      "chen": 7833,
      "cott": 7834,
      "cceed": 7835,
      "der": 7836,
      "ding,": 7837,
      "dict": 7838,
      "dney": 7839,
      "eed": 7840,
      "eper": 7841,
      "even": 7842,
      "epped": 7843,
      "e-l": 7844,
      "eila": 7845,
      "fem": 7846,
      "file": 7847,
      "friend": 7848,
      "fala": 7849,
      "flix": 7850,
      "git": 7851,
      "gate": 7852,
      "gone": 7853,
      "gian": 7854,
      "gress": 7855,
      "ger,": 7856,
      "ged,": 7857,
      "gled": 7858,
      "gender": 7859,
      "gling": 7860,
      "gie,": 7861,
      "hat": 7862,
      "hal": 7863,
      "hol": 7864,
      "had": 7865,
      "hri": 7866,
      "hich": 7867,
      "hance": 7868,
      "house": 7869,
      "hards": 7870,
      "ipe": 7871,
      "ius": 7872,
      "iators": 7873,
      "iance,": 7874,
      "ière": 7875,
      "ihad": 7876,
      "jan": 7877,
      "just": 7878,
      "kl": 7879,
      "ko": 7880,
      "ker": 7881,
      "kes,": 7882,
      "lan": 7883,
      "late": 7884,
      "last": 7885,
      "lous": 7886,
      "life": 7887,
      "l-Q": 7888,
      "lby": 7889,
      "m2": 7890,
      "mb": 7891,
      "more": 7892,
      "ma,": 7893,
      "mph": 7894,
      "migration": 7895,
      "ny": 7896,
      "nop": 7897,
      "nik": 7898,
      "ngit": 7899,
      "oir": 7900,
      "off": 7901,
      "oft": 7902,
      "oors": 7903,
      "oices": 7904,
      "oeila": 7905,
      "pen": 7906,
      "profit": 7907,
      "published": 7908,
      "rs": 7909,
      "rir": 7910,
      "rac": 7911,
      "rand": 7912,
      "rate": 7913,
      "rast": 7914,
      "rical": 7915,
      "rine": 7916,
      "rings": 7917,
      "ron,": 7918,
      "rude": 7919,
      "rÃ¢": 7920,
      "sch": 7921,
      "sher": 7922,
      "spec": 7923,
      "ship.": 7924,
      "sitate": 7925,
      "tt": 7926,
      "tre": 7927,
      "tion": 7928,
      "ts,": 7929,
      "tes,": 7930,
      "ta,": 7931,
      "ty,": 7932,
      "tland": 7933,
      "ti-": 7934,
      "ux": 7935,
      "uy": 7936,
      "uve": 7937,
      "uice": 7938,
      "uade": 7939,
      "uits": 7940,
      "uining": 7941,
      "ule.": 7942,
      "uary,": 7943,
      "uores": 7944,
      "vin": 7945,
      "vre": 7946,
      "vard": 7947,
      "viol": 7948,
      "vio": 7949,
      "vacy": 7950,
      "val,": 7951,
      "wl": 7952,
      "war": 7953,
      "wide": 7954,
      "wood": 7955,
      "watch": 7956,
      "xel": 7957,
      "xual": 7958,
      "ya": 7959,
      "yan": 7960,
      "yse": 7961,
      "yber": 7962,
      "yram": 7963,
      "ynes": 7964,
      "zek": 7965,
      "zzed": 7966,
      "çaise": 7967,
      "é,": 7968,
      "ée": 7969,
      "ém": 7970,
      "éra": 7971,
      "éral": 7972,
      "éÃ¢": 7973,
      "_tor": 7974,
      "_ting": 7975,
      "_till": 7976,
      "_tort": 7977,
      "_tire": 7978,
      "_tons": 7979,
      "_tipped": 7980,
      "_tape": 7981,
      "_teenag": 7982,
      "het": 7983,
      "held": 7984,
      "hell": 7985,
      "hes,\"": 7986,
      "_arou": 7987,
      "_actor": 7988,
      "_ailing": 7989,
      "_austerity": 7990,
      "in.": 7991,
      "inent": 7992,
      "inous": 7993,
      "inian": 7994,
      "inois": 7995,
      "inery": 7996,
      "inrich": 7997,
      "_theat": 7998,
      "_theory": 7999,
      "_theories": 8000,
      "res,": 8001,
      "render": 8002,
      "rete": 8003,
      "re-D": 8004,
      "rehens": 8005,
      "onn": 8006,
      "onic": 8007,
      "oness": 8008,
      "onard": 8009,
      "onian": 8010,
      "onven": 8011,
      "onne": 8012,
      "onounced": 8013,
      "erone": 8014,
      "ery.": 8015,
      "ervice": 8016,
      "erbe": 8017,
      "_sor": 8018,
      "_ske": 8019,
      "_sound": 8020,
      "_siz": 8021,
      "_slam": 8022,
      "_sized": 8023,
      "_session": 8024,
      "_syn": 8025,
      "_wes": 8026,
      "_wing": 8027,
      "_wand": 8028,
      "_ward": 8029,
      "_wary": 8030,
      "_wings": 8031,
      "_wider": 8032,
      "_winds": 8033,
      "_ousted": 8034,
      "ench": 8035,
      "enes,": 8036,
      "eness.": 8037,
      "ato": 8038,
      "atom": 8039,
      "atine": 8040,
      "atised": 8041,
      "aters,": 8042,
      "atives": 8043,
      "atisf": 8044,
      "_cal": 8045,
      "_cri": 8046,
      "_cart": 8047,
      "_cold": 8048,
      "_cook": 8049,
      "_corn": 8050,
      "_cute": 8051,
      "_city,": 8052,
      "_craz": 8053,
      "_caught": 8054,
      "_cyber": 8055,
      "edd": 8056,
      "edic": 8057,
      "isy": 8058,
      "iser": 8059,
      "isure": 8060,
      "isation,": 8061,
      "isi,": 8062,
      "aning": 8063,
      "anim": 8064,
      "antern": 8065,
      "anmen": 8066,
      "ora": 8067,
      "orce": 8068,
      "ors,": 8069,
      "ory.": 8070,
      "orhood": 8071,
      "ites": 8072,
      "itect": 8073,
      "iture": 8074,
      "ited.": 8075,
      "ites.": 8076,
      "itively": 8077,
      "itude": 8078,
      "itored": 8079,
      "iticians": 8080,
      "_ban": 8081,
      "_bom": 8082,
      "_bol": 8083,
      "_bul": 8084,
      "_bond": 8085,
      "_bog": 8086,
      "_burn": 8087,
      "_bed,": 8088,
      "_brib": 8089,
      "_bases": 8090,
      "_borough": 8091,
      "_bird": 8092,
      "_bias": 8093,
      "es'": 8094,
      "es:": 8095,
      "ess,": 8096,
      "esves": 8097,
      "esides": 8098,
      "_por": 8099,
      "_pir": 8100,
      "_pers": 8101,
      "_pess": 8102,
      "_pun": 8103,
      "_pie": 8104,
      "_page": 8105,
      "_penc": 8106,
      "_pap": 8107,
      "_pile": 8108,
      "_pose": 8109,
      "_pound": 8110,
      "_pock": 8111,
      "_pix": 8112,
      "_paris": 8113,
      "_pois": 8114,
      "_page.": 8115,
      "_palm": 8116,
      "_pupp": 8117,
      "inge": 8118,
      "ing,\"": 8119,
      "_inacc": 8120,
      "_in-flight": 8121,
      "_fed": 8122,
      "_fing": 8123,
      "_fur": 8124,
      "_fra": 8125,
      "_fate": 8126,
      "_fant": 8127,
      "_flow": 8128,
      "_fare": 8129,
      "_fired": 8130,
      "_fift": 8131,
      "_tow": 8132,
      "_topped": 8133,
      "_tooth": 8134,
      "_todd": 8135,
      "_tough": 8136,
      "aron": 8137,
      "aration": 8138,
      "arred": 8139,
      "armed": 8140,
      "arche": 8141,
      "arily": 8142,
      "ald": 8143,
      "alle": 8144,
      "alent": 8145,
      "ales.": 8146,
      "algo,": 8147,
      "_hor": 8148,
      "_hur": 8149,
      "_hous": 8150,
      "_hide": 8151,
      "_hors": 8152,
      "_hollow": 8153,
      "_hiding": 8154,
      "_hit.": 8155,
      "_hitting": 8156,
      "_hamm": 8157,
      "_mad": 8158,
      "_mill": 8159,
      "_mel": 8160,
      "_mun": 8161,
      "_mast": 8162,
      "_mall": 8163,
      "_mud": 8164,
      "_mouth": 8165,
      "_magn": 8166,
      "_migr": 8167,
      "icing": 8168,
      "icent": 8169,
      "ices.": 8170,
      "icaid": 8171,
      "ichel": 8172,
      "oux": 8173,
      "ouis": 8174,
      "ouver": 8175,
      "aster": 8176,
      "asive": 8177,
      "ases.": 8178,
      "ashing": 8179,
      "_dim": 8180,
      "_dance": 8181,
      "_dress": 8182,
      "_daring": 8183,
      "_divid": 8184,
      "_drove": 8185,
      "_d'O": 8186,
      "_donated": 8187,
      "lec": 8188,
      "lech": 8189,
      "ley.": 8190,
      "lete": 8191,
      "lets": 8192,
      "let,": 8193,
      "_andro": 8194,
      "omic": 8195,
      "oms.": 8196,
      "omani": 8197,
      "_thing.": 8198,
      "_thrown": 8199,
      "_thus,": 8200,
      "ilm": 8201,
      "ilation": 8202,
      "iless": 8203,
      "iles.": 8204,
      "ilarly": 8205,
      "ilin,": 8206,
      "enth": 8207,
      "ented.": 8208,
      "_rect": 8209,
      "_rely": 8210,
      "_rend": 8211,
      "_reint": 8212,
      "_reward": 8213,
      "_recept": 8214,
      "_rene": 8215,
      "_reactor": 8216,
      "_reorgan": 8217,
      "_reverse": 8218,
      "_re-election": 8219,
      "ides,": 8220,
      "idering": 8221,
      "idalgo,": 8222,
      "_Tre": 8223,
      "_Ten": 8224,
      "_Tro": 8225,
      "_Top": 8226,
      "_Tun": 8227,
      "_Tok": 8228,
      "_Tuc": 8229,
      "_Taking": 8230,
      "_Toul": 8231,
      "_Teenag": 8232,
      "_Tamar": 8233,
      "_T-sh": 8234,
      "vere": 8235,
      "_beating": 8236,
      "_begins": 8237,
      "_nurs": 8238,
      "_nick": 8239,
      "_native": 8240,
      "_eld": 8241,
      "_ech": 8242,
      "_eart": 8243,
      "_eth": 8244,
      "_eased": 8245,
      "_e-b": 8246,
      "_easing": 8247,
      "_e-read": 8248,
      "ster": 8249,
      "sting": 8250,
      "step": 8251,
      "ster,": 8252,
      "stairs": 8253,
      "rod": 8254,
      "ros": 8255,
      "rot": 8256,
      "roz": 8257,
      "rofile": 8258,
      "_lit": 8259,
      "_lam": 8260,
      "_lum": 8261,
      "_lover": 8262,
      "_lary": 8263,
      "_lied": 8264,
      "_loy": 8265,
      "_lob": 8266,
      "_lock": 8267,
      "_lick": 8268,
      "_lending": 8269,
      "_lift": 8270,
      "_labor": 8271,
      "_larger": 8272,
      "_on,": 8273,
      "_ongo": 8274,
      "_onset": 8275,
      "_onto": 8276,
      "_Ald": 8277,
      "_Ander": 8278,
      "_Avenue": 8279,
      "_ASCO": 8280,
      "_A350": 8281,
      "_AAP": 8282,
      "_gle": 8283,
      "_gent": 8284,
      "_gall": 8285,
      "_gap": 8286,
      "_gross": 8287,
      "_grab": 8288,
      "_gone.": 8289,
      "_greet": 8290,
      "ctual": 8291,
      "ctuary": 8292,
      "ce:": 8293,
      "cel": 8294,
      "ceiv": 8295,
      "ayton": 8296,
      "aywatch": 8297,
      "oly": 8298,
      "olen": 8299,
      "oles": 8300,
      "adat": 8301,
      "adle": 8302,
      "ades,": 8303,
      "adium": 8304,
      "ador,": 8305,
      "advant": 8306,
      "ota": 8307,
      "otal": 8308,
      "otte": 8309,
      "otax": 8310,
      "uration": 8311,
      "urred": 8312,
      "urlb": 8313,
      "_Sm": 8314,
      "_Son": 8315,
      "_Sri": 8316,
      "_Sher": 8317,
      "_Sore": 8318,
      "_Sain": 8319,
      "_Song": 8320,
      "_Sous": 8321,
      "_Sark": 8322,
      "_See": 8323,
      "_Saud": 8324,
      "_Suz": 8325,
      "_Southern": 8326,
      "_SDG": 8327,
      "_Speaking": 8328,
      "lying": 8329,
      "ly,\"": 8330,
      "ly-ass": 8331,
      "iries": 8332,
      "irsch": 8333,
      "se.": 8334,
      "sein": 8335,
      "ver.": 8336,
      "verting": 8337,
      "_Ire": 8338,
      "_Ill": 8339,
      "_Iran": 8340,
      "_Ips": 8341,
      "_formed": 8342,
      "_forces,": 8343,
      "_\"G": 8344,
      "_\"l": 8345,
      "_\"n": 8346,
      "_\"in": 8347,
      "_\"an": 8348,
      "_\"if": 8349,
      "_\"all": 8350,
      "_\"over": 8351,
      "_\"ful": 8352,
      "_\"new": 8353,
      "_\"by": 8354,
      "_\"pos": 8355,
      "_\"terrorist": 8356,
      "_\"regular": 8357,
      "_\"viol": 8358,
      "owing": 8359,
      "ownd": 8360,
      "_Cop": 8361,
      "_Call": 8362,
      "_Cost": 8363,
      "_Cont": 8364,
      "_Corn": 8365,
      "_Carm": 8366,
      "_Cocaine": 8367,
      "_Camb": 8368,
      "_CDC": 8369,
      "_Comp": 8370,
      "_Citing": 8371,
      "_Crem": 8372,
      "_Croll": 8373,
      "_Cité": 8374,
      "_County": 8375,
      "_Current": 8376,
      "_Cryst": 8377,
      "_Criminal": 8378,
      "_CIA": 8379,
      "_Causes": 8380,
      "_Cros": 8381,
      "et?": 8382,
      "eth": 8383,
      "et's": 8384,
      "_Theatre": 8385,
      "_hem": 8386,
      "_heir": 8387,
      "_he's": 8388,
      "_height": 8389,
      "_hell": 8390,
      "_hesitate": 8391,
      "ige": 8392,
      "igue": 8393,
      "igroup": 8394,
      "igan,": 8395,
      "igali": 8396,
      "imony": 8397,
      "imistic": 8398,
      "_Mad": 8399,
      "_Mort": 8400,
      "_Mem": 8401,
      "_Mun": 8402,
      "_Map": 8403,
      "_Mog": 8404,
      "_Mitt": 8405,
      "_Mile": 8406,
      "_Mission": 8407,
      "_Miss": 8408,
      "_Mars": 8409,
      "_Matt": 8410,
      "_Mitte": 8411,
      "_Maur": 8412,
      "_Micro": 8413,
      "_MDG": 8414,
      "_Money": 8415,
      "_Muy": 8416,
      "_Michel": 8417,
      "illary": 8418,
      "illings": 8419,
      "illiant": 8420,
      "illaume": 8421,
      "illfully": 8422,
      "_stro": 8423,
      "_stall": 8424,
      "_stays": 8425,
      "_stations": 8426,
      "_stru": 8427,
      "_stick": 8428,
      "_stars": 8429,
      "_stream": 8430,
      "_stoke": 8431,
      "_stead": 8432,
      "_street": 8433,
      "_steal": 8434,
      "_stakes": 8435,
      "_steer": 8436,
      "_stowed": 8437,
      "_style": 8438,
      "_stadium": 8439,
      "amation": 8440,
      "amber": 8441,
      "ames,": 8442,
      "_upt": 8443,
      "_upl": 8444,
      "_ubiqu": 8445,
      "_Bel": 8446,
      "_Bend": 8447,
      "_Bast": 8448,
      "_Bell": 8449,
      "_Bog": 8450,
      "_Bund": 8451,
      "_Bureau": 8452,
      "_Bounty": 8453,
      "_Between": 8454,
      "_Blames": 8455,
      "_Besides": 8456,
      "ers.\"": 8457,
      "ela": 8458,
      "elve": 8459,
      "elag": 8460,
      "elations": 8461,
      "_was,": 8462,
      "_was.": 8463,
      "_waste": 8464,
      "ac.": 8465,
      "acent": 8466,
      "acare": 8467,
      "acular": 8468,
      "ter,": 8469,
      "_ash": 8470,
      "_asset": 8471,
      "_FC": 8472,
      "_FM": 8473,
      "_Fort": 8474,
      "_Fun": 8475,
      "_Fair": 8476,
      "_Fern": 8477,
      "_Father": 8478,
      "_Finist": 8479,
      "_FCA": 8480,
      "_Fitz": 8481,
      "_Folk": 8482,
      "_Fox": 8483,
      "_FBI": 8484,
      "_Film": 8485,
      "_cong": 8486,
      "_conform": 8487,
      "_conced": 8488,
      "_with.": 8489,
      "rif": 8490,
      "riv": 8491,
      "river": 8492,
      "ria,": 8493,
      "_deval": 8494,
      "_devices,": 8495,
      "_deleg": 8496,
      "'s,": 8497,
      "_alarm": 8498,
      "_al-Maliki": 8499,
      "_wear": 8500,
      "_weighed": 8501,
      "peed": 8502,
      "rap": 8503,
      "rait": 8504,
      "rage": 8505,
      "_Hé": 8506,
      "_Her": 8507,
      "_Hit": 8508,
      "_Hal": 8509,
      "_Has": 8510,
      "_Ham": 8511,
      "_Hus": 8512,
      "_Hack": 8513,
      "_Hab": 8514,
      "_Hun": 8515,
      "_Hard": 8516,
      "_Host": 8517,
      "_Hud": 8518,
      "_Home": 8519,
      "_Hans": 8520,
      "_Hug": 8521,
      "_Having": 8522,
      "_Hoeila": 8523,
      "_Hidalgo,": 8524,
      "_Hirsch": 8525,
      "_Hillary": 8526,
      "ula": 8527,
      "ularly": 8528,
      "ulatory": 8529,
      "s.com.": 8530,
      "_Pic": 8531,
      "_Pet": 8532,
      "_Pres": 8533,
      "_Past": 8534,
      "_Pont": 8535,
      "_Pump": 8536,
      "_Poor": 8537,
      "_Petro": 8538,
      "_PCs": 8539,
      "_PSG": 8540,
      "_haunted": 8541,
      "_saving": 8542,
      "ist,": 8543,
      "ist.": 8544,
      "istr": 8545,
      "istair": 8546,
      "istan.": 8547,
      "istocrat": 8548,
      "andy": 8549,
      "anded": 8550,
      "andal": 8551,
      "andom": 8552,
      "ops,": 8553,
      "opular": 8554,
      "_yes,": 8555,
      "_prow": 8556,
      "_prove": 8557,
      "_proce": 8558,
      "_Nour": 8559,
      "_Nich": 8560,
      "_None": 8561,
      "_Norm": 8562,
      "_No.": 8563,
      "_Nym": 8564,
      "_Narb": 8565,
      "_Numerous": 8566,
      "_Nobody": 8567,
      "_NRF.": 8568,
      "_area.": 8569,
      "ress,": 8570,
      "_seal": 8571,
      "_seating": 8572,
      "_seek": 8573,
      "_sectors": 8574,
      "_select": 8575,
      "_excess": 8576,
      "_exactly": 8577,
      "if,": 8578,
      "ests": 8579,
      "estone": 8580,
      "estruction": 8581,
      "_neuro": 8582,
      "_neo-d": 8583,
      "ategy": 8584,
      "ateboard": 8585,
      "_chau": 8586,
      "_champ": 8587,
      "_church": 8588,
      "_chosen": 8589,
      "_chÃ¢te": 8590,
      "_chamber": 8591,
      "_Gill": 8592,
      "_Gest": 8593,
      "_Gard": 8594,
      "_Gender": 8595,
      "_Gaul": 8596,
      "_Gym": 8597,
      "_Gamb": 8598,
      "_Griff": 8599,
      "_Gains": 8600,
      "_Gendar": 8601,
      "_GDP,": 8602,
      "_Géral": 8603,
      "_Gatine": 8604,
      "_Gesves": 8605,
      "_Dent": 8606,
      "_Did": 8607,
      "_Del": 8608,
      "_Dies": 8609,
      "_Dub": 8610,
      "_Dec": 8611,
      "_Dism": 8612,
      "_Divers": 8613,
      "_Dyl": 8614,
      "_Detro": 8615,
      "_Difficult": 8616,
      "_Director": 8617,
      "_DDoS": 8618,
      "_DiCapri": 8619,
      "_DSD": 8620,
      "_Driver": 8621,
      "_El": 8622,
      "_Es": 8623,
      "_Est": 8624,
      "_Ext": 8625,
      "_Early": 8626,
      "_Econom": 8627,
      "_Either": 8628,
      "_Ecu": 8629,
      "_ECB's": 8630,
      "ain,": 8631,
      "ainting": 8632,
      "_not.": 8633,
      "_notified": 8634,
      "_notably": 8635,
      "_notices": 8636,
      "_Our": 8637,
      "_Oreg": 8638,
      "_Open": 8639,
      "_Ott": 8640,
      "redible": 8641,
      "art,": 8642,
      "ourney": 8643,
      "_Red": 8644,
      "_Row": 8645,
      "_Ret": 8646,
      "_Ram": 8647,
      "_Rich": 8648,
      "_Rout": 8649,
      "_Rum": 8650,
      "_Raid": 8651,
      "_Roman": 8652,
      "_Rosen": 8653,
      "_Relations": 8654,
      "thony": 8655,
      "_rum": 8656,
      "_rally": 8657,
      "_range": 8658,
      "_rhy": 8659,
      "_racket": 8660,
      "_ranging": 8661,
      "_random": 8662,
      "osc": 8663,
      "osy": 8664,
      "oser": 8665,
      "osity": 8666,
      "ren,": 8667,
      "_Wi-": 8668,
      "_War,": 8669,
      "_Water": 8670,
      "_Wearing": 8671,
      "_UFO": 8672,
      "_UMP": 8673,
      "_Usher": 8674,
      "ended.": 8675,
      "_von": 8676,
      "_voc": 8677,
      "_vagin": 8678,
      "_sued": 8679,
      "_suit": 8680,
      "_suits": 8681,
      "_succeed": 8682,
      "_orth": 8683,
      "ity\"": 8684,
      "_shame": 8685,
      "_shipment": 8686,
      "_shrin": 8687,
      "_shillings": 8688,
      "_11.": 8689,
      "_1.4": 8690,
      "ack-o": 8691,
      "ablished": 8692,
      "abilities": 8693,
      "essentially": 8694,
      "_22": 8695,
      "_21.": 8696,
      "_25%": 8697,
      "_29,": 8698,
      "ocking": 8699,
      "ocious": 8700,
      "ocked": 8701,
      "employ": 8702,
      "emeer": 8703,
      "emaker": 8704,
      "_Lac": 8705,
      "_Long": 8706,
      "_Lank": 8707,
      "_Lars": 8708,
      "_Luck": 8709,
      "_Lombard": 8710,
      "_Lights": 8711,
      "_Lisi,": 8712,
      "_Lownd": 8713,
      "ive\"": 8714,
      "pped.": 8715,
      "iving": 8716,
      "ivity": 8717,
      "ivier": 8718,
      "ivalent": 8719,
      "_lease": 8720,
      "_leisure": 8721,
      "unal": 8722,
      "unities": 8723,
      "uneration": 8724,
      "_abse": 8725,
      "_abreast": 8726,
      "ooked": 8727,
      "ichael": 8728,
      "merce": 8729,
      "merie": 8730,
      "ast.": 8731,
      "ight,": 8732,
      "ieve": 8733,
      "ieu,": 8734,
      "_year,\"": 8735,
      "_years,\"": 8736,
      "_wheel": 8737,
      "ord.": 8738,
      "ords": 8739,
      "ghd": 8740,
      "ial,": 8741,
      "outim": 8742,
      "ostling": 8743,
      "osterone": 8744,
      "ounce": 8745,
      "_adoration": 8746,
      "_adoles": 8747,
      "ffe": 8748,
      "_jam": 8749,
      "_jew": 8750,
      "_jump": 8751,
      "_jets": 8752,
      "_jury": 8753,
      "_junction": 8754,
      "_jihad": 8755,
      "_juice": 8756,
      "_journey": 8757,
      "_jack-o": 8758,
      "_jostling": 8759,
      "_traces": 8760,
      "_pled": 8761,
      "_plot": 8762,
      "_Thom": 8763,
      "_Three": 8764,
      "_Thier": 8765,
      "_Thai": 8766,
      "_Third": 8767,
      "_ThéÃ¢": 8768,
      "_Thurlb": 8769,
      "umatised": 8770,
      "_keen": 8771,
      "_kne": 8772,
      "_aging": 8773,
      "_aggress": 8774,
      "_intent": 8775,
      "_intelle": 8776,
      "_intellig": 8777,
      "_off,": 8778,
      "_off.": 8779,
      "_offend": 8780,
      "_offenc": 8781,
      "_offset": 8782,
      "_offsh": 8783,
      "ptical": 8784,
      "ples.": 8785,
      "day's": 8786,
      "_Inc": 8787,
      "_Inside": 8788,
      "_Infor": 8789,
      "_Inc.": 8790,
      "_Invest": 8791,
      "ongzhou": 8792,
      "_Jon": 8793,
      "_Jet": 8794,
      "_Jul": 8795,
      "_Jud": 8796,
      "_Jian": 8797,
      "_Jenn": 8798,
      "_Joseph": 8799,
      "_Jagger": 8800,
      "_JPMorgan": 8801,
      "_Jilin,": 8802,
      "ous\"": 8803,
      "ously": 8804,
      "_they've": 8805,
      "_outl": 8806,
      "_out,\"": 8807,
      "_outlet": 8808,
      "_outbre": 8809,
      "_outlets": 8810,
      "_clot": 8811,
      "_clash": 8812,
      "_worry": 8813,
      "_worse.": 8814,
      "perform": 8815,
      "ated.": 8816,
      "_accur": 8817,
      "_accuse": 8818,
      "asses": 8819,
      "_Frances": 8820,
      "ectives": 8821,
      "inee": 8822,
      "ineph": 8823,
      "ineers,": 8824,
      "_unf": 8825,
      "_unw": 8826,
      "_unless": 8827,
      "_university": 8828,
      "_unchang": 8829,
      "_uniform": 8830,
      "_unbel": 8831,
      "_up,": 8832,
      "_upon": 8833,
      "_upse": 8834,
      "_up,\"": 8835,
      "_uphold": 8836,
      "_upgr": 8837,
      "_newly": 8838,
      "_news,": 8839,
      "_contrad": 8840,
      "_contribution": 8841,
      "_polling": 8842,
      "urely": 8843,
      "ide,": 8844,
      "_spir": 8845,
      "_spare": 8846,
      "_spied": 8847,
      "_spoke": 8848,
      "_spirit": 8849,
      "_spouses": 8850,
      "_spaniel": 8851,
      "_resort": 8852,
      "_reserv": 8853,
      "_resume": 8854,
      "_reserves": 8855,
      "_resistant": 8856,
      "_comply": 8857,
      "_comparing": 8858,
      "_comprehens": 8859,
      "enced": 8860,
      "_incent": 8861,
      "_incarn": 8862,
      "_incomp": 8863,
      "_inconven": 8864,
      "_incredible": 8865,
      "_canines.": 8866,
      "_man,": 8867,
      "_man.": 8868,
      "oded": 8869,
      "_perhaps": 8870,
      "_perverting": 8871,
      "_Staff": 8872,
      "ults": 8873,
      "awa": 8874,
      "awi": 8875,
      "_twelve": 8876,
      "es.\"": 8877,
      "_Change": 8878,
      "_Chanz": 8879,
      "_people's": 8880,
      "iana,": 8881,
      "_Kid": 8882,
      "_Kam": 8883,
      "_Kore": 8884,
      "_Kier": 8885,
      "_Kram": 8886,
      "_Kids": 8887,
      "_Kroll": 8888,
      "_Kills": 8889,
      "_Kigali": 8890,
      "_aristocrat": 8891,
      "vellous": 8892,
      "able\"": 8893,
      "able,": 8894,
      "eping": 8895,
      "_other,": 8896,
      "_otherwise": 8897,
      "_reclin": 8898,
      "_recession": 8899,
      "_recruit": 8900,
      "_imag": 8901,
      "aph": 8902,
      "apse": 8903,
      "apa,": 8904,
      "_disg": 8905,
      "_disord": 8906,
      "_disks": 8907,
      "_disadvant": 8908,
      "_Heinrich": 8909,
      "_allies,": 8910,
      "ogs": 8911,
      "ibly": 8912,
      "ible.": 8913,
      "ition,": 8914,
      "itional": 8915,
      "itions.": 8916,
      "overnor": 8917,
      "owned": 8918,
      "illionaire": 8919,
      "_user": 8920,
      "_user\"": 8921,
      "_two.": 8922,
      "_(-": 8923,
      "_(A": 8924,
      "_(O": 8925,
      "_(on": 8926,
      "_(inc": 8927,
      "_(0.": 8928,
      "_(53": 8929,
      "_(to": 8930,
      "_(from": 8931,
      "_sheep": 8932,
      "_part.": 8933,
      "ual,": 8934,
      "itten,": 8935,
      "ile,": 8936,
      "urope": 8937,
      "osexual": 8938,
      "ippe": 8939,
      "ipment,": 8940,
      "ipelag": 8941,
      "_overall": 8942,
      "_overcome": 8943,
      "_overloo": 8944,
      "_interf": 8945,
      "_interfe": 8946,
      "_interns": 8947,
      "_interior": 8948,
      "_myths": 8949,
      "_Yet": 8950,
      "_Yard": 8951,
      "_Yang": 8952,
      "_Yester": 8953,
      "_Yongzhou": 8954,
      "lick": 8955,
      "_deciding": 8956,
      "ountable": 8957,
      "_preced": 8958,
      "_prepa": 8959,
      "_firing": 8960,
      "ails,": 8961,
      "_quant": 8962,
      "_quiet": 8963,
      "_queu": 8964,
      "ier,": 8965,
      "_carving": 8966,
      "_carbon": 8967,
      "_surviv": 8968,
      "_time,\"": 8969,
      "_them:": 8970,
      "_first.": 8971,
      "ontent": 8972,
      "_scra": 8973,
      "_scared": 8974,
      "_scale": 8975,
      "_scoop": 8976,
      "_scenes,": 8977,
      "ishing": 8978,
      "_EuroFirst": 8979,
      "_attach": 8980,
      "_attract": 8981,
      "_attached": 8982,
      "_attorney": 8983,
      "_Unit": 8984,
      "_Union": 8985,
      "_Unknown": 8986,
      "_Unpublished": 8987,
      "_governments.": 8988,
      "_monarch": 8989,
      "_monitored": 8990,
      "eck": 8991,
      "_2010": 8992,
      "_2012.": 8993,
      "_2014,": 8994,
      "_Vision": 8995,
      "_Verbe": 8996,
      "_enl": 8997,
      "_enorm": 8998,
      "_teach": 8999,
      "_\"Ins": 9000,
      "_\"I've": 9001,
      "_confess": 9002,
      "_confessions": 9003,
      "_indeed": 9004,
      "_fees.": 9005,
      "_feared": 9006,
      "_fee.": 9007,
      "_feature": 9008,
      "_plan,": 9009,
      "_plans.": 9010,
      "_planemaker": 9011,
      "_finished": 9012,
      "pected": 9013,
      "_$4": 9014,
      "_$6": 9015,
      "_$6.": 9016,
      "_$25": 9017,
      "phomani": 9018,
      "_child.": 9019,
      "_air,\"": 9020,
      "_airlif": 9021,
      "_airbase": 9022,
      "_liked": 9023,
      "_adds.": 9024,
      "_again.": 9025,
      "_trapped": 9026,
      "_traumatised": 9027,
      "_medicine": 9028,
      "_Isaac": 9029,
      "_underlying": 9030,
      "erson,": 9031,
      "_back,\"": 9032,
      "_background": 9033,
      "_backwards": 9034,
      "_conspir": 9035,
      "_considering": 9036,
      "air.": 9037,
      "_assure": 9038,
      "_assured": 9039,
      "_assert": 9040,
      "_you,": 9041,
      "_you?": 9042,
      "act,": 9043,
      "_counts": 9044,
      "_phase": 9045,
      "_phases": 9046,
      "_emit": 9047,
      "_empt": 9048,
      "_commun": 9049,
      "okes": 9050,
      "ities.": 9051,
      "_annoy": 9052,
      "_regime": 9053,
      "_regard,": 9054,
      "_elev": 9055,
      "_electors": 9056,
      "_electoral": 9057,
      "_Online": 9058,
      "avo": 9059,
      "available": 9060,
      "lled": 9061,
      "llab": 9062,
      "_these,": 9063,
      "_downlo": 9064,
      "_downstream": 9065,
      "_USB": 9066,
      "_US-based": 9067,
      "_roof": 9068,
      "fe,": 9069,
      "fevre": 9070,
      "land.": 9071,
      "_works.": 9072,
      "_provider": 9073,
      "_provides": 9074,
      "_32": 9075,
      "_39": 9076,
      "_300": 9077,
      "_35,": 9078,
      "_33.": 9079,
      "_\"These": 9080,
      "_say,": 9081,
      "_bug": 9082,
      "_buying": 9083,
      "_buys": 9084,
      "_Obviously": 9085,
      "_impover": 9086,
      "_impose": 9087,
      "_impris": 9088,
      "_improved": 9089,
      "enses": 9090,
      "_Scient": 9091,
      "_4,": 9092,
      "_41": 9093,
      "_47": 9094,
      "_47%": 9095,
      "iness,": 9096,
      "_blog": 9097,
      "_blame": 9098,
      "_supporter": 9099,
      "_specify": 9100,
      "_autops": 9101,
      "_cent,": 9102,
      "_center": 9103,
      "ometry": 9104,
      "_Ann": 9105,
      "_Anger": 9106,
      "_Anten": 9107,
      "_Anti-": 9108,
      "_Anwar": 9109,
      "_Anthony": 9110,
      "_show,": 9111,
      "_show.": 9112,
      "_shows.": 9113,
      "_2002": 9114,
      "_2001.": 9115,
      "_2002.": 9116,
      "_2005,": 9117,
      "_2001,": 9118,
      "_police.": 9119,
      "_month,": 9120,
      "_monthly": 9121,
      "rism": 9122,
      "rister": 9123,
      "_raged": 9124,
      "sibility": 9125,
      "_reports.": 9126,
      "_state,": 9127,
      "_state.": 9128,
      "_state,\"": 9129,
      "_statements": 9130,
      "_statement,": 9131,
      "_what's": 9132,
[...]
