{
  "version": "1.0",
  "truncation": null,
  "padding": null,
  "added_tokens": [
    {
      "id": 0,
      "content": "<s>",
      "single_word": false,
      "lstrip": false,
      "rstrip": false,
      "normalized": false,
      "special": true
    },
    {
      "id": 1,
      "content": "<pad>",
      "single_word": false,
      "lstrip": false,
      "rstrip": false,
      "normalized": false,
      "special": true
    },
    {
      "id": 2,
      "content": "</s>",
      "single_word": false,
      "lstrip": false,
      "rstrip": false,
      "normalized": false,
      "special": true
    },
    {
      "id": 3,
      "content": "<unk>",
      "single_word": false,
      "lstrip": false,
      "rstrip": false,
      "normalized": false,
      "special": true
    }
  ],
  "normalizer": null,
  "pre_tokenizer": {
    "type": "Metaspace",
    "replacement": "_",
    "prepend_scheme": "always",
    "split": true
  },
  "post_processor": {
    "type": "TemplateProcessing",
    "single": [
      {
        "SpecialToken": {
          "id": "<s>",
          "type_id": 0
        }
      },
      {
        "Sequence": {
          "id": "A",
          "type_id": 0
        }
      },
      {
        "SpecialToken": {
          "id": "</s>",
          "type_id": 0
        }
      }
    ],
    "pair": [
      {
        "SpecialToken": {
          "id": "<s>",
          "type_id": 0
        }
      },
      {
        "Sequence": {
          "id": "A",
          "type_id": 0
        }
      },
      {
        "SpecialToken": {
          "id": "</s>",
          "type_id": 0
        }
      },
      {
        "Sequence": {
          "id": "B",
          "type_id": 1
        }
      },
      {
        "SpecialToken": {
          "id": "</s>",
          "type_id": 1
        }
      }
    ],
    "special_tokens": {
      "</s>": {
        "id": "</s>",
        "ids": [
          2
        ],
        "tokens": [
          "</s>"
        ]
      },
      "<s>": {
        "id": "<s>",
        "ids": [
          0
        ],
        "tokens": [
          "<s>"
        ]
      }
    }
  },
  "decoder": {
    "type": "Metaspace",
    "replacement": "_",
    "prepend_scheme": "always",
    "split": true
  },
  "model": {
    "type": "BPE",
    "dropout": null,
    "unk_token": "<unk>",
    "continuing_subword_prefix": null,
    "end_of_word_suffix": null,
    "fuse_unk": false,
    "byte_fallback": false,
    "ignore_merges": false,
    "vocab": {
      "<s>": 0,
      "<pad>": 1,
      "</s>": 2,
      "<unk>": 3,
      "!": 4,
      "\"": 5,
      "$": 6,
      "%": 7,
      "&": 8,
      "'": 9,
      "(": 10,
      ")": 11,
      "+": 12,
      ",": 13,
      "-": 14,
      ".": 15,
      "/": 16,
      "0": 17,
      "1": 18,
      "2": 19,
      "3": 20,
      "4": 21,
      "5": 22,
      "6": 23,
      "7": 24,
      "8": 25,
      "9": 26,
      ":": 27,
      ";": 28,
      "?": 29,
      "A": 30,
      "B": 31,
      "C": 32,
      "D": 33,
      "E": 34,
      "F": 35,
      "G": 36,
      "H": 37,
      "I": 38,
      "J": 39,
      "K": 40,
      "L": 41,
      "M": 42,
      "N": 43,
      "O": 44,
      "P": 45,
      "Q": 46,
      "R": 47,
      "S": 48,
      "T": 49,
      "U": 50,
      "V": 51,
      "W": 52,
      "X": 53,
      "Y": 54,
      "Z": 55,
      "[": 56,
      "]": 57,
      "_": 58,
      "a": 59,
      "b": 60,
      "c": 61,
      "d": 62,
      "e": 63,
      "f": 64,
      "g": 65,
      "h": 66,
      "i": 67,
      "j": 68,
      "k": 69,
      "l": 70,
      "m": 71,
      "n": 72,
      "o": 73,
      "p": 74,
      "q": 75,
      "r": 76,
      "s": 77,
      "t": 78,
      "u": 79,
      "v": 80,
      "w": 81,
      "x": 82,
      "y": 83,
      "z": 84,
      "¢": 85,
      "£": 86,
      "«": 87,
      "­": 88,
      "°": 89,
      "¶": 90,
      "»": 91,
      "¼": 92,
      "À": 93,
      "Â": 94,
      "Ã": 95,
      "Å": 96,
      "Ç": 97,
      "É": 98,
      "à": 99,
      "â": 100,
      "ç": 101,
      "è": 102,
      "é": 103,
      "ê": 104,
      "î": 105,
      "ï": 106,
      "ô": 107,
      "ù": 108,
      "û": 109,
      "ˆ": 110,
      "–": 111,
      "“": 112,
      "€": 113,
      "™": 114,
      "_d": 115,
      "es": 116,
      "_l": 117,
      "en": 118,
      "on": 119,
      "_p": 120,
      "_a": 121,
      "_de": 122,
      "_s": 123,
      "_c": 124,
      "an": 125,
      "re": 126,
      "er": 127,
      "qu": 128,
      "ou": 129,
      "ai": 130,
      "ent": 131,
      "ti": 132,
      "is": 133,
      "_m": 134,
      "ar": 135,
      "in": 136,
      "et": 137,
      "un": 138,
      "_qu": 139,
      "ur": 140,
      "_la": 141,
      "le": 142,
      "te": 143,
      "or": 144,
      "_le": 145,
      "il": 146,
      "_à": 147,
      "_f": 148,
      "_n": 149,
      "té": 150,
      "our": 151,
      "_l'": 152,
      "_les": 153,
      "_un": 154,
      "_et": 155,
      "tr": 156,
      "_des": 157,
      "_r": 158,
      "el": 159,
      "ment": 160,
      "_en": 161,
      "_pr": 162,
      "tion": 163,
      "_d'": 164,
      "_v": 165,
      "om": 166,
      "us": 167,
      "_é": 168,
      "_L": 169,
      "ant": 170,
      "as": 171,
      "al": 172,
      "ait": 173,
      "ce": 174,
      "_dé": 175,
      "ont": 176,
      "_au": 177,
      "it": 178,
      "_b": 179,
      "ais": 180,
      "li": 181,
      "ans": 182,
      "_que": 183,
      "ir": 184,
      "est": 185,
      "ne": 186,
      "ation": 187,
      "_du": 188,
      "_t": 189,
      "ag": 190,
      "_par": 191,
      "_g": 192,
      "és": 193,
      "au": 194,
      "_con": 195,
      "me": 196,
      "_av": 197,
      "di": 198,
      "ri": 199,
      "at": 200,
      "eu": 201,
      "_pour": 202,
      "_j": 203,
      "_M": 204,
      "_C": 205,
      "_re": 206,
      "que": 207,
      "ci": 208,
      "_ch": 209,
      "_in": 210,
      "ch": 211,
      "_dans": 212,
      "_une": 213,
      "si": 214,
      "se": 215,
      "_qui": 216,
      "ée": 217,
      "_sur": 218,
      "_tr": 219,
      "_pl": 220,
      "ec": 221,
      "ouv": 222,
      "_com": 223,
      "_pas": 224,
      "am": 225,
      "pr": 226,
      "_pro": 227,
      "_S": 228,
      "ers": 229,
      "end": 230,
      "and": 231,
      "les": 232,
      "ons": 233,
      "ous": 234,
      "tre": 235,
      "elle": 236,
      "_ré": 237,
      "_se": 238,
      "_an": 239,
      "ain": 240,
      "ie": 241,
      "_qu'": 242,
      "ol": 243,
      "ér": 244,
      "av": 245,
      "_e": 246,
      "_A": 247,
      "ois": 248,
      "os": 249,
      "urs": 250,
      "res": 251,
      "ff": 252,
      "_est": 253,
      "_P": 254,
      "pp": 255,
      "_D": 256,
      "ab": 257,
      "_plus": 258,
      "ac": 259,
      "_déc": 260,
      "ès": 261,
      "_B": 262,
      "ère": 263,
      "im": 264,
      "ter": 265,
      "_«": 266,
      "_»": 267,
      "onn": 268,
      "aire": 269,
      "id": 270,
      "_h": 271,
      "oi": 272,
      "_o": 273,
      "_ont": 274,
      "ité": 275,
      "ale": 276,
      "oir": 277,
      "_Le": 278,
      "_son": 279,
      "_été": 280,
      "_I": 281,
      "_il": 282,
      "_\"": 283,
      "ic": 284,
      "_N": 285,
      "_1": 286,
      "_n'": 287,
      "s,": 288,
      "ui": 289,
      "_d'un": 290,
      "ort": 291,
      "_2": 292,
      "aient": 293,
      "_ét": 294,
      "ul": 295,
      "_E": 296,
      "éri": 297,
      "ens": 298,
      "ance": 299,
      "_T": 300,
      "op": 301,
      "ques": 302,
      "_F": 303,
      "de": 304,
      "ve": 305,
      "age": 306,
      "ées": 307,
      "lar": 308,
      "ig": 309,
      "ni": 310,
      "tes": 311,
      "ue": 312,
      "ati": 313,
      "_Les": 314,
      "_gr": 315,
      "_ne": 316,
      "uis": 317,
      "_di": 318,
      "_s'": 319,
      "_ce": 320,
      "_aux": 321,
      "_La": 322,
      "_avec": 323,
      "s.": 324,
      "éc": 325,
      "bre": 326,
      "oc": 327,
      "ux": 328,
      "_ex": 329,
      "_R": 330,
      "_sont": 331,
      "_ac": 332,
      "_qu'il": 333,
      "_J": 334,
      "_G": 335,
      "ge": 336,
      "_Il": 337,
      "tu": 338,
      "_déclar": 339,
      "entre": 340,
      "ap": 341,
      "_al": 342,
      "ors": 343,
      "_tou": 344,
      "00": 345,
      "ub": 346,
      "ion": 347,
      "lé": 348,
      "_po": 349,
      "_ser": 350,
      "_mais": 351,
      "ette": 352,
      "ours": 353,
      "_déclaré": 354,
      "ence": 355,
      "ad": 356,
      "mi": 357,
      "mp": 358,
      "_li": 359,
      "tat": 360,
      "teur": 361,
      "og": 362,
      "ations": 363,
      "oy": 364,
      "ord": 365,
      "ces": 366,
      "mes": 367,
      "ouver": 368,
      "près": 369,
      "_ou": 370,
      "aux": 371,
      "ay": 372,
      "ien": 373,
      "être": 374,
      "_si": 375,
      "ard": 376,
      "esp": 377,
      "én": 378,
      "_nous": 379,
      "eux": 380,
      "ot": 381,
      "_mon": 382,
      "oup": 383,
      "_prés": 384,
      "_dev": 385,
      "_sa": 386,
      "_fait": 387,
      "fi": 388,
      "ré": 389,
      "_pers": 390,
      "oin": 391,
      "_app": 392,
      "_je": 393,
      "_comm": 394,
      "_H": 395,
      "_am": 396,
      "ure": 397,
      "ess": 398,
      "qué": 399,
      "_cons": 400,
      "_ses": 401,
      "nement": 402,
      "_»,": 403,
      "Un": 404,
      "e,": 405,
      "_L'": 406,
      "_était": 407,
      "tres": 408,
      "able": 409,
      "app": 410,
      "_fr": 411,
      "_d'une": 412,
      "orm": 413,
      "ident": 414,
      "_peu": 415,
      "_su": 416,
      "par": 417,
      "éd": 418,
      "ang": 419,
      "_avait": 420,
      "endre": 421,
      "\",": 422,
      "ond": 423,
      "_deux": 424,
      "ique": 425,
      "ill": 426,
      "elles": 427,
      "_parti": 428,
      "_entre": 429,
      "oit": 430,
      "_mil": 431,
      "teurs": 432,
      "sion": 433,
      "_O": 434,
      "ction": 435,
      "â€": 436,
      "_leur": 437,
      "_ann": 438,
      "ise": 439,
      "ille": 440,
      "_nouv": 441,
      "_per": 442,
      "ail": 443,
      "imp": 444,
      "iv": 445,
      "es,": 446,
      "es.": 447,
      "mb": 448,
      "mand": 449,
      "ét": 450,
      "ine": 451,
      "ants": 452,
      "_poli": 453,
      "_dis": 454,
      "ontre": 455,
      "_comme": 456,
      "éric": 457,
      "_cette": 458,
      "_personn": 459,
      "are": 460,
      "ert": 461,
      "_ar": 462,
      "ut": 463,
      "Ã¢": 464,
      "orte": 465,
      "ex": 466,
      "aires": 467,
      "ème": 468,
      "_te": 469,
      "_après": 470,
      "aine": 471,
      "eur": 472,
      "puis": 473,
      "_che": 474,
      "_y": 475,
      "eau": 476,
      "remi": 477,
      "lis": 478,
      "_mar": 479,
      "ace": 480,
      "ra": 481,
      "_éc": 482,
      "_inter": 483,
      "_pass": 484,
      "_grand": 485,
      "_exp": 486,
      "_at": 487,
      "_M.": 488,
      "_comp": 489,
      "_20": 490,
      "_être": 491,
      "ement": 492,
      "alement": 493,
      "tin": 494,
      "'est": 495,
      "ist": 496,
      "_me": 497,
      "ême": 498,
      "_pré": 499,
      "tats": 500,
      "t-": 501,
      "_premi": 502,
      "ubli": 503,
      "du": 504,
      "rait": 505,
      "édi": 506,
      "_pay": 507,
      "alis": 508,
      "_Fr": 509,
      "st": 510,
      "_indi": 511,
      "jet": 512,
      "vi": 513,
      "_lors": 514,
      "_der": 515,
      "elon": 516,
      "ages": 517,
      "che": 518,
      "_(": 519,
      "_rec": 520,
      "ains": 521,
      "_améric": 522,
      "_V": 523,
      "ici": 524,
      "ing": 525,
      "_conf": 526,
      "_K": 527,
      "ow": 528,
      "tique": 529,
      "_conc": 530,
      "_dire": 531,
      "_ces": 532,
      "_nom": 533,
      "ussi": 534,
      "ass": 535,
      "_Mais": 536,
      "ib": 537,
      "_fin": 538,
      "_trav": 539,
      "min": 540,
      "_leurs": 541,
      "_gouver": 542,
      "ions": 543,
      "ler": 544,
      "ob": 545,
      "ents": 546,
      "_acc": 547,
      "_3": 548,
      "ss": 549,
      "_sou": 550,
      "_sec": 551,
      "ourn": 552,
      "_vi": 553,
      "_aut": 554,
      "lle": 555,
      "vent": 556,
      "_depuis": 557,
      "_car": 558,
      "_faire": 559,
      "_dr": 560,
      "_dép": 561,
      "_avoir": 562,
      "_où": 563,
      "_É": 564,
      "_té": 565,
      "_l'in": 566,
      "ments": 567,
      "_ég": 568,
      "_derni": 569,
      "uti": 570,
      "onc": 571,
      "_Ch": 572,
      "mis": 573,
      "oci": 574,
      "qu'": 575,
      "_gouvernement": 576,
      "_elle": 577,
      "_â€": 578,
      "a,": 579,
      "_cr": 580,
      "_â€“": 581,
      "met": 582,
      "ph": 583,
      "ils": 584,
      "_l'A": 585,
      "tions": 586,
      "e.": 587,
      "urop": 588,
      "els": 589,
      "_201": 590,
      "_4": 591,
      "_imp": 592,
      "ten": 593,
      "tent": 594,
      "vis": 595,
      "ères": 596,
      "_rés": 597,
      "nes": 598,
      "_éle": 599,
      "_jus": 600,
      "endant": 601,
      "_publi": 602,
      "_ad": 603,
      "aiss": 604,
      "_contr": 605,
      "_rég": 606,
      "oire": 607,
      "_également": 608,
      "_W": 609,
      "iques": 610,
      "ts": 611,
      "_pos": 612,
      "_selon": 613,
      "_min": 614,
      "_personnes": 615,
      "-Un": 616,
      "mbre": 617,
      "_sy": 618,
      "iss": 619,
      "_l'é": 620,
      "_Je": 621,
      "tats-Un": 622,
      "tats-Unis": 623,
      "_contre": 624,
      "er,": 625,
      "org": 626,
      "_l'an": 627,
      "oins": 628,
      "_dit": 629,
      "_lui": 630,
      "lement": 631,
      "_ren": 632,
      "_br": 633,
      "_avant": 634,
      "_En": 635,
      "_nombre": 636,
      "_travail": 637,
      "_U": 638,
      "form": 639,
      "ta": 640,
      "esti": 641,
      "ong": 642,
      "qui": 643,
      "_trans": 644,
      "_trois": 645,
      "_milli": 646,
      "enne": 647,
      "_même": 648,
      "_préc": 649,
      "_président": 650,
      "utilis": 651,
      "-t-": 652,
      "ro": 653,
      "une": 654,
      "_enf": 655,
      "eudi": 656,
      "pris": 657,
      "_tout": 658,
      "_demand": 659,
      "iste": 660,
      "ela": 661,
      "_n'est": 662,
      "vé": 663,
      "tement": 664,
      "_ter": 665,
      "jou": 666,
      "_mo": 667,
      "_rapp": 668,
      "_vis": 669,
      "_gén": 670,
      "_prop": 671,
      "_on": 672,
      "aus": 673,
      "uer": 674,
      "onne": 675,
      "_resp": 676,
      "_jeudi": 677,
      "_direc": 678,
      "cu": 679,
      "um": 680,
      "été": 681,
      "_aussi": 682,
      "_cours": 683,
      "er.": 684,
      "ali": 685,
      "_chan": 686,
      "ché": 687,
      "_sex": 688,
      "_ans": 689,
      "\".": 690,
      "ble": 691,
      "vre": 692,
      "_pouv": 693,
      "anç": 694,
      "_bien": 695,
      "_ju": 696,
      "_:": 697,
      "_Y": 698,
      "_Un": 699,
      "ég": 700,
      "_donn": 701,
      "_ma": 702,
      "_n'a": 703,
      "_ass": 704,
      "aines": 705,
      "_qu'elle": 706,
      "uite": 707,
      "_200": 708,
      "_diff": 709,
      "_indiqué": 710,
      "ore": 711,
      "pé": 712,
      "_aff": 713,
      "_cour": 714,
      "ani": 715,
      "ern": 716,
      "_no": 717,
      "_d'au": 718,
      "_déf": 719,
      "_dont": 720,
      "_pe": 721,
      "all": 722,
      "_».": 723,
      "_télé": 724,
      "organ": 725,
      "esse": 726,
      "_cas": 727,
      "_cré": 728,
      "_cert": 729,
      "_mois": 730,
      "_l'av": 731,
      "omb": 732,
      "em": 733,
      "uit": 734,
      "anc": 735,
      "_médi": 736,
      "_repr": 737,
      "ables": 738,
      "ités": 739,
      "_expli": 740,
      "ête": 741,
      "_c'est": 742,
      "enti": 743,
      "_enc": 744,
      "_vendre": 745,
      "_ob": 746,
      "az": 747,
      "ct": 748,
      "_ajou": 749,
      "_co": 750,
      "_eff": 751,
      "_5": 752,
      "dé": 753,
      "ver": 754,
      "ante": 755,
      "_autres": 756,
      "_hom": 757,
      "_s'est": 758,
      "ven": 759,
      "èg": 760,
      "_d'in": 761,
      "ustr": 762,
      "aison": 763,
      "_qu'ils": 764,
      "_alors": 765,
      "_police": 766,
      "_respons": 767,
      "gn": 768,
      "ole": 769,
      "tant": 770,
      "ué": 771,
      "éli": 772,
      "ôt": 773,
      "_porte": 774,
      "_a-t-": 775,
      "_for": 776,
      "agne": 777,
      "ée.": 778,
      "_monde": 779,
      "_génér": 780,
      "_vendredi": 781,
      "ences": 782,
      "_ph": 783,
      "_seu": 784,
      "_sous": 785,
      "_col": 786,
      "titu": 787,
      "_dév": 788,
      "_Com": 789,
      "ée,": 790,
      "_sem": 791,
      "_Par": 792,
      "acc": 793,
      "gr": 794,
      "enc": 795,
      "oul": 796,
      "omp": 797,
      "_très": 798,
      "ices": 799,
      "_group": 800,
      "mpl": 801,
      "_présent": 802,
      "_commun": 803,
      "_américain": 804,
      "_États-Unis": 805,
      "_Une": 806,
      "adi": 807,
      "jours": 808,
      "one": 809,
      "_sans": 810,
      "tiques": 811,
      "_mal": 812,
      "_quel": 813,
      "_vous": 814,
      "_ils": 815,
      "_lib": 816,
      "_?": 817,
      "_ti": 818,
      "ate": 819,
      "lè": 820,
      "mer": 821,
      "_fois": 822,
      "_l'ar": 823,
      "_env": 824,
      "_vo": 825,
      "aut": 826,
      "_Ne": 827,
      "_Nous": 828,
      "_19": 829,
      "gement": 830,
      "_toujours": 831,
      "_eu": 832,
      "lin": 833,
      "mé": 834,
      "_séc": 835,
      "rer": 836,
      "urg": 837,
      "_pourrait": 838,
      "_Ce": 839,
      "cip": 840,
      "_Au": 841,
      "_serv": 842,
      "_sécur": 843,
      "SA": 844,
      "_esp": 845,
      "aci": 846,
      "ateurs": 847,
      "_aur": 848,
      "_sol": 849,
      "_met": 850,
      "_fer": 851,
      "_d'A": 852,
      "_déb": 853,
      "_tous": 854,
      "ats": 855,
      "_Mar": 856,
      "_projet": 857,
      "_rép": 858,
      "avoir": 859,
      "veill": 860,
      "_appare": 861,
      "_peut": 862,
      "_temp": 863,
      "_utilis": 864,
      "ateur": 865,
      "ier": 866,
      "pec": 867,
      "_sc": 868,
      "_soci": 869,
      "_mes": 870,
      "tru": 871,
      "_vie": 872,
      "_j'": 873,
      "sement": 874,
      "endu": 875,
      "_Pour": 876,
      "_off": 877,
      "_passag": 878,
      "organis": 879,
      "fs": 880,
      "for": 881,
      "ième": 882,
      "_loi": 883,
      "ense": 884,
      "on,": 885,
      "_sig": 886,
      "istre": 887,
      "_main": 888,
      "_mort": 889,
      "ourd": 890,
      "_bles": 891,
      "_rel": 892,
      "_ins": 893,
      "_prob": 894,
      "_proch": 895,
      "ieurs": 896,
      "_Et": 897,
      "_syst": 898,
      "ançais": 899,
      "_ajouté": 900,
      "ose": 901,
      "_st": 902,
      "_sit": 903,
      "_cor": 904,
      "_cap": 905,
      "_moins": 906,
      "_ni": 907,
      "tés": 908,
      "_l'a": 909,
      "_l'h": 910,
      "eure": 911,
      "_char": 912,
      "_place": 913,
      "_10": 914,
      "â€™": 915,
      "_permet": 916,
      "_chez": 917,
      "_France": 918,
      "uropé": 919,
      "_sécurité": 920,
      "_bless": 921,
      "_6": 922,
      "a.": 923,
      "ah": 924,
      "lus": 925,
      "land": 926,
      "oli": 927,
      "opp": 928,
      "_d'être": 929,
      "_év": 930,
      "cep": 931,
      "és.": 932,
      "atre": 933,
      "_journ": 934,
      "cid": 935,
      "_chi": 936,
      "cher": 937,
      "_ans,": 938,
      "éré": 939,
      "_Des": 940,
      "ture": 941,
      "_pays": 942,
      "_autor": 943,
      "_%": 944,
      "aî": 945,
      "ctr": 946,
      "lo": 947,
      "rê": 948,
      "_pendant": 949,
      "ente": 950,
      "_nation": 951,
      "_dés": 952,
      "riv": 953,
      "_retr": 954,
      "_inc": 955,
      "_De": 956,
      "_Dans": 957,
      "était": 958,
      "_première": 959,
      "_millions": 960,
      "_passagers": 961,
      "_Q": 962,
      "jà": 963,
      "man": 964,
      "raient": 965,
      "ud": 966,
      "é,": 967,
      "_ap": 968,
      "_coup": 969,
      "anté": 970,
      "oute": 971,
      "_mati": 972,
      "_fil": 973,
      "_près": 974,
      "_produ": 975,
      "_viol": 976,
      "_is": 977,
      "ax": 978,
      "fois": 979,
      "fic": 980,
      "obre": 981,
      "_long": 982,
      "_puis": 983,
      "_ag": 984,
      "_cô": 985,
      "_cli": 986,
      "_cela": 987,
      "_men": 988,
      "_mus": 989,
      "_l'ex": 990,
      "_vers": 991,
      "ales": 992,
      "_déjà": 993,
      "itan": 994,
      "agn": 995,
      "ath": 996,
      "_Br": 997,
      "_étaient": 998,
      "_Th": 999,
      "000": 1000,
      "_appel": 1001,
      "_nouvelle": 1002,
      "_l'ann": 1003,
      "ak": 1004,
      "bam": 1005,
      "dre": 1006,
      "ies": 1007,
      "_loc": 1008,
      "_sal": 1009,
      "_cl": 1010,
      "tiv": 1011,
      "istr": 1012,
      "ins": 1013,
      "lemand": 1014,
      "ilité": 1015,
      "_l'É": 1016,
      "_vol": 1017,
      "asse": 1018,
      "_C'est": 1019,
      "amp": 1020,
      "amment": 1021,
      "_europé": 1022,
      "_Ils": 1023,
      "_allemand": 1024,
      "_politique": 1025,
      "'h": 1026,
      "-m": 1027,
      "ix": 1028,
      "jourd": 1029,
      "rit": 1030,
      "çon": 1031,
      "_mi": 1032,
      "insi": 1033,
      "_non": 1034,
      "_prê": 1035,
      "_conn": 1036,
      "_jour": 1037,
      "cien": 1038,
      "_surveill": 1039,
      "_plusieurs": 1040,
      "_Go": 1041,
      "_concern": 1042,
      "_jusqu'": 1043,
      "_directeur": 1044,
      "_New": 1045,
      "_services": 1046,
      "'hui": 1047,
      "jourd'hui": 1048,
      "_im": 1049,
      "ionn": 1050,
      "o,": 1051,
      "use": 1052,
      "_proc": 1053,
      "_An": 1054,
      "éné": 1055,
      "_On": 1056,
      "_années": 1057,
      "_premier": 1058,
      "_peti": 1059,
      "_téléph": 1060,
      "_représ": 1061,
      "_appareils": 1062,
      "_société": 1063,
      "_système": 1064,
      "..": 1065,
      "gé": 1066,
      "ich": 1067,
      "port": 1068,
      "t,": 1069,
      "th": 1070,
      "onom": 1071,
      "_port": 1072,
      "_suis": 1073,
      "_cont": 1074,
      "_fond": 1075,
      "téri": 1076,
      "_rest": 1077,
      "_enqu": 1078,
      "_bas": 1079,
      "ation,": 1080,
      "ellement": 1081,
      "_français": 1082,
      "_rapport": 1083,
      "_a-t-il": 1084,
      "_général": 1085,
      "_7": 1086,
      "_8": 1087,
      "lu": 1088,
      "_aéri": 1089,
      "_sui": 1090,
      "_mani": 1091,
      "tein": 1092,
      "elopp": 1093,
      "_pris": 1094,
      "_bi": 1095,
      "_gar": 1096,
      "olog": 1097,
      "_oct": 1098,
      "_In": 1099,
      "_Tr": 1100,
      "_sera": 1101,
      "_partie": 1102,
      "_prév": 1103,
      "_électr": 1104,
      "_contrô": 1105,
      "_ministre": 1106,
      "_sexu": 1107,
      "_d'autres": 1108,
      "_certains": 1109,
      "_développ": 1110,
      "_semaine": 1111,
      "_temps": 1112,
      "_surveillance": 1113,
      "_9": 1114,
      "_ent": 1115,
      "aï": 1116,
      "eurs": 1117,
      "lent": 1118,
      "rai": 1119,
      "yp": 1120,
      "enn": 1121,
      "_ainsi": 1122,
      "_cri": 1123,
      "_caus": 1124,
      "tis": 1125,
      "tier": 1126,
      "ari": 1127,
      "_quatre": 1128,
      "_res": 1129,
      "_voy": 1130,
      "_béné": 1131,
      "_part": 1132,
      "_avons": 1133,
      "_avions": 1134,
      "_progr": 1135,
      "_révé": 1136,
      "oiss": 1137,
      "_\"L": 1138,
      "ock": 1139,
      "_Gr": 1140,
      "_all": 1141,
      "_toute": 1142,
      "_lieu": 1143,
      "_groupe": 1144,
      "_octobre": 1145,
      "_k": 1146,
      "cul": 1147,
      "ez": 1148,
      "lam": 1149,
      "ton": 1150,
      "étr": 1151,
      "_pens": 1152,
      "_santé": 1153,
      "_cin": 1154,
      "anci": 1155,
      "istes": 1156,
      "_ques": 1157,
      "tel": 1158,
      "_l'E": 1159,
      "_beau": 1160,
      "iron": 1161,
      "_cond": 1162,
      "me,": 1163,
      "_inform": 1164,
      "_prof": 1165,
      "_Si": 1166,
      "_chef": 1167,
      "_marché": 1168,
      "oh": 1169,
      "ront": 1170,
      "_pu": 1171,
      "_soit": 1172,
      "entes": 1173,
      "_m'": 1174,
      "_quand": 1175,
      "le,": 1176,
      "_fa": 1177,
      "_l'O": 1178,
      "_l'un": 1179,
      "_raison": 1180,
      "_d'é": 1181,
      "_va": 1182,
      "_dém": 1183,
      "_ban": 1184,
      "_gens": 1185,
      "_contin": 1186,
      "rière": 1187,
      "_comb": 1188,
      "vement": 1189,
      "_J'": 1190,
      "_devant": 1191,
      "_grande": 1192,
      "_reconn": 1193,
      "vision": 1194,
      "quip": 1195,
      "_expliqué": 1196,
      "_porte-": 1197,
      "bama": 1198,
      "_000": 1199,
      "y,": 1200,
      "ession": 1201,
      "ennes": 1202,
      "_ab": 1203,
      "_can": 1204,
      "ances": 1205,
      "air": 1206,
      "_mis": 1207,
      "te,": 1208,
      "_vrai": 1209,
      "ation.": 1210,
      "_Mon": 1211,
      "_ans.": 1212,
      "oix": 1213,
      "_op": 1214,
      "_Elle": 1215,
      "_public": 1216,
      "_enfants": 1217,
      "_encore": 1218,
      "cre": 1219,
      "fin": 1220,
      "gment": 1221,
      "po": 1222,
      "vers": 1223,
      "_soir": 1224,
      "erv": 1225,
      "erci": 1226,
      "quent": 1227,
      "_moy": 1228,
      "_not": 1229,
      "alité": 1230,
      "_dépar": 1231,
      "_autre": 1232,
      "_bou": 1233,
      "_avaient": 1234,
      "que.": 1235,
      "_comment": 1236,
      "_Al": 1237,
      "abit": 1238,
      "_NSA": 1239,
      "igne": 1240,
      "_serait": 1241,
      "_peuvent": 1242,
      "_milit": 1243,
      "_nouveau": 1244,
      "mble": 1245,
      "_droit": 1246,
      "oncé": 1247,
      "_import": 1248,
      "_britan": 1249,
      "_pouvoir": 1250,
      "_données": 1251,
      "_représent": 1252,
      "_britanni": 1253,
      "coup": 1254,
      "iti": 1255,
      "rent": 1256,
      "ût": 1257,
      "_lég": 1258,
      "enir": 1259,
      "oniques": 1260,
      "_som": 1261,
      "_méd": 1262,
      "ork": 1263,
      "_fam": 1264,
      "tré": 1265,
      "_d'en": 1266,
      "uses": 1267,
      "_étr": 1268,
      "lig": 1269,
      "_jam": 1270,
      "_Cette": 1271,
      "ouvement": 1272,
      "pro": 1273,
      "ie,": 1274,
      "_qu'un": 1275,
      "_15": 1276,
      "vice": 1277,
      "mission": 1278,
      "_enfant": 1279,
      "_différ": 1280,
      "cident": 1281,
      "_côté": 1282,
      "_program": 1283,
      "_façon": 1284,
      "_ess": 1285,
      "ade": 1286,
      "mée": 1287,
      "né": 1288,
      "rir": 1289,
      "ène": 1290,
      "éh": 1291,
      "_donc": 1292,
      "en,": 1293,
      "_sour": 1294,
      "erté": 1295,
      "ures": 1296,
      "orter": 1297,
      "_d'ex": 1298,
      "_veu": 1299,
      "_éch": 1300,
      "its": 1301,
      "aisse": 1302,
      "_consi": 1303,
      "_ret": 1304,
      "_chang": 1305,
      "sible": 1306,
      "seig": 1307,
      "_empl": 1308,
      "ress": 1309,
      "_décis": 1310,
      "idé": 1311,
      "vembre": 1312,
      "_sièg": 1313,
      "_devrait": 1314,
      "_frais": 1315,
      "parole": 1316,
      "_économ": 1317,
      "_beaucoup": 1318,
      "_porte-parole": 1319,
      "_z": 1320,
      "_organis": 1321,
      "atr": 1322,
      "aque": 1323,
      "ite": 1324,
      "od": 1325,
      "oles": 1326,
      "tac": 1327,
      "é.": 1328,
      "_lar": 1329,
      "_sé": 1330,
      "_sus": 1331,
      "_spé": 1332,
      "_savoir": 1333,
      "_cent": 1334,
      "_centre": 1335,
      "_cad": 1336,
      "_mer": 1337,
      "_mise": 1338,
      "orti": 1339,
      "illi": 1340,
      "_fem": 1341,
      "_d'ar": 1342,
      "_voir": 1343,
      "usé": 1344,
      "al,": 1345,
      "_rep": 1346,
      "_trouv": 1347,
      "olu": 1348,
      "_Am": 1349,
      "osse": 1350,
      "_décl": 1351,
      "nies": 1352,
      "atique": 1353,
      "_s'ag": 1354,
      "raéli": 1355,
      "_novembre": 1356,
      "ustral": 1357,
      "_responsable": 1358,
      "_concernant": 1359,
      "-d": 1360,
      "_À": 1361,
      "gent": 1362,
      "up": 1363,
      "uel": 1364,
      "ys": 1365,
      "_afin": 1366,
      "_souv": 1367,
      "_séri": 1368,
      "quer": 1369,
      "tic": 1370,
      "_mouvement": 1371,
      "ets": 1372,
      "le.": 1373,
      "_nos": 1374,
      "_l'U": 1375,
      "_l'at": 1376,
      "_priv": 1377,
      "tionn": 1378,
      "_Lond": 1379,
      "di,": 1380,
      "sité": 1381,
      "_réalis": 1382,
      "_sep": 1383,
      "ack": 1384,
      "aire.": 1385,
      "_n'y": 1386,
      "_FA": 1387,
      "_service": 1388,
      "identi": 1389,
      "_supp": 1390,
      "mbres": 1391,
      "_membres": 1392,
      "_drog": 1393,
      "prises": 1394,
      "_changement": 1395,
      "_médic": 1396,
      "_hommes": 1397,
      "_début": 1398,
      "_israéli": 1399,
      "_l'année": 1400,
      "_téléphon": 1401,
      "_électroniques": 1402,
      "_bénéfi": 1403,
      "_notamment": 1404,
      "_jamais": 1405,
      "23": 1406,
      "_$": 1407,
      "_Â": 1408,
      "_eux": 1409,
      "ner": 1410,
      "off": 1411,
      "pit": 1412,
      "ues": 1413,
      "_laiss": 1414,
      "_pop": 1415,
      "te.": 1416,
      "_ver": 1417,
      "_voul": 1418,
      "_auprès": 1419,
      "_bl": 1420,
      "estre": 1421,
      "ational": 1422,
      "_reven": 1423,
      "ecti": 1424,
      "ie.": 1425,
      "_heur": 1426,
      "_hist": 1427,
      "ale,": 1428,
      "ige": 1429,
      "ocat": 1430,
      "_personne": 1431,
      "_disp": 1432,
      "_atta": 1433,
      "_payer": 1434,
      "ministr": 1435,
      "_nombreux": 1436,
      "_précis": 1437,
      "_affir": 1438,
      "_espè": 1439,
      "_Goog": 1440,
      "_médec": 1441,
      "_cadre": 1442,
      "_Londres": 1443,
      "i,": 1444,
      "iers": 1445,
      "ry": 1446,
      "uté": 1447,
      "ves": 1448,
      "_dir": 1449,
      "tien": 1450,
      "in,": 1451,
      "_form": 1452,
      "_néc": 1453,
      "_l'I": 1454,
      "_destin": 1455,
      "_rap": 1456,
      "_prix": 1457,
      "tion,": 1458,
      "_d'a": 1459,
      "_ville": 1460,
      "ash": 1461,
      "_auc": 1462,
      "_bon": 1463,
      "aise": 1464,
      "_tax": 1465,
      "_inv": 1466,
      "_inté": 1467,
      "_trop": 1468,
      "_trad": 1469,
      "_compr": 1470,
      "ération": 1471,
      "aire,": 1472,
      "_actu": 1473,
      "fier": 1474,
      "_jeun": 1475,
      "_nouvelles": 1476,
      "_justi": 1477,
      "aissance": 1478,
      "_demande": 1479,
      "_York": 1480,
      "_médias": 1481,
      "_aurait": 1482,
      "_j'ai": 1483,
      "_matin": 1484,
      "_jusqu'à": 1485,
      "_sièges": 1486,
      "_esti": 1487,
      "cc": 1488,
      "cteurs": 1489,
      "eaux": 1490,
      "ile": 1491,
      "o.": 1492,
      "per": 1493,
      "pend": 1494,
      "_ligne": 1495,
      "ann": 1496,
      "reg": 1497,
      "_fon": 1498,
      "_l'au": 1499,
      "_ris": 1500,
      "_prin": 1501,
      "_véh": 1502,
      "omm": 1503,
      "_bes": 1504,
      "_th": 1505,
      "_tent": 1506,
      "_gaz": 1507,
      "_M23": 1508,
      "_rem": 1509,
      "_cher": 1510,
      "sions": 1511,
      "_Sc": 1512,
      "_Etats-Unis": 1513,
      "_Ren": 1514,
      "_site": 1515,
      "_appar": 1516,
      "_tech": 1517,
      "_lorsqu'": 1518,
      "_confir": 1519,
      "_croiss": 1520,
      "_résul": 1521,
      "_moment": 1522,
      "_visant": 1523,
      "uerre": 1524,
      "_sexe": 1525,
      "_notre": 1526,
      "_environ": 1527,
      "_mettre": 1528,
      "_situ": 1529,
      "_consid": 1530,
      "_spéci": 1531,
      "_véhic": 1532,
      "-B": 1533,
      "-il": 1534,
      "CA": 1535,
      "_ord": 1536,
      "ire": 1537,
      "ime": 1538,
      "welle": 1539,
      "Å“": 1540,
      "_ple": 1541,
      "_sais": 1542,
      "_suite": 1543,
      "_spec": 1544,
      "_cir": 1545,
      "_civ": 1546,
      "quant": 1547,
      "ent,": 1548,
      "ettes": 1549,
      "_règ": 1550,
      "_d'entre": 1551,
      "_voit": 1552,
      "_aujourd'hui": 1553,
      "att": 1554,
      "érence": 1555,
      "_découver": 1556,
      "_Bar": 1557,
      "_Bwelle": 1558,
      "tern": 1559,
      "ale.": 1560,
      "_n'av": 1561,
      "uire": 1562,
      "_toutes": 1563,
      "_disc": 1564,
      "_intern": 1565,
      "_américaine": 1566,
      "_dernier": 1567,
      "tenir": 1568,
      "_région": 1569,
      "_renseig": 1570,
      "_mercre": 1571,
      "_jeunes": 1572,
      "_véhicu": 1573,
      "_renseignement": 1574,
      "0,": 1575,
      "DC": 1576,
      "ber": 1577,
      "oti": 1578,
      "_soi": 1579,
      "_camp": 1580,
      "temp": 1581,
      "orité": 1582,
      "tée": 1583,
      "_l'en": 1584,
      "_eng": 1585,
      "_équip": 1586,
      "ant.": 1587,
      "_augment": 1588,
      "_gen": 1589,
      "és,": 1590,
      "_conse": 1591,
      "_M$": 1592,
      "_chin": 1593,
      "_inf": 1594,
      "_inst": 1595,
      "sib": 1596,
      "prise": 1597,
      "_Sn": 1598,
      "_Sy": 1599,
      "ande": 1600,
      "_réc": 1601,
      "_Air": 1602,
      "_habit": 1603,
      "atis": 1604,
      "atiques": 1605,
      "_Joh": 1606,
      "aph": 1607,
      "_livre": 1608,
      "ienne": 1609,
      "ardin": 1610,
      "_mondi": 1611,
      "fié": 1612,
      "_att": 1613,
      "_attein": 1614,
      "_financi": 1615,
      "obil": 1616,
      "urope": 1617,
      "_2011": 1618,
      "_propri": 1619,
      "_propos": 1620,
      "_seulement": 1621,
      "_offici": 1622,
      "_révél": 1623,
      "_cinq": 1624,
      "_vraiment": 1625,
      "_étrang": 1626,
      "_déclare": 1627,
      "_drogue": 1628,
      "_-": 1629,
      "gh": 1630,
      "gl": 1631,
      "ice": 1632,
      "ls": 1633,
      "mon": 1634,
      "oe": 1635,
      "sse": 1636,
      "çu": 1637,
      "ôtel": 1638,
      "ôpit": 1639,
      "_dos": 1640,
      "_doc": 1641,
      "en.": 1642,
      "once": 1643,
      "_pai": 1644,
      "_pal": 1645,
      "_pomp": 1646,
      "_sau": 1647,
      "_soins": 1648,
      "_cardin": 1649,
      "ange": 1650,
      "tière": 1651,
      "_féd": 1652,
      "_fourn": 1653,
      "tra": 1654,
      "_presse": 1655,
      "_vu": 1656,
      "cev": 1657,
      "iter": 1658,
      "_tôt": 1659,
      "_pourraient": 1660,
      "_jours": 1661,
      "_Mor": 1662,
      "_Cela": 1663,
      "_reg": 1664,
      "que,": 1665,
      "_chois": 1666,
      "_indé": 1667,
      "_trim": 1668,
      "amb": 1669,
      "_prov": 1670,
      "_Sur": 1671,
      "_Selon": 1672,
      "andis": 1673,
      "les.": 1674,
      "_réf": 1675,
      "_Dr": 1676,
      "_n'ont": 1677,
      "_étu": 1678,
      "_Roy": 1679,
      "_maison": 1680,
      "_liv": 1681,
      "illet": 1682,
      "_Obama": 1683,
      "_lorsque": 1684,
      "owd": 1685,
      "_peine": 1686,
      "_responsables": 1687,
      "_quelques": 1688,
      "_sold": 1689,
      "_journalis": 1690,
      "_chiens": 1691,
      "_Qu": 1692,
      "_clients": 1693,
      "_mieux": 1694,
      "ionnage": 1695,
      "_enquête": 1696,
      "_cause": 1697,
      "_voyage": 1698,
      "_J'ai": 1699,
      "_décision": 1700,
      "_série": 1701,
      "_dirige": 1702,
      "_fonction": 1703,
      "_princip": 1704,
      "_besoin": 1705,
      "_spectac": 1706,
      "_chinois": 1707,
      "_Snowd": 1708,
      "_John": 1709,
      "_fédér": 1710,
      "),": 1711,
      "2,": 1712,
      "_ç": 1713,
      "_urg": 1714,
      "ed": 1715,
      "pl": 1716,
      "pendant": 1717,
      "ror": 1718,
      "val": 1719,
      "_dou": 1720,
      "_dur": 1721,
      "_por": 1722,
      "_pub": 1723,
      "_aid": 1724,
      "anti": 1725,
      "anche": 1726,
      "era": 1727,
      "quelle": 1728,
      "_laquelle": 1729,
      "lec": 1730,
      "_fais": 1731,
      "_nord": 1732,
      "tég": 1733,
      "_l'éc": 1734,
      "_rend": 1735,
      "_prom": 1736,
      "_ven": 1737,
      "_ép": 1738,
      "ant,": 1739,
      "_bag": 1740,
      "_bord": 1741,
      "lier": 1742,
      "_test": 1743,
      "_conv": 1744,
      "ature": 1745,
      "_jou": 1746,
      "_anti": 1747,
      "ollar": 1748,
      "_emp": 1749,
      "_Après": 1750,
      "_D'": 1751,
      "_Dav": 1752,
      "action": 1753,
      "_heure": 1754,
      "_18": 1755,
      "_grav": 1756,
      "_activ": 1757,
      "_poin": 1758,
      "ard,": 1759,
      "espionnage": 1760,
      "_command": 1761,
      "appel": 1762,
      "ormais": 1763,
      "_sujet": 1764,
      "_particip": 1765,
      "_annoncé": 1766,
      "Ã¢ce": 1767,
      "Ã¢ge": 1768,
      "_autom": 1769,
      "_tém": 1770,
      "_dernière": 1771,
      "_impos": 1772,
      "_demandé": 1773,
      "_maj": 1774,
      "_Paris": 1775,
      "_répond": 1776,
      "fication": 1777,
      "_The": 1778,
      "_condam": 1779,
      "_sommes": 1780,
      "_famille": 1781,
      "_programme": 1782,
      "_employ": 1783,
      "_popul": 1784,
      "_nécess": 1785,
      "_docu": 1786,
      "cteur": 1787,
      "cosse": 1788,
      "des": 1789,
      "dustr": 1790,
      "gré": 1791,
      "ieu": 1792,
      "lème": 1793,
      "mment": 1794,
      "ps": 1795,
      "ém": 1796,
      "_dollar": 1797,
      "ony": 1798,
      "_sub": 1799,
      "_cel": 1800,
      "_celle": 1801,
      "an,": 1802,
      "ret": 1803,
      "eter": 1804,
      "_quit": 1805,
      "tembre": 1806,
      "ori": 1807,
      "_font": 1808,
      "_fav": 1809,
      "_l'enc": 1810,
      "_rang": 1811,
      "el,": 1812,
      "_d'acc": 1813,
      "ométr": 1814,
      "_Lors": 1815,
      "_baisse": 1816,
      "agence": 1817,
      "agnies": 1818,
      "_gage": 1819,
      "_guerre": 1820,
      "_ref": 1821,
      "_recher": 1822,
      "ectu": 1823,
      "amin": 1824,
      "les,": 1825,
      "_Dit": 1826,
      "act": 1827,
      "èrement": 1828,
      "_12": 1829,
      "atif": 1830,
      "_constru": 1831,
      "_entreprises": 1832,
      "_politiques": 1833,
      "_compagnies": 1834,
      "_réseau": 1835,
      "_renc": 1836,
      "_Commission": 1837,
      "_communi": 1838,
      "_problème": 1839,
      "fois,": 1840,
      "_Brux": 1841,
      "_développement": 1842,
      "_question": 1843,
      "_important": 1844,
      "_large": 1845,
      "_FAA": 1846,
      "_Google": 1847,
      "_croissance": 1848,
      "_mercredi": 1849,
      "_pompiers": 1850,
      "af": 1851,
      "dit": 1852,
      "magne": 1853,
      "ris": 1854,
      "rés": 1855,
      "ug": 1856,
      "ège": 1857,
      "_père": 1858,
      "_sav": 1859,
      "_cet": 1860,
      "_cit": 1861,
      "_coc": 1862,
      "_ceux": 1863,
      "oun": 1864,
      "ent.": 1865,
      "_moi": 1866,
      "unn": 1867,
      "orig": 1868,
      "_fé": 1869,
      "_fai": 1870,
      "_lesqu": 1871,
      "_rendre": 1872,
      "_enreg": 1873,
      "_vidé": 1874,
      "omme": 1875,
      "us.": 1876,
      "_ten": 1877,
      "_tot": 1878,
      "_tomb": 1879,
      "_gl": 1880,
      "aume": 1881,
      "cité": 1882,
      "_chaque": 1883,
      "_plu": 1884,
      "oss": 1885,
      "_Ber": 1886,
      "idée": 1887,
      "_haus": 1888,
      "veau": 1889,
      "ative": 1890,
      "_aller": 1891,
      "_présence": 1892,
      "_commerci": 1893,
      "_constitu": 1894,
      "part": 1895,
      "iver": 1896,
      "mbl": 1897,
      "_arriv": 1898,
      "owe": 1899,
      "llemagne": 1900,
      "_milliard": 1901,
      "cup": 1902,
      "allowe": 1903,
      "_phot": 1904,
      "forme": 1905,
      "_sign": 1906,
      "_autorités": 1907,
      "rêt": 1908,
      "térieur": 1909,
      "_aériennes": 1910,
      "_contrôle": 1911,
      "_informations": 1912,
      "_s'agit": 1913,
      "_septembre": 1914,
      "_Renam": 1915,
      "_Syri": 1916,
      "_dossi": 1917,
      "_cardinaux": 1918,
      "_trimestre": 1919,
      "_cocaï": 1920,
      "'était": 1921,
      ",5": 1922,
      "-de": 1923,
      "aw": 1924,
      "be": 1925,
      "cation": 1926,
      "ition": 1927,
      "médi": 1928,
      "osi": 1929,
      "oût": 1930,
      "ron": 1931,
      "_dom": 1932,
      "_dim": 1933,
      "_doi": 1934,
      "_doit": 1935,
      "_là": 1936,
      "_lut": 1937,
      "_lanc": 1938,
      "_simp": 1939,
      "_cib": 1940,
      "quoi": 1941,
      "_man": 1942,
      "uré": 1943,
      "lex": 1944,
      "_fus": 1945,
      "_forte": 1946,
      "_né": 1947,
      "ourg": 1948,
      "_ress": 1949,
      "_d'E": 1950,
      "_d'e": 1951,
      "_d'h": 1952,
      "_vue": 1953,
      "_viv": 1954,
      "al.": 1955,
      "_dér": 1956,
      "irurg": 1957,
      "ager": 1958,
      "_parce": 1959,
      "_parents": 1960,
      "_pours": 1961,
      "_Mme": 1962,
      "_reb": 1963,
      "_chim": 1964,
      "_tra": 1965,
      "_train": 1966,
      "amas": 1967,
      "_Sain": 1968,
      "_qu'on": 1969,
      "_Ar": 1970,
      "abilité": 1971,
      "_Is": 1972,
      "ick": 1973,
      "ications": 1974,
      "_n'était": 1975,
      "ulti": 1976,
      "age,": 1977,
      "ées,": 1978,
      "_s'il": 1979,
      "écu": 1980,
      "_allé": 1981,
      "lément": 1982,
      "_commenc": 1983,
      "ablement": 1984,
      "_succ": 1985,
      "ique,": 1986,
      "_nouveaux": 1987,
      "_Fron": 1988,
      "icile": 1989,
      "own": 1990,
      "_l'ancien": 1991,
      "_troisième": 1992,
      "_précéd": 1993,
      "_obs": 1994,
      "_collec": 1995,
      "_votre": 1996,
      "_désormais": 1997,
      "-même": 1998,
      "...": 1999,
      "_zone": 2000,
      "_bénéfice": 2001,
      "_rapid": 2002,
      "_soient": 2003,
      "_plupart": 2004,
      "_cocaïne": 2005,
      "-c": 2006,
      "_enti": 2007,
      "emp": 2008,
      "join": 2009,
      "la": 2010,
      "lit": 2011,
      "mar": 2012,
      "nent": 2013,
      "pir": 2014,
      "rée": 2015,
      "raph": 2016,
      "sh": 2017,
      "êtes": 2018,
      "_lim": 2019,
      "_pir": 2020,
      "_ait": 2021,
      "_sorti": 2022,
      "ank": 2023,
      "rev": 2024,
      "out": 2025,
      "ission": 2026,
      "_mag": 2027,
      "_quar": 2028,
      "_feu": 2029,
      "_l'H": 2030,
      "_l'ad": 2031,
      "_l'Ã¢ge": 2032,
      "_l'agence": 2033,
      "_radi": 2034,
      "ell": 2035,
      "_d'H": 2036,
      "_d'O": 2037,
      "_d'ess": 2038,
      "_vit": 2039,
      "_vois": 2040,
      "_vic": 2041,
      "ity": 2042,
      "_bÃ¢": 2043,
      "_queue": 2044,
      "_parfois": 2045,
      "_gé": 2046,
      "aul": 2047,
      "_Md": 2048,
      "_recev": 2049,
      "_chos": 2050,
      "_chaî": 2051,
      "_chirurg": 2052,
      "_Sh": 2053,
      "_St": 2054,
      "_anim": 2055,
      "_Pal": 2056,
      "_Pro": 2057,
      "terr": 2058,
      "oires": 2059,
      "_Nouv": 2060,
      "_21": 2061,
      "_25": 2062,
      "_Ex": 2063,
      "age.": 2064,
      "_s'in": 2065,
      "ocr": 2066,
      "_Gl": 2067,
      "ape": 2068,
      "_seront": 2069,
      "cess": 2070,
      "_deven": 2071,
      "_devraient": 2072,
      "urer": 2073,
      "ureau": 2074,
      "_sud": 2075,
      "_année": 2076,
      "aille": 2077,
      "_personnel": 2078,
      "_grands": 2079,
      "ublic": 2080,
      "ington": 2081,
      "_derniers": 2082,
      "ociation": 2083,
      "_2013": 2084,
      "_Wash": 2085,
      "_poss": 2086,
      "_possible": 2087,
      "_nombreuses": 2088,
      "utilisation": 2089,
      "_2008": 2090,
      "_défin": 2091,
      "_explique": 2092,
      "_seul": 2093,
      "_libér": 2094,
      "_l'armée": 2095,
      "_ajouté.": 2096,
      "_l'État": 2097,
      "_procéd": 2098,
      "_biométr": 2099,
      "_moyen": 2100,
      "_britannique": 2101,
      "_veulent": 2102,
      "_retour": 2103,
      "_femme": 2104,
      "_Améric": 2105,
      "_souvent": 2106,
      "_l'UE": 2107,
      "_affirmé": 2108,
      "_risque": 2109,
      "_voiture": 2110,
      "ternet": 2111,
      "_campagne": 2112,
      "_genre": 2113,
      "_Morsi": 2114,
      "_puberté": 2115,
      "_Bruxelles": 2116,
      "_hausse": 2117,
      "-Q": 2118,
      "MCA": 2119,
      "_ir": 2120,
      "_ouver": 2121,
      "aff": 2122,
      "jecti": 2123,
      "ok": 2124,
      "oil": 2125,
      "péri": 2126,
      "«l": 2127,
      "Ã«l": 2128,
      "_dâ€™": 2129,
      "_péri": 2130,
      "_sû": 2131,
      "_cé": 2132,
      "_céré": 2133,
      "ardi": 2134,
      "ines": 2135,
      "tection": 2136,
      "ili": 2137,
      "iles": 2138,
      "_noir": 2139,
      "_nuit": 2140,
      "trait": 2141,
      "tric": 2142,
      "_rendu": 2143,
      "_prendre": 2144,
      "_d'avoir": 2145,
      "_ve": 2146,
      "alys": 2147,
      "ce,": 2148,
      "cembre": 2149,
      "_déli": 2150,
      "_décembre": 2151,
      "_bonne": 2152,
      "_tandis": 2153,
      "_gau": 2154,
      "_condu": 2155,
      "rier": 2156,
      "_Mich": 2157,
      "_Cog": 2158,
      "amen": 2159,
      "oll": 2160,
      "_Ph": 2161,
      "_hau": 2162,
      "_National": 2163,
      "_16": 2164,
      "ens.": 2165,
      "_Tim": 2166,
      "_Toute": 2167,
      "atie": 2168,
      "_exc": 2169,
      "_Re": 2170,
      "_accep": 2171,
      "_amb": 2172,
      "_consomm": 2173,
      "_deuxième": 2174,
      "ique.": 2175,
      "_particu": 2176,
      "ctions": 2177,
      "_année,": 2178,
      "_mari": 2179,
      "_direction": 2180,
      "_accusé": 2181,
      "_secteur": 2182,
      "_dépl": 2183,
      "_député": 2184,
      "_États": 2185,
      "tenant": 2186,
      "tention": 2187,
      "_régul": 2188,
      "_minist": 2189,
      "_transport": 2190,
      "_terror": 2191,
      "_mod": 2192,
      "ançois": 2193,
      "_YMCA": 2194,
      "_crém": 2195,
      "_effectu": 2196,
      "_homme": 2197,
      "_forces": 2198,
      "_quelque": 2199,
      "_199": 2200,
      "_scol": 2201,
      "_stock": 2202,
      "_nationale": 2203,
      "_retrouv": 2204,
      "_film": 2205,
      "atholi": 2206,
      "_européenne": 2207,
      "_manière": 2208,
      "_Trans": 2209,
      "_crimin": 2210,
      "_questions": 2211,
      "_militaires": 2212,
      "_heures": 2213,
      "_aucun": 2214,
      "_Royaume": 2215,
      "_Snowden": 2216,
      "_bagages": 2217,
      "_activités": 2218,
      "_l'encontre": 2219,
      "_communiqué": 2220,
      "-de-": 2221,
      "_chimiques": 2222,
      "_Frontier": 2223,
      "_Washington": 2224,
      "_cérémon": 2225,
      "_gauche": 2226,
      "_Cogec": 2227,
      "_Toutefois,": 2228,
      "_X": 2229,
      "xu": 2230,
      "yant": 2231,
      "endi": 2232,
      "onde": 2233,
      "_ach": 2234,
      "_sci": 2235,
      "_cer": 2236,
      "tive": 2237,
      "issement": 2238,
      "_mas": 2239,
      "_mont": 2240,
      "_mère": 2241,
      "_montre": 2242,
      "arm": 2243,
      "_fort": 2244,
      "té,": 2245,
      "_l'im": 2246,
      "_l'utilisation": 2247,
      "trib": 2248,
      "_pression": 2249,
      "_val": 2250,
      "_brev": 2251,
      "_tunn": 2252,
      "_parmi": 2253,
      "_gard": 2254,
      "_condi": 2255,
      "_avion": 2256,
      "_Me": 2257,
      "_Ces": 2258,
      "_Can": 2259,
      "_Cour": 2260,
      "_reçu": 2261,
      "_plut": 2262,
      "_compar": 2263,
      "_comédi": 2264,
      "_protection": 2265,
      "_Son": 2266,
      "ers,": 2267,
      "elle,": 2268,
      "elle.": 2269,
      "_réag": 2270,
      "_sein": 2271,
      "_semble": 2272,
      "_ancien": 2273,
      "érop": 2274,
      "_Austral": 2275,
      "_Plus": 2276,
      "oign": 2277,
      "_of": 2278,
      "_11": 2279,
      "_14": 2280,
      "_17": 2281,
      "_100": 2282,
      "_étant": 2283,
      "ées.": 2284,
      "_grÃ¢ce": 2285,
      "occup": 2286,
      "_Gaz": 2287,
      "identité": 2288,
      "_partir": 2289,
      "illeurs": 2290,
      "_arri": 2291,
      "_arrê": 2292,
      "_passer": 2293,
      "_compte": 2294,
      "_compagn": 2295,
      "_François": 2296,
      "_Char": 2297,
      "_travaille": 2298,
      "alik": 2299,
      "_change": 2300,
      "_juge": 2301,
      "_coll": 2302,
      "acité": 2303,
      "_mesure": 2304,
      "_proches": 2305,
      "_capit": 2306,
      "_charge": 2307,
      "_permettre": 2308,
      "_blessés": 2309,
      "_autoris": 2310,
      "manie": 2311,
      "_appr": 2312,
      "_matière": 2313,
      "_produits": 2314,
      "_islam": 2315,
      "_puiss": 2316,
      "_client": 2317,
      "_music": 2318,
      "_petit": 2319,
      "_suiv": 2320,
      "_prévu": 2321,
      "_sexuels": 2322,
      "_continuer": 2323,
      "_opér": 2324,
      "_sources": 2325,
      "_changer": 2326,
      "-dess": 2327,
      "_Â­": 2328,
      "ministration": 2329,
      "_espèces": 2330,
      "_l'In": 2331,
      "_techni": 2332,
      "_considér": 2333,
      "Å“u": 2334,
      "sibilité": 2335,
      "_soldats": 2336,
      "_dirigeants": 2337,
      "_ça": 2338,
      "_celui": 2339,
      "_rencontre": 2340,
      "_succès": 2341,
      "_Md$": 2342,
      "_plutôt": 2343,
      "éroport": 2344,
      "-M": 2345,
      "-U": 2346,
      "-n": 2347,
      "-ci": 2348,
      "_Ã¢": 2349,
      "_identi": 2350,
      "aur": 2351,
      "bus": 2352,
      "bec": 2353,
      "duire": 2354,
      "ges": 2355,
      "iel": 2356,
      "ière": 2357,
      "taire": 2358,
      "èle": 2359,
      "esque": 2360,
      "eng": 2361,
      "_pi": 2362,
      "_pati": 2363,
      "_pén": 2364,
      "_ali": 2365,
      "_août": 2366,
      "erry": 2367,
      "ouille": 2368,
      "aid": 2369,
      "aide": 2370,
      "isme": 2371,
      "_mand": 2372,
      "_mess": 2373,
      "arb": 2374,
      "ince": 2375,
      "oration": 2376,
      "_fig": 2377,
      "_faci": 2378,
      "_neu": 2379,
      "ourse": 2380,
      "_l'acc": 2381,
      "_l'organis": 2382,
      "_l'idée": 2383,
      "_rou": 2384,
      "_pron": 2385,
      "_d'av": 2386,
      "_d'espionnage": 2387,
      "ants,": 2388,
      "cemment": 2389,
      "_décid": 2390,
      "ith": 2391,
      "lign": 2392,
      "ira": 2393,
      "ney": 2394,
      "_tu": 2395,
      "_tour": 2396,
      "_tend": 2397,
      "_tourn": 2398,
      "aud": 2399,
      "atoire": 2400,
      "_Co": 2401,
      "_Car": 2402,
      "_rempl": 2403,
      "quement": 2404,
      "ches": 2405,
      "chent": 2406,
      "chés": 2407,
      "se,": 2408,
      "_trouver": 2409,
      "_plan": 2410,
      "ouvrir": 2411,
      "_Sing": 2412,
      "ouss": 2413,
      "_rév": 2414,
      "_récemment": 2415,
      "_analys": 2416,
      "éron": 2417,
      "_Ab": 2418,
      "ablis": 2419,
      "_Boe": 2420,
      "onné": 2421,
      "_\"N": 2422,
      "ance,": 2423,
      "_Tri": 2424,
      "tes,": 2425,
      "_grat": 2426,
      "_dipl": 2427,
      "_Rob": 2428,
      "apour": 2429,
      "_commission": 2430,
      "_suff": 2431,
      "iquement": 2432,
      "_telle": 2433,
      "vient": 2434,
      "_américains": 2435,
      "_accus": 2436,
      "_soulign": 2437,
      "_dépens": 2438,
      "_40": 2439,
      "_publié": 2440,
      "_adul": 2441,
      "_renfor": 2442,
      "_transp": 2443,
      "_terme": 2444,
      "_territ": 2445,
      "_maî": 2446,
      "_difficile": 2447,
      "_courant": 2448,
      "esseur": 2449,
      "_création": 2450,
      "ombardi": 2451,
      "_objecti": 2452,
      "_coût": 2453,
      "titude": 2454,
      "_dévoil": 2455,
      "_fermet": 2456,
      "_Martin": 2457,
      "_filles": 2458,
      "_l'Écosse": 2459,
      "_procès": 2460,
      "_rester": 2461,
      "_manif": 2462,
      "_reste": 2463,
      "_\"Le": 2464,
      "_l'univer": 2465,
      "_Montré": 2466,
      "_départ": 2467,
      "_veut": 2468,
      "_téléphones": 2469,
      "_l'autre": 2470,
      "_résultat": 2471,
      "_règles": 2472,
      "_augmenté": 2473,
      "_conseil": 2474,
      "_mondiale": 2475,
      "ôpital": 2476,
      "_étudi": 2477,
      "_livres": 2478,
      "_David": 2479,
      "_condamné": 2480,
      "_Ditta": 2481,
      "_doivent": 2482,
      "_rebelles": 2483,
      "_Nouvelle": 2484,
      "_Américains": 2485,
      "_Transport": 2486,
      "_Royaume-U": 2487,
      "_mandat": 2488,
      "_Singapour": 2489,
      "_Boeing": 2490,
      "_l'université": 2491,
      "_Royaume-Uni": 2492,
      ").": 2493,
      "-s": 2494,
      "-v": 2495,
      "-mi": 2496,
      "5,": 2497,
      "BS": 2498,
      "_Å“u": 2499,
      "cer": 2500,
      "cri": 2501,
      "dis": 2502,
      "itr": 2503,
      "ke": 2504,
      "lant": 2505,
      "lair": 2506,
      "mn": 2507,
      "ode": 2508,
      "son": 2509,
      "tait": 2510,
      "way": 2511,
      "y.": 2512,
      "yn": 2513,
      "esc": 2514,
      "_pil": 2515,
      "_pense": 2516,
      "_pétr": 2517,
      "_ayant": 2518,
      "_sens": 2519,
      "_cam": 2520,
      "_catholi": 2521,
      "anvi": 2522,
      "re.": 2523,
      "quis": 2524,
      "quel": 2525,
      "tit": 2526,
      "_mé": 2527,
      "_mor": 2528,
      "_multi": 2529,
      "ine,": 2530,
      "illes": 2531,
      "_faut": 2532,
      "_net": 2533,
      "_l'app": 2534,
      "_l'ob": 2535,
      "_l'une": 2536,
      "_dess": 2537,
      "_rac": 2538,
      "_rien": 2539,
      "_presque": 2540,
      "_d'ad": 2541,
      "_d'ob": 2542,
      "_voi": 2543,
      "_véri": 2544,
      "ants.": 2545,
      "_dég": 2546,
      "_dét": 2547,
      "_détr": 2548,
      "_but": 2549,
      "aisons": 2550,
      "_tant": 2551,
      "_tab": 2552,
      "ague": 2553,
      "dic": 2554,
      "did": 2555,
      "_janvi": 2556,
      "_Mo": 2557,
      "_chau": 2558,
      "_chien": 2559,
      "_chose": 2560,
      "_inqui": 2561,
      "_qui,": 2562,
      "_trai": 2563,
      "_plain": 2564,
      "pres": 2565,
      "_process": 2566,
      "_Sud": 2567,
      "ied": 2568,
      "érit": 2569,
      "_décéd": 2570,
      "_Bun": 2571,
      "_Bien": 2572,
      "_Bow": 2573,
      "_Bombardi": 2574,
      "termin": 2575,
      "_haut": 2576,
      "_\"C": 2577,
      "_Nord": 2578,
      "_état": 2579,
      "_dix": 2580,
      "_existe": 2581,
      "_examin": 2582,
      "ograph": 2583,
      "aux,": 2584,
      "aux.": 2585,
      "_six": 2586,
      "fique": 2587,
      "rétaire": 2588,
      "_consul": 2589,
      "_super": 2590,
      "anger": 2591,
      "_nouvel": 2592,
      "_perdu": 2593,
      "étais": 2594,
      "exp": 2595,
      "_écou": 2596,
      "istoire": 2597,
      "_derrière": 2598,
      "_recours": 2599,
      "_Val": 2600,
      "_conférence": 2601,
      "_concur": 2602,
      "_conclus": 2603,
      "_travers": 2604,
      "_accès": 2605,
      "_accord": 2606,
      "_souff": 2607,
      "_second": 2608,
      "_syri": 2609,
      "_travailler": 2610,
      "_rappel": 2611,
      "_juillet": 2612,
      "_télévision": 2613,
      "_certaines": 2614,
      "_l'avion": 2615,
      "_d'inform": 2616,
      "_a-t-elle": 2617,
      "_pharm": 2618,
      "_communications": 2619,
      "_États-Unis,": 2620,
      "lèmes": 2621,
      "_l'argent": 2622,
      "_aura": 2623,
      "_signi": 2624,
      "_relation": 2625,
      "_corps": 2626,
      "_capacité": 2627,
      "_niveau": 2628,
      "_60": 2629,
      "_journal": 2630,
      "_chiff": 2631,
      "_Depuis": 2632,
      "_appro": 2633,
      "_longtemp": 2634,
      "_musique": 2635,
      "_salle": 2636,
      "_allemande": 2637,
      "_prêt": 2638,
      "jourd'hui,": 2639,
      "_garanti": 2640,
      "_Internet": 2641,
      "_Grande": 2642,
      "_candid": 2643,
      "_département": 2644,
      "_économique": 2645,
      "_centaines": 2646,
      "_trouvé": 2647,
      "_supplément": 2648,
      "_histoire": 2649,
      "_précisé": 2650,
      "_estime": 2651,
      "_spécialis": 2652,
      "_internation": 2653,
      "_propriété": 2654,
      "_regard": 2655,
      "_empê": 2656,
      "_point": 2657,
      "_commandes": 2658,
      "_témoign": 2659,
      "_document": 2660,
      "_citoy": 2661,
      "_faible": 2662,
      "_enregistr": 2663,
      "_milliards": 2664,
      "_Renamo": 2665,
      "_simplement": 2666,
      "_commencé": 2667,
      "_victi": 2668,
      "_choses": 2669,
      "_ministère": 2670,
      "_Cogeco": 2671,
      "_brevets": 2672,
      "_compagnie": 2673,
      "_aliment": 2674,
      "éronau": 2675,
      "_diplom": 2676,
      "_territoire": 2677,
      "_fermeture": 2678,
      "_pharmaci": 2679,
      "-C": 2680,
      "-D": 2681,
      "2.": 2682,
      "_ici": 2683,
      "ame": 2684,
      "cons": 2685,
      "cture": 2686,
      "ee": 2687,
      "gie": 2688,
      "idi": 2689,
      "n,": 2690,
      "odu": 2691,
      "rant": 2692,
      "rog": 2693,
      "sy": 2694,
      "u,": 2695,
      "uk": 2696,
      "uz": 2697,
      "uli": 2698,
      "uelle": 2699,
      "ye": 2700,
      "Ça": 2701,
      "èmes": 2702,
      "ôle": 2703,
      "_dû": 2704,
      "_lo": 2705,
      "_lu": 2706,
      "_lun": 2707,
      "_loin": 2708,
      "_lang": 2709,
      "ones": 2710,
      "onib": 2711,
      "_pied": 2712,
      "_asse": 2713,
      "_cal": 2714,
      "_cab": 2715,
      "rein": 2716,
      "reux": 2717,
      "erce": 2718,
      "erne": 2719,
      "quête": 2720,
      "oud": 2721,
      "enton": 2722,
      "isse": 2723,
      "_mai": 2724,
      "_quali": 2725,
      "_fol": 2726,
      "_fac": 2727,
      "_fille": 2728,
      "_face": 2729,
      "_nature": 2730,
      "térêt": 2731,
      "ourir": 2732,
      "_l'ac": 2733,
      "_l'esp": 2734,
      "_l'ass": 2735,
      "_l'ense": 2736,
      "_desc": 2737,
      "_rage": 2738,
      "_prend": 2739,
      "tion.": 2740,
      "_d'al": 2741,
      "_d'at": 2742,
      "_vas": 2743,
      "_vont": 2744,
      "_vacc": 2745,
      "_élè": 2746,
      "_Lord": 2747,
      "_dén": 2748,
      "_au-dess": 2749,
      "_bo": 2750,
      "_bar": 2751,
      "_bureau": 2752,
      "_taux": 2753,
      "agan": 2754,
      "_parler": 2755,
      "auv": 2756,
      "_avocat": 2757,
      "ric": 2758,
      "ates": 2759,
      "ats,": 2760,
      "_Con": 2761,
      "_Cert": 2762,
      "_Cong": 2763,
      "_reti": 2764,
      "_chat": 2765,
      "_industr": 2766,
      "chant": 2767,
      "sexu": 2768,
      "_trib": 2769,
      "_plani": 2770,
      "_SA": 2771,
      "_Sans": 2772,
      "_Sec": 2773,
      "osé": 2774,
      "_Deux": 2775,
      "abli": 2776,
      "aces": 2777,
      "oite": 2778,
      "_\"I": 2779,
      "_1,": 2780,
      "ancement": 2781,
      "_Tur": 2782,
      "oph": 2783,
      "_Fin": 2784,
      "tes.": 2785,
      "_gros": 2786,
      "_diz": 2787,
      "_s'en": 2788,
      "_Rub": 2789,
      "_Russi": 2790,
      "_accident": 2791,
      "_déclaration": 2792,
      "_alli": 2793,
      "_déclaré.": 2794,
      "_montr": 2795,
      "_Hamas": 2796,
      "_L'in": 2797,
      "_fron": 2798,
      "_front": 2799,
      "_miles": 2800,
      "_milieu": 2801,
      "_disent": 2802,
      "aires,": 2803,
      "_tel": 2804,
      "_chefs": 2805,
      "_écoles": 2806,
      "_pays,": 2807,
      "_indique": 2808,
      "_config": 2809,
      "_conflit": 2810,
      "_souten": 2811,
      "_secre": 2812,
      "_secrétaire": 2813,
      "_vice": 2814,
      "_carrière": 2815,
      "_l'inter": 2816,
      "_impli": 2817,
      "_élev": 2818,
      "_adop": 2819,
      "_admis": 2820,
      "_possibilité": 2821,
      "issent": 2822,
      "issait": 2823,
      "estini": 2824,
      "-t-il": 2825,
      "_géné": 2826,
      "_directement": 2827,
      "_diffic": 2828,
      "_encour": 2829,
      "tant,": 2830,
      "uébec": 2831,
      "_groupes": 2832,
      "_maladi": 2833,
      "_malgré": 2834,
      "_utiliser": 2835,
      "_scène": 2836,
      "_vie.": 2837,
      "_offre": 2838,
      "_problèmes": 2839,
      "_prochaine": 2840,
      "losion": 2841,
      "_production": 2842,
      "_local": 2843,
      "_portables": 2844,
      "_base": 2845,
      "_française": 2846,
      "_77": 2847,
      "_aérienne": 2848,
      "ennent": 2849,
      "_km": 2850,
      "_reconnaissance": 2851,
      "_centr": 2852,
      "_femmes": 2853,
      "_vertu": 2854,
      "_investi": 2855,
      "_résultats": 2856,
      "-Bret": 2857,
      "_pleine": 2858,
      "_découvert": 2859,
      "_Barack": 2860,
      "_véhicules": 2861,
      "_équipe": 2862,
      "_attend": 2863,
      "_révélations": 2864,
      "_paix": 2865,
      "_indépend": 2866,
      "_journalistes": 2867,
      "_urgences": 2868,
      "_D'au": 2869,
      "_majorité": 2870,
      "_Berlin": 2871,
      "_lutte": 2872,
      "_scolaire": 2873,
      "_\"Nous": 2874,
      "_manifest": 2875,
      "_Grande-Bret": 2876,
      "éronautique": 2877,
      "_Grande-Bretagne": 2878,
      "RDC": 2879,
      "_Z": 2880,
      "f,": 2881,
      "gu": 2882,
      "gyp": 2883,
      "ient": 2884,
      "nes,": 2885,
      "nolog": 2886,
      "ov": 2887,
      "r,": 2888,
      "ru": 2889,
      "rup": 2890,
      "suite": 2891,
      "vesti": 2892,
      "ysi": 2893,
      "État": 2894,
      "ète": 2895,
      "èvement": 2896,
      "èrent": 2897,
      "équ": 2898,
      "éÃ¢": 2899,
      "_donne": 2900,
      "_date": 2901,
      "essi": 2902,
      "_lend": 2903,
      "_log": 2904,
      "_liste": 2905,
      "_lâ€™": 2906,
      "_sp": 2907,
      "_sac": 2908,
      "_cou": 2909,
      "_cul": 2910,
      "_cuis": 2911,
      "_c'était": 2912,
      "anch": 2913,
      "ough": 2914,
      "aign": 2915,
      "tient": 2916,
      "isl": 2917,
      "iser": 2918,
      "et,": 2919,
      "_quoti": 2920,
      "tements": 2921,
      "orté": 2922,
      "_fré": 2923,
      "tér": 2924,
      "_l'us": 2925,
      "_rê": 2926,
      "_rue": 2927,
      "_rasse": 2928,
      "_ensuite": 2929,
      "_pratiques": 2930,
      "_d'ac": 2931,
      "_d'appel": 2932,
      "_voix": 2933,
      "_évent": 2934,
      "_Lar": 2935,
      "assi": 2936,
      "itz": 2937,
      "lieu": 2938,
      "_tard": 2939,
      "agé": 2940,
      "_ges": 2941,
      "_gri": 2942,
      "_pourra": 2943,
      "_Mer": 2944,
      "_Moh": 2945,
      "_CG": 2946,
      "_Cl": 2947,
      "cidé": 2948,
      "_choix": 2949,
      "_intr": 2950,
      "_inde": 2951,
      "_trait": 2952,
      "_plais": 2953,
      "_passe": 2954,
      "amer": 2955,
      "_Se": 2956,
      "endra": 2957,
      "_réun": 2958,
      "_angl": 2959,
      "_qu'une": 2960,
      "_emb": 2961,
      "_Av": 2962,
      "_Alex": 2963,
      "resse": 2964,
      "acer": 2965,
      "ère.": 2966,
      "airement": 2967,
      "ide": 2968,
      "_hum": 2969,
      "_opp": 2970,
      "_\"p": 2971,
      "icoti": 2972,
      "_No": 2973,
      "_Nor": 2974,
      "_n'en": 2975,
      "orts": 2976,
      "opér": 2977,
      "_Ford": 2978,
      "igue": 2979,
      "ueilli": 2980,
      "atives": 2981,
      "_exemp": 2982,
      "_RDC": 2983,
      "_GM": 2984,
      "_Gér": 2985,
      "_posi": 2986,
      "ettement": 2987,
      "_libre": 2988,
      "_jeune": 2989,
      "_L'A": 2990,
      "_frapp": 2991,
      "_partis": 2992,
      "_Obe": 2993,
      "étaire": 2994,
      "_chev": 2995,
      "_écrit": 2996,
      "_interne": 2997,
      "_grandes": 2998,
      "_expert": 2999,
      "_membre": 3000,
      "_préf": 3001,
      "_premiers": 3002,
      "_recul": 3003,
      "_30": 3004,
      "_33": 3005,
      "_secours": 3006,
      "_vient": 3007,
      "_autour": 3008,
      "vention": 3009,
      "_dernières": 3010,
      "oncée": 3011,
      "qu'un": 3012,
      "urope,": 3013,
      "_réglement": 3014,
      "_l'év": 3015,
      "_l'épo": 3016,
      "_Entre": 3017,
      "_jeudi.": 3018,
      "_chanteur": 3019,
      "_associ": 3020,
      "emain": 3021,
      "_coû": 3022,
      "_50": 3023,
      "_quelqu'un": 3024,
      "_liberté": 3025,
      "_Aujourd'hui,": 3026,
      "ateurs.": 3027,
      "ierre": 3028,
      "_mesures": 3029,
      "_Pourquoi": 3030,
      "_maintenant": 3031,
      "_sites": 3032,
      "_l'aéroport": 3033,
      "_blessé": 3034,
      "aître": 3035,
      "_produit": 3036,
      "_violences": 3037,
      "_classe": 3038,
      "_connu": 3039,
      "_Good": 3040,
      "_sociétés": 3041,
      "_prison": 3042,
      "_sexuelle": 3043,
      "_révélé": 3044,
      "_\"Les": 3045,
      "_pensent": 3046,
      "_combat": 3047,
      "_reconnu": 3048,
      "_abs": 3049,
      "_droits": 3050,
      "_représentant": 3051,
      "_législ": 3052,
      "_organisation": 3053,
      "_israéliens": 3054,
      "_aucune": 3055,
      "_justice": 3056,
      "_situation": 3057,
      "attend": 3058,
      "_l'enf": 3059,
      "_Airbus": 3060,
      "_atteindre": 3061,
      "_palli": 3062,
      "_province": 3063,
      "_aider": 3064,
      "_tests": 3065,
      "_automobil": 3066,
      "_employés": 3067,
      "_population": 3068,
      "_dollars": 3069,
      "_faveur": 3070,
      "origine": 3071,
      "_lesquels": 3072,
      "_trafic": 3073,
      "_d'Hallowe": 3074,
      "_vitesse": 3075,
      "_bÃ¢ti": 3076,
      "_chaîne": 3077,
      "_Prof": 3078,
      "_Glas": 3079,
      "_période": 3080,
      "_célè": 3081,
      "trictions": 3082,
      "_particulier": 3083,
      "_scienti": 3084,
      "_opérations": 3085,
      "ablissement": 3086,
      "_Tripo": 3087,
      "_Nouvelle-": 3088,
      "-vous": 3089,
      "_Å“uvre": 3090,
      "_pilo": 3091,
      "_tabl": 3092,
      "_processus": 3093,
      "_Bunagan": 3094,
      "year": 3095,
      "_l'ensemble": 3096,
      "_vaccin": 3097,
      "_au-dessus": 3098,
      "_frontière": 3099,
      "_secrets": 3100,
      "_vice-": 3101,
      "_D'autres": 3102,
      "_lendemain": 3103,
      "_quotidi": 3104,
      "icotine": 3105,
      "_Obeid": 3106,
      "_Goodyear": 3107,
      "FP": 3108,
      "_w": 3109,
      "_organ": 3110,
      "_Ça": 3111,
      "bel": 3112,
      "bourg": 3113,
      "com": 3114,
      "fie": 3115,
      "ger": 3116,
      "gés": 3117,
      "io": 3118,
      "ieux": 3119,
      "ières": 3120,
      "lée": 3121,
      "mo": 3122,
      "ox": 3123,
      "oce": 3124,
      "oie": 3125,
      "rès": 3126,
      "roix": 3127,
      "t.": 3128,
      "tur": 3129,
      "tages": 3130,
      "ume": 3131,
      "uve": 3132,
      "yth": 3133,
      "éb": 3134,
      "_dès": 3135,
      "eny": 3136,
      "onte": 3137,
      "_peur": 3138,
      "_pick": 3139,
      "_pape": 3140,
      "_aim": 3141,
      "_demi": 3142,
      "_satis": 3143,
      "_citr": 3144,
      "anais": 3145,
      "erm": 3146,
      "erve": 3147,
      "aie": 3148,
      "ente.": 3149,
      "entôt": 3150,
      "entrée": 3151,
      "is,": 3152,
      "ises": 3153,
      "_mun": 3154,
      "_mat": 3155,
      "_mot": 3156,
      "arde": 3157,
      "inué": 3158,
      "unal": 3159,
      "urance": 3160,
      "orme": 3161,
      "_fab": 3162,
      "_fut": 3163,
      "_fum": 3164,
      "_nég": 3165,
      "_l'on": 3166,
      "_l'entre": 3167,
      "trice": 3168,
      "_rôle": 3169,
      "_ense": 3170,
      "_envis": 3171,
      "_d'ab": 3172,
      "_d'ici": 3173,
      "_d'em": 3174,
      "_d'État": 3175,
      "_vill": 3176,
      "_ventes": 3177,
      "_venir": 3178,
      "_vérit": 3179,
      "ommand": 3180,
      "_én": 3181,
      "_élu": 3182,
      "ase": 3183,
      "asion": 3184,
      "alent": 3185,
      "alle": 3186,
      "_dél": 3187,
      "_dési": 3188,
      "_décidé": 3189,
      "_audi": 3190,
      "ites": 3191,
      "itaire": 3192,
      "_que,": 3193,
      "_tête": 3194,
      "_tué": 3195,
      "_typ": 3196,
      "_parc": 3197,
      "_parent": 3198,
      "_gagn": 3199,
      "_confi": 3200,
      "meub": 3201,
      "di.": 3202,
      "rig": 3203,
      "_jur": 3204,
      "_Mal": 3205,
      "_CS": 3206,
      "_Centre": 3207,
      "_remp": 3208,
      "chi": 3209,
      "_plate": 3210,
      "_compris": 3211,
      "_protég": 3212,
      "_propres": 3213,
      "ers.": 3214,
      "_qu'en": 3215,
      "_qu'av": 3216,
      "éros": 3217,
      "avais": 3218,
      "_em": 3219,
      "_Peu": 3220,
      "_Dis": 3221,
      "_plus,": 3222,
      "_Ban": 3223,
      "_Bro": 3224,
      "_Bourse": 3225,
      "ter,": 3226,
      "_sond": 3227,
      "_\"S": 3228,
      "_\"le": 3229,
      "_Nour": 3230,
      "_13": 3231,
      "ulaire": 3232,
      "_Europe": 3233,
      "ance.": 3234,
      "_Titan": 3235,
      "opération": 3236,
      "ques,": 3237,
      "ign": 3238,
      "ue,": 3239,
      "_division": 3240,
      "_s'app": 3241,
      "tude": 3242,
      "_potent": 3243,
      "_seraient": 3244,
      "ence,": 3245,
      "_lieux": 3246,
      "oger": 3247,
      "iennent": 3248,
      "eux,": 3249,
      "_devront": 3250,
      "fiques": 3251,
      "_appli": 3252,
      "_HS": 3253,
      "_L'h": 3254,
      "able.": 3255,
      "_année.": 3256,
      "ivers": 3257,
      "_disait": 3258,
      "_armes": 3259,
      "Ã¢ble": 3260,
      "_mars": 3261,
      "rak": 3262,
      "raÃ«l": 3263,
      "_intersexu": 3264,
      "_passé": 3265,
      "_premières": 3266,
      "_pays.": 3267,
      "_Français": 3268,
      "_recommand": 3269,
      "_américaines": 3270,
      "_Vous": 3271,
      "_Kerry": 3272,
      "_concert": 3273,
      "assurer": 3274,
      "_31": 3275,
      "_32": 3276,
      "_soutien": 3277,
      "_dernier,": 3278,
      "_l'AFP": 3279,
      "_2012": 3280,
      "_45": 3281,
      "_élevé": 3282,
      "_juste": 3283,
      "_Wi": 3284,
      "_West": 3285,
      "_syn": 3286,
      "_lui,": 3287,
      "_transmis": 3288,
      "_milliers": 3289,
      "_présidenti": 3290,
      "_modi": 3291,
      "_propre": 3292,
      "_respec": 3293,
      "_jeudi,": 3294,
      "_pouvons": 3295,
      "_pouvaient": 3296,
      "_donner": 3297,
      "orer": 3298,
      "_mois.": 3299,
      "_d'investi": 3300,
      "_forme": 3301,
      "_physi": 3302,
      "_seule": 3303,
      "_titre": 3304,
      "_envoy": 3305,
      "_voie": 3306,
      "lines": 3307,
      "_Cependant": 3308,
      "_espér": 3309,
      "_débat": 3310,
      "_projets": 3311,
      "truction": 3312,
      "tructure": 3313,
      "_mort.": 3314,
      "_relations": 3315,
      "_l'histoire": 3316,
      "lande": 3317,
      "ception": 3318,
      "_national": 3319,
      "_retrai": 3320,
      "_retrouver": 3321,
      "_violence": 3322,
      "_puisque": 3323,
      "_l'exp": 3324,
      "_immédi": 3325,
      "_And": 3326,
      "_Ang": 3327,
      "_téléphone": 3328,
      "_restent": 3329,
      "_enquê": 3330,
      "_rapports": 3331,
      "_suivi": 3332,
      "_suivre": 3333,
      "teindre": 3334,
      "_bientôt": 3335,
      "_garç": 3336,
      "_semaine,": 3337,
      "_restrictions": 3338,
      "_voyages": 3339,
      "_kil": 3340,
      "_démar": 3341,
      "_démocr": 3342,
      "_banlieu": 3343,
      "_continue": 3344,
      "_combats": 3345,
      "ercice": 3346,
      "_moyens": 3347,
      "_essay": 3348,
      "_essenti": 3349,
      "_susp": 3350,
      "_novembre.": 3351,
      "_israélienne": 3352,
      "_bénéfici": 3353,
      "_laissé": 3354,
      "_laisser": 3355,
      "_heures,": 3356,
      "_disponib": 3357,
      "_attaques": 3358,
      "_médecins": 3359,
      "_destiné": 3360,
      "_d'ach": 3361,
      "_taxes": 3362,
      "_intéress": 3363,
      "_Scot": 3364,
      "_Scarb": 3365,
      "_technolog": 3366,
      "_lorsqu'il": 3367,
      "_confirmé": 3368,
      "Å“ur": 3369,
      "_circul": 3370,
      "_circons": 3371,
      "_civile": 3372,
      "_n'avait": 3373,
      "_discours": 3374,
      "_financière": 3375,
      "_palestini": 3376,
      "_choisir": 3377,
      "_heureux": 3378,
      "_quitter": 3379,
      "_favor": 3380,
      "_Lorsque": 3381,
      "_recherche": 3382,
      "_constructeur": 3383,
      "_fév": 3384,
      "_fémin": 3385,
      "_glace": 3386,
      "_signal": 3387,
      "_Syrie": 3388,
      "osition": 3389,
      "_poursui": 3390,
      "_IsraÃ«l": 3391,
      "_pirat": 3392,
      "_d'Obama": 3393,
      "terriss": 3394,
      "_veille": 3395,
      "_arrêté": 3396,
      "_changements": 3397,
      "_objectifs": 3398,
      "_l'objet": 3399,
      "_janvier": 3400,
      "_chauff": 3401,
      "_conclusions": 3402,
      "_d'informations": 3403,
      "_propriétés": 3404,
      "_citoyens": 3405,
      "_victimes": 3406,
      "_langue": 3407,
      "_assez": 3408,
      "_folk": 3409,
      "_Ruby": 3410,
      "gypte": 3411,
      "_plaisir": 3412,
      "_anglais": 3413,
      "_satisf": 3414,
      ",4": 3415,
      "-O": 3416,
      "4,": 3417,
      "6.": 3418,
      "BC": 3419,
      "IA": 3420,
      "NU": 3421,
      "RS": 3422,
      "S.": 3423,
      "_us": 3424,
      "_elles": 3425,
      "bles": 3426,
      "buz": 3427,
      "dw": 3428,
      "eff": 3429,
      "fér": 3430,
      "gée": 3431,
      "gow": 3432,
      "jec": 3433,
      "lak": 3434,
      "o-": 3435,
      "pli": 3436,
      "rain": 3437,
      "tph": 3438,
      "tances": 3439,
      "uy": 3440,
      "ution": 3441,
      "viron": 3442,
      "èc": 3443,
      "èce": 3444,
      "ède": 3445,
      "ènement": 3446,
      "ètres": 3447,
      "ètent": 3448,
      "éti": 3449,
      "érer": 3450,
      "_doute": 3451,
      "_lit": 3452,
      "ener": 3453,
      "enait": 3454,
      "onnement": 3455,
      "_pan": 3456,
      "_psy": 3457,
      "_ailleurs": 3458,
      "_sh": 3459,
      "_sen": 3460,
      "_sait": 3461,
      "_sorte": 3462,
      "_smar": 3463,
      "_ca": 3464,
      "_cents": 3465,
      "_cime": 3466,
      "an.": 3467,
      "rec": 3468,
      "erre": 3469,
      "erver": 3470,
      "eries": 3471,
      "quait": 3472,
      "outh": 3473,
      "tif": 3474,
      "tiqu": 3475,
      "is.": 3476,
      "isé": 3477,
      "_mu": 3478,
      "_miss": 3479,
      "_mauv": 3480,
      "iné": 3481,
      "ettre": 3482,
      "_quant": 3483,
      "ur.": 3484,
      "urity": 3485,
      "leur": 3486,
      "lection": 3487,
      "tec": 3488,
      "te-C": 3489,
      "orough": 3490,
      "_fils": 3491,
      "_fuite": 3492,
      "_fix": 3493,
      "_flam": 3494,
      "_nour": 3495,
      "_nav": 3496,
      "_naissance": 3497,
      "tées": 3498,
      "_l'imp": 3499,
      "_l'identité": 3500,
      "_route": 3501,
      "el.": 3502,
      "_prati": 3503,
      "_prise": 3504,
      "_prét": 3505,
      "_pratique": 3506,
      "_d'éc": 3507,
      "_d'app": 3508,
      "_d'imp": 3509,
      "_d'ass": 3510,
      "_d'off": 3511,
      "_d'ann": 3512,
      "_vale": 3513,
      "omme,": 3514,
      "_épuis": 3515,
      "_Lou": 3516,
      "antage": 3517,
      "_détermin": 3518,
      "_détec": 3519,
      "_bil": 3520,
      "_blo": 3521,
      "_billet": 3522,
      "auté": 3523,
      "dici": 3524,
      "diction": 3525,
      "rim": 3526,
      "rimé": 3527,
      "ats.": 3528,
      "_pourront": 3529,
      "_Mot": 3530,
      "_Mlle": 3531,
      "_Coul": 3532,
      "_Camer": 3533,
      "_red": 3534,
      "_remanie": 3535,
      "_surv": 3536,
      "prés": 3537,
      "prop": 3538,
      "press": 3539,
      "pression": 3540,
      "_prog": 3541,
      "_produire": 3542,
      "_S'": 3543,
      "_Stre": 3544,
      "endus": 3545,
      "ons,": 3546,
      "_réd": 3547,
      "_réussi": 3548,
      "_an,": 3549,
      "_anci": 3550,
      "_qu'à": 3551,
      "_Ass": 3552,
      "_Pit": 3553,
      "_Premi": 3554,
      "_Pate": 3555,
      "_Pierre": 3556,
      "_Del": 3557,
      "_Dale": 3558,
      "abil": 3559,
      "acu": 3560,
      "_décès": 3561,
      "_découvrir": 3562,
      "ter.": 3563,
      "onnes": 3564,
      "_\",": 3565,
      "_\"l": 3566,
      "_Nations": 3567,
      "_Niss": 3568,
      "_1er": 3569,
      "_n'ai": 3570,
      "_El": 3571,
      "_Tw": 3572,
      "_Tous": 3573,
      "_Toff": 3574,
      "_Fenton": 3575,
      "ve.": 3576,
      "atifs": 3577,
      "_diver": 3578,
      "_s'ét": 3579,
      "_s'était": 3580,
      "_Rock": 3581,
      "_RBS": 3582,
      "_Jon": 3583,
      "_Ge": 3584,
      "ence.": 3585,
      "_siège": 3586,
      "oth": 3587,
      "_montré": 3588,
      "_Hu": 3589,
      "_constr": 3590,
      "_L'ar": 3591,
      "_supéri": 3592,
      "elles.": 3593,
      "_O'": 3594,
      "_perd": 3595,
      "_permis": 3596,
      "_perform": 3597,
      "_perpé": 3598,
      "ails": 3599,
      "importe": 3600,
      "ine.": 3601,
      "_polici": 3602,
      "aret": 3603,
      "_arr": 3604,
      "ortement": 3605,
      "aires.": 3606,
      "_tels": 3607,
      "_marque": 3608,
      "acement": 3609,
      "_interrog": 3610,
      "_passant": 3611,
      "_attent": 3612,
      "_meille": 3613,
      "_préoccup": 3614,
      "t-être": 3615,
      "alisation": 3616,
      "_indiquent": 3617,
      "_Villi": 3618,
      "icité": 3619,
      "assé": 3620,
      "assade": 3621,
      "_accomp": 3622,
      "_38": 3623,
      "_autant": 3624,
      "_droite": 3625,
      "_l'industr": 3626,
      "_dernier.": 3627,
      "_2012,": 3628,
      "ères.": 3629,
      "_contro": 3630,
      "_régime": 3631,
      "_l'équip": 3632,
      "_lui-même": 3633,
      "_brut": 3634,
      "estival": 3635,
      "_précise": 3636,
      "_précoce": 3637,
      "rovi": 3638,
      "prises,": 3639,
      "_termes": 3640,
      "_donné": 3641,
      "_assure": 3642,
      "_affaire": 3643,
      "_affaires": 3644,
      "_défense": 3645,
      "_l'avocat": 3646,
      "_obtenir": 3647,
      "_efforts": 3648,
      "verse": 3649,
      "ante.": 3650,
      "venu": 3651,
      "_force": 3652,
      "_Parti": 3653,
      "_présenter": 3654,
      "_États-Unis.": 3655,
      "_libéré": 3656,
      "_ferrovi": 3657,
      "_appareil": 3658,
      "_scand": 3659,
      "formes": 3660,
      "_systèmes": 3661,
      "_situé": 3662,
      "_chargé": 3663,
      "_France,": 3664,
      "_évolu": 3665,
      "aît": 3666,
      "rêts": 3667,
      "_incendi": 3668,
      "_Québec": 3669,
      "udes": 3670,
      "_appris": 3671,
      "_mené": 3672,
      "_l'exercice": 3673,
      "_appelé": 3674,
      "akist": 3675,
      "_européen": 3676,
      "_prêteurs": 3677,
      "_connaiss": 3678,
      "_petite": 3679,
      "_petites": 3680,
      "_garçon": 3681,
      "_entendu": 3682,
      "tissement": 3683,
      "arition": 3684,
      "_profit": 3685,
      "_m'a": 3686,
      "_d'év": 3687,
      "_banques": 3688,
      "_Al-Q": 3689,
      "_différentes": 3690,
      "_côté,": 3691,
      "_programmes": 3692,
      "_décisions": 3693,
      "_d'armes": 3694,
      "_sept": 3695,
      "_FARDC": 3696,
      "_voulait": 3697,
      "_blanc": 3698,
      "_revenus": 3699,
      "_histor": 3700,
      "_attaque": 3701,
      "_médecine": 3702,
      "_formation": 3703,
      "_bonb": 3704,
      "_intérêts": 3705,
      "_comprend": 3706,
      "_découverte": 3707,
      "_Bwelle.": 3708,
      "_international": 3709,
      "_2011,": 3710,
      "_officiellement": 3711,
      "_référence": 3712,
      "_étude": 3713,
      "_fédérale": 3714,
      "_faisant": 3715,
      "_jouer": 3716,
      "_impossible": 3717,
      "_documents": 3718,
      "_d'accord": 3719,
      "_lesquelles": 3720,
      "_vidéo": 3721,
      "_total": 3722,
      "_commercial": 3723,
      "llemagne,": 3724,
      "_photos": 3725,
      "_diminué": 3726,
      "_lancé": 3727,
      "_Saint-": 3728,
      "_Sainte-C": 3729,
      "_rapidement": 3730,
      "ellois": 3731,
      "_chirurgic": 3732,
      "_s'inqui": 3733,
      "_devenu": 3734,
      "_régulateur": 3735,
      "_communiqué.": 3736,
      "_tunnel": 3737,
      "_garder": 3738,
      "_Canad": 3739,
      "_capitale": 3740,
      "_espèces.": 3741,
      "_neuf": 3742,
      "_décider": 3743,
      "_souligné": 3744,
      "_transpor": 3745,
      "_déguis": 3746,
      "_traitement": 3747,
      "_décédé": 3748,
      "_Bombardier": 3749,
      "_consult": 3750,
      "_concurr": 3751,
      "_chiffres": 3752,
      "_garantir": 3753,
      "_logement": 3754,
      "_élèves": 3755,
      "_boî": 3756,
      "_Congrès": 3757,
      "_Security": 3758,
      "_dizaines": 3759,
      "_élevés": 3760,
      "_génétique": 3761,
      "_777": 3762,
      "essionn": 3763,
      "_culture": 3764,
      "_CGT": 3765,
      "_Avec": 3766,
      "_Gérard": 3767,
      "_Professeur": 3768,
      "_Glasgow": 3769,
      "_célèbre": 3770,
      "_tablettes": 3771,
      "_organes": 3772,
      "_pickup": 3773,
      "_Disney": 3774,
      "_Banque": 3775,
      "_Cependant,": 3776,
      "_smartph": 3777,
      "_cimetière": 3778,
      "_missiles": 3779,
      "_Premier": 3780,
      "_Patek": 3781,
      "_Toffee": 3782,
      "_l'industrie": 3783,
      "_Sainte-Croix": 3784,
      ",2": 3785,
      "-F": 3786,
      "-f": 3787,
      "-p": 3788,
      "0.": 3789,
      "CS": 3790,
      "ME": 3791,
      "Malle": 3792,
      "_;": 3793,
      "ach": 3794,
      "atement": 3795,
      "bo": 3796,
      "bum": 3797,
      "cé": 3798,
      "cent": 3799,
      "cop": 3800,
      "cair": 3801,
      "casion": 3802,
      "gar": 3803,
      "gol": 3804,
      "gations": 3805,
      "h3": 3806,
      "ian": 3807,
      "ju": 3808,
      "ks": 3809,
      "kin": 3810,
      "lay": 3811,
      "lot": 3812,
      "low": 3813,
      "mne": 3814,
      "och": 3815,
      "oqué": 3816,
      "ple": 3817,
      "ps.": 3818,
      "ras": 3819,
      "ses": 3820,
      "stitu": 3821,
      "serv": 3822,
      "uc": 3823,
      "ute": 3824,
      "uil": 3825,
      "uels": 3826,
      "yr": 3827,
      "ép": 3828,
      "êmes": 3829,
      "_dav": 3830,
      "_lois": 3831,
      "_laisse": 3832,
      "enant": 3833,
      "on.": 3834,
      "onté": 3835,
      "_pes": 3836,
      "_pou": 3837,
      "_piste": 3838,
      "_porter": 3839,
      "_patr": 3840,
      "_pouss": 3841,
      "_austral": 3842,
      "_aéronautique": 3843,
      "_sil": 3844,
      "_stat": 3845,
      "_senti": 3846,
      "_sâ€™": 3847,
      "_stra": 3848,
      "_cité": 3849,
      "anm": 3850,
      "reuve": 3851,
      "tifs": 3852,
      "tiennent": 3853,
      "_mur": 3854,
      "_meur": 3855,
      "_mains": 3856,
      "_mourir": 3857,
      "arn": 3858,
      "arri": 3859,
      "arité": 3860,
      "et.": 3861,
      "eté": 3862,
      "etage": 3863,
      "tebourg": 3864,
      "ormes": 3865,
      "_fouille": 3866,
      "_l'eur": 3867,
      "_l'aide": 3868,
      "_et,": 3869,
      "_rom": 3870,
      "_raisons": 3871,
      "_end": 3872,
      "_prest": 3873,
      "_d'ot": 3874,
      "_voc": 3875,
      "_vague": 3876,
      "_viennent": 3877,
      "use.": 3878,
      "_élé": 3879,
      "_éner": 3880,
      "as,": 3881,
      "asi": 3882,
      "asin": 3883,
      "ales,": 3884,
      "alités": 3885,
      "itte": 3886,
      "_bat": 3887,
      "ais,": 3888,
      "lite": 3889,
      "ir.": 3890,
      "ne,": 3891,
      "neur": 3892,
      "_congol": 3893,
      "_avez": 3894,
      "rique": 3895,
      "_pourquoi": 3896,
      "_jui": 3897,
      "_Maz": 3898,
      "_Malik": 3899,
      "_CN": 3900,
      "_Cor": 3901,
      "_Cons": 3902,
      "_Care": 3903,
      "_C'était": 3904,
      "_CÃ¢ble": 3905,
      "_rejet": 3906,
      "_remet": 3907,
      "_chac": 3908,
      "_champ": 3909,
      "sie": 3910,
      "seil": 3911,
      "_pas,": 3912,
      "_Sam": 3913,
      "ende": 3914,
      "_rét": 3915,
      "_réforme": 3916,
      "_and": 3917,
      "_ang": 3918,
      "_anni": 3919,
      "_qu'au": 3920,
      "_qu'elles": 3921,
      "éro": 3922,
      "_Ag": 3923,
      "_Aux": 3924,
      "_Act": 3925,
      "oser": 3926,
      "res.": 3927,
      "_Pé": 3928,
      "_Pas": 3929,
      "_Pendant": 3930,
      "_Dé": 3931,
      "_Bl": 3932,
      "_Bill": 3933,
      "_Beau": 3934,
      "_Bank": 3935,
      "_Brig": 3936,
      "ère,": 3937,
      "_hôpit": 3938,
      "_oc": 3939,
      "oir.": 3940,
      "_\"D": 3941,
      "_\"J": 3942,
      "_\"O": 3943,
      "_\"P": 3944,
      "_\"c": 3945,
      "_\"s": 3946,
      "_\"tr": 3947,
      "_n'importe": 3948,
      "érique": 3949,
      "_Fl": 3950,
      "_Fed": 3951,
      "_gross": 3952,
      "_s'ils": 3953,
      "_auxqu": 3954,
      "occasion": 3955,
      "_action,": 3956,
      "_Jus": 3957,
      "_Gu": 3958,
      "aplow": 3959,
      "_serment": 3960,
      "ades": 3961,
      "ordre": 3962,
      "ordable": 3963,
      "ouverture": 3964,
      "_sièc": 3965,
      "énat": 3966,
      "_devait": 3967,
      "fiée": 3968,
      "_commerce": 3969,
      "_Hallowe": 3970,
      "_conséqu": 3971,
      "_frères": 3972,
      "parti": 3973,
      "_annonce": 3974,
      "_perman": 3975,
      "étaires": 3976,
      "_dispar": 3977,
      "_distrib": 3978,
      "_arm": 3979,
      "_cheval": 3980,
      "_écriv": 3981,
      "_intercep": 3982,
      "_grand-m": 3983,
      "_expl": 3984,
      "_expéri": 3985,
      "_complè": 3986,
      "ings": 3987,
      "_Ke": 3988,
      "_Kaplow": 3989,
      "ussions": 3990,
      "_Maison": 3991,
      "ibu": 3992,
      "iban": 3993,
      "ler,": 3994,
      "_accro": 3995,
      "_accueilli": 3996,
      "_souh": 3997,
      "_soutenir": 3998,
      "_via": 3999,
      "_l'inc": 4000,
      "_Che": 4001,
      "_crise": 4002,
      "_élections": 4003,
      "_poste": 4004,
      "_demander": 4005,
      "_directrice": 4006,
      "cupé": 4007,
      "alifor": 4008,
      "_pouvez": 4009,
      "_juges": 4010,
      "_judici": 4011,
      "allait": 4012,
      "_cas,": 4013,
      "_créé": 4014,
      "_créer": 4015,
      "_effet": 4016,
      "_effic": 4017,
      "dépend": 4018,
      "_d'intérêt": 4019,
      "_vendredi,": 4020,
      "_vendredi.": 4021,
      "_Comment": 4022,
      "_Parlement": 4023,
      "mploi": 4024,
      "_communauté": 4025,
      "_libération": 4026,
      "_tir": 4027,
      "_vote": 4028,
      "_197": 4029,
      "_républic": 4030,
      "_utilisant": 4031,
      "_j'étais": 4032,
      "_Pourtant,": 4033,
      "_signes": 4034,
      "_probable": 4035,
      "_prochain": 4036,
      "_star": 4037,
      "_nié": 4038,
      "_l'hôpital": 4039,
      "_permettrait": 4040,
      "land,": 4041,
      "udg": 4042,
      "_coupable": 4043,
      "_mener": 4044,
      "_musici": 4045,
      "_club": 4046,
      "tivité": 4047,
      "_allemands": 4048,
      "_prêts": 4049,
      "_images": 4050,
      "_contact": 4051,
      "_enquêtes": 4052,
      "_français,": 4053,
      "_70": 4054,
      "ariat": 4055,
      "_resté": 4056,
      "_\"La": 4057,
      "_allons": 4058,
      "_l'Etat": 4059,
      "_l'Europe": 4060,
      "_information": 4061,
      "_professionn": 4062,
      "_banque": 4063,
      "_continu": 4064,
      "_canadi": 4065,
      "_mission": 4066,
      "_Montebourg": 4067,
      "_représenter": 4068,
      "_d'enf": 4069,
      "proche": 4070,
      "_économiques": 4071,
      "_suspec": 4072,
      "_d'argent": 4073,
      "_s'agissait": 4074,
      "_souvenir": 4075,
      "_l'atterriss": 4076,
      "_privil": 4077,
      "_réalisé": 4078,
      "_médicale": 4079,
      "_Â£": 4080,
      "_affirme": 4081,
      "_espèce": 4082,
      "_d'après": 4083,
      "_invité": 4084,
      "_traders": 4085,
      "_actuellement": 4086,
      "annonce": 4087,
      "_tenté": 4088,
      "_M23,": 4089,
      "_cherche": 4090,
      "_considéré": 4091,
      "_ordin": 4092,
      "_civil": 4093,
      "_d'entreprise": 4094,
      "_véhicule": 4095,
      "_l'enquête": 4096,
      "_conseill": 4097,
      "_étrangères": 4098,
      "ôtel-D": 4099,
      "_sauv": 4100,
      "_choisi": 4101,
      "_journaliste": 4102,
      "_spectacles": 4103,
      "_l'école": 4104,
      "_convain": 4105,
      "_anti-": 4106,
      "_condamn": 4107,
      "_nécessaire": 4108,
      "_subi": 4109,
      "orient": 4110,
      "_largeur": 4111,
      "_dossier": 4112,
      "_dossiers": 4113,
      "_trimestre,": 4114,
      "_déroul": 4115,
      "_allégations": 4116,
      "_quartier": 4117,
      "_l'administration": 4118,
      "_radio": 4119,
      "_gérer": 4120,
      "_Palmer": 4121,
      "_sud-": 4122,
      "_possession": 4123,
      "_déliv": 4124,
      "_conducteurs": 4125,
      "_hauteur": 4126,
      "_accepté": 4127,
      "_transports": 4128,
      "_cérémonie": 4129,
      "_Plusieurs": 4130,
      "_collab": 4131,
      "_islamique": 4132,
      "-Malik": 4133,
      "_patients": 4134,
      "_messages": 4135,
      "_l'organisation": 4136,
      "_d'avions": 4137,
      "_tendance": 4138,
      "_révolu": 4139,
      "_analystes": 4140,
      "_suffis": 4141,
      "_maîtr": 4142,
      "_Bowie": 4143,
      "_Nord-": 4144,
      "_longtemps": 4145,
      "_empêcher": 4146,
      "_chaton": 4147,
      "_tribunal": 4148,
      "_\"Il": 4149,
      "_alliés": 4150,
      "_investisse": 4151,
      "éÃ¢tre": 4152,
      "_grièvement": 4153,
      "_vice-prés": 4154,
      "_citrou": 4155,
      "_d'abord": 4156,
      "_véritable": 4157,
      "_type": 4158,
      "_Nouri": 4159,
      "_l'explosion": 4160,
      "_banlieue": 4161,
      "_Scarborough": 4162,
      "_circonstances": 4163,
      "_poursuivre": 4164,
      "_piratage": 4165,
      "dward": 4166,
      "férences": 4167,
      "_Coulson": 4168,
      "_remaniement": 4169,
      "_Pitcair": 4170,
      "_Twit": 4171,
      "_Georg": 4172,
      "_O'Malle": 4173,
      "_policiers": 4174,
      "_pickups": 4175,
      "_stratég": 4176,
      "_Mazang": 4177,
      "_annivers": 4178,
      "_Kaplowitz": 4179,
      "ôtel-Dieu": 4180,
      "_vice-président": 4181,
      ",8": 4182,
      "-S": 4183,
      "-l": 4184,
      "20": 4185,
      "5.": 4186,
      "9,": 4187,
      "Gal": 4188,
      "_or": 4189,
      "_erre": 4190,
      "_orient": 4191,
      "ael": 4192,
      "bot": 4193,
      "bserv": 4194,
      "can": 4195,
      "fort": 4196,
      "gne": 4197,
      "gence": 4198,
      "h,": 4199,
      "ht": 4200,
      "hou": 4201,
      "iens": 4202,
      "iels": 4203,
      "k.": 4204,
      "ko": 4205,
      "kr": 4206,
      "kest": 4207,
      "lb": 4208,
      "lait": 4209,
      "lys": 4210,
      "mun": 4211,
      "mat": 4212,
      "pul": 4213,
      "ran": 4214,
      "rom": 4215,
      "rac": 4216,
      "roit": 4217,
      "ssement": 4218,
      "son,": 4219,
      "ta,": 4220,
      "ude": 4221,
      "vid": 4222,
      "voy": 4223,
      "wand": 4224,
      "yse": 4225,
      "ze": 4226,
      "Ã¼": 4227,
      "ènes": 4228,
      "ément": 4229,
      "_dî": 4230,
      "este": 4231,
      "espr": 4232,
      "_lettre": 4233,
      "enci": 4234,
      "ension": 4235,
      "ondi": 4236,
      "_pau": 4237,
      "_pap": 4238,
      "_preuve": 4239,
      "_as": 4240,
      "_sent": 4241,
      "_stu": 4242,
      "_saison": 4243,
      "_structure": 4244,
      "_cig": 4245,
      "_cÅ“ur": 4246,
      "ane": 4247,
      "ano": 4248,
      "rement": 4249,
      "erait": 4250,
      "quées": 4251,
      "oub": 4252,
      "ouin": 4253,
      "tim": 4254,
      "isc": 4255,
      "isation": 4256,
      "_ment": 4257,
      "_maire": 4258,
      "_méc": 4259,
      "_menti": 4260,
      "_math": 4261,
      "_mém": 4262,
      "int": 4263,
      "inion": 4264,
      "ung": 4265,
      "_quatr": 4266,
      "uraient": 4267,
      "lev": 4268,
      "lever": 4269,
      "ors,": 4270,
      "_lequel": 4271,
      "ild": 4272,
      "_flu": 4273,
      "_nicotine": 4274,
      "té.": 4275,
      "_l'or": 4276,
      "_l'am": 4277,
      "_l'ab": 4278,
      "_l'ess": 4279,
      "_l'ét": 4280,
      "_l'aut": 4281,
      "_l'amb": 4282,
      "_l'espionnage": 4283,
      "_l'occasion": 4284,
      "_uni": 4285,
      "_unique": 4286,
      "_uniquement": 4287,
      "_univers": 4288,
      "_rall": 4289,
      "_raff": 4290,
      "ment,": 4291,
      "_enseig": 4292,
      "_pri": 4293,
      "tions.": 4294,
      "_d'am": 4295,
      "_d'eau": 4296,
      "_d'utilis": 4297,
      "_d'urg": 4298,
      "_d'anci": 4299,
      "_d'identi": 4300,
      "_d'origine": 4301,
      "_vir": 4302,
      "_vécu": 4303,
      "uss": 4304,
      "usement": 4305,
      "_équ": 4306,
      "_Là": 4307,
      "itant": 4308,
      "ital": 4309,
      "_baiss": 4310,
      "_bomb": 4311,
      "lie": 4312,
      "ans.": 4313,
      "nec": 4314,
      "_tuer": 4315,
      "_taille": 4316,
      "agin": 4317,
      "agées": 4318,
      "_parle": 4319,
      "_parlement": 4320,
      "ésie": 4321,
      "_congé": 4322,
      "_avis": 4323,
      "rie": 4324,
      "rions": 4325,
      "rimer": 4326,
      "_pourtant": 4327,
      "_Cr": 4328,
      "_Clin": 4329,
      "_Califor": 4330,
      "_rev": 4331,
      "_reç": 4332,
      "_rejoin": 4333,
      "_chance": 4334,
      "_chuté": 4335,
      "_inh": 4336,
      "_intéri": 4337,
      "chement": 4338,
      "sive": 4339,
      "_surpr": 4340,
      "_tromp": 4341,
      "_tradi": 4342,
      "_proté": 4343,
      "_proven": 4344,
      "_Ste": 4345,
      "_Sil": 4346,
      "_Saf": 4347,
      "_Sénat": 4348,
      "endar": 4349,
      "endait": 4350,
      "_rédu": 4351,
      "_récupé": 4352,
      "_sembl": 4353,
      "aines.": 4354,
      "olé": 4355,
      "érée": 4356,
      "_Ad": 4357,
      "_At": 4358,
      "osent": 4359,
      "urs,": 4360,
      "ffordable": 4361,
      "_Paw": 4362,
      "_Paul": 4363,
      "_Public": 4364,
      "_Dh": 4365,
      "_Du": 4366,
      "_Dès": 4367,
      "_Damas": 4368,
      "acé": 4369,
      "_décrit": 4370,
      "_décoll": 4371,
      "_Bam": 4372,
      "_Bid": 4373,
      "_Bern": 4374,
      "onnés": 4375,
      "ide,": 4376,
      "_horm": 4377,
      "_huit": 4378,
      "_héli": 4379,
      "_hyp": 4380,
      "_hôtel": 4381,
      "_otages": 4382,
      "ité.": 4383,
      "_\"M": 4384,
      "_\"f": 4385,
      "icom": 4386,
      "_Norte": 4387,
      "ortance": 4388,
      "_24": 4389,
      "_26": 4390,
      "_études": 4391,
      "_Es": 4392,
      "_Tas": 4393,
      "_Tout": 4394,
      "opé": 4395,
      "_FM": 4396,
      "_Face": 4397,
      "ve,": 4398,
      "_div": 4399,
      "écuti": 4400,
      "_extr": 4401,
      "_Rég": 4402,
      "_acte": 4403,
      "_action": 4404,
      "_actions": 4405,
      "_serve": 4406,
      "adway": 4407,
      "_liaison": 4408,
      "oyen": 4409,
      "ay,": 4410,
      "éner": 4411,
      "_same": 4412,
      "_appels": 4413,
      "_commence": 4414,
      "_Hol": 4415,
      "_Hare": 4416,
      "_How": 4417,
      "_améli": 4418,
      "_consac": 4419,
      "_conserv": 4420,
      "_constit": 4421,
      "_L'an": 4422,
      "_L'av": 4423,
      "éder": 4424,
      "elles,": 4425,
      "_entretien": 4426,
      "_disant": 4427,
      "arer": 4428,
      "_tex": 4429,
      "_yeux": 4430,
      "_marine": 4431,
      "_écla": 4432,
      "_interpr": 4433,
      "_interférences": 4434,
      "_export": 4435,
      "_compter": 4436,
      "_compéti": 4437,
      "_202": 4438,
      "ting": 4439,
      "_meilleurs": 4440,
      "_prépar": 4441,
      "alisé": 4442,
      "star": 4443,
      "_(N": 4444,
      "_confron": 4445,
      "_concerne": 4446,
      "_nommer": 4447,
      "assin": 4448,
      "_financement": 4449,
      "obile": 4450,
      "_35": 4451,
      "_secour": 4452,
      "_dépê": 4453,
      "_dépend": 4454,
      "_l'intention": 4455,
      "_Chouin": 4456,
      "_cru": 4457,
      "_crain": 4458,
      "_43": 4459,
      "_résid": 4460,
      "_contrain": 4461,
      "_Wall": 4462,
      "_poser": 4463,
      "_Jean": 4464,
      "_dit.": 4465,
      "_avantages": 4466,
      "former": 4467,
      "_termin": 4468,
      "_rappelle": 4469,
      "_visage": 4470,
      "_pouvait": 4471,
      "_jugement": 4472,
      "_Yah": 4473,
      "_d'autre": 4474,
      "_défendre": 4475,
      "_crédit": 4476,
      "_l'avait": 4477,
      "uites": 4478,
      "ancer": 4479,
      "_reprendre": 4480,
      "_reprise": 4481,
      "azi": 4482,
      "_ajoute": 4483,
      "_effecti": 4484,
      "_homose": 4485,
      "venir": 4486,
      "_d'inter": 4487,
      "_police,": 4488,
      "_colère": 4489,
      "_semaines": 4490,
      "group": 4491,
      "_américain,": 4492,
      "_américains,": 4493,
      "_Nev": 4494,
      "_196": 4495,
      "_198": 4496,
      "_servir": 4497,
      "_auraient": 4498,
      "_utilisation": 4499,
      "_utilisés": 4500,
      "_j'avais": 4501,
      "_morts": 4502,
      "_inspec": 4503,
      "_probablement": 4504,
      "_prochains": 4505,
      "_sty": 4506,
      "_corrup": 4507,
      "_l'aff": 4508,
      "_l'heure": 4509,
      "_permettant": 4510,
      "_France.": 4511,
      "_évê": 4512,
      "_coups": 4513,
      "_long-c": 4514,
      "_puisse": 4515,
      "_agence": 4516,
      "_agences": 4517,
      "_côtés": 4518,
      "athan": 4519,
      "_Brown": 4520,
      "_Thaï": 4521,
      "_l'année,": 4522,
      "akien": 4523,
      "_volont": 4524,
      "_politique.": 4525,
      "_mi-": 4526,
      "_connue": 4527,
      "_connaissance": 4528,
      "_jusqu'au": 4529,
      "_représente": 4530,
      "_conten": 4531,
      "_fonds": 4532,
      "_fondateur": 4533,
      "_basé": 4534,
      "ologue": 4535,
      "_prévue": 4536,
      "_sexuelles": 4537,
      "_développer": 4538,
      "_enter": 4539,
      "_causé": 4540,
      "_allant": 4541,
      "_octobre,": 4542,
      "_kg": 4543,
      "_pensait": 4544,
      "_conduite": 4545,
      "_informé": 4546,
      "_soir,": 4547,
      "_boutiques": 4548,
      "_militaire": 4549,
      "_importante": 4550,
      "_britanniques": 4551,
      "_d'environ": 4552,
      "_enfants.": 4553,
      "_différence": 4554,
      "_essais": 4555,
      "_source": 4556,
      "_emplois": 4557,
      "_porte-parole.": 4558,
      "_séance": 4559,
      "_reporter": 4560,
      "_déclen": 4561,
      "uel.": 4562,
      "ticor": 4563,
      "_l'atta": 4564,
      "_privée": 4565,
      "_israélien": 4566,
      "_histoires": 4567,
      "_médecin": 4568,
      "_destinée": 4569,
      "_d'aff": 4570,
      "_taxe": 4571,
      "_comprom": 4572,
      "_comprendre": 4573,
      "_Renaul": 4574,
      "-Bl": 4575,
      "-il.": 4576,
      "ire.": 4577,
      "_plein": 4578,
      "_n'avons": 4579,
      "_discussions": 4580,
      "temps,": 4581,
      "_instant": 4582,
      "_attendu": 4583,
      "_atteint": 4584,
      "_étrangers": 4585,
      "_fournisse": 4586,
      "_indépendant": 4587,
      "_Quand": 4588,
      "_principe": 4589,
      "_l'économ": 4590,
      "_promesse": 4591,
      "_venait": 4592,
      "_grave": 4593,
      "_graves": 4594,
      "_points": 4595,
      "_participer": 4596,
      "_témoin": 4597,
      "_refus": 4598,
      "_refuse": 4599,
      "_recherches": 4600,
      "_120": 4601,
      "résident": 4602,
      "_enregistre": 4603,
      "_allerg": 4604,
      "_photo": 4605,
      "_Renamo,": 4606,
      "_Syrie,": 4607,
      "_cible": 4608,
      "_fortement": 4609,
      "_d'Europe": 4610,
      "_vivre": 4611,
      "_rapide": 4612,
      "_sortie": 4613,
      "_magasin": 4614,
      "_l'Hôtel-Dieu": 4615,
      "_d'essai": 4616,
      "_recevoir": 4617,
      "_Stand": 4618,
      "_animaux": 4619,
      "_Express": 4620,
      "_définiti": 4621,
      "_irakien": 4622,
      "_ouvert": 4623,
      "_Phuk": 4624,
      "_Times": 4625,
      "_exclus": 4626,
      "_ambiti": 4627,
      "_criminels": 4628,
      "-de-G": 4629,
      "_Washington.": 4630,
      "_cerveau": 4631,
      "_mascul": 4632,
      "_montant": 4633,
      "_valoir": 4634,
      "_conditions": 4635,
      "_Australie.": 4636,
      "_techniques": 4637,
      "_Ã¢gé": 4638,
      "_identifi": 4639,
      "_identifié": 4640,
      "_patient": 4641,
      "_figure": 4642,
      "_remplacer": 4643,
      "_Abbot": 4644,
      "_adultes": 4645,
      "_Montréal": 4646,
      "-midi,": 4647,
      "_pétrole": 4648,
      "_catholiques": 4649,
      "_raconte": 4650,
      "_voici": 4651,
      "_Moz": 4652,
      "_Moore": 4653,
      "ographie": 4654,
      "_signifie": 4655,
      "_spécialiste": 4656,
      "amed": 4657,
      "_pieds": 4658,
      "_calend": 4659,
      "_l'espace": 4660,
      "_vaste": 4661,
      "_Conseil": 4662,
      "_Certaines": 4663,
      "_retirer": 4664,
      "_planific": 4665,
      "_SAS": 4666,
      "_Turkest": 4667,
      "_frontali": 4668,
      "_configur": 4669,
      "_soutenu": 4670,
      "_centrale": 4671,
      "_rassembl": 4672,
      "_gestion": 4673,
      "_Mohamed": 4674,
      "_indemne": 4675,
      "_Alexand": 4676,
      "_l'époque": 4677,
      "_législateurs": 4678,
      "_palliatifs": 4679,
      "_automobilistes": 4680,
      "_scientifiques": 4681,
      "_matern": 4682,
      "_fabri": 4683,
      "_l'entreprise": 4684,
      "_ensemble": 4685,
      "_envisage": 4686,
      "_désign": 4687,
      "_parcour": 4688,
      "_juridi": 4689,
      "_L'homme": 4690,
      "_immédiatement": 4691,
      "_disponibles": 4692,
      "_circulation": 4693,
      "_février": 4694,
      "IAC": 4695,
      "_bilan": 4696,
      "_Cameroun": 4697,
      "_anciens": 4698,
      "_Daley": 4699,
      "_\"l'": 4700,
      "_Nissan": 4701,
      "_controvers": 4702,
      "_l'équipe": 4703,
      "_ferroviaire": 4704,
      "_transporteurs": 4705,
      "copt": 4706,
      "_davantage": 4707,
      "_sentiment": 4708,
      "arrive": 4709,
      "_éléments": 4710,
      "_CNN": 4711,
      "_chacun": 4712,
      "_rétabli": 4713,
      "_Agenc": 4714,
      "_\"Je": 4715,
      "_Feder": 4716,
      "_grand-mère": 4717,
      "_Maison-Bl": 4718,
      "_musicien": 4719,
      "_d'enfants": 4720,
      "_sauvetage": 4721,
      "_Georges": 4722,
      "_anniversaire": 4723,
      "esprit": 4724,
      "_pauvre": 4725,
      "_cigaret": 4726,
      "_quatrième": 4727,
      "_d'anciens": 4728,
      "_Clinton": 4729,
      "_récupérer": 4730,
      "_Pawlb": 4731,
      "_hélicopt": 4732,
      "_Nortel": 4733,
      "_constitue": 4734,
      "_Yaho": 4735,
      "_long-cour": 4736,
      "_Turkestan": 4737,
      "%)": 4738,
      "&P": 4739,
      "-A": 4740,
      "-N": 4741,
      "-P": 4742,
      "-b": 4743,
      "-à": 4744,
      "-elle": 4745,
      "-temps,": 4746,
      "6,": 4747,
      "A.": 4748,
      "DN": 4749,
      "In": 4750,
      "Kiv": 4751,
      "PD": 4752,
      "TC": 4753,
      "_!": 4754,
      "_0": 4755,
      "_[": 4756,
      "_ouv": 4757,
      "ament": 4758,
      "après": 4759,
      "boll": 4760,
      "cr": 4761,
      "con": 4762,
      "cun": 4763,
      "cel": 4764,
      "ctu": 4765,
      "ctic": 4766,
      "del": 4767,
      "ei": 4768,
      "eal": 4769,
      "euse": 4770,
      "f.": 4771,
      "ford": 4772,
      "frique": 4773,
      "gg": 4774,
      "gi": 4775,
      "gation": 4776,
      "gouver": 4777,
      "han": 4778,
      "ham": 4779,
      "heure": 4780,
      "ia": 4781,
      "ius": 4782,
      "iang": 4783,
      "iche": 4784,
      "jus": 4785,
      "jiang": 4786,
      "ld": 4787,
      "lan": 4788,
      "ller": 4789,
      "matique": 4790,
      "nér": 4791,
      "oquant": 4792,
      "pond": 4793,
      "rin": 4794,
      "rages": 4795,
      "riss": 4796,
      "ters": 4797,
      "toire": 4798,
      "tobre": 4799,
      "ule": 4800,
      "uellement": 4801,
      "wyn": 4802,
      "x,": 4803,
      "z,": 4804,
      "Â£": 4805,
      "èd": 4806,
      "èles": 4807,
      "éor": 4808,
      "éci": 4809,
      "éorg": 4810,
      "étude": 4811,
      "île": 4812,
      "ïgh": 4813,
      "_dra": 4814,
      "essité": 4815,
      "_ly": 4816,
      "ontré": 4817,
      "_paient": 4818,
      "_pone": 4819,
      "_pakist": 4820,
      "_ami": 4821,
      "_det": 4822,
      "_sort": 4823,
      "_soup": 4824,
      "_stric": 4825,
      "_soph": 4826,
      "_cens": 4827,
      "_coin": 4828,
      "_cess": 4829,
      "_clin": 4830,
      "_caf": 4831,
      "ana": 4832,
      "reli": 4833,
      "eront": 4834,
      "ertissement": 4835,
      "qués": 4836,
      "quér": 4837,
      "ouw": 4838,
      "oué": 4839,
      "ouest": 4840,
      "ouse": 4841,
      "entr": 4842,
      "entaine": 4843,
      "tig": 4844,
      "tils": 4845,
      "isté": 4846,
      "isme,": 4847,
      "_mén": 4848,
      "_moin": 4849,
      "_mass": 4850,
      "_mètres": 4851,
      "arr": 4852,
      "arqué": 4853,
      "injiang": 4854,
      "ety": 4855,
      "unk": 4856,
      "unér": 4857,
      "_quâ€™": 4858,
      "_quasi": 4859,
      "urph": 4860,
      "lewyn": 4861,
      "oral": 4862,
      "_lecteurs": 4863,
      "illes.": 4864,
      "_fo": 4865,
      "_fou": 4866,
      "_feux": 4867,
      "_fail": 4868,
      "_faus": 4869,
      "_fête": 4870,
      "_festival": 4871,
      "_fallait": 4872,
      "_funér": 4873,
      "_nâ€™": 4874,
      "_l'ai": 4875,
      "_l'al": 4876,
      "_l'ap": 4877,
      "_l'appel": 4878,
      "_l'opér": 4879,
      "_l'entrée": 4880,
      "traction": 4881,
      "_rent": 4882,
      "_rus": 4883,
      "_rati": 4884,
      "_rob": 4885,
      "_ryth": 4886,
      "_d'an": 4887,
      "_d'or": 4888,
      "_d'ag": 4889,
      "_d'op": 4890,
      "_d'eux": 4891,
      "_d'ét": 4892,
      "_d'aille": 4893,
      "_vos": 4894,
      "_vac": 4895,
      "_vul": 4896,
      "_vété": 4897,
      "_vendu": 4898,
      "_voud": 4899,
      "_vigue": 4900,
      "_émo": 4901,
      "_Li": 4902,
      "_Llewyn": 4903,
      "asp": 4904,
      "ases": 4905,
      "alyse": 4906,
      "_auteur": 4907,
      "ites,": 4908,
      "itaires": 4909,
      "_bul": 4910,
      "_baux": 4911,
      "_bate": 4912,
      "_budg": 4913,
      "lir": 4914,
      "ations,": 4915,
      "_tap": 4916,
      "_table": 4917,
      "_tente": 4918,
      "_tard,": 4919,
      "_tox": 4920,
      "ages.": 4921,
      "_parf": 4922,
      "_parten": 4923,
      "_gest": 4924,
      "ésil": 4925,
      "aulle": 4926,
      "_convers": 4927,
      "_conjoin": 4928,
      "_connec": 4929,
      "dition": 4930,
      "dique": 4931,
      "rid": 4932,
      "riers": 4933,
      "atori": 4934,
      "_joie": 4935,
      "_Ma": 4936,
      "_Mul": 4937,
      "_Même": 4938,
      "_MÃ¼": 4939,
      "_Moyen": 4940,
      "_Murph": 4941,
      "_CA": 4942,
      "_Caire": 4943,
      "_repris": 4944,
      "_relig": 4945,
      "cite": 4946,
      "cipé": 4947,
      "_chor": 4948,
      "_chasse": 4949,
      "_inap": 4950,
      "_initi": 4951,
      "char": 4952,
      "_danseurs": 4953,
      "_troup": 4954,
      "_trentaine": 4955,
      "_pas.": 4956,
      "amens": 4957,
      "ambre": 4958,
      "prom": 4959,
      "_prod": 4960,
      "_prot": 4961,
      "_San": 4962,
      "_South": 4963,
      "_S&P": 4964,
      "endettement": 4965,
      "_réve": 4966,
      "_réaction": 4967,
      "_réduire": 4968,
      "ains,": 4969,
      "ave": 4970,
      "_eur": 4971,
      "_Allemagne,": 4972,
      "ression": 4973,
      "ressions": 4974,
      "respond": 4975,
      "_est-il": 4976,
      "_Peter": 4977,
      "_Président": 4978,
      "acteur": 4979,
      "_décen": 4980,
      "_Be": 4981,
      "_Bureau": 4982,
      "_Blair": 4983,
      "onnées": 4984,
      "onnaie": 4985,
      "ider": 4986,
      "_héros": 4987,
      "_Irak": 4988,
      "_\"d": 4989,
      "_\"m": 4990,
      "_Nic": 4991,
      "_Nex": 4992,
      "_n'ex": 4993,
      "uitement": 4994,
      "_23": 4995,
      "_27": 4996,
      "_établi": 4997,
      "_établissement": 4998,
      "_Europé": 4999,
      "_Edward": 5000,
      "_Te": 5001,
      "_Tex": 5002,
      "_Flig": 5003,
      "agement": 5004,
      "igh": 5005,
      "igr": 5006,
      "ueil": 5007,
      "ativement": 5008,
      "_s'ad": 5009,
      "_s'exp": 5010,
      "_cependant": 5011,
      "_Laur": 5012,
      "ocra": 5013,
      "octobre": 5014,
      "uxellois": 5015,
      "_exige": 5016,
      "_Run": 5017,
      "_Rés": 5018,
      "_Roger": 5019,
      "_actes": 5020,
      "_acquis": 5021,
      "_Jomb": 5022,
      "_Gom": 5023,
      "_Garde": 5024,
      "_Géorg": 5025,
      "ge,": 5026,
      "_album": 5027,
      "léb": 5028,
      "_pote": 5029,
      "_lire": 5030,
      "_oub": 5031,
      "ayer": 5032,
      "espère": 5033,
      "_monétaire": 5034,
      "_devons": 5035,
      "_devient": 5036,
      "_devises": 5037,
      "_fait,": 5038,
      "_commune": 5039,
      "_Hez": 5040,
      "ure.": 5041,
      "_const": 5042,
      "_consom": 5043,
      "_consens": 5044,
      "_L'ex": 5045,
      "_L'annonce": 5046,
      "_peut-être": 5047,
      "_peuple": 5048,
      "_sugg": 5049,
      "parav": 5050,
      "anges": 5051,
      "_participé": 5052,
      "_entrer": 5053,
      "_Or": 5054,
      "_Ou": 5055,
      "_annuelle": 5056,
      "_annoncée": 5057,
      "aill": 5058,
      "mbler": 5059,
      "_discu": 5060,
      "_dispo": 5061,
      "areil": 5062,
      "_artis": 5063,
      "_arrière": 5064,
      "aine,": 5065,
      "europé": 5066,
      "_écoute": 5067,
      "_écoss": 5068,
      "_interdit": 5069,
      "_passage": 5070,
      "_passé.": 5071,
      "_attrib": 5072,
      "_comportement": 5073,
      "ements": 5074,
      "istant": 5075,
      "_prép": 5076,
      "_prévis": 5077,
      "aliste": 5078,
      "jets": 5079,
      "_(O": 5080,
      "_record": 5081,
      "_Vati": 5082,
      "_Ville": 5083,
      "icip": 5084,
      "ing,": 5085,
      "ingt": 5086,
      "_confront": 5087,
      "_Kr": 5088,
      "_Katie": 5089,
      "_concours": 5090,
      "assent": 5091,
      "_fini": 5092,
      "_finalement": 5093,
      "_accéder": 5094,
      "_300": 5095,
      "_seconde": 5096,
      "_carte": 5097,
      "_État": 5098,
      "_tél": 5099,
      "_l'inst": 5100,
      "_l'indépend": 5101,
      "_égyp": 5102,
      "_Chen": 5103,
      "_Chine": 5104,
      "_gouvernementales": 5105,
      "_elle-même": 5106,
      "_croy": 5107,
      "_l'Allemagne": 5108,
      "_l'Affordable": 5109,
      "_2014,": 5110,
      "_42": 5111,
      "tentat": 5112,
      "_réserv": 5113,
      "_réserve": 5114,
      "_élection": 5115,
      "_publiés": 5116,
      "_publique.": 5117,
      "_adap": 5118,
      "_adoles": 5119,
      "_adjoin": 5120,
      "_addiction": 5121,
      "_contrac": 5122,
      "_contrib": 5123,
      "_réguli": 5124,
      "_minim": 5125,
      "_symb": 5126,
      "_l'étr": 5127,
      "_l'état": 5128,
      "_brill": 5129,
      "_bruxellois": 5130,
      "_travaillis": 5131,
      "_travaillant": 5132,
      "quipé": 5133,
      "_transition": 5134,
      "enne,": 5135,
      "prisonnement": 5136,
      "_mode": 5137,
      "_visite": 5138,
      "_directiv": 5139,
      "umé": 5140,
      "alition": 5141,
      "_bien,": 5142,
      "_juin": 5143,
      "_mach": 5144,
      "_n'aur": 5145,
      "_assoup": 5146,
      "_assurance": 5147,
      "_2001": 5148,
      "_affich": 5149,
      "_affron": 5150,
      "_défun": 5151,
      "_défic": 5152,
      "_télévis": 5153,
      "_certaine": 5154,
      "_mois,": 5155,
      "_l'avenir": 5156,
      "ables,": 5157,
      "ables.": 5158,
      "_oblig": 5159,
      "ctor": 5160,
      "_coalition": 5161,
      "_53": 5162,
      "ante,": 5163,
      "ustrali": 5164,
      "_a-t-on": 5165,
      "_monde,": 5166,
      "_phases": 5167,
      "_Comme": 5168,
      "_Common": 5169,
      "_Comed": 5170,
      "_présente": 5171,
      "_présenté": 5172,
      "_libanais": 5173,
      "_titres": 5174,
      "meric": 5175,
      "_voté": 5176,
      "_194": 5177,
      "_Aud": 5178,
      "_espère": 5179,
      "_mettait": 5180,
      "_fermé": 5181,
      "_Marie": 5182,
      "_temps.": 5183,
      "_utilisé": 5184,
      "_offrir": 5185,
      "_instru": 5186,
      "_Et,": 5187,
      "_ajouté,": 5188,
      "oseph": 5189,
      "_correspond": 5190,
      "_l'homme,": 5191,
      "_chargée": 5192,
      "_place,": 5193,
      "_permettent": 5194,
      "_blessée": 5195,
      "_blessés.": 5196,
      "_66": 5197,
      "olie": 5198,
      "olitique": 5199,
      "_éviter": 5200,
      "_évacu": 5201,
      "_autorise": 5202,
      "_nationale,": 5203,
      "rivée": 5204,
      "_Que": 5205,
      "_longue": 5206,
      "_menée": 5207,
      "_musul": 5208,
      "_l'expéri": 5209,
      "agné": 5210,
      "agnos": 5211,
      "_appelés": 5212,
      "_l'annonce": 5213,
      "_locat": 5214,
      "_salaires": 5215,
      "_classi": 5216,
      "_européens": 5217,
      "_européennes": 5218,
      "_allemand,": 5219,
      "-mêmes": 5220,
      "_News": 5221,
      "_imm": 5222,
      "_immeub": 5223,
      "_Andre": 5224,
      "_années.": 5225,
      "_petits": 5226,
      "_portant": 5227,
      "_portable": 5228,
      "_française,": 5229,
      "_700": 5230,
      "_80": 5231,
      "_83": 5232,
      "_manipul": 5233,
      "_biens": 5234,
      "_prévoit": 5235,
      "_contrôles": 5236,
      "_contrôler": 5237,
      "_90": 5238,
      "ennes,": 5239,
      "_crime": 5240,
      "_critiques": 5241,
      "_bénév": 5242,
      "_partager": 5243,
      "_progrès": 5244,
      "_Group": 5245,
      "_Grouw": 5246,
      "_allait": 5247,
      "_octobre.": 5248,
      "_keny": 5249,
      "_penser": 5250,
      "_ciném": 5251,
      "_l'Europe,": 5252,
      "_l'Elys": 5253,
      "_conduis": 5254,
      "_m'attend": 5255,
      "_l'ONU": 5256,
      "_l'OIAC": 5257,
      "_combatt": 5258,
      "_public.": 5259,
      "alité,": 5260,
      "_bouc": 5261,
      "_NSA.": 5262,
      "_légiti": 5263,
      "_familles": 5264,
      "_échange": 5265,
      "_retard": 5266,
      "_retourn": 5267,
      "resser": 5268,
      "odes": 5269,
      "_sév": 5270,
      "_trouvait": 5271,
      "_novembre,": 5272,
      "_l'attentat": 5273,
      "_réaliser": 5274,
      "_médical": 5275,
      "_médicaux": 5276,
      "_eux,": 5277,
      "_version": 5278,
      "_voulu": 5279,
      "_voulons": 5280,
      "_bloc": 5281,
      "_dispos": 5282,
      "_dispose": 5283,
      "_Google,": 5284,
      "_formid": 5285,
      "_nécessité": 5286,
      "_rappro": 5287,
      "_trader": 5288,
      "_Yorksh": 5289,
      "_matin,": 5290,
      "_estim": 5291,
      "_estimé": 5292,
      "_l'auteur": 5293,
      "_théor": 5294,
      "_tenter": 5295,
      "_remise": 5296,
      "_cherchent": 5297,
      "_confirmer": 5298,
      "ire,": 5299,
      "_saisies": 5300,
      "_n'avaient": 5301,
      "_renseignements": 5302,
      "berg": 5303,
      "_influ": 5304,
      "_install": 5305,
      "sibles": 5306,
      "_réclam": 5307,
      "_Airlines": 5308,
      "glise": 5309,
      "gleter": 5310,
      "oeil": 5311,
      "_paiement": 5312,
      "_fournir": 5313,
      "_tôt.": 5314,
      "_livr": 5315,
      "_Quant": 5316,
      "_principalement": 5317,
      "_spectacle": 5318,
      "_Snowden,": 5319,
      "_durant": 5320,
      "_nord-": 5321,
      "_venus": 5322,
      "_Davis": 5323,
      "_activité": 5324,
      "_répondu": 5325,
      "_nécessaires": 5326,
      "_rangée": 5327,
      "_refusé": 5328,
      "_Ditta,": 5329,
      "_construction": 5330,
      "_constructeurs": 5331,
      "ugand": 5332,
      "_savaient": 5333,
      "_moi,": 5334,
      "_moi.": 5335,
      "_faite": 5336,
      "_vidéos": 5337,
      "_tomber": 5338,
      "_constitutionn": 5339,
      "_dimanche": 5340,
      "_là,": 5341,
      "_lutter": 5342,
      "_fusion": 5343,
      "_néanm": 5344,
      "_d'eff": 5345,
      "_d'emb": 5346,
      "_vivent": 5347,
      "_dérou": 5348,
      "_trafi": 5349,
      "_entièrement": 5350,
      "pirit": 5351,
      "_limite": 5352,
      "_quarti": 5353,
      "_radic": 5354,
      "_chaînes": 5355,
      "_devenue": 5356,
      "_2013,": 5357,
      "_2008,": 5358,
      "_2008.": 5359,
      "_libérés": 5360,
      "_libéraux": 5361,
      "_biométrie": 5362,
      "_l'UE.": 5363,
      "_Bruxelles.": 5364,
      "_ouverte": 5365,
      "_sûr": 5366,
      "_céléb": 5367,
      "_Michael": 5368,
      "amener": 5369,
      "_Timber": 5370,
      "_consommateur": 5371,
      "_particuli": 5372,
      "_déploy": 5373,
      "_modèle": 5374,
      "_crématori": 5375,
      "_effectué": 5376,
      "_retrouvé": 5377,
      "_Xinjiang": 5378,
      "_montrer": 5379,
      "_comparti": 5380,
      "_comédies": 5381,
      "_Gaza": 5382,
      "_Gazprom": 5383,
      "_arrivé": 5384,
      "_Charles": 5385,
      "_musicaux": 5386,
      "_musicales": 5387,
      "_suivant": 5388,
      "_l'Intérieur": 5389,
      "-nous": 5390,
      "_facile": 5391,
      "_prononcée": 5392,
      "_Carol": 5393,
      "_gratuit": 5394,
      "_gratuitement": 5395,
      "_dépenses": 5396,
      "_Montréal,": 5397,
      "crire": 5398,
      "mnicom": 5399,
      "_pétroli": 5400,
      "_d'obtenir": 5401,
      "_détruit": 5402,
      "_plainte": 5403,
      "_écoutes": 5404,
      "_syrien": 5405,
      "_approf": 5406,
      "_supplémentaire": 5407,
      "_enregistré": 5408,
      "_alimentaires": 5409,
      "_diplomatie": 5410,
      "_pharmaciens": 5411,
      "_cabin": 5412,
      "_d'attent": 5413,
      "_dénon": 5414,
      "_Certains": 5415,
      "_Russie": 5416,
      "_Russie,": 5417,
      "_montrent": 5418,
      "_configuré": 5419,
      "_adopté": 5420,
      "-t-il.": 5421,
      "_difficul": 5422,
      "_difficiles": 5423,
      "_maladie": 5424,
      "_maladies": 5425,
      "_manifestation": 5426,
      "_fréquent": 5427,
      "_NoÃ«l": 5428,
      "_Nora": 5429,
      "_Ford,": 5430,
      "_experts": 5431,
      "_réglementation": 5432,
      "_Entre-temps,": 5433,
      "_l'enfant": 5434,
      "_Tripodi": 5435,
      "_Nouvelle-Gal": 5436,
      "_Bunagana,": 5437,
      "_municip": 5438,
      "_d'emprisonnement": 5439,
      "_délai": 5440,
      "_CSeries": 5441,
      "_protéger": 5442,
      "_qu'avec": 5443,
      "_Broadway": 5444,
      "_sondage": 5445,
      "_potentiel": 5446,
      "_HS2": 5447,
      "_325": 5448,
      "_Wi-F": 5449,
      "_syndic": 5450,
      "_d'investissement": 5451,
      "_Anders": 5452,
      "_enquêteurs": 5453,
      "_d'achat": 5454,
      "_Scotland": 5455,
      "_technologie": 5456,
      "_féminin": 5457,
      "-Ori": 5458,
      "_panne": 5459,
      "_psychi": 5460,
      "_mauvaise": 5461,
      "_nourriss": 5462,
      "_Motor": 5463,
      "propri": 5464,
      "_Delta": 5465,
      "_Rockstar": 5466,
      "_Jonathan": 5467,
      "_L'armée": 5468,
      "_performances": 5469,
      "_perpétr": 5470,
      "_scandale": 5471,
      "_d'éviter": 5472,
      "_historique": 5473,
      "_culturel": 5474,
      "_pouces": 5475,
      "_patron": 5476,
      "_meurtr": 5477,
      "_d'otages": 5478,
      "_juif": 5479,
      "_Beaud": 5480,
      "_Brigitte": 5481,
      "_hôpitaux": 5482,
      "_Halloween": 5483,
      "_permanence": 5484,
      "_écrivant": 5485,
      "_souhait": 5486,
      "_collaboration": 5487,
      "_suffisamment": 5488,
      "_Nord-Kiv": 5489,
      "-là": 5490,
      "bservatoire": 5491,
      "_mémoire": 5492,
      "_l'ambassade": 5493,
      "_raffin": 5494,
      "_d'utiliser": 5495,
      "_intérieure": 5496,
      "_traditionn": 5497,
      "_provenant": 5498,
      "_décollage": 5499,
      "_Bamford": 5500,
      "_Biden": 5501,
      "_Bernard": 5502,
      "_hypoth": 5503,
      "_Tasmanie": 5504,
      "énergie": 5505,
      "_samedi": 5506,
      "_éclaté": 5507,
      "_nommera": 5508,
      "_Nevad": 5509,
      "_enterré": 5510,
      "_Renault": 5511,
      "_Standard": 5512,
      "_Phuket": 5513,
      "_Mozamb": 5514,
      "_calendrier": 5515,
      "_planificateurs": 5516,
      "_Agency": 5517,
      "_Maison-Blanche": 5518,
      "bollah": 5519,
      "_drame": 5520,
      "_sophis": 5521,
      "_faillite": 5522,
      "_rythme": 5523,
      "_d'ailleurs": 5524,
      "_vulnér": 5525,
      "_bateau": 5526,
      "_Moyen-Ori": 5527,
      "_religie": 5528,
      "_troupes": 5529,
      "_Next": 5530,
      "_Flight": 5531,
      "ocrate": 5532,
      "_Hezbollah": 5533,
      "_disposi": 5534,
      "_affrontements": 5535,
      "_Comedy": 5536,
      "_cinéma": 5537,
      "_combattants": 5538,
      "gleterre": 5539,
      "_néanmoins": 5540,
      "_crématorium": 5541,
      "_Nouvelle-Galles": 5542,
      "'s": 5543,
      ",6": 5544,
      ",9": 5545,
      "-L": 5546,
      "-up": 5547,
      "50": 5548,
      "53": 5549,
      "64": 5550,
      "7.": 5551,
      "B,": 5552,
      "CE": 5553,
      "MD": 5554,
      "P,": 5555,
      "TSA": 5556,
      "YPD": 5557,
      "_&": 5558,
      "_orig": 5559,
      "_ital": 5560,
      "aqu": 5561,
      "aoun": 5562,
      "bes": 5563,
      "bur": 5564,
      "bor": 5565,
      "bres": 5566,
      "car": 5567,
      "cune": 5568,
      "d,": 5569,
      "don": 5570,
      "ein": 5571,
      "fV": 5572,
      "face": 5573,
      "fense": 5574,
      "fax": 5575,
      "fgh": 5576,
      "fact": 5577,
      "gand": 5578,
      "guer": 5579,
      "go,": 5580,
      "has": 5581,
      "hors": 5582,
      "ior": 5583,
      "jerm": 5584,
      "lv": 5585,
      "lais": 5586,
      "lation": 5587,
      "lat": 5588,
      "lise": 5589,
      "line": 5590,
      "lah": 5591,
      "lits": 5592,
      "ma": 5593,
      "més": 5594,
      "mage": 5595,
      "mise": 5596,
      "née": 5597,
      "nes.": 5598,
      "of": 5599,
      "oqu": 5600,
      "pan": 5601,
      "ples": 5602,
      "ril": 5603,
      "rist": 5604,
      "romp": 5605,
      "sen": 5606,
      "sence": 5607,
      "struction": 5608,
      "sung": 5609,
      "tal": 5610,
      "uir": 5611,
      "ues,": 5612,
      "vres": 5613,
      "xim": 5614,
      "yd": 5615,
      "yes": 5616,
      "yst": 5617,
      "ymn": 5618,
      "zz": 5619,
      "z-vous": 5620,
      "Ã¶": 5621,
      "çant": 5622,
      "çait": 5623,
      "èces": 5624,
      "ènent": 5625,
      "ènes,": 5626,
      "év": 5627,
      "élé": 5628,
      "éreux": 5629,
      "ômes": 5630,
      "ôts": 5631,
      "_dois": 5632,
      "_dose": 5633,
      "ese": 5634,
      "_lè": 5635,
      "_lance": 5636,
      "_lancement": 5637,
      "eneurs": 5638,
      "_poi": 5639,
      "_page": 5640,
      "_a,": 5641,
      "_af": 5642,
      "_aidé": 5643,
      "_aient": 5644,
      "_dem": 5645,
      "_dehors": 5646,
      "_str": 5647,
      "_sang": 5648,
      "_cre": 5649,
      "_cend": 5650,
      "_cop": 5651,
      "_clé": 5652,
      "_celles": 5653,
      "_cÃ¢": 5654,
      "anz": 5655,
      "anist": 5656,
      "reen": 5657,
      "ervé": 5658,
      "oure": 5659,
      "ouff": 5660,
      "ouble": 5661,
      "out,": 5662,
      "aite": 5663,
      "ainement": 5664,
      "ents,": 5665,
      "entement": 5666,
      "tiqué": 5667,
      "tivis": 5668,
      "ispan": 5669,
      "_mam": 5670,
      "_mic": 5671,
      "_mét": 5672,
      "_masse": 5673,
      "_maire.": 5674,
      "_mobil": 5675,
      "ares": 5676,
      "arak": 5677,
      "arquement": 5678,
      "ind": 5679,
      "ins.": 5680,
      "_quelle": 5681,
      "_quoi": 5682,
      "ures.": 5683,
      "_laï": 5684,
      "leurs": 5685,
      "lectr": 5686,
      "tex": 5687,
      "orée": 5688,
      "orge": 5689,
      "ortés": 5690,
      "_lead": 5691,
      "ilk": 5692,
      "illé": 5693,
      "_far": 5694,
      "_fur": 5695,
      "_four": 5696,
      "_fas": 5697,
      "_fal": 5698,
      "_fid": 5699,
      "_faud": 5700,
      "_flot": 5701,
      "_fisc": 5702,
      "_nés": 5703,
      "_noire": 5704,
      "_num": 5705,
      "ourge": 5706,
      "_l'est": 5707,
      "_l'éd": 5708,
      "_l'édi": 5709,
      "_l'amp": 5710,
      "_l'off": 5711,
      "_l'origine": 5712,
      "_l'île": 5713,
      "_l'énergie": 5714,
      "tront": 5715,
      "trine": 5716,
      "_destruction": 5717,
      "_ru": 5718,
      "_rat": 5719,
      "_ram": 5720,
      "_roy": 5721,
      "_riv": 5722,
      "_ring": 5723,
      "_rass": 5724,
      "_resse": 5725,
      "_rats": 5726,
      "_rock": 5727,
      "_raid": 5728,
      "_ralent": 5729,
      "_rassurer": 5730,
      "_préd": 5731,
      "_prud": 5732,
      "_preneurs": 5733,
      "_d'im": 5734,
      "_d'ap": 5735,
      "_d'ég": 5736,
      "_d'opp": 5737,
      "_d'aide": 5738,
      "_voire": 5739,
      "_vaut": 5740,
      "_vari": 5741,
      "_vingt": 5742,
      "omes": 5743,
      "ust": 5744,
      "usation": 5745,
      "_él": 5746,
      "_élar": 5747,
      "_éro": 5748,
      "_émer": 5749,
      "_éman": 5750,
      "_élément": 5751,
      "_équipé": 5752,
      "_Lat": 5753,
      "_Long": 5754,
      "_Lanc": 5755,
      "_Ligue": 5756,
      "asti": 5757,
      "asile": 5758,
      "ala,": 5759,
      "aliban": 5760,
      "_auparav": 5761,
      "itation": 5762,
      "_ble": 5763,
      "_bel": 5764,
      "_bal": 5765,
      "_boiss": 5766,
      "_bosse": 5767,
      "_beaux": 5768,
      "_bande": 5769,
      "_bourse": 5770,
      "_béb": 5771,
      "ais.": 5772,
      "aisie": 5773,
      "lif": 5774,
      "lion": 5775,
      "lique": 5776,
      "liber": 5777,
      "irs": 5778,
      "irth": 5779,
      "_tai": 5780,
      "_tort": 5781,
      "agée": 5782,
      "agnes": 5783,
      "_paris": 5784,
      "_parlé": 5785,
      "_parrain": 5786,
      "_guit": 5787,
      "_gendar": 5788,
      "_gasp": 5789,
      "aute": 5790,
      "auph": 5791,
      "_concep": 5792,
      "med": 5793,
      "_aval": 5794,
      "_avril": 5795,
      "dice": 5796,
      "diaque": 5797,
      "euvre": 5798,
      "euters": 5799,
      "_jeu": 5800,
      "_join": 5801,
      "_jolie": 5802,
      "_Man": 5803,
      "_Mex": 5804,
      "_Mbuz": 5805,
      "_Moub": 5806,
      "_Col": 5807,
      "_Clar": 5808,
      "_Cré": 5809,
      "_Corte": 5810,
      "_revi": 5811,
      "_reten": 5812,
      "_relè": 5813,
      "_reprises": 5814,
      "_revient": 5815,
      "_regroup": 5816,
      "cience": 5817,
      "cienne": 5818,
      "_chans": 5819,
      "_choc": 5820,
      "_chassé": 5821,
      "_chute": 5822,
      "_chrom": 5823,
      "_inéd": 5824,
      "_incident": 5825,
      "_intérieur": 5826,
      "chir": 5827,
      "chées": 5828,
      "che,": 5829,
      "sif": 5830,
      "sim": 5831,
      "sivement": 5832,
      "seurs": 5833,
      "sements": 5834,
      "_triste": 5835,
      "_trente": 5836,
      "_plomb": 5837,
      "_comité": 5838,
      "ama": 5839,
      "améric": 5840,
      "ammed": 5841,
      "prême": 5842,
      "_proche": 5843,
      "_provis": 5844,
      "_Su": 5845,
      "_Str": 5846,
      "_Seu": 5847,
      "_Soci": 5848,
      "_Suite": 5849,
      "_Stein": 5850,
      "_Sony": 5851,
      "_Spirit": 5852,
      "ersonne": 5853,
      "ender": 5854,
      "endrait": 5855,
      "_rétic": 5856,
      "_rébel": 5857,
      "_réformes": 5858,
      "_an.": 5859,
      "_anticor": 5860,
      "ains.": 5861,
      "ief": 5862,
      "_qu'O": 5863,
      "_qu'est": 5864,
      "ol,": 5865,
      "olf": 5866,
      "éras": 5867,
      "érés": 5868,
      "aval": 5869,
      "avions": 5870,
      "_App": 5871,
      "_Ainsi": 5872,
      "osée": 5873,
      "osomes": 5874,
      "_PS": 5875,
      "_Pr": 5876,
      "_Pam": 5877,
      "_Pos": 5878,
      "_Pass": 5879,
      "_Perry": 5880,
      "_Presse": 5881,
      "_Pliber": 5882,
      "_Personne": 5883,
      "_Die": 5884,
      "_Dres": 5885,
      "_Donc": 5886,
      "_Down": 5887,
      "_Djerm": 5888,
      "acée": 5889,
      "actions": 5890,
      "_décenn": 5891,
      "_Bo": 5892,
      "_Ben": 5893,
      "_Bali": 5894,
      "_Bock": 5895,
      "terror": 5896,
      "ides": 5897,
      "_hé": 5898,
      "_hier": 5899,
      "_hôpital": 5900,
      "_hispan": 5901,
      "oiff": 5902,
      "_occ": 5903,
      "ale\",": 5904,
      "_Im": 5905,
      "_\"E": 5906,
      "_\"les": 5907,
      "_\"une": 5908,
      "_Net": 5909,
      "_NYPD": 5910,
      "ortun": 5911,
      "_22": 5912,
      "_28": 5913,
      "_29": 5914,
      "_2,5": 5915,
      "_étape": 5916,
      "_Edis": 5917,
      "érieur": 5918,
      "_Ter": 5919,
      "_Tony": 5920,
      "_For": 5921,
      "_Fond": 5922,
      "_Freli": 5923,
      "de,": 5924,
      "nifique": 5925,
      "ueuse": 5926,
      "uebuz": 5927,
      "_divers": 5928,
      "_diagnos": 5929,
      "_s'é": 5930,
      "_s'aff": 5931,
      "_s'assurer": 5932,
      "_s'eff": 5933,
      "_Lad": 5934,
      "écul": 5935,
      "_examens": 5936,
      "_Rien": 5937,
      "_Rio": 5938,
      "_Rép": 5939,
      "_Rwand": 5940,
      "_Reuters": 5941,
      "_Jo": 5942,
      "_Jac": 5943,
      "_Jim": 5944,
      "_Jeudi": 5945,
      "_GP": 5946,
      "_GCS": 5947,
      "tuel": 5948,
      "tudes": 5949,
      "orsese": 5950,
      "_touché": 5951,
      "léolog": 5952,
      "_poils": 5953,
      "_maisons": 5954,
      "ettel": 5955,
      "mière": 5956,
      "miens": 5957,
      "mph": 5958,
      "_liens": 5959,
      "ordin": 5960,
      "_ouïgh": 5961,
      "_ougand": 5962,
      "ien,": 5963,
      "ards": 5964,
      "énom": 5965,
      "ots": 5966,
      "_présents": 5967,
      "_devoir": 5968,
      "_devise": 5969,
      "_devra": 5970,
      "_devenir": 5971,
      "_faits": 5972,
      "_commiss": 5973,
      "_Har": 5974,
      "ureur": 5975,
      "esses": 5976,
      "_conserver": 5977,
      "_consécuti": 5978,
      "nements": 5979,
      "_L'O": 5980,
      "_L'en": 5981,
      "_L'un": 5982,
      "_L'au": 5983,
      "_frère": 5984,
      "_fruit": 5985,
      "_suit": 5986,
      "_suprême": 5987,
      "angé": 5988,
      "ondissement": 5989,
      "iller": 5990,
      "illade": 5991,
      "teurs.": 5992,
      "_Os": 5993,
      "_Obam": 5994,
      "_annuel": 5995,
      "_pertes": 5996,
      "ailles": 5997,
      "étaient": 5998,
      "_personnels": 5999,
      "_argent": 6000,
      "_artic": 6001,
      "Ã¢te": 6002,
      "Ã¢ché": 6003,
      "_chemin": 6004,
      "_internes": 6005,
      "_interven": 6006,
      "_passé,": 6007,
      "_grand-p": 6008,
      "_explo": 6009,
      "_exprimé": 6010,
      "_complex": 6011,
      "istance": 6012,
      "_précip": 6013,
      "ublique": 6014,
      "alisme,": 6015,
      "_Franc": 6016,
      "_Frank": 6017,
      "_indiquant": 6018,
      "_individ": 6019,
      "vite": 6020,
      "viation": 6021,
      "_(du": 6022,
      "_Vall": 6023,
      "_Vettel": 6024,
      "_conform": 6025,
      "_conflits": 6026,
      "_Kins": 6027,
      "_Keny": 6028,
      "tique,": 6029,
      "tique.": 6030,
      "_Mais,": 6031,
      "ibilité": 6032,
      "_36": 6033,
      "_soumis": 6034,
      "_soulig": 6035,
      "_soutiennent": 6036,
      "_secr": 6037,
      "_secret": 6038,
      "_viande": 6039,
      "_carg": 6040,
      "_carn": 6041,
      "_cartes": 6042,
      "_cardiaque": 6043,
      "_faire.": 6044,
      "_drap": 6045,
      "_déplo": 6046,
      "_Égypte": 6047,
      "_l'incident": 6048,
      "_l'intérieur": 6049,
      "_l'intérêt": 6050,
      "_Chaque": 6051,
      "_gouvernement.": 6052,
      "_elle,": 6053,
      "_crit": 6054,
      "_crois": 6055,
      "_croire": 6056,
      "_craign": 6057,
      "mettre": 6058,
      "pholog": 6059,
      "_l'An": 6060,
      "_l'Austral": 6061,
      "_l'ARS": 6062,
      "_l'Agence": 6063,
      "_l'ADN": 6064,
      "urope.": 6065,
      "_41": 6066,
      "_47": 6067,
      "ères,": 6068,
      "_électeurs": 6069,
      "_élector": 6070,
      "_publiques": 6071,
      "_publicité": 6072,
      "_adh": 6073,
      "_administr": 6074,
      "_régions": 6075,
      "_We": 6076,
      "_Wh": 6077,
      "_minis": 6078,
      "_minorité": 6079,
      "_l'ép": 6080,
      "_l'ancienne": 6081,
      "_renoncé": 6082,
      "_renvoy": 6083,
      "_travaillé": 6084,
      "_travaillait": 6085,
      "_US": 6086,
      "formation": 6087,
      "_transf": 6088,
      "enne.": 6089,
      "_présidente": 6090,
      "_demandant": 6091,
      "véni": 6092,
      "_terre": 6093,
      "_rapporte": 6094,
      "_rapporté": 6095,
      "_propose": 6096,
      "cule": 6097,
      "_aussi.": 6098,
      "alier": 6099,
      "_chancel": 6100,
      "_sexy": 6101,
      "_juin,": 6102,
      "_Yaoun": 6103,
      "égraph": 6104,
      "_matéri": 6105,
      "_assuré": 6106,
      "_assurer": 6107,
      "_2004": 6108,
      "_2005,": 6109,
      "_court": 6110,
      "_note": 6111,
      "_d'aut": 6112,
      "_défend": 6113,
      "_défaut": 6114,
      "_casque": 6115,
      "_certain": 6116,
      "emment": 6117,
      "_médiation": 6118,
      "_expliquer": 6119,
      "_coop": 6120,
      "_500": 6121,
      "dém": 6122,
      "_autres,": 6123,
      "_d'inc": 6124,
      "_responsabilité": 6125,
      "tants,": 6126,
      "_porte.": 6127,
      "_monde.": 6128,
      "ences,": 6129,
      "_seuls": 6130,
      "_collines": 6131,
      "titution": 6132,
      "titutionn": 6133,
      "titudes": 6134,
      "_Commun": 6135,
      "_semestre": 6136,
      "_semaines.": 6137,
      "_Parmi": 6138,
      "_groupe,": 6139,
      "_présentés": 6140,
      "_américaines.": 6141,
      "lèvement": 6142,
      "_fois,": 6143,
      "_l'arm": 6144,
      "_l'arrivée": 6145,
      "_envers": 6146,
      "_envah": 6147,
      "_espionn": 6148,
      "_solos": 6149,
      "_fera": 6150,
      "_d'An": 6151,
      "_d'Aub": 6152,
      "_d'Asie": 6153,
      "_Marine": 6154,
      "_répon": 6155,
      "ateur,": 6156,
      "_sociaux": 6157,
      "_loi,": 6158,
      "_signe": 6159,
      "_maintien": 6160,
      "_relative": 6161,
      "_relativement": 6162,
      "_relÃ¢ché": 6163,
      "_insisté": 6164,
      "_prochaines": 6165,
      "_stand": 6166,
      "_stabilité": 6167,
      "_correc": 6168,
      "_corps.": 6169,
      "_caporal": 6170,
      "_l'hôtel": 6171,
      "_permettra": 6172,
      "lusion": 6173,
      "lande,": 6174,
      "_évènement": 6175,
      "_journée": 6176,
      "érément": 6177,
      "_désesp": 6178,
      "rivois": 6179,
      "_retrait": 6180,
      "_incar": 6181,
      "_incur": 6182,
      "_inconn": 6183,
      "_passagers,": 6184,
      "_Quel": 6185,
      "man,": 6186,
      "mann,": 6187,
      "_apais": 6188,
      "_coupe": 6189,
      "_fili": 6190,
      "_filles.": 6191,
      "_violer": 6192,
      "_menées": 6193,
      "_menace": 6194,
      "_Bru": 6195,
      "_localité": 6196,
      "_salon": 6197,
      "_salari": 6198,
      "_clairement": 6199,
      "_vols": 6200,
      "_voler": 6201,
      "_allemandes": 6202,
      "_allemande,": 6203,
      "_prêté": 6204,
      "_connaître": 6205,
      "_jour,": 6206,
      "_jour.": 6207,
      "_jours,": 6208,
      "_imagin": 6209,
      "_Anne": 6210,
      "_années,": 6211,
      "_content": 6212,
      "_contac": 6213,
      "_fond.": 6214,
      "_fondament": 6215,
      "_restaur": 6216,
      "_basée": 6217,
      "_français.": 6218,
      "_française.": 6219,
      "_général,": 6220,
      "_aérien": 6221,
      "_Inc": 6222,
      "_Trav": 6223,
      "_Trois": 6224,
      "_ministre,": 6225,
      "_semaine.": 6226,
      "aïd": 6227,
      "ennes.": 6228,
      "_toutefois": 6229,
      "ez-vous": 6230,
      "_pensons": 6231,
      "_professeur": 6232,
      "_l'Ougand": 6233,
      "_l'Observatoire": 6234,
      "_d'éteindre": 6235,
      "_porte-avions": 6236,
      "_abaiss": 6237,
      "_mises": 6238,
      "_vraie": 6239,
      "_Monke": 6240,
      "_options": 6241,
      "_opération": 6242,
      "_opinion": 6243,
      "_moyenne": 6244,
      "_NSA,": 6245,
      "_militants": 6246,
      "_britannique,": 6247,
      "_légèrement": 6248,
      "_somme": 6249,
      "_sommet": 6250,
      "_enfants,": 6251,
      "_différent": 6252,
      "_différences": 6253,
      "ène,": 6254,
      "_changé": 6255,
      "_changes": 6256,
      "ressé": 6257,
      "_économies": 6258,
      "_organisations": 6259,
      "atrice": 6260,
      "_largement": 6261,
      "_suspend": 6262,
      "_suscité": 6263,
      "_spéléolog": 6264,
      "_repéré": 6265,
      "_trouve": 6266,
      "olument": 6267,
      "-d'": 6268,
      "_sérieux": 6269,
      "_l'Uni": 6270,
      "tionnaires": 6271,
      "_support": 6272,
      "_hommes,": 6273,
      "_téléphonique": 6274,
      "_Â¢": 6275,
      "_laissant": 6276,
      "_vouloir": 6277,
      "_préciser": 6278,
      "_Londres,": 6279,
      "_destinées": 6280,
      "_prix,": 6281,
      "_intégr": 6282,
      "_trading": 6283,
      "_justifier": 6284,
      "_justice,": 6285,
      "_ligne.": 6286,
      "_the": 6287,
      "_thè": 6288,
      "_tentative": 6289,
      "_gazodu": 6290,
      "_remani": 6291,
      "_Scorsese": 6292,
      "_Etats-Unis,": 6293,
      "_lorsqu'ils": 6294,
      "_confirme": 6295,
      "_situés": 6296,
      "_située": 6297,
      "_spécial": 6298,
      "_ordre": 6299,
      "_ordonné": 6300,
      "_civils": 6301,
      "_voitures": 6302,
      "ternative": 6303,
      "_mercredi,": 6304,
      "_renseignement,": 6305,
      "_augmentant": 6306,
      "_M$,": 6307,
      "_inférieur": 6308,
      "_instance": 6309,
      "_habitant": 6310,
      "ienne.": 6311,
      "_2011.": 6312,
      "_propriétaire": 6313,
      "_propriétaires": 6314,
      "_étrangers,": 6315,
      "_sauver": 6316,
      "_presse.": 6317,
      "_provoqué": 6318,
      "_réflé": 6319,
      "_réfug": 6320,
      "_Royal": 6321,
      "_voyageurs": 6322,
      "_fonctionn": 6323,
      "_fonctions": 6324,
      "_spectaculaire": 6325,
      "_Johnson,": 6326,
      "_fédéral": 6327,
      "_fédérale.": 6328,
      "_urgent": 6329,
      "_douce": 6330,
      "_douleur": 6331,
      "_durée": 6332,
      "_durable": 6333,
      "_porn": 6334,
      "_aide": 6335,
      "_aide.": 6336,
      "_faisait": 6337,
      "_promis": 6338,
      "_convoi": 6339,
      "_anti-n": 6340,
      "_emprein": 6341,
      "_automatique": 6342,
      "_automobile": 6343,
      "_dernière,": 6344,
      "_imposée": 6345,
      "_Paris,": 6346,
      "_répondent": 6347,
      "_employé": 6348,
      "_cellu": 6349,
      "_quitté": 6350,
      "_rangés": 6351,
      "_Lorsqu'": 6352,
      "_guerre,": 6353,
      "atifs,": 6354,
      "_FAA.": 6355,
      "_savent": 6356,
      "_vidéo.": 6357,
      "_tensions": 6358,
      "_totalement": 6359,
      "_arrivait": 6360,
      "_arrivée": 6361,
      "_signalisation": 6362,
      "_septembre,": 6363,
      ",5%": 6364,
      "_domaine": 6365,
      "_domicile": 6366,
      "_lancée": 6367,
      "_fusillade": 6368,
      "_ressent": 6369,
      "_ressens": 6370,
      "_ressorti": 6371,
      "_d'Etat": 6372,
      "_d'emploi": 6373,
      "_poursuit": 6374,
      "_Arctic": 6375,
      "_précédentes": 6376,
      "_précédente.": 6377,
      "_collecte": 6378,
      "_collectif": 6379,
      "_entière.": 6380,
      "empê": 6381,
      "_limité": 6382,
      "_magnifique": 6383,
      "_d'Orac": 6384,
      "_voisine": 6385,
      "_victoire": 6386,
      "_choses.": 6387,
      "_chirurgie": 6388,
      "_Star": 6389,
      "_250": 6390,
      "cessoires": 6391,
      "_posséd": 6392,
      "_procéder": 6393,
      "_procédures": 6394,
      "_biométrique": 6395,
      "_biométriques": 6396,
      "_sûr,": 6397,
      "_sûrement": 6398,
      "_noir,": 6399,
      "_vein": 6400,
      "_conducteur": 6401,
      "_Michaux,": 6402,
      "_hauts": 6403,
      "_Reed": 6404,
      "_ambul": 6405,
      "_ambig": 6406,
      "_consommateurs": 6407,
      "_consommateurs.": 6408,
      "_régulateurs": 6409,
      "_terroriste": 6410,
      "_terroristes": 6411,
      "_terrorisme": 6412,
      "_crémation,": 6413,
      "_retrouve": 6414,
      "_films": 6415,
      "_européenne,": 6416,
      "_l'impression": 6417,
      "_condition": 6418,
      "_comparaison": 6419,
      "_comédie": 6420,
      "_arrêter": 6421,
      "_travailleurs": 6422,
      "_approuv": 6423,
      "_appréci": 6424,
      "_islamistes": 6425,
      "_puissent": 6426,
      "_clientèle": 6427,
      "_technique": 6428,
      "_considérait": 6429,
      "_rencontrer": 6430,
      "_Md$.": 6431,
      "_pièces": 6432,
      "_pénalis": 6433,
      "_message": 6434,
      "_l'accord": 6435,
      "_l'organisme": 6436,
      "_tués": 6437,
      "_tournée": 6438,
      "_récemment,": 6439,
      "_Abdel": 6440,
      "_suffrages": 6441,
      "_tellement": 6442,
      "_renforc": 6443,
      "_transporter": 6444,
      "_objectif": 6445,
      "_dévoilé": 6446,
      "_dévoiler": 6447,
      "_l'Écosse,": 6448,
      "_procès,": 6449,
      "_l'autre.": 6450,
      "_Transports": 6451,
      "_Royaume-Uni.": 6452,
      "disp": 6453,
      "_caméras": 6454,
      "_catholique": 6455,
      "_morpholog": 6456,
      "_l'apparition": 6457,
      "_d'admission": 6458,
      "_voies": 6459,
      "_Bombardier,": 6460,
      "_\"C'est": 6461,
      "_examiner": 6462,
      "_consultant": 6463,
      "_supervis": 6464,
      "_Valer": 6465,
      "_concurrent": 6466,
      "_candidat": 6467,
      "_candidats": 6468,
      "_internationale": 6469,
      "_regarder": 6470,
      "_témoignage": 6471,
      "_lumière": 6472,
      "_lundi": 6473,
      "_lunettes": 6474,
      "_qualifié": 6475,
      "_fille.": 6476,
      "_l'association": 6477,
      "_l'assurance": 6478,
      "_descend": 6479,
      "_baril": 6480,
      "_industriels": 6481,
      "ophe": 6482,
      "_montrant": 6483,
      "_L'incident": 6484,
      "_central": 6485,
      "gués": 6486,
      "_spécul": 6487,
      "_couleurs": 6488,
      "_cuisin": 6489,
      "_fréqu": 6490,
      "_l'usine": 6491,
      "_Larry": 6492,
      "_Merk": 6493,
      "_Mohammed": 6494,
      "_traiter": 6495,
      "_passeport": 6496,
      "_Sebel": 6497,
      "_humain": 6498,
      "_opportun": 6499,
      "_Notre": 6500,
      "_exemple": 6501,
      "_exemple,": 6502,
      "_librement": 6503,
      "_cheveux": 6504,
      "_333": 6505,
      "_coûte": 6506,
      "_absolument": 6507,
      "_automobiliste": 6508,
      "_d'Halloween": 6509,
      "_bÃ¢timent": 6510,
      "_pilote": 6511,
      "_pilotes": 6512,
      "_quotidien": 6513,
      "_aimé": 6514,
      "_énorme": 6515,
      "_audience": 6516,
      "_gagner": 6517,
      "_confiance": 6518,
      "_recommandé": 6519,
      "_457": 6520,
      "_présidentielle": 6521,
      "_modifier": 6522,
      "_physiques": 6523,
      "_envoyés": 6524,
      "_retraite.": 6525,
      "_Angel": 6526,
      "_Angela": 6527,
      "_garçons": 6528,
      "_démocratique": 6529,
      "_démocratie": 6530,
      "_essayé": 6531,
      "_suspendu": 6532,
      "_bénéficier": 6533,
      "_d'acheter": 6534,
      "_chauffeur": 6535,
      "_littér": 6536,
      "_ailleurs,": 6537,
      "_shéri": 6538,
      "_mutin": 6539,
      "_flammes": 6540,
      "_naissance.": 6541,
      "_l'importance": 6542,
      "_d'offrir": 6543,
      "_d'offres.": 6544,
      "_valeur": 6545,
      "_survécu": 6546,
      "_Street": 6547,
      "_Stream": 6548,
      "_Elles": 6549,
      "_Huaw": 6550,
      "_supérieurs": 6551,
      "_arrest": 6552,
      "_interrogé": 6553,
      "_attentats": 6554,
      "_préoccupations": 6555,
      "_Villiers,": 6556,
      "_accompagné": 6557,
      "_incendie": 6558,
      "_bonbons": 6559,
      "_s'inquié": 6560,
      "_Canada,": 6561,
      "_déguisements": 6562,
      "_boîtes": 6563,
      "_777X": 6564,
      "book": 6565,
      "h30": 6566,
      "juana": 6567,
      "stitut": 6568,
      "_piste.": 6569,
      "_pousser": 6570,
      "_australienne": 6571,
      "_prestations": 6572,
      "_énergé": 6573,
      "_Maliki": 6574,
      "_rejeté": 6575,
      "_Samsung": 6576,
      "_Pékin": 6577,
      "_Défense": 6578,
      "_Black": 6579,
      "_\"Par": 6580,
      "_auxquelles": 6581,
      "_Justin": 6582,
      "_siècle,": 6583,
      "_armées": 6584,
      "_complètement": 6585,
      "_Keith": 6586,
      "_accroch": 6587,
      "_accueillir": 6588,
      "_l'incendi": 6589,
      "_privilège": 6590,
      "_anti-europé": 6591,
      "_maîtris": 6592,
      "_investisseurs": 6593,
      "_citrouilles": 6594,
      "_Scarborough,": 6595,
      "_Pitcairn,": 6596,
      "_Twitter,": 6597,
      "201": 6598,
      "_oriental": 6599,
      "_l'absence": 6600,
      "_rallyes": 6601,
      "_priorité": 6602,
      "_baisser": 6603,
      "_Californ": 6604,
      "_rejoindre": 6605,
      "_inhabit": 6606,
      "_surprenant": 6607,
      "_Silver": 6608,
      "_réduit": 6609,
      "_semblait": 6610,
      "_Publicis": 6611,
      "_hormones": 6612,
      "_FMI": 6613,
      "_Facebook": 6614,
      "_Hollande": 6615,
      "_L'ancien": 6616,
      "_L'avocat": 6617,
      "_Chouinard,": 6618,
      "_craint": 6619,
      "_homosex": 6620,
      "_style": 6621,
      "_corruption": 6622,
      "_l'affaire": 6623,
      "_évêques": 6624,
      "_l'attaque": 6625,
      "_instantan": 6626,
      "_l'économie": 6627,
      "_allergies": 6628,
      "-de-Gaulle": 6629,
      "_masculin": 6630,
      "_Abbott": 6631,
      "_hélicoptère": 6632,
      "_Yahoo": 6633,
      "_long-courriers": 6634,
      "-à-": 6635,
      "ealth": 6636,
      "_poney": 6637,
      "_pakistanais": 6638,
      "_dette": 6639,
      "_soupç": 6640,
      "_censés": 6641,
      "_cliniques": 6642,
      "quérir": 6643,
      "_ménages": 6644,
      "_massac": 6645,
      "_l'approche": 6646,
      "_vétérin": 6647,
      "_MÃ¼ller": 6648,
      "_chorégraph": 6649,
      "_inappropri": 6650,
      "_réveil": 6651,
      "_décennies": 6652,
      "_Texas": 6653,
      "_Runy": 6654,
      "_Géorgie,": 6655,
      "_poteaux": 6656,
      "_discuter": 6657,
      "_prévisions": 6658,
      "_Vatican": 6659,
      "_l'indépendance": 6660,
      "_régulièrement": 6661,
      "_travailliste": 6662,
      "ustraliens": 6663,
      "_instruments": 6664,
      "_musulm": 6665,
      "_l'expérience": 6666,
      "_immeubles": 6667,
      "_Andrew": 6668,
      "_bénévoles": 6669,
      "_Grouwels": 6670,
      "_kenyans": 6671,
      "_d'embarquement": 6672,
      "_Timberlak": 6673,
      "_Charles-de-Gaulle": 6674,
      "_approfondi": 6675,
      "_dénonci": 6676,
      "_Wi-Fi": 6677,
      "_Anderson": 6678,
      "_sophistiqu": 6679,
      "fghanist": 6680,
      "guerite": 6681,
      "hasa": 6682,
      "_poitrine": 6683,
      "_l'ampleur": 6684,
      "_rassur": 6685,
      "_Lancash": 6686,
      "_concept": 6687,
      "_Moubarak": 6688,
      "_relève": 6689,
      "_chromosomes": 6690,
      "_provisoire": 6691,
      "_Steinberg": 6692,
      "_réticents": 6693,
      "_Pliberse": 6694,
      "_Djermou": 6695,
      "uebuza": 6696,
      "_GCSE": 6697,
      "_grand-père": 6698,
      "_Kinshasa": 6699,
      "_souligne": 6700,
      "_déploie": 6701,
      "_chancelière": 6702,
      "_Yaoundé": 6703,
      "_salariés": 6704,
      "_Monkeys": 6705,
      "_spéléologues": 6706,
      "_gazoduc": 6707,
      "_anti-nicotine": 6708,
      "_d'Oracle": 6709,
      "_Sebelius": 6710,
      "fghanistan,": 6711,
      "%.": 6712,
      ",1": 6713,
      ",3": 6714,
      "-H": 6715,
      "-T": 6716,
      "-ce": 6717,
      "-ch": 6718,
      "-end": 6719,
      "-forme": 6720,
      ".g": 6721,
      "/h": 6722,
      "1.": 6723,
      "300": 6724,
      "5%": 6725,
      "C)": 6726,
      "CC": 6727,
      "Cap": 6728,
      "DD": 6729,
      "E)": 6730,
      "EC": 6731,
      "F.": 6732,
      "HP,": 6733,
      "Joseph": 6734,
      "Le": 6735,
      "Max": 6736,
      "PHP,": 6737,
      "S)": 6738,
      "SC": 6739,
      "SD": 6740,
      "SCA": 6741,
      "V.": 6742,
      "Zé": 6743,
      "_.": 6744,
      "_î": 6745,
      "_os": 6746,
      "_ident": 6747,
      "_uti": 6748,
      "_iss": 6749,
      "_0,": 6750,
      "_Ã¢ge": 6751,
      "_ulti": 6752,
      "_identité": 6753,
      "_esc": 6754,
      "_esprit": 6755,
      "aou": 6756,
      "aune": 6757,
      "bon": 6758,
      "bée": 6759,
      "bad": 6760,
      "be,": 6761,
      "bone": 6762,
      "bah": 6763,
      "bus.": 6764,
      "bérément": 6765,
      "cti": 6766,
      "cin": 6767,
      "cus": 6768,
      "cade": 6769,
      "clay": 6770,
      "da": 6771,
      "der": 6772,
      "dam": 6773,
      "des.": 6774,
      "e-": 6775,
      "ew": 6776,
      "eah": 6777,
      "emploi": 6778,
      "fait": 6779,
      "feu": 6780,
      "fices": 6781,
      "flu": 6782,
      "fender": 6783,
      "gan": 6784,
      "gin": 6785,
      "gées": 6786,
      "gard": 6787,
      "gnes": 6788,
      "gite": 6789,
      "he": 6790,
      "hs": 6791,
      "her": 6792,
      "henti": 6793,
      "ik": 6794,
      "iff": 6795,
      "ies,": 6796,
      "itin": 6797,
      "ier,": 6798,
      "ifier": 6799,
      "i-dess": 6800,
      "iCap": 6801,
      "iLe": 6802,
      "je": 6803,
      "journ": 6804,
      "k\"": 6805,
      "kate": 6806,
      "k-end": 6807,
      "kiLe": 6808,
      "len": 6809,
      "lers": 6810,
      "lons": 6811,
      "lut": 6812,
      "l-Q": 6813,
      "lave": 6814,
      "mation": 6815,
      "mie": 6816,
      "méric": 6817,
      "ming": 6818,
      "mer.": 6819,
      "matis": 6820,
      "migr": 6821,
      "nu": 6822,
      "nom": 6823,
      "nab": 6824,
      "nter": 6825,
      "noc": 6826,
      "nisme": 6827,
      "nov": 6828,
      "où": 6829,
      "oû": 6830,
      "oer": 6831,
      "oom": 6832,
      "oteurs": 6833,
      "oquer": 6834,
      "osité": 6835,
      "ption,": 6836,
      "pôts": 6837,
      "ram": 6838,
      "rab": 6839,
      "rance": 6840,
      "roy": 6841,
      "rains": 6842,
      "rondissement": 6843,
      "sé": 6844,
      "ty": 6845,
      "tain": 6846,
      "ts.": 6847,
      "table": 6848,
      "ton,": 6849,
      "tari": 6850,
      "tômes": 6851,
      "u.": 6852,
      "uation": 6853,
      "uie": 6854,
      "uter": 6855,
      "uaire": 6856,
      "uad": 6857,
      "uelles": 6858,
      "umb": 6859,
      "utions": 6860,
      "ulier": 6861,
      "ucation": 6862,
      "ufact": 6863,
      "vr": 6864,
      "ves,": 6865,
      "vabilité": 6866,
      "wich": 6867,
      "work": 6868,
      "wealth": 6869,
      "ygi": 6870,
      "zaine": 6871,
      "zhou": 6872,
      "Écosse": 6873,
      "Égypte": 6874,
      "èque": 6875,
      "ètes": 6876,
      "èlement": 6877,
      "èvre": 6878,
      "èlent": 6879,
      "ére": 6880,
      "éde": 6881,
      "éni": 6882,
      "équent": 6883,
      "élection": 6884,
      "êt": 6885,
      "êtres": 6886,
      "_domm": 6887,
      "_dauph": 6888,
      "_lig": 6889,
      "_lourd": 6890,
      "_lors,": 6891,
      "ena": 6892,
      "enk": 6893,
      "ené": 6894,
      "enri": 6895,
      "enue": 6896,
      "enge": 6897,
      "ensive": 6898,
      "onor": 6899,
      "onais": 6900,
      "ones.": 6901,
      "_pH": 6902,
      "_pen": 6903,
      "_peux": 6904,
      "_péd": 6905,
      "_pages": 6906,
      "_polé": 6907,
      "_pire.": 6908,
      "_ai": 6909,
      "_ax": 6910,
      "_ache": 6911,
      "_australiens": 6912,
      "_ded": 6913,
      "_deme": 6914,
      "_deuil": 6915,
      "_sén": 6916,
      "_sing": 6917,
      "_somb": 6918,
      "_soli": 6919,
      "_scep": 6920,
      "_sod": 6921,
      "_cau": 6922,
      "_cat": 6923,
      "_cos": 6924,
      "_clar": 6925,
      "_coiff": 6926,
      "_ci-dess": 6927,
      "anim": 6928,
      "ane,": 6929,
      "ana,": 6930,
      "angement": 6931,
      "rection": 6932,
      "erti": 6933,
      "erse": 6934,
      "ervice": 6935,
      "quette": 6936,
      "ouchement": 6937,
      "oux,": 6938,
      "enticité": 6939,
      "tiens": 6940,
      "timis": 6941,
      "isent": 6942,
      "ister": 6943,
      "ision": 6944,
      "istique": 6945,
      "isi,": 6946,
      "_mour": 6947,
      "_mène": 6948,
      "_manger": 6949,
      "_myth": 6950,
      "_monnaie": 6951,
      "_myst": 6952,
      "arch": 6953,
      "arko": 6954,
      "inc": 6955,
      "inci": 6956,
      "inter": 6957,
      "ins,": 6958,
      "und": 6959,
      "_quin": 6960,
      "_qualité": 6961,
      "_quanti": 6962,
      "ural": 6963,
      "urait": 6964,
      "uration": 6965,
      "urveill": 6966,
      "_lac": 6967,
      "ley": 6968,
      "levé": 6969,
      "tez": 6970,
      "or,": 6971,
      "orce": 6972,
      "oront": 6973,
      "oriquement": 6974,
      "oresc": 6975,
      "_lecteur": 6976,
      "illar": 6977,
      "illes,": 6978,
      "_fan": 6979,
      "_fant": 6980,
      "_fans": 6981,
      "_fous": 6982,
      "_fati": 6983,
      "_féli": 6984,
      "_foncé": 6985,
      "_fosse": 6986,
      "_frein": 6987,
      "_fume": 6988,
      "_faute": 6989,
      "_fief": 6990,
      "_nie": 6991,
      "_norm": 6992,
      "_nettement": 6993,
      "_norme": 6994,
      "_nazi": 6995,
      "ours,": 6996,
      "ources": 6997,
      "_l'\"": 6998,
      "_l'ont": 6999,
      "_l'être": 7000,
      "_l'eau": 7001,
      "_l'opp": 7002,
      "_l'air": 7003,
      "_l'orig": 7004,
      "_l'esc": 7005,
      "_l'endettement": 7006,
      "_l'emploi": 7007,
      "_unités": 7008,
      "_unies": 7009,
      "trap": 7010,
      "_rare": 7011,
      "_rÃ¢": 7012,
      "_rendant": 7013,
      "_rich": 7014,
      "_ridi": 7015,
      "_rume": 7016,
      "elà": 7017,
      "els.": 7018,
      "ellent": 7019,
      "el-A": 7020,
      "_ence": 7021,
      "_ench": 7022,
      "_enlever": 7023,
      "_prouv": 7024,
      "_prim": 7025,
      "_prennent": 7026,
      "_d'\"": 7027,
      "_d'I": 7028,
      "_d'y": 7029,
      "_d'amener": 7030,
      "_d'où": 7031,
      "_vr": 7032,
      "_var": 7033,
      "_vais": 7034,
      "_vête": 7035,
      "_vendus": 7036,
      "_villes.": 7037,
      "omage,": 7038,
      "omètres": 7039,
      "usion": 7040,
      "uses.": 7041,
      "_éti": 7042,
      "_étions": 7043,
      "_évé": 7044,
      "_éteindre": 7045,
      "_LG": 7046,
      "_Lt": 7047,
      "_Land": 7048,
      "_Los": 7049,
      "_Lib": 7050,
      "_Liban": 7051,
      "antes": 7052,
      "antes.": 7053,
      "ast": 7054,
      "ason": 7055,
      "ald": 7056,
      "aling": 7057,
      "_dédi": 7058,
      "_défi": 7059,
      "_déten": 7060,
      "onter": 7061,
      "ontentement": 7062,
      "itent": 7063,
      "_ben": 7064,
      "_bri": 7065,
      "_bons": 7066,
      "_bap": 7067,
      "_bill": 7068,
      "_bét": 7069,
      "_blin": 7070,
      "_bonnes": 7071,
      "aises": 7072,
      "aise,": 7073,
      "aise.": 7074,
      "liés": 7075,
      "live": 7076,
      "lie,": 7077,
      "limin": 7078,
      "ans,": 7079,
      "irac": 7080,
      "irming": 7081,
      "ations.": 7082,
      "_tes": 7083,
      "_tur": 7084,
      "_tol": 7085,
      "_toit": 7086,
      "_testi": 7087,
      "_tari": 7088,
      "_têtes": 7089,
      "_talent": 7090,
      "_taliban": 7091,
      "agit": 7092,
      "ages,": 7093,
      "_parvenir": 7094,
      "_gê": 7095,
      "_gad": 7096,
      "_goût": 7097,
      "_grec": 7098,
      "ésor": 7099,
      "ésormais": 7100,
      "au,": 7101,
      "aug": 7102,
      "aude": 7103,
      "aurer": 7104,
      "_conces": 7105,
      "_concev": 7106,
      "_congré": 7107,
      "_contex": 7108,
      "_avanç": 7109,
      "_avanc": 7110,
      "_avenir": 7111,
      "dire": 7112,
      "dimb": 7113,
      "rire": 7114,
      "rité": 7115,
      "rich": 7116,
      "rimin": 7117,
      "rier,": 7118,
      "ricul": 7119,
      "_pourpar": 7120,
      "_pourrions": 7121,
      "_jet": 7122,
      "_jap": 7123,
      "_jaune": 7124,
      "_Mc": 7125,
      "_Main": 7126,
      "_Math": 7127,
      "_Mouvement": 7128,
      "_Meng": 7129,
      "_Menton": 7130,
      "_MÂ£": 7131,
      "_Cité": 7132,
      "_Cap": 7133,
      "_Citi": 7134,
      "_Catholi": 7135,
      "_Cyr": 7136,
      "_Clive": 7137,
      "_rede": 7138,
      "_remis": 7139,
      "_report": 7140,
      "ci,": 7141,
      "cités": 7142,
      "cieuse": 7143,
      "_chant": 7144,
      "_chale": 7145,
      "_chienne": 7146,
      "_chÃ¢te": 7147,
      "_inex": 7148,
      "_intention": 7149,
      "_innoc": 7150,
      "_inaug": 7151,
      "change": 7152,
      "cheng": 7153,
      "sifs": 7154,
      "se.": 7155,
      "ée\",": 7156,
      "_survenu": 7157,
      "_trou": 7158,
      "_trace": 7159,
      "_traces": 7160,
      "_plac": 7161,
      "ecture": 7162,
      "_pasteur": 7163,
      "ames": 7164,
      "amar": 7165,
      "prendre": 7166,
      "_proie": 7167,
      "_SM": 7168,
      "_Sa": 7169,
      "_Sp": 7170,
      "_Spr": 7171,
      "_Sous": 7172,
      "_Suis": 7173,
      "_Spé": 7174,
      "_Sier": 7175,
      "_Santé": 7176,
      "_Stac": 7177,
      "_Service": 7178,
      "endes": 7179,
      "onses": 7180,
      "tre,": 7181,
      "tre.": 7182,
      "_réel": 7183,
      "_rédi": 7184,
      "_réelle": 7185,
      "_réjou": 7186,
      "_réveill": 7187,
      "_révision": 7188,
      "_réformer": 7189,
      "_semb": 7190,
      "_segment": 7191,
      "_seigne": 7192,
      "_anony": 7193,
      "iev": 7194,
      "iez": 7195,
      "_qu'aur": 7196,
      "olte": 7197,
      "olas": 7198,
      "olites,": 7199,
      "_ABC": 7200,
      "_Aviation": 7201,
      "ois,": 7202,
      "oiseau": 7203,
      "osées": 7204,
      "ospit": 7205,
      "ffice": 7206,
      "_Pe": 7207,
      "_Pl": 7208,
      "_Pet": 7209,
      "_Père": 7210,
      "_Puis": 7211,
      "_Paci": 7212,
      "_Penn": 7213,
      "_Patr": 7214,
      "_Pris": 7215,
      "_Pakist": 7216,
      "_PME": 7217,
      "_Pia": 7218,
      "_DC": 7219,
      "_Den": 7220,
      "_Der": 7221,
      "_Day": 7222,
      "_Dut": 7223,
      "_Double": 7224,
      "_Doer": 7225,
      "_Désormais": 7226,
      "abe": 7227,
      "acteurs": 7228,
      "active": 7229,
      "_décriv": 7230,
      "_Bor": 7231,
      "_Bat": 7232,
      "_Bul": 7233,
      "_Bash": 7234,
      "_Bild": 7235,
      "_BfV": 7236,
      "_Birming": 7237,
      "imul": 7238,
      "onner": 7239,
      "onnant": 7240,
      "ids": 7241,
      "idence": 7242,
      "_has": 7243,
      "_hors": 7244,
      "_hospit": 7245,
      "oi,": 7246,
      "oite.": 7247,
      "_ot": 7248,
      "_oeuvre": 7249,
      "ité,": 7250,
      "_Lee": 7251,
      "_Ici,": 7252,
      "_illé": 7253,
      "_\"G": 7254,
      "_\"il": 7255,
      "_\"la": 7256,
      "_\"je": 7257,
      "ico": 7258,
      "iction": 7259,
      "_Ny": 7260,
      "_Not": 7261,
      "_Nath": 7262,
      "_NEC": 7263,
      "_n'étais": 7264,
      "_n'arrive": 7265,
      "_n'étaient": 7266,
      "orth": 7267,
      "aient-": 7268,
      "_étages": 7269,
      "_établis": 7270,
      "ulp": 7271,
      "uler": 7272,
      "ulées": 7273,
      "_Europe,": 7274,
      "_Europe.": 7275,
      "enser": 7276,
      "_TI": 7277,
      "_Ti": 7278,
      "_Tah": 7279,
      "_Tian": 7280,
      "_Toront": 7281,
      "opédi": 7282,
      "_Festival": 7283,
      "deur": 7284,
      "veaux": 7285,
      "ageait": 7286,
      "ueMax": 7287,
      "atine": 7288,
      "_neur": 7289,
      "_s'am": 7290,
      "_s'être": 7291,
      "_s'acc": 7292,
      "_s'ins": 7293,
      "_s'occup": 7294,
      "_Lach": 7295,
      "_exig": 7296,
      "_exist": 7297,
      "_extra": 7298,
      "_Ro": 7299,
      "_Ron": 7300,
      "_Ret": 7301,
      "_Rom": 7302,
      "_Ros": 7303,
      "_RSCA": 7304,
      "_acteurs": 7305,
      "_activis": 7306,
      "_accessoires": 7307,
      "_Jag": 7308,
      "_Jack": 7309,
      "_Joe": 7310,
      "_James": 7311,
      "_Gener": 7312,
      "_Green": 7313,
      "_Guebuza": 7314,
      "tume": 7315,
      "tudi": 7316,
      "_déclarations": 7317,
      "_déclaration.": 7318,
      "entreprise": 7319,
      "_altitudes": 7320,
      "léo": 7321,
      "_poids": 7322,
      "ette.": 7323,
      "ado": 7324,
      "mif": 7325,
      "mique": 7326,
      "mptômes": 7327,
      "_liés": 7328,
      "_liée": 7329,
      "tater": 7330,
      "ogé": 7331,
      "oyers": 7332,
      "_outils": 7333,
      "aye": 7334,
      "ien.": 7335,
      "iennes": 7336,
      "iennes,": 7337,
      "_nous,": 7338,
      "_montrait": 7339,
      "_satel": 7340,
      "_sachant": 7341,
      "_faites": 7342,
      "fice": 7343,
      "fiés": 7344,
      "fiants.": 7345,
      "rédu": 7346,
      "_persuad": 7347,
      "_appelle": 7348,
      "_apparition": 7349,
      "_Hass": 7350,
      "_Hall": 7351,
      "_Haw": 7352,
      "_HTC": 7353,
      "_High": 7354,
      "_amis": 7355,
      "_amic": 7356,
      "_amis,": 7357,
      "_amende": 7358,
      "essin": 7359,
      "_conspir": 7360,
      "_consistoire": 7361,
      "_conséquent": 7362,
      "_constater": 7363,
      "nement,": 7364,
      "_L'ac": 7365,
      "_L'ob": 7366,
      "_L'agence": 7367,
      "_L'aff": 7368,
      "_L'exp": 7369,
      "_L'entreprise": 7370,
      "able,": 7371,
      "_frag": 7372,
      "_frac": 7373,
      "_frustr": 7374,
      "_fronde": 7375,
      "_franch": 7376,
      "_fromage,": 7377,
      "idents": 7378,
      "_peu,": 7379,
      "_suc": 7380,
      "endredi,": 7381,
      "_parties": 7382,
      "_partielle": 7383,
      "_entrev": 7384,
      "_entrepris": 7385,
      "_entreprise": 7386,
      "_entreprises,": 7387,
      "_Oli": 7388,
      "_Omar": 7389,
      "_Omnicom": 7390,
      "_annonc": 7391,
      "_percu": 7392,
      "_perdre": 7393,
      "_perquis": 7394,
      "ives": 7395,
      "ivre": 7396,
      "es...": 7397,
      "mbassade": 7398,
      "_disons": 7399,
      "_distin": 7400,
      "_dissim": 7401,
      "_personnes,": 7402,
      "_personnes.": 7403,
      "_personnalité": 7404,
      "_personnalités": 7405,
      "are,": 7406,
      "areils": 7407,
      "_argu": 7408,
      "utent": 7409,
      "Ã¢tel": 7410,
      "_après-mi": 7411,
      "lision": 7412,
      "_marqué": 7413,
      "_marins": 7414,
      "_marquer": 7415,
      "_marges": 7416,
      "aception,": 7417,
      "raî": 7418,
      "_écar": 7419,
      "_éclat": 7420,
      "_interjet": 7421,
      "_intervient": 7422,
      "_interromp": 7423,
      "_passés": 7424,
      "_passages": 7425,
      "_grand-ch": 7426,
      "_atti": 7427,
      "_atte": 7428,
      "_atté": 7429,
      "_compl": 7430,
      "_compét": 7431,
      "ements,": 7432,
      "istence": 7433,
      "êmement": 7434,
      "_prévention": 7435,
      "_prévenu": 7436,
      "t-ce": 7437,
      "_Frères": 7438,
      "stal": 7439,
      "_indiquait": 7440,
      "vier": 7441,
      "_(A": 7442,
      "_(C": 7443,
      "_(G": 7444,
      "_(l": 7445,
      "_(s": 7446,
      "_(le": 7447,
      "_(CS": 7448,
      "_recru": 7449,
      "_Vir": 7450,
      "_Vaus": 7451,
      "_Vieux": 7452,
      "_Vendredi,": 7453,
      "icile,": 7454,
      "ingbah": 7455,
      "_confidenti": 7456,
      "_Kh": 7457,
      "_Kir": 7458,
      "_Kath": 7459,
      "_Kamp": 7460,
      "_Kiev": 7461,
      "_noms": 7462,
      "asser": 7463,
      "assam": 7464,
      "_finance": 7465,
      "_financ": 7466,
      "_gouverneur": 7467,
      "ions.": 7468,
      "_37": 7469,
      "_32,": 7470,
      "ssad": 7471,
      "ssociation": 7472,
      "_soud": 7473,
      "_secteurs": 7474,
      "_vite": 7475,
      "lle.": 7476,
      "ventionn": 7477,
      "_carac": 7478,
      "_drone": 7479,
      "_dépit": 7480,
      "_Écosse": 7481,
      "_l'inf": 7482,
      "_l'inverse": 7483,
      "_l'indice": 7484,
      "_Chic": 7485,
      "_Chris": 7486,
      "_Chine,": 7487,
      "_Chambre": 7488,
      "_Christ": 7489,
      "_Chanz": 7490,
      "_Chirac": 7491,
      "_ChÃ¢tel": 7492,
      "qu'à": 7493,
      "_gouvernement,": 7494,
      "_gouvernements": 7495,
      "_gouvernemental": 7496,
      "_crème": 7497,
      "_crack": 7498,
      "mettent": 7499,
      "_l'At": 7500,
      "_l'Americ": 7501,
      "_l'APHP,": 7502,
      "_l'Association": 7503,
      "_2010": 7504,
      "_2014": 7505,
      "_2010,": 7506,
      "_2015,": 7507,
      "_44": 7508,
      "_4,5": 7509,
      "visib": 7510,
      "_résolu": 7511,
      "_résili": 7512,
      "_publier": 7513,
      "_publique": 7514,
      "_admet": 7515,
      "_contraception,": 7516,
      "_régler": 7517,
      "_régulier": 7518,
      "_Wal": 7519,
      "_Wild": 7520,
      "_Wilk": 7521,
      "_posée": 7522,
      "_postes": 7523,
      "_minières": 7524,
      "_symptômes": 7525,
      "issant": 7526,
      "_l'étude": 7527,
      "_l'élection": 7528,
      "_l'égard": 7529,
      "_l'analyse": 7530,
      "_lui.": 7531,
      "_renouv": 7532,
      "_bras": 7533,
      "_brass": 7534,
      "_branche": 7535,
      "_Enfin": 7536,
      "_Uni": 7537,
      "_UBS": 7538,
      "tateurs": 7539,
      "taquer": 7540,
      "quiers": 7541,
      "quiétude": 7542,
      "_transactions": 7543,
      "_million": 7544,
      "_précau": 7545,
      "_précéde": 7546,
      "-t-elle.": 7547,
      "ro-": 7548,
      "_terrains": 7549,
      "_moments": 7550,
      "_motiv": 7551,
      "_visa": 7552,
      "_visé": 7553,
      "_visait": 7554,
      "_vision": 7555,
      "_vis-à-": 7556,
      "_proposition": 7557,
      "austéri": 7558,
      "umation": 7559,
      "étées": 7560,
      "alifax": 7561,
      "_jugé": 7562,
      "_Yeah": 7563,
      "_donnent": 7564,
      "_donnait": 7565,
      "_association": 7566,
      "_assassin": 7567,
      "_2002": 7568,
      "_2007": 7569,
      "_2009": 7570,
      "_2006.": 7571,
      "_diffusé": 7572,
      "péfiants.": 7573,
      "_affec": 7574,
      "_cours.": 7575,
      "aniel": 7576,
      "_d'aujourd'hui": 7577,
      "_d'auth": 7578,
      "_téléchar": 7579,
      "_créant": 7580,
      "_mois-ci": 7581,
      "_l'avant": 7582,
      "_l'avons": 7583,
      "_l'avance": 7584,
      "_l'avortement": 7585,
      "_l'avertissement": 7586,
      "_l'avenue": 7587,
      "_reprodu": 7588,
      "_encad": 7589,
      "_enclin": 7590,
      "_obli": 7591,
      "_obten": 7592,
      "_objets": 7593,
      "cturation": 7594,
      "_coff": 7595,
      "_coopération": 7596,
      "_effets": 7597,
      "_52": 7598,
      "_hommage": 7599,
      "vening": 7600,
      "_police.": 7601,
      "gner": 7602,
      "gnation": 7603,
      "ole,": 7604,
      "éliorer": 7605,
      "_portefeu": 7606,
      "_forcer": 7607,
      "_générale": 7608,
      "_généralement": 7609,
      "_phase": 7610,
      "_phénom": 7611,
      "_sous-": 7612,
      "_collision": 7613,
      "_Comité": 7614,
      "accord": 7615,
      "_présentant": 7616,
      "_présentation": 7617,
      "_présentée": 7618,
      "_communiste": 7619,
      "_américaines,": 7620,
      "adition": 7621,
      "_malade": 7622,
      "_timbre": 7623,
      "_tirent": 7624,
      "_envie": 7625,
      "_envol": 7626,
      "_voter": 7627,
      "_voter,": 7628,
      "aut.": 7629,
      "_Aucun": 7630,
      "_servant": 7631,
      "_espoir": 7632,
      "_auront": 7633,
      "_sol-": 7634,
      "_solutions": 7635,
      "_solvabilité": 7636,
      "_mettent": 7637,
      "_mettant": 7638,
      "_d'Ab": 7639,
      "_d'Air": 7640,
      "_Mark": 7641,
      "_Mary": 7642,
      "_Marguerite": 7643,
      "_projet,": 7644,
      "_répand": 7645,
      "_réparer": 7646,
      "_temps,": 7647,
      "_utilisées": 7648,
      "ateur.": 7649,
      "iera": 7650,
      "pective": 7651,
      "_scènes": 7652,
      "_sculp": 7653,
      "tructuration": 7654,
      "_vie,": 7655,
      "_passager": 7656,
      "_loi.": 7657,
      "_signé": 7658,
      "_mort,": 7659,
      "_relatives": 7660,
      "_insurg": 7661,
      "_inspir": 7662,
      "_insolites,": 7663,
      "_Ethan": 7664,
      "_statis": 7665,
      "_corp": 7666,
      "_capteurs": 7667,
      "_niveaux": 7668,
      "_l'homme": 7669,
      "eure.": 7670,
      "_chargés": 7671,
      "_blessés,": 7672,
      "_600": 7673,
      "luscon": 7674,
      "lande.": 7675,
      "_évac": 7676,
      "_journaux": 7677,
      "_chi,": 7678,
      "_chiite": 7679,
      "_autorité": 7680,
      "_%,": 7681,
      "aîtra": 7682,
      "lo-s": 7683,
      "_nationale.": 7684,
      "_désordre": 7685,
      "_désaccord": 7686,
      "_incroy": 7687,
      "_millions,": 7688,
      "_millions.": 7689,
      "_coupes": 7690,
      "_couple": 7691,
      "_couples": 7692,
      "_matières": 7693,
      "_violé": 7694,
      "_violation": 7695,
      "_violents": 7696,
      "_violente": 7697,
      "_agent": 7698,
      "_agents": 7699,
      "_agress": 7700,
      "_agric": 7701,
      "_côte": 7702,
      "_l'existence": 7703,
      "_déjà,": 7704,
      "agner": 7705,
      "_Brésil": 7706,
      "_Thom": 7707,
      "_nouvelle.": 7708,
      "_l'année.": 7709,
      "aks": 7710,
      "akimul": 7711,
      "_locale": 7712,
      "_locaux": 7713,
      "_locale,": 7714,
      "_class": 7715,
      "_volonté": 7716,
      "_européen.": 7717,
      "_mile.": 7718,
      "_jours.": 7719,
      "_concernait": 7720,
      "_jusqu'en": 7721,
      "_jusqu'aux": 7722,
      "_image": 7723,
      "_procureur": 7724,
      "_société.": 7725,
      "_portes": 7726,
      "_portait": 7727,
      "_contamin": 7728,
      "_conteste": 7729,
      "_fondation": 7730,
      "_restait": 7731,
      "_bases": 7732,
      "_prises": 7733,
      "_biolog": 7734,
      "ologne": 7735,
      "ologique": 7736,
      "_Inter": 7737,
      "_prévus": 7738,
      "_prévoir": 7739,
      "_électriques": 7740,
      "_contrôlé": 7741,
      "_développé": 7742,
      "_surveillance.": 7743,
      "_entam": 7744,
      "_entraî": 7745,
      "_critiqué": 7746,
      "_causée": 7747,
      "tisé": 7748,
      "_restructuration": 7749,
      "_bénéfices": 7750,
      "_révéler": 7751,
      "_GrÃ¢ce": 7752,
      "_allaient": 7753,
      "_allumé": 7754,
      "cultur": 7755,
      "_pensaient": 7756,
      "_santé,": 7757,
      "_santé.": 7758,
      "tellig": 7759,
      "_conduire": 7760,
      "_profond": 7761,
      "_l'unité": 7762,
      "_d'éch": 7763,
      "_d'équip": 7764,
      "_d'étudi": 7765,
      "_bank\"": 7766,
      "_banquiers": 7767,
      "_J'avais": 7768,
      "_J'espère": 7769,
      "_reconnaiss": 7770,
      "_expliqué.": 7771,
      "_abord": 7772,
      "_cannab": 7773,
      "ances,": 7774,
      "ances.": 7775,
      "_public,": 7776,
      "_publics": 7777,
      "_publication": 7778,
      "credi,": 7779,
      "gmentation": 7780,
      "_soirée": 7781,
      "ervation": 7782,
      "ervilli": 7783,
      "_notation": 7784,
      "_départs": 7785,
      "_boule": 7786,
      "_boutique": 7787,
      "_commentaire": 7788,
      "_importants": 7789,
      "_britannique.": 7790,
      "_légère": 7791,
      "_famili": 7792,
      "trémis": 7793,
      "liger": 7794,
      "produ": 7795,
      "_enfant,": 7796,
      "_souri": 7797,
      "_souris": 7798,
      "_d'extr": 7799,
      "_d'expl": 7800,
      "_d'exécu": 7801,
      "_d'examen": 7802,
      "_d'expli": 7803,
      "_échapp": 7804,
      "_échanger": 7805,
      "_échoué": 7806,
      "_échanges": 7807,
      "_consignes": 7808,
      "idémie": 7809,
      "_zones": 7810,
      "_organiser": 7811,
      "_organisée": 7812,
      "atrices": 7813,
      "oles,": 7814,
      "_laryn": 7815,
      "_sépar": 7816,
      "_suscite": 7817,
      "ortigar": 7818,
      "_repli": 7819,
      "_repein": 7820,
      "_trouvaient": 7821,
      "olution": 7822,
      "_Améri": 7823,
      "_Amérique": 7824,
      "_Amirth": 7825,
      "-delà": 7826,
      "_mouvements": 7827,
      "_l'Ukr": 7828,
      "_l'attention": 7829,
      "_l'attitude": 7830,
      "_privé": 7831,
      "_privés": 7832,
      "_réalisée": 7833,
      "_réalisées": 7834,
      "identification": 7835,
      "_médicales": 7836,
      "_téléphonique,": 7837,
      "_électroniques,": 7838,
      "_eux-mêmes": 7839,
      "_voulaient": 7840,
      "_blond": 7841,
      "_blanche": 7842,
      "_revenu": 7843,
      "_revendi": 7844,
      "_revenue": 7845,
      "_revendic": 7846,
      "_précision": 7847,
      "_espèrent": 7848,
      "_ville,": 7849,
      "_intérêt": 7850,
      "_traduit": 7851,
      "_actuel": 7852,
      "_actuelle": 7853,
      "_actuels": 7854,
      "_actuelle,": 7855,
      "_York,": 7856,
      "_médias.": 7857,
      "registre": 7858,
      "_l'augmentation": 7859,
      "_besoins": 7860,
      "_théÃ¢tre": 7861,
      "_remu": 7862,
      "_remar": 7863,
      "_cherché": 7864,
      "_chercher": 7865,
      "sions,": 7866,
      "_apparten": 7867,
      "_apparaiss": 7868,
      "_lorsqu'on": 7869,
      "_lorsqu'elle": 7870,
      "_lorsqu'une": 7871,
      "_croissant": 7872,
      "_moment,": 7873,
      "-Bourge": 7874,
      "ime.": 7875,
      "_saisir": 7876,
      "_règle": 7877,
      "_règlement": 7878,
      "_d'entreprises": 7879,
      "_aujourd'hui,": 7880,
      "_aujourd'hui.": 7881,
      "_Barat": 7882,
      "_Barclay": 7883,
      "_n'avais": 7884,
      "_discrimin": 7885,
      "_américaine.": 7886,
      "_région,": 7887,
      "_véhicules,": 7888,
      "_campagnes": 7889,
      "_engagé": 7890,
      "_augmenter": 7891,
      "_infec": 7892,
      "_habitants": 7893,
      "_habitants.": 7894,
      "_habitude": 7895,
      "_livre.": 7896,
      "_mondiale,": 7897,
      "_attendre": 7898,
      "_financier": 7899,
      "_financières": 7900,
      "_proposer": 7901,
      "_proposent": 7902,
      "_révélation": 7903,
      "_drogue,": 7904,
      "_paie": 7905,
      "_sauf": 7906,
      "_tôt,": 7907,
      "_Morris": 7908,
      "_trimes": 7909,
      "_soldats.": 7910,
      "_Quatre": 7911,
      "_dirigeant": 7912,
      "_principal": 7913,
      "_chinois.": 7914,
      "_chinoise": 7915,
      "_fédérales": 7916,
      "_ça,": 7917,
      "_ça.": 7918,
      "_doux": 7919,
      "_double": 7920,
      "_douze": 7921,
      "_porté": 7922,
      "_faisaient": 7923,
      "_l'écrit": 7924,
      "_l'éclair": 7925,
      "_rendent": 7926,
      "_rendez-vous": 7927,
      "_promenait": 7928,
      "_venu": 7929,
      "_épis": 7930,
      "_épouse": 7931,
      "_joué": 7932,
      "_anticip": 7933,
      "_emporter": 7934,
      "_D'après": 7935,
      "_participant": 7936,
      "_participation": 7937,
      "_dernière.": 7938,
      "_majeur": 7939,
      "_majeurs": 7940,
      "_famille,": 7941,
      "_populaire": 7942,
      "_dollars.": 7943,
      "onyi": 7944,
      "onymat": 7945,
      "_subti": 7946,
      "_celle-ci": 7947,
      "_l'enclave": 7948,
      "_rangées": 7949,
      "_d'accusation": 7950,
      "_guerre.": 7951,
      "_rencontré": 7952,
      "_Bruxellois": 7953,
      "_importantes": 7954,
      "_mercredi.": 7955,
      "_savamment": 7956,
      "_tenue": 7957,
      "_totale": 7958,
      "_tombés": 7959,
      "_Berluscon": 7960,
      "_commerciaux": 7961,
      "_commerciales": 7962,
      "_constitution": 7963,
      "_arrivés": 7964,
      "_arriver.": 7965,
      "_Syrie.": 7966,
      "_dossier.": 7967,
      "bek": 7968,
      "cations.": 7969,
      "médiat": 7970,
      "médiaire": 7971,
      "osition,": 7972,
      "_domin": 7973,
      "_doig": 7974,
      "_lancer": 7975,
      "_manque": 7976,
      "_manufact": 7977,
      "_fusil": 7978,
      "_d'empl": 7979,
      "_d'habit": 7980,
      "_Arena": 7981,
      "_commencer": 7982,
      "_observer": 7983,
      "_observé": 7984,
      "_entier": 7985,
      "_entier,": 7986,
      "_sortir": 7987,
      "_feu.": 7988,
      "_l'administr": 7989,
      "_d'essence": 7990,
      "_d'essayer": 7991,
      "_voisin": 7992,
      "_bÃ¢c": 7993,
      "_bÃ¢tis": 7994,
      "_géop": 7995,
      "ault,": 7996,
      "ocrin": 7997,
      "ocrates": 7998,
      "_2013.": 7999,
      "_possède": 8000,
      "_possible.": 8001,
      "_définir": 8002,
      "_définition": 8003,
      "_libération,": 8004,
      "_l'État.": 8005,
      "_procédure": 8006,
      "_femme.": 8007,
      "_voiture.": 8008,
      "_Morsi,": 8009,
      "-Québec": 8010,
      "ilibre": 8011,
      "_noirs": 8012,
      "_délivre": 8013,
      "_délibérément": 8014,
      "_conduit": 8015,
      "_Phase": 8016,
      "_excès": 8017,
      "_Rep": 8018,
      "_mariée": 8019,
      "_mariage": 8020,
      "_marijuana": 8021,
      "_direction.": 8022,
      "_déplacement": 8023,
      "_ministères": 8024,
      "_terrorisme,": 8025,
      "_moderne": 8026,
      "_modèles": 8027,
      "_crématis": 8028,
      "_effectués": 8029,
      "_stocks": 8030,
      "_aucunement": 8031,
      "_communiqué,": 8032,
      "_cérémonies": 8033,
      "_cérémonie.": 8034,
      "_achet": 8035,
      "_acheter": 8036,
      "_acheté": 8037,
      "_sciences": 8038,
      "_certi": 8039,
      "_monter": 8040,
      "_fortune": 8041,
      "_l'immédiat": 8042,
      "_tunnels": 8043,
      "_tunnel,": 8044,
      "_conditionn": 8045,
      "_Medic": 8046,
      "_Mehs": 8047,
      "_Canadi": 8048,
      "_Cour,": 8049,
      "_réagit": 8050,
      "_réagissent": 8051,
      "_Australie": 8052,
      "_Gaza,": 8053,
      "_arrive": 8054,
      "_arrivent": 8055,
      "_colline": 8056,
      "_capital": 8057,
      "_autorisé": 8058,
      "_islamiste": 8059,
      "_puissants": 8060,
      "_puissante": 8061,
      "_prévu.": 8062,
      "_l'Institut": 8063,
      "_considérée": 8064,
      "_succès.": 8065,
      "_Md$,": 8066,
      "_pièce": 8067,
      "_pénale": 8068,
      "_figuraient": 8069,
      "_facilement": 8070,
      "_l'accent": 8071,
      "_prononcé": 8072,
      "_tuées": 8073,
      "_tournent": 8074,
      "_Coen": 8075,
      "_Coen,": 8076,
      "_Caringbah": 8077,
      "_remplacement": 8078,
      "_analyste": 8079,
      "_Abou": 8080,
      "_gratuite": 8081,
      "_accusent": 8082,
      "_accusés": 8083,
      "_accusations": 8084,
      "_dépenser": 8085,
      "_adulte": 8086,
      "_adultes.": 8087,
      "_renforce": 8088,
      "_renforcer": 8089,
      "_terme.": 8090,
      "_maîtres": 8091,
      "_coûts,": 8092,
      "_étudie": 8093,
      "_étudiants": 8094,
      "_Singapour,": 8095,
      "_Royaume-Uni,": 8096,
      "crip": 8097,
      "_mél": 8098,
      "_multipli": 8099,
      "_multiples": 8100,
      "_multicultur": 8101,
      "_l'appareil": 8102,
      "_vérifier": 8103,
      "_détour": 8104,
      "_détails": 8105,
      "_détruire": 8106,
      "_inquié": 8107,
      "_plaintes": 8108,
      "_Bowler": 8109,
      "terminé": 8110,
      "_supermar": 8111,
      "exprim": 8112,
      "_écouter": 8113,
      "_ValueMax": 8114,
      "_conclusion": 8115,
      "_souffre": 8116,
      "_secondes": 8117,
      "_rappelé": 8118,
      "_rappeler": 8119,
      "_l'argent.": 8120,
      "_chiffre": 8121,
      "_longtemps.": 8122,
      "_spécialistes": 8123,
      "_internationale.": 8124,
      "_empêché": 8125,
      "_témoignages": 8126,
      "_enregistrés": 8127,
      "_victime": 8128,
      "_alimentaire.": 8129,
      "_diplomatique": 8130,
      "_pharmacie": 8131,
      "eek-end": 8132,
      "sylv": 8133,
      "_lucr": 8134,
      "_calcul": 8135,
      "_cabines": 8136,
      "oud,": 8137,
      "_mairie": 8138,
      "_facteurs": 8139,
      "_naturel": 8140,
      "_l'acteur": 8141,
      "_l'accident": 8142,
      "_l'espèce": 8143,
      "_l'assassin": 8144,
      "_descente": 8145,
      "_d'aller": 8146,
      "_d'altitude": 8147,
      "_vastes": 8148,
      "_dénonc": 8149,
      "_boeu": 8150,
      "_Congo": 8151,
      "_industriel": 8152,
      "_planification": 8153,
      "_1,3": 8154,
      "_Turner": 8155,
      "_Financi": 8156,
      "_dizaine": 8157,
      "_telles": 8158,
      "_soutenait": 8159,
      "_carrière,": 8160,
      "_l'intervention": 8161,
      "_impliqué": 8162,
      "_impliquant": 8163,
      "_adopté,": 8164,
      "_génétiques": 8165,
      "_encourage": 8166,
      "_encourager": 8167,
      "_prochaine.": 8168,
      "_localités": 8169,
      "_km/h": 8170,
      "_attendent": 8171,
      "_paix.": 8172,
      "_indépendante": 8173,
      "_Grande-Bretagne.": 8174,
      "_Zoom": 8175,
      "éÃ¢tres": 8176,
      "_logici": 8177,
      "_spons": 8178,
      "_sacs": 8179,
      "_cuisine": 8180,
      "_cuisines": 8181,
      "anche,": 8182,
      "_rêve": 8183,
      "_rêves": 8184,
      "_rêve.": 8185,
      "_éventuelle": 8186,
      "_éventuellement": 8187,
      "_tard.": 8188,
      "_geste": 8189,
      "_Mercredi,": 8190,
      "_introd": 8191,
      "_introdu": 8192,
      "_indemn": 8193,
      "_réunion": 8194,
      "opérations": 8195,
      "_RDC,": 8196,
      "_RDC.": 8197,
      "_position": 8198,
      "_L'Allemagne": 8199,
      "_cheveux,": 8200,
      "_préfère": 8201,
      "_préfecture": 8202,
      "_associations": 8203,
      "_coûts": 8204,
      "_combattants,": 8205,
      "_législatives": 8206,
      "_justice.": 8207,
      "_palliatifs,": 8208,
      "_d'Halloween,": 8209,
      "_d'Halloween.": 8210,
      "_scientifique": 8211,
      "_Tripodi,": 8212,
      "_Nouvelle-Zé": 8213,
      "_Bunagana": 8214,
      "_vice-gouver": 8215,
      "_with": 8216,
      "_week-end": 8217,
      "com.": 8218,
      "_demi,": 8219,
      "_fumer": 8220,
      "_village": 8221,
      "_villages": 8222,
      "_auditions": 8223,
      "_parents,": 8224,
      "meuble": 8225,
      "_Malgré": 8226,
      "_CSS": 8227,
      "_remporté": 8228,
      "_plate-forme": 8229,
      "_empris": 8230,
      "_Peut-être": 8231,
      "_Brook": 8232,
      "_sondages": 8233,
      "_potenti": 8234,
      "_WikiLe": 8235,
      "_transmissions": 8236,
      "_respecter": 8237,
      "_d'investiture": 8238,
      "_physique": 8239,
      "_espérant": 8240,
      "_espérons": 8241,
      "_kilométr": 8242,
      "_kilomètres": 8243,
      "_démarrer": 8244,
      "_essentiellement": 8245,
      "_Scott": 8246,
      "_palestinien": 8247,
      "_février,": 8248,
      "_signalé": 8249,
      "_signaler": 8250,
      "_IsraÃ«l,": 8251,
      "_satisfait": 8252,
      "uyé": 8253,
      "_psych": 8254,
      "_navig": 8255,
      "_prétend": 8256,
      "_prétendu": 8257,
      "_d'écoute": 8258,
      "_d'appareils": 8259,
      "_d'assises": 8260,
      "_d'année": 8261,
      "_d'années,": 8262,
      "_valeurs": 8263,
      "_épuisé": 8264,
      "_Louis": 8265,
      "_déterminé": 8266,
      "_déterminer": 8267,
      "_détecté": 8268,
      "_détective": 8269,
      "_bloque": 8270,
      "_Motors": 8271,
      "_progression": 8272,
      "_S'exprim": 8273,
      "_rédacteur": 8274,
      "_Assange": 8275,
      "_décès,": 8276,
      "_Ellis": 8277,
      "_divertissement": 8278,
      "_s'étaient": 8279,
      "_Rocket": 8280,
      "_construit": 8281,
      "_construire": 8282,
      "_supérieur": 8283,
      "_performance": 8284,
      "_perpétu": 8285,
      "_meilleur": 8286,
      "_accompli": 8287,
      "_lui-même.": 8288,
      "_évoluent": 8289,
      "_évolution": 8290,
      "_Québec.": 8291,
      "_connaissent": 8292,
      "_Al-Qaid": 8293,
      "_Al-Qaïd": 8294,
      "_bonbons,": 8295,
      "_Saint-Joseph": 8296,
      "_chirurgicaux": 8297,
      "_consultations": 8298,
      "_concurrence": 8299,
      "_concurrents": 8300,
      "_logements,": 8301,
      "_boîte": 8302,
      "_génétique.": 8303,
      "_smartphones": 8304,
      "kins,": 8305,
      "_statut": 8306,
      "_sâ€™agit": 8307,
      "_l'euro": 8308,
      "_roman": 8309,
      "_endroit": 8310,
      "_congolais": 8311,
      "_congolaise": 8312,
      "_Maliki,": 8313,
      "_Conservation": 8314,
      "_remettent": 8315,
      "_championn": 8316,
      "_angoiss": 8317,
      "éroï": 8318,
      "_Pasteur": 8319,
      "_occident": 8320,
      "_\"Otages": 8321,
      "_Flor": 8322,
      "_grosses": 8323,
      "_auxquels": 8324,
      "_conséquences": 8325,
      "partie": 8326,
      "_distribué": 8327,
      "_intercepté": 8328,
      "_exploit": 8329,
      "_expériment": 8330,
      "_complète": 8331,
      "_Chevr": 8332,
      "_judiciaire": 8333,
      "_judiciaires": 8334,
      "_efficace": 8335,
      "_efficaces": 8336,
      "_républicain": 8337,
      "_républicains": 8338,
      "_prochain.": 8339,
      "_continuent": 8340,
      "_économiques,": 8341,
      "_souvenirs": 8342,
      "_l'atterrissage": 8343,
      "_l'atterrissage.": 8344,
      "_privilég": 8345,
      "_chercheurs": 8346,
      "_civils,": 8347,
      "_conseillers": 8348,
      "_convaincus": 8349,
      "_sud-est": 8350,
      "_délivré": 8351,
      "-Maliki": 8352,
      "_investissements": 8353,
      "_Pitcairn": 8354,
      "_O'Malley": 8355,
      "_stratégies": 8356,
      "_Mazanga": 8357,
      "_Mazanga.": 8358,
      "_Kaplowitz.": 8359,
      "_dîner": 8360,
      "ension,": 8361,
      "_papier": 8362,
      "_studi": 8363,
      "_stupéfiants.": 8364,
      "_mécan": 8365,
      "_mécontentement": 8366,
      "_maths": 8367,
      "levant": 8368,
      "_fluoresc": 8369,
      "_nicotine.": 8370,
      "_l'oratoire": 8371,
      "_l'ami": 8372,
      "_l'établissement": 8373,
      "_l'occasion,": 8374,
      "_uniforme": 8375,
      "_enseign": 8376,
      "_d'urgence": 8377,
      "_d'identifier": 8378,
      "_d'identification": 8379,
      "_virus": 8380,
      "ussit": 8381,
      "_protéine": 8382,
      "_Safira": 8383,
      "_Safety": 8384,
      "_Dhab": 8385,
      "_Dhlak": 8386,
      "_Est-ce": 8387,
      "_divorce": 8388,
      "_extrêmement": 8389,
      "_Région": 8390,
      "_serveurs": 8391,
      "_consacrent": 8392,
      "_texte": 8393,
      "_exportations": 8394,
      "_compétition": 8395,
      "_(NSA": 8396,
      "_confronté": 8397,
      "_dépêchés": 8398,
      "_dépendent": 8399,
      "_contraintes": 8400,
      "_Jean-L": 8401,
      "_inspecteurs": 8402,
      "_Thaïlande": 8403,
      "_volontaire": 8404,
      "_mi-octobre": 8405,
      "_contenaient": 8406,
      "_déclenché": 8407,
      "_d'affaires": 8408,
      "_d'affiche": 8409,
      "_compromis": 8410,
      "_fournisseurs": 8411,
      "_enregistrements": 8412,
      "_définitive": 8413,
      "_définitivement": 8414,
      "_exclusi": 8415,
      "_ambitieux": 8416,
      "_frontaliers": 8417,
      "_frontalière": 8418,
      "_rassemblés": 8419,
      "_Alexander": 8420,
      "_maternité": 8421,
      "_fabrication": 8422,
      "_désigné": 8423,
      "_parcourus": 8424,
      "_controversée": 8425,
      "_rétablir": 8426,
      "_Federal": 8427,
      "_pauvreté": 8428,
      "_Pawlby": 8429,
      "Internet": 8430,
      "heureux": 8431,
      "_strictes": 8432,
      "_cessé": 8433,
      "_quâ€™il": 8434,
      "_quasiment": 8435,
      "_foot": 8436,
      "_foule": 8437,
      "_d'agressions": 8438,
      "_vigueur": 8439,
      "_tapis": 8440,
      "_partenariat": 8441,
      "_gestes": 8442,
      "_conjoints": 8443,
      "_Mulc": 8444,
      "_Murphy": 8445,
      "_CASA": 8446,
      "_produis": 8447,
      "_protest": 8448,
      "_héros,": 8449,
      "_Nicolas": 8450,
      "_n'existe": 8451,
      "_Européens": 8452,
      "_Jomba,": 8453,
      "_constamment": 8454,
      "_consommer": 8455,
      "_consensus": 8456,
      "_suggère": 8457,
      "_artistes": 8458,
      "_écossais": 8459,
      "_l'instant": 8460,
      "_égyptien": 8461,
      "_réserves": 8462,
      "_adolesc": 8463,
      "_adjoint": 8464,
      "_symboli": 8465,
      "_l'étranger": 8466,
      "_directives": 8467,
      "_machines": 8468,
      "_assouplir": 8469,
      "_2001,": 8470,
      "_affichent": 8471,
      "_défunts": 8472,
      "_déficit": 8473,
      "_Commonwealth": 8474,
      "_évacuée": 8475,
      "_locataires": 8476,
      "_immense": 8477,
      "_manipulations": 8478,
      "_l'Elysée": 8479,
      "_boucles": 8480,
      "_sévices": 8481,
      "_blocs": 8482,
      "_disposant": 8483,
      "_théorie": 8484,
      "_influenc": 8485,
      "_installations": 8486,
      "_livraisons": 8487,
      "_vidéosurveill": 8488,
      "_trafiquant": 8489,
      "_Xinjiang,": 8490,
      "_compartiments": 8491,
      "_pétrolière": 8492,
      "_cabinet": 8493,
      "_difficultés": 8494,
      "_psychiatre": 8495,
      "_perpétrés": 8496,
      "_meurtrier": 8497,
      "_Beaudoin": 8498,
      "_l'ambassadeur": 8499,
      "_hypothès": 8500,
      "_Nevada": 8501,
      "_Mozambique": 8502,
      "_Moyen-Orient.": 8503,
      "aquet": 8504,
      "structionnisme": 8505,
      "ydro": 8506,
      "Ã¶be": 8507,
      "_demain": 8508,
      "_creusé": 8509,
      "_cendres": 8510,
      "_copie": 8511,
      "_cÃ¢b": 8512,
      "_mammif": 8513,
      "lectricité": 8514,
      "_leader": 8515,
      "_farouchement": 8516,
      "_fournies": 8517,
      "_numéri": 8518,
      "_rattrap": 8519,
      "_royale": 8520,
      "_d'égalité": 8521,
      "_érotiques": 8522,
      "_émanant": 8523,
      "_Latak": 8524,
      "_auparavant.": 8525,
      "_bleu": 8526,
      "_boisson": 8527,
      "_gendarmes": 8528,
      "_gaspill": 8529,
      "_Crédit": 8530,
      "_reviendra": 8531,
      "_chansons": 8532,
      "_plombé": 8533,
      "américaines": 8534,
      "_StrÃ¶be": 8535,
      "_Seule": 8536,
      "_qu'Obama": 8537,
      "_Ainsi,": 8538,
      "_Pamela": 8539,
      "_Dresch": 8540,
      "terroriste": 8541,
      "_occas": 8542,
      "_Forces": 8543,
      "_Fonds": 8544,
      "_Frelim": 8545,
      "_diverses": 8546,
      "_Rwanda": 8547,
      "_Joel": 8548,
      "_Jeudi,": 8549,
      "_commissariat": 8550,
      "_L'ONU": 8551,
      "_L'enquête": 8552,
      "_Oscar": 8553,
      "_Obama,": 8554,
      "_articles": 8555,
      "_complexe": 8556,
      "_Vallortigar": 8557,
      "_cargaison": 8558,
      "_l'Angleterre": 8559,
      "_électorale": 8560,
      "_ministres": 8561,
      "_matériel": 8562,
      "démocrates": 8563,
      "_Communications": 8564,
      "_l'armée,": 8565,
      "_stand-up": 8566,
      "_correctement": 8567,
      "rivoiser": 8568,
      "_incursion": 8569,
      "_filiale": 8570,
      "_Bruce": 8571,
      "_supporters": 8572,
      "_réfléchir": 8573,
      "_réfugi": 8574,
      "_pornographie": 8575,
      "_empreintes": 8576,
      "_veineux": 8577,
      "_approuvé": 8578,
      "_Abdel-Malik": 8579,
      "_passeports": 8580,
      "_littérature": 8581,
      "_shérif": 8582,
      "_Huawei": 8583,
      "_énergétique": 8584,
      "_Blackbur": 8585,
      "_accrochages": 8586,
      "_Californie": 8587,
      "_Silverado": 8588,
      "_homosexuel": 8589,
      "_soupçonné": 8590,
      "_Runyonyi": 8591,
      "_Plibersek": 8592,
      "_déploiement": 8593,
      "_ultime": 8594,
      "hentification": 8595,
      "itinér": 8596,
      "iCapri": 8597,
      "_dommages": 8598,
      "_polémique": 8599,
      "_demeure": 8600,
      "_mythes": 8601,
      "_rÃ¢le": 8602,
      "el-Assad": 8603,
      "_encein": 8604,
      "_vêtements": 8605,
      "_billets": 8606,
      "_blindé": 8607,
      "_testicu": 8608,
      "_gadg": 8609,
      "_congrégation": 8610,
      "_avançait": 8611,
      "dimbourg": 8612,
      "_japonais": 8613,
      "_chÃ¢teau": 8614,
      "_Spéléo": 8615,
      "_Sierra": 8616,
      "_Stacy": 8617,
      "_semblent": 8618,
      "_qu'auraient-": 8619,
      "_Pacifique": 8620,
      "_Pennsylv": 8621,
      "_Patrick": 8622,
      "_Doerks": 8623,
      "_Désormais,": 8624,
      "_Bulgar": 8625,
      "_Birmingham": 8626,
      "_illég": 8627,
      "_NotW": 8628,
      "_établissements": 8629,
      "_existants": 8630,
      "_extraordin": 8631,
      "_General": 8632,
      "_Highway": 8633,
      "_interjeté": 8634,
      "_grand-chose": 8635,
      "_Vaussion": 8636,
      "_Vieux-Québec": 8637,
      "_Enfin,": 8638,
      "_précédemment": 8639,
      "_vis-à-vis": 8640,
      "austérité": 8641,
      "_d'authenticité": 8642,
      "_portefeuille": 8643,
      "_Marguerite-Bourge": 8644,
      "_statistiques": 8645,
      "lo-sax": 8646,
      "akimullah": 8647,
      "_laryngite": 8648,
      "_Amirthaling": 8649,
      "_Berlusconi": 8650,
      "_manufactur": 8651,
      "_Mehsud": 8652,
      "_multiculturalisme,": 8653,
      "_lucratif": 8654,
      "_l'assassinat": 8655,
      "_vice-gouverneur": 8656,
      "_WikiLeaks": 8657,
      "_S'exprimant": 8658,
      "_vidéosurveillance": 8659,
      "_Pennsylvan": 8660,
      "_Marguerite-Bourgeoy": 8661,
      "\"bad": 8662,
      "%,": 8663,
      "%).": 8664,
      "-V": 8665,
      "-g": 8666,
      "-h": 8667,
      "-t": 8668,
      "-on": 8669,
      "-elles": 8670,
      "-ro": 8671,
      "-elle.": 8672,
      "-formes": 8673,
      "-201": 8674,
      "-démocrates": 8675,
      ".000": 8676,
      ".-d": 8677,
      ".S.": 8678,
      ".A.": 8679,
      "/1": 8680,
      "12": 8681,
      "17": 8682,
      "2%": 8683,
      "3,": 8684,
      "3.": 8685,
      "350": 8686,
      "42": 8687,
      "45": 8688,
      "47": 8689,
      "54": 8690,
      "55": 8691,
      "500": 8692,
      "50,": 8693,
      "63": 8694,
      "6,2": 8695,
      "8.": 8696,
      "88": 8697,
      "AM": 8698,
      "AP": 8699,
      "An": 8700,
      "BI": 8701,
      "CH": 8702,
      "DG": 8703,
      "Enter": 8704,
      "FI": 8705,
      "FO": 8706,
      "Fir": 8707,
      "Germ": 8708,
      "HTSA": 8709,
      "II": 8710,
      "IM": 8711,
      "IME": 8712,
      "IB,": 8713,
      "IE)": 8714,
      "M)": 8715,
      "MP": 8716,
      "Morgan": 8717,
      "New": 8718,
      "OV": 8719,
      "PMorgan": 8720,
      "RTC": 8721,
      "RF.": 8722,
      "S,": 8723,
      "SF": 8724,
      "Sher": 8725,
      "Tout": 8726,
      "UR": 8727,
      "Une": 8728,
      "Ukr": 8729,
      "VG": 8730,
      "_om": 8731,
      "_id": 8732,
      "_êtes": 8733,
      "_uk": 8734,
      "_ign": 8735,
      "_oiseau": 8736,
      "_orth": 8737,
      "_itinér": 8738,
      "aar": 8739,
      "aac": 8740,
      "atés": 8741,
      "aéroport": 8742,
      "by": 8743,
      "bé": 8744,
      "bit": 8745,
      "belles": 8746,
      "bes.": 8747,
      "bert": 8748,
      "bro": 8749,
      "ball": 8750,
      "by,": 8751,
      "back": 8752,
      "bank": 8753,
      "bunal": 8754,
      "bran": 8755,
      "cés": 8756,
      "cée": 8757,
      "cations": 8758,
      "cot": 8759,
      "cable": 8760,
      "cole": 8761,
      "cée.": 8762,
      "comme": 8763,
      "coss": 8764,
      "ctivité": 8765,
      "citation": 8766,
      "dy": 8767,
      "din": 8768,
      "ders": 8769,
      "dres": 8770,
      "dad": 8771,
      "don,": 8772,
      "distr": 8773,
      "dits": 8774,
      "down": 8775,
      "dministration": 8776,
      "dney": 8777,
      "drom": 8778,
      "dolf": 8779,
      "ele": 8780,
      "euses": 8781,
      "etit": 8782,
      "fli": 8783,
      "férence": 8784,
      "fèvre": 8785,
      "gen": 8786,
      "gue": 8787,
      "gagement": 8788,
      "hent": 8789,
      "har": 8790,
      "hor": 8791,
      "hés": 8792,
      "hri": 8793,
      "hol": 8794,
      "h00": 8795,
      "had": 8796,
      "hique": 8797,
      "hu,": 8798,
      "hodes": 8799,
      "humation": 8800,
      "if": 8801,
      "iy": 8802,
      "iors": 8803,
      "itions": 8804,
      "icher": 8805,
      "ile.": 8806,
      "ihad": 8807,
      "jour": 8808,
      "jac": 8809,
      "jeux": 8810,
      "jug": 8811,
      "k,": 8812,
      "king": 8813,
      "kin,": 8814,
      "kland,": 8815,
      "ly": 8816,
      "lon": 8817,
      "laient": 8818,
      "log": 8819,
      "lée.": 8820,
      "lée,": 8821,
      "late": 8822,
      "llin": 8823,
      "lbec": 8824,
      "laud": 8825,
      "m.": 8826,
      "my": 8827,
      "mité": 8828,
      "mati": 8829,
      "mog": 8830,
      "mine": 8831,
      "ma,": 8832,
      "mée.": 8833,
      "mène": 8834,
      "mobil": 8835,
      "mener": 8836,
      "mérique": 8837,
      "mmigr": 8838,
      "nsi": 8839,
      "naire": 8840,
      "ner,": 8841,
      "nell": 8842,
      "ntari": 8843,
      "oî": 8844,
      "oes": 8845,
      "oor": 8846,
      "oté": 8847,
      "odi": 8848,
      "oque": 8849,
      "o\",": 8850,
      "oFir": 8851,
      "pj": 8852,
      "pent": 8853,
      "pos": 8854,
      "petit": 8855,
      "rest": 8856,
      "rat": 8857,
      "ros": 8858,
      "rées": 8859,
      "ray": 8860,
      "rine": 8861,
      "rob": 8862,
      "ry,": 8863,
      "raction": 8864,
      "rÃ¢ce": 8865,
      "ran,": 8866,
      "rough": 8867,
      "rgan": 8868,
      "s\"": 8869,
      "sée": 8870,
      "ses.": 8871,
      "sah": 8872,
      "tor": 8873,
      "tation": 8874,
      "tta": 8875,
      "ty,": 8876,
      "tair": 8877,
      "tance,": 8878,
      "tulaire": 8879,
      "tout,": 8880,
      "tueuse": 8881,
      "uin": 8882,
      "uant": 8883,
      "uch": 8884,
      "uage": 8885,
      "uge": 8886,
      "ues.": 8887,
      "uer,": 8888,
      "uyant": 8889,
      "vin": 8890,
      "vel": 8891,
      "vant": 8892,
      "vie": 8893,
      "vol": 8894,
      "vité": 8895,
      "vern": 8896,
      "wo": 8897,
      "war": 8898,
      "wa,": 8899,
      "xel": 8900,
      "xamen": 8901,
      "xieux": 8902,
      "yl": 8903,
      "yo": 8904,
      "yx": 8905,
      "yau": 8906,
      "yber": 8907,
      "zo": 8908,
      "z-m": 8909,
      "zy,": 8910,
      "z-de-": 8911,
      "zhu,": 8912,
      "ça": 8913,
      "çus": 8914,
      "çons": 8915,
      "ètre": 8916,
      "ète,": 8917,
      "ènes.": 8918,
      "éas": 8919,
      "épuis": 8920,
      "étis": 8921,
      "éance,": 8922,
      "êtu": 8923,
      "ître": 8924,
      "ïa": 8925,
      "ôte": 8926,
      "_dor": 8927,
      "_dil": 8928,
      "_dig": 8929,
      "_dang": 8930,
      "_danger": 8931,
      "_dresse": 8932,
      "estin": 8933,
      "_lent": 8934,
      "_lux": 8935,
      "_lot": 8936,
      "_ling": 8937,
      "_low": 8938,
      "ens,": 8939,
      "enions": 8940,
      "ençait": 8941,
      "onge": 8942,
      "onard": 8943,
      "one,": 8944,
      "ontres": 8945,
      "onique": 8946,
      "ones,": 8947,
      "onfort": 8948,
      "onçant": 8949,
      "onvéni": 8950,
      "_pun": 8951,
      "_pel": 8952,
      "_pne": 8953,
      "_pous": 8954,
      "_paire": 8955,
      "_pure": 8956,
      "_pÃ¢": 8957,
      "_pédi": 8958,
      "_pali": 8959,
      "_paci": 8960,
      "_pistes": 8961,
      "_pair": 8962,
      "_pire": 8963,
      "_pessi": 8964,
      "_pyr": 8965,
      "_péni": 8966,
      "_pico": 8967,
      "_p.-d": 8968,
      "_ais": 8969,
      "_air": 8970,
      "_alar": 8971,
      "_aime": 8972,
      "_ajus": 8973,
      "_amph": 8974,
      "_aoû": 8975,
      "_deb": 8976,
      "_sk": 8977,
      "_so": 8978,
      "_san": 8979,
      "_sim": 8980,
      "_séd": 8981,
      "_subli": 8982,
      "_sta": 8983,
      "_sché": 8984,
      "_sanc": 8985,
      "_somp": 8986,
      "_sente": 8987,
      "_stéri": 8988,
      "_sunn": 8989,
      "_stér": 8990,
      "_sÅ“ur": 8991,
      "_stim": 8992,
      "_cur": 8993,
      "_cous": 8994,
      "_cav": 8995,
      "_céd": 8996,
      "_cass": 8997,
      "_canc": 8998,
      "_cock": 8999,
      "_cade": 9000,
      "_couvrir": 9001,
      "_creux": 9002,
      "_cÃ¢ble": 9003,
      "_couverture": 9004,
      "_cancer": 9005,
      "_cyber": 9006,
      "any": 9007,
      "anne": 9008,
      "andi": 9009,
      "anie": 9010,
      "ano,": 9011,
      "anchés": 9012,
      "anitaire": 9013,
      "anonymat": 9014,
      "reb": 9015,
[...]
