{
  "version": "1.0",
  "truncation": null,
  "padding": null,
  "added_tokens": [
    {
      "id": 0,
      "content": "<s>",
      "single_word": false,
      "lstrip": false,
      "rstrip": false,
      "normalized": false,
      "special": true
    },
    {
      "id": 1,
      "content": "<pad>",
      "single_word": false,
      "lstrip": false,
      "rstrip": false,
      "normalized": false,
      "special": true
    },
    {
      "id": 2,
      "content": "</s>",
      "single_word": false,
      "lstrip": false,
      "rstrip": false,
      "normalized": false,
      "special": true
    },
    {
      "id": 3,
      "content": "<unk>",
      "single_word": false,
      "lstrip": false,
      "rstrip": false,
      "normalized": false,
      "special": true
    }
  ],
  "normalizer": null,
  "pre_tokenizer": {
    "type": "Metaspace",
    "replacement": "_",
    "prepend_scheme": "always",
    "split": true
  },
  "post_processor": {
    "type": "TemplateProcessing",
    "single": [
      {
        "SpecialToken": {
          "id": "<s>",
          "type_id": 0
        }
      },
      {
        "Sequence": {
          "id": "A",
          "type_id": 0
        }
      },
      {
        "SpecialToken": {
          "id": "</s>",
          "type_id": 0
        }
      }
    ],
    "pair": [
      {
        "SpecialToken": {
          "id": "<s>",
          "type_id": 0
        }
      },
      {
        "Sequence": {
          "id": "A",
          "type_id": 0
        }
      },
      {
        "SpecialToken": {
          "id": "</s>",
          "type_id": 0
        }
      },
      {
        "Sequence": {
          "id": "B",
          "type_id": 1
        }
      },
      {
        "SpecialToken": {
          "id": "</s>",
          "type_id": 1
        }
      }
    ],
    "special_tokens": {
      "</s>": {
        "id": "</s>",
        "ids": [
          2
        ],
        "tokens": [
          "</s>"
        ]
      },
      "<s>": {
        "id": "<s>",
        "ids": [
          0
        ],
        "tokens": [
          "<s>"
        ]
      }
    }
  },
  "decoder": {
    "type": "Metaspace",
    "replacement": "_",
    "prepend_scheme": "always",
    "split": true
  },
  "model": {
    "type": "BPE",
    "dropout": null,
    "unk_token": "<unk>",
    "continuing_subword_prefix": null,
    "end_of_word_suffix": null,
    "fuse_unk": false,
    "byte_fallback": false,
    "ignore_merges": false,
    "vocab": {
      "<s>": 0,
      "<pad>": 1,
      "</s>": 2,
      "<unk>": 3,
      "!": 4,
      "\"": 5,
      "$": 6,
      "%": 7,
      "&": 8,
      "'": 9,
      "(": 10,
      ")": 11,
      ",": 12,
      "-": 13,
      ".": 14,
      "/": 15,
      "0": 16,
      "1": 17,
      "2": 18,
      "3": 19,
      "4": 20,
      "5": 21,
      "6": 22,
      "7": 23,
      "8": 24,
      "9": 25,
      ":": 26,
      ";": 27,
      "?": 28,
      "A": 29,
      "B": 30,
      "C": 31,
      "D": 32,
      "E": 33,
      "F": 34,
      "G": 35,
      "H": 36,
      "I": 37,
      "J": 38,
      "K": 39,
      "L": 40,
      "M": 41,
      "N": 42,
      "O": 43,
      "P": 44,
      "Q": 45,
      "R": 46,
      "S": 47,
      "T": 48,
      "U": 49,
      "V": 50,
      "W": 51,
      "X": 52,
      "Y": 53,
      "Z": 54,
      "[": 55,
      "]": 56,
      "_": 57,
      "a": 58,
      "b": 59,
      "c": 60,
      "d": 61,
      "e": 62,
      "f": 63,
      "g": 64,
      "h": 65,
      "i": 66,
      "j": 67,
      "k": 68,
      "l": 69,
      "m": 70,
      "n": 71,
      "o": 72,
      "p": 73,
      "q": 74,
      "r": 75,
      "s": 76,
      "t": 77,
      "u": 78,
      "v": 79,
      "w": 80,
      "x": 81,
      "y": 82,
      "z": 83,
      "¢": 84,
      "£": 85,
      "«": 86,
      "¶": 87,
      "Â": 88,
      "Ã": 89,
      "ç": 90,
      "è": 91,
      "é": 92,
      "ï": 93,
      "ô": 94,
      "_t": 95,
      "he": 96,
      "_a": 97,
      "in": 98,
      "_the": 99,
      "er": 100,
      "_o": 101,
      "re": 102,
      "_s": 103,
      "on": 104,
      "en": 105,
      "_w": 106,
      "ed": 107,
      "_c": 108,
      "at": 109,
      "it": 110,
      "is": 111,
      "or": 112,
      "_of": 113,
      "an": 114,
      "_b": 115,
      "_p": 116,
      "es": 117,
      "_f": 118,
      "ing": 119,
      "_in": 120,
      "_to": 121,
      "ar": 122,
      "_an": 123,
      "_m": 124,
      "al": 125,
      "_h": 126,
      "ou": 127,
      "_d": 128,
      "as": 129,
      "ic": 130,
      "ion": 131,
      "il": 132,
      "_th": 133,
      "_and": 134,
      "om": 135,
      "ent": 136,
      "le": 137,
      "_T": 138,
      "ve": 139,
      "_re": 140,
      "_n": 141,
      "_be": 142,
      "_l": 143,
      "id": 144,
      "_e": 145,
      "_on": 146,
      "ac": 147,
      "ro": 148,
      "ay": 149,
      "st": 150,
      "_I": 151,
      "_g": 152,
      "_A": 153,
      "ol": 154,
      "_C": 155,
      "_S": 156,
      "ad": 157,
      "_for": 158,
      "_is": 159,
      "ver": 160,
      "_\"": 161,
      "ot": 162,
      "se": 163,
      "_The": 164,
      "ec": 165,
      "ut": 166,
      "ir": 167,
      "ation": 168,
      "ill": 169,
      "ur": 170,
      "_M": 171,
      "im": 172,
      "_that": 173,
      "ly": 174,
      "ter": 175,
      "_st": 176,
      "_he": 177,
      "ce": 178,
      "ow": 179,
      "_u": 180,
      "ig": 181,
      "_wh": 182,
      "et": 183,
      "_B": 184,
      "am": 185,
      "el": 186,
      "_as": 187,
      "_it": 188,
      "_at": 189,
      "ers": 190,
      "_was": 191,
      "_con": 192,
      "ld": 193,
      "ment": 194,
      "_F": 195,
      "_al": 196,
      "ith": 197,
      "ct": 198,
      "ave": 199,
      "ain": 200,
      "ri": 201,
      "_with": 202,
      "_y": 203,
      "res": 204,
      "_N": 205,
      "s.": 206,
      "_by": 207,
      "_pro": 208,
      "_H": 209,
      "est": 210,
      "ear": 211,
      "_has": 212,
      "pp": 213,
      "ul": 214,
      "_com": 215,
      "oun": 216,
      "_not": 217,
      "_D": 218,
      "ort": 219,
      "and": 220,
      "our": 221,
      "op": 222,
      "em": 223,
      "'s": 224,
      "if": 225,
      "ould": 226,
      "aid": 227,
      "s,": 228,
      "art": 229,
      "her": 230,
      "ate": 231,
      "_R": 232,
      "ge": 233,
      "us": 234,
      "rom": 235,
      "_have": 236,
      "_G": 237,
      "_ne": 238,
      "_are": 239,
      "ak": 240,
      "os": 241,
      "_tr": 242,
      "ack": 243,
      "ch": 244,
      "_ex": 245,
      "_P": 246,
      "ive": 247,
      "_ch": 248,
      "_de": 249,
      "ies": 250,
      "_un": 251,
      "iv": 252,
      "oo": 253,
      "_said": 254,
      "th": 255,
      "_or": 256,
      "ted": 257,
      "_O": 258,
      "oc": 259,
      "un": 260,
      "_will": 261,
      ",\"": 262,
      "ht": 263,
      "_from": 264,
      "_his": 265,
      "e.": 266,
      "_sh": 267,
      "ab": 268,
      "mer": 269,
      "qu": 270,
      "_r": 271,
      "ore": 272,
      "ich": 273,
      "_been": 274,
      "_1": 275,
      "ding": 276,
      "ity": 277,
      "ist": 278,
      "_W": 279,
      "ber": 280,
      "_ab": 281,
      "_pl": 282,
      "_this": 283,
      "_2": 284,
      "_L": 285,
      "are": 286,
      "_su": 287,
      "ess": 288,
      "_year": 289,
      "e,": 290,
      "_se": 291,
      "_we": 292,
      "ant": 293,
      "_ag": 294,
      "_E": 295,
      "_v": 296,
      "ff": 297,
      "_ad": 298,
      "cc": 299,
      "ire": 300,
      "ice": 301,
      "_who": 302,
      "_which": 303,
      "_U": 304,
      "ust": 305,
      "_would": 306,
      "_had": 307,
      "enc": 308,
      "_Th": 309,
      "_j": 310,
      "ie": 311,
      "_sp": 312,
      "ud": 313,
      "ard": 314,
      "ight": 315,
      "00": 316,
      "_le": 317,
      "oug": 318,
      "ial": 319,
      "der": 320,
      "day": 321,
      "ue": 322,
      "ence": 323,
      "_whe": 324,
      "_In": 325,
      "pl": 326,
      "_cl": 327,
      "ere": 328,
      "_per": 329,
      "all": 330,
      "_its": 331,
      "ep": 332,
      "ost": 333,
      "_were": 334,
      "_go": 335,
      "ell": 336,
      "um": 337,
      "_their": 338,
      "fter": 339,
      "ry": 340,
      "_ser": 341,
      "_off": 342,
      "ary": 343,
      "ast": 344,
      "_me": 345,
      "out": 346,
      "_Fr": 347,
      "ated": 348,
      "_cont": 349,
      "ia": 350,
      "ther": 351,
      "_ar": 352,
      "es,": 353,
      "_fe": 354,
      "_int": 355,
      "_out": 356,
      "_my": 357,
      "ous": 358,
      "ome": 359,
      "ong": 360,
      "end": 361,
      "ork": 362,
      "ance": 363,
      "ency": 364,
      "bl": 365,
      "_pres": 366,
      "ass": 367,
      "_res": 368,
      "ven": 369,
      "_they": 370,
      "ans": 371,
      "_St": 372,
      "ect": 373,
      "ations": 374,
      "du": 375,
      "ough": 376,
      "_k": 377,
      "ace": 378,
      "act": 379,
      "ays": 380,
      "oll": 381,
      "_K": 382,
      "ag": 383,
      "age": 384,
      "ier": 385,
      "ure": 386,
      "_after": 387,
      "_but": 388,
      "_J": 389,
      "_acc": 390,
      "arg": 391,
      "able": 392,
      "ap": 393,
      "port": 394,
      "_do": 395,
      "ical": 396,
      "illion": 397,
      "_up": 398,
      "ult": 399,
      "au": 400,
      "aw": 401,
      "od": 402,
      "_she": 403,
      "anc": 404,
      "_new": 405,
      "for": 406,
      "oy": 407,
      "es.": 408,
      "very": 409,
      "_tw": 410,
      "itt": 411,
      "_pe": 412,
      "_inv": 413,
      "ose": 414,
      "so": 415,
      "ubl": 416,
      "ved": 417,
      "ree": 418,
      "ont": 419,
      "_Mr": 420,
      "_her": 421,
      "ound": 422,
      "_about": 423,
      "ced": 424,
      "_app": 425,
      "ine": 426,
      "ren": 427,
      "_inter": 428,
      "ile": 429,
      "own": 430,
      "_exp": 431,
      "og": 432,
      "ite": 433,
      "_mon": 434,
      "_man": 435,
      "_dec": 436,
      "_also": 437,
      "ction": 438,
      "ood": 439,
      "_$": 440,
      "_qu": 441,
      "ok": 442,
      "_pre": 443,
      "_pol": 444,
      "_bec": 445,
      "ident": 446,
      "_one": 447,
      "ove": 448,
      "ra": 449,
      "ru": 450,
      "_car": 451,
      "old": 452,
      "_all": 453,
      "_comp": 454,
      "_serv": 455,
      "_two": 456,
      "_tak": 457,
      "erm": 458,
      "_million": 459,
      "_him": 460,
      "_An": 461,
      "_\"T": 462,
      "sel": 463,
      "ople": 464,
      "_plan": 465,
      "_im": 466,
      "av": 467,
      "_tim": 468,
      "_part": 469,
      "_fir": 470,
      "ased": 471,
      "_us": 472,
      "_att": 473,
      "_when": 474,
      "_(": 475,
      "pt": 476,
      "hed": 477,
      "ition": 478,
      "_dis": 479,
      "vern": 480,
      "ame": 481,
      "a,": 482,
      "wn": 483,
      "_them": 484,
      "_there": 485,
      "_cr": 486,
      "_med": 487,
      "_em": 488,
      "vers": 489,
      "_Ne": 490,
      "_20": 491,
      "ublic": 492,
      "_3": 493,
      "_4": 494,
      "gency": 495,
      "ied": 496,
      "ian": 497,
      "y.": 498,
      "_other": 499,
      "_so": 500,
      "_can": 501,
      "_inc": 502,
      "ices": 503,
      "ide": 504,
      "urs": 505,
      "_He": 506,
      "_people": 507,
      "ious": 508,
      "ks": 509,
      "ning": 510,
      "_sc": 511,
      "_fin": 512,
      "_more": 513,
      "_down": 514,
      "_no": 515,
      "_Br": 516,
      "ount": 517,
      "_into": 518,
      "form": 519,
      "_first": 520,
      "vernment": 521,
      "app": 522,
      "_over": 523,
      "ision": 524,
      "ording": 525,
      "_ann": 526,
      "_Amer": 527,
      "_Thurs": 528,
      "_Americ": 529,
      "_Thursday": 530,
      "ail": 531,
      "ik": 532,
      "ned": 533,
      "xt": 534,
      "ed.": 535,
      "ates": 536,
      "_bu": 537,
      "_being": 538,
      "uring": 539,
      "_add": 540,
      "_government": 541,
      "'t": 542,
      "ble": 543,
      "een": 544,
      "hing": 545,
      "now": 546,
      "eng": 547,
      "ens": 548,
      "als": 549,
      "ents": 550,
      "_law": 551,
      "_It": 552,
      "_Ch": 553,
      "_under": 554,
      "_Un": 555,
      "ollow": 556,
      "_201": 557,
      "SA": 558,
      "_if": 559,
      "ang": 560,
      "_ind": 561,
      "_rec": 562,
      "_bet": 563,
      "_gr": 564,
      "_\"I": 565,
      ".\"": 566,
      "ax": 567,
      "ll": 568,
      "ne": 569,
      "_some": 570,
      "_could": 571,
      "ected": 572,
      "_start": 573,
      "_But": 574,
      "ress": 575,
      "iff": 576,
      "ause": 577,
      "_month": 578,
      "_\"The": 579,
      "ek": 580,
      "per": 581,
      "ince": 582,
      "_work": 583,
      "_count": 584,
      "ities": 585,
      "_bl": 586,
      "_br": 587,
      "_back": 588,
      "_pay": 589,
      "_three": 590,
      "vel": 591,
      "rop": 592,
      "ign": 593,
      "_you": 594,
      "ember": 595,
      "ared": 596,
      "_-": 597,
      "_Y": 598,
      "_en": 599,
      "gr": 600,
      "ip": 601,
      "o,": 602,
      "ual": 603,
      "_test": 604,
      "_air": 605,
      "_these": 606,
      "_want": 607,
      "_cre": 608,
      "_cas": 609,
      "_fire": 610,
      "_mak": 611,
      "_dri": 612,
      "ational": 613,
      "_what": 614,
      "_ass": 615,
      "_comm": 616,
      "ploy": 617,
      "fore": 618,
      "ying": 619,
      "_sur": 620,
      "ond": 621,
      "ating": 622,
      "ited": 623,
      "_follow": 624,
      "arter": 625,
      "_last": 626,
      "_emer": 627,
      "_even": 628,
      "erson": 629,
      "_years": 630,
      "_just": 631,
      "_where": 632,
      "_offic": 633,
      "_announ": 634,
      "ft": 635,
      "fit": 636,
      "king": 637,
      "lin": 638,
      "oin": 639,
      "ween": 640,
      "y,": 641,
      "_am": 642,
      "_act": 643,
      "one": 644,
      "_wor": 645,
      "ative": 646,
      "ange": 647,
      "_fl": 648,
      "_dire": 649,
      "_during": 650,
      "ild": 651,
      "_before": 652,
      "ade": 653,
      "ution": 654,
      "_still": 655,
      "aine": 656,
      "_prov": 657,
      "_show": 658,
      "_This": 659,
      "_contin": 660,
      "_invest": 661,
      "_police": 662,
      "_because": 663,
      "_time": 664,
      "\".": 665,
      "cer": 666,
      "si": 667,
      "_te": 668,
      "_tax": 669,
      "_sec": 670,
      "_way": 671,
      "_cour": 672,
      "ath": 673,
      "ish": 674,
      "_ph": 675,
      "_pr": 676,
      "_public": 677,
      "ark": 678,
      "_diff": 679,
      "ase": 680,
      "_than": 681,
      "_ret": 682,
      "iday": 683,
      "ach": 684,
      "ctor": 685,
      "aint": 686,
      "ists": 687,
      "_quarter": 688,
      "_attack": 689,
      "_between": 690,
      "_ro": 691,
      "air": 692,
      "bs": 693,
      "gan": 694,
      "iz": 695,
      "ked": 696,
      "med": 697,
      "part": 698,
      "rough": 699,
      "ways": 700,
      "year": 701,
      "er,": 702,
      "ator": 703,
      "ise": 704,
      "_pass": 705,
      "_inst": 706,
      "oup": 707,
      "ict": 708,
      "_rel": 709,
      "_rele": 710,
      "_every": 711,
      "_get": 712,
      "_giv": 713,
      "ady": 714,
      "_\"W": 715,
      "uth": 716,
      "igh": 717,
      "_need": 718,
      "_supp": 719,
      "_week": 720,
      "_again": 721,
      "_Friday": 722,
      "rug": 723,
      "_service": 724,
      "self": 725,
      "_imp": 726,
      "_employ": 727,
      "ike": 728,
      "_emergency": 729,
      "aj": 730,
      "den": 731,
      "ever": 732,
      "_sold": 733,
      "on,": 734,
      "enam": 735,
      "_cer": 736,
      "ital": 737,
      "any": 738,
      "_four": 739,
      "_any": 740,
      "_did": 741,
      "_day": 742,
      "_eff": 743,
      "_Cong": 744,
      "imin": 745,
      "_head": 746,
      "_conf": 747,
      "_NSA": 748,
      "_Ditt": 749,
      "_Renam": 750,
      "_agency": 751,
      "duct": 752,
      "_carry": 753,
      "ajor": 754,
      "_5": 755,
      "_end": 756,
      "ns": 757,
      "nal": 758,
      "ph": 759,
      "ss": 760,
      "_own": 761,
      "_pos": 762,
      "arm": 763,
      "_major": 764,
      "_drug": 765,
      "_through": 766,
      "_ref": 767,
      "_ev": 768,
      "_Air": 769,
      "_Cro": 770,
      "_Mont": 771,
      "_state": 772,
      "_concer": 773,
      "_always": 774,
      "_progr": 775,
      "emon": 776,
      "uss": 777,
      "_track": 778,
      "_On": 779,
      "ocaine": 780,
      "_Front": 781,
      "_press": 782,
      "_according": 783,
      "_appe": 784,
      "_American": 785,
      "_United": 786,
      "_announced": 787,
      "_world": 788,
      "_program": 789,
      "_Frontier": 790,
      "\",": 791,
      "_very": 792,
      "aff": 793,
      "line": 794,
      "the": 795,
      "tain": 796,
      "_tri": 797,
      "_term": 798,
      "_auth": 799,
      "_say": 800,
      "_says": 801,
      "itor": 802,
      "iss": 803,
      "esp": 804,
      "_happ": 805,
      "_net": 806,
      "_long": 807,
      "_good": 808,
      "_At": 809,
      "_Can": 810,
      "_former": 811,
      "other": 812,
      "urn": 813,
      "_cons": 814,
      "_come": 815,
      "s,\"": 816,
      "_Germ": 817,
      "_next": 818,
      "_trans": 819,
      "_said.": 820,
      "_sever": 821,
      "_adm": 822,
      "iew": 823,
      "ought": 824,
      "ept": 825,
      "_New": 826,
      "_country": 827,
      "_official": 828,
      "_Renamo": 829,
      "_author": 830,
      "a.": 831,
      "fr": 832,
      "ix": 833,
      "mber": 834,
      "ob": 835,
      "way": 836,
      "rel": 837,
      "_sm": 838,
      "_since": 839,
      "_well": 840,
      "_cocaine": 841,
      "ister": 842,
      "_pri": 843,
      "ings": 844,
      "_mil": 845,
      "ick": 846,
      "ions": 847,
      "_those": 848,
      "omm": 849,
      "_lif": 850,
      "_only": 851,
      "row": 852,
      "_gas": 853,
      "_Cog": 854,
      "eco": 855,
      "cept": 856,
      "_use": 857,
      "_Nove": 858,
      "_Re": 859,
      "_expl": 860,
      "_share": 861,
      "_200": 862,
      "_contro": 863,
      "ured": 864,
      "_invol": 865,
      "_media": 866,
      "_following": 867,
      "_activ": 868,
      "_\"We": 869,
      "_employe": 870,
      "_November": 871,
      "23": 872,
      "gle": 873,
      "ject": 874,
      "man": 875,
      "oved": 876,
      "ures": 877,
      "work": 878,
      "yst": 879,
      "eral": 880,
      "ater": 881,
      "ather": 882,
      "_bill": 883,
      "_put": 884,
      "esday": 885,
      "_too": 886,
      "_most": 887,
      "ouse": 888,
      "_dat": 889,
      "_Tr": 890,
      "_reg": 891,
      "_rep": 892,
      "_now": 893,
      "_Snow": 894,
      "urren": 895,
      "_stop": 896,
      "eli": 897,
      "els": 898,
      "_profit": 899,
      "ular": 900,
      "ussel": 901,
      "osp": 902,
      "_dev": 903,
      "_devel": 904,
      "_place": 905,
      "_year.": 906,
      "_see": 907,
      "_Eu": 908,
      "_spec": 909,
      "000": 910,
      "actor": 911,
      "_does": 912,
      "ancial": 913,
      "_many": 914,
      "_take": 915,
      "_taken": 916,
      "aving": 917,
      "_Brussel": 918,
      "engers": 919,
      "_lawy": 920,
      "_make": 921,
      "sible": 922,
      "_Ditta": 923,
      "_Canad": 924,
      "_Cogeco": 925,
      "_Snowden": 926,
      "_develop": 927,
      "-d": 928,
      "-t": 929,
      "-on": 930,
      "aud": 931,
      "ef": 932,
      "ged": 933,
      "hn": 934,
      "n't": 935,
      "ty": 936,
      "ug": 937,
      "uch": 938,
      "_tal": 939,
      "_targ": 940,
      "inister": 941,
      "erv": 942,
      "red": 943,
      "ready": 944,
      "_sit": 945,
      "_went": 946,
      "_cust": 947,
      "_curren": 948,
      "ised": 949,
      "ising": 950,
      "ord": 951,
      "ank": 952,
      "_bag": 953,
      "_person": 954,
      "ing,": 955,
      "arl": 956,
      "_hour": 957,
      "icult": 958,
      "ion,": 959,
      "_thir": 960,
      "omb": 961,
      "omet": 962,
      "_report": 963,
      "_loc": 964,
      "_like": 965,
      "_ele": 966,
      "str": 967,
      "_gu": 968,
      "_give": 969,
      "_There": 970,
      "urity": 971,
      "_stay": 972,
      "owever": 973,
      "_while": 974,
      "ers,": 975,
      "ments": 976,
      "_already": 977,
      "osed": 978,
      "_child": 979,
      "_def": 980,
      "_depart": 981,
      "ook": 982,
      "oci": 983,
      "unic": 984,
      "_10": 985,
      "_19": 986,
      "_We": 987,
      "_jud": 988,
      "_spe": 989,
      "_spok": 990,
      "_going": 991,
      "_around": 992,
      "_feel": 993,
      "_presence": 994,
      "_ke": 995,
      "_crimin": 996,
      "_incl": 997,
      "_crem": 998,
      "_director": 999,
      "_investig": 1000,
      "_court": 1001,
      "_against": 1002,
      "_several": 1003,
      "_activities": 1004,
      "_Europ": 1005,
      "_target": 1006,
      "_custom": 1007,
      ",000": 1008,
      "S.": 1009,
      "_V": 1010,
      "car": 1011,
      "cent": 1012,
      "ient": 1013,
      "iers": 1014,
      "led": 1015,
      "ool": 1016,
      "ting": 1017,
      "uation": 1018,
      "ind": 1019,
      "ins": 1020,
      "_our": 1021,
      "_oper": 1022,
      "_che": 1023,
      "_col": 1024,
      "_care": 1025,
      "_call": 1026,
      "its": 1027,
      "_bro": 1028,
      "_fil": 1029,
      "arge": 1030,
      "_mem": 1031,
      "_high": 1032,
      "_num": 1033,
      "_bel": 1034,
      "_Is": 1035,
      "_Al": 1036,
      "_Acc": 1037,
      "_Cl": 1038,
      "_Sp": 1039,
      "_Sept": 1040,
      "_M23": 1041,
      "ly,": 1042,
      "ters": 1043,
      "_Bomb": 1044,
      "ried": 1045,
      "_Gr": 1046,
      "_Goo": 1047,
      "_trying": 1048,
      "ies,": 1049,
      "_organ": 1050,
      "ock": 1051,
      "_Was": 1052,
      "ardier": 1053,
      "ueb": 1054,
      "_resp": 1055,
      "_States": 1056,
      "_know": 1057,
      "portation": 1058,
      "ically": 1059,
      "_decision": 1060,
      "_$1": 1061,
      "_prev": 1062,
      "_services": 1063,
      "_group": 1064,
      "_surve": 1065,
      "_soldiers": 1066,
      "armac": 1067,
      "_German": 1068,
      "_Brussels": 1069,
      "_lawyer": 1070,
      "_customers": 1071,
      "_September": 1072,
      "_Bombardier": 1073,
      "_Google": 1074,
      ".5": 1075,
      "_6": 1076,
      "_Q": 1077,
      "_ent": 1078,
      "az": 1079,
      "eb": 1080,
      "ean": 1081,
      "ful": 1082,
      "ger": 1083,
      "iod": 1084,
      "iative": 1085,
      "les": 1086,
      "national": 1087,
      "nesday": 1088,
      "over": 1089,
      "oard": 1090,
      "te": 1091,
      "ten": 1092,
      "uary": 1093,
      "ving": 1094,
      "ward": 1095,
      "real": 1096,
      "ream": 1097,
      "_sol": 1098,
      "_site": 1099,
      "on't": 1100,
      "ene": 1101,
      "ednesday": 1102,
      "iting": 1103,
      "itution": 1104,
      "_fam": 1105,
      "_factor": 1106,
      "_inform": 1107,
      "aris": 1108,
      "_mor": 1109,
      "_made": 1110,
      "_thin": 1111,
      "_rem": 1112,
      "_rein": 1113,
      "_reve": 1114,
      "_light": 1115,
      "ided": 1116,
      "_Ar": 1117,
      "_They": 1118,
      "_MP": 1119,
      "_Mon": 1120,
      "ime": 1121,
      "_str": 1122,
      "igence": 1123,
      "_For": 1124,
      "resident": 1125,
      "_However": 1126,
      "_Dav": 1127,
      "orth": 1128,
      "ands": 1129,
      "ified": 1130,
      "used": 1131,
      "_Good": 1132,
      "_trave": 1133,
      "_charg": 1134,
      "_change": 1135,
      "ives": 1136,
      "_order": 1137,
      "und": 1138,
      "_short": 1139,
      "_should": 1140,
      "_Wednesday": 1141,
      "_year,": 1142,
      "_adv": 1143,
      "_US": 1144,
      "_lead": 1145,
      "_leave": 1146,
      "_percent": 1147,
      "_period": 1148,
      "elligence": 1149,
      "_offer": 1150,
      "_arm": 1151,
      "_fee": 1152,
      "duced": 1153,
      "_Ken": 1154,
      "_expected": 1155,
      "_company": 1156,
      "_And": 1157,
      "_incre": 1158,
      "_financial": 1159,
      "_buy": 1160,
      "_buil": 1161,
      "_recent": 1162,
      "_York": 1163,
      "_flight": 1164,
      "_continu": 1165,
      "_pract": 1166,
      "_passengers": 1167,
      "_carry-on": 1168,
      "_data": 1169,
      "_investigation": 1170,
      "_According": 1171,
      "_Goodyear": 1172,
      "3.": 1173,
      "_8": 1174,
      "aim": 1175,
      "aun": 1176,
      "bers": 1177,
      "ces": 1178,
      "cess": 1179,
      "ee": 1180,
      "ivers": 1181,
      "jured": 1182,
      "ner": 1183,
      "ober": 1184,
      "tly": 1185,
      "uding": 1186,
      "_ac": 1187,
      "_av": 1188,
      "_action": 1189,
      "err": 1190,
      "erence": 1191,
      "reg": 1192,
      "_sus": 1193,
      "_same": 1194,
      "_wa": 1195,
      "_cap": 1196,
      "itan": 1197,
      "isk": 1198,
      "_bod": 1199,
      "_pat": 1200,
      "_poin": 1201,
      "_told": 1202,
      "_took": 1203,
      "_town": 1204,
      "_men": 1205,
      "_move": 1206,
      "_much": 1207,
      "_hosp": 1208,
      "_dem": 1209,
      "_dist": 1210,
      "ash": 1211,
      "_though": 1212,
      "oman": 1213,
      "_If": 1214,
      "_gl": 1215,
      "_After": 1216,
      "_Agency": 1217,
      "_CG": 1218,
      "_Sec": 1219,
      "_force": 1220,
      "_Ber": 1221,
      "ctober": 1222,
      "uled": 1223,
      "and-": 1224,
      "_October": 1225,
      "_able": 1226,
      "_such": 1227,
      "_webs": 1228,
      "_Ex": 1229,
      "_clos": 1230,
      "_close": 1231,
      "alliative": 1232,
      "epend": 1233,
      "_meet": 1234,
      "_France": 1235,
      "_intelligence": 1236,
      "_president": 1237,
      "_Jan": 1238,
      "_access": 1239,
      "ances": 1240,
      "_exper": 1241,
      "_polic": 1242,
      "_carried": 1243,
      "_disc": 1244,
      "_find": 1245,
      "_Brit": 1246,
      "ailed": 1247,
      "_started": 1248,
      "_drivers": 1249,
      "_difficult": 1250,
      "_given": 1251,
      "_support": 1252,
      "_ceremon": 1253,
      "_Montreal": 1254,
      "_happen": 1255,
      "_explain": 1256,
      "unications": 1257,
      "_judge": 1258,
      "_belie": 1259,
      "_famil": 1260,
      "_information": 1261,
      "_However,": 1262,
      "_David": 1263,
      "_building": 1264,
      "_susp": 1265,
      "-s": 1266,
      "-and-": 1267,
      "..": 1268,
      "50": 1269,
      "AD": 1270,
      "_7": 1271,
      "_ve": 1272,
      "a's": 1273,
      "con": 1274,
      "ched": 1275,
      "ex": 1276,
      "get": 1277,
      "io": 1278,
      "most": 1279,
      "o.": 1280,
      "ois": 1281,
      "ral": 1282,
      "su": 1283,
      "ts": 1284,
      "vision": 1285,
      "_ten": 1286,
      "_aff": 1287,
      "ret": 1288,
      "_sl": 1289,
      "_somet": 1290,
      "ony": 1291,
      "eneral": 1292,
      "ed,": 1293,
      "edy": 1294,
      "_cost": 1295,
      "orn": 1296,
      "orough": 1297,
      "_often": 1298,
      "_bar": 1299,
      "_big": 1300,
      "ese": 1301,
      "_five": 1302,
      "_fell": 1303,
      "_found": 1304,
      "aring": 1305,
      "alle": 1306,
      "ally": 1307,
      "_hop": 1308,
      "_having": 1309,
      "_di": 1310,
      "_dr": 1311,
      "_den": 1312,
      "_det": 1313,
      "_due": 1314,
      "_dream": 1315,
      "ason": 1316,
      "ility": 1317,
      "_Tw": 1318,
      "_Titan": 1319,
      "_CS": 1320,
      "_CAD": 1321,
      "_Sh": 1322,
      "_Scar": 1323,
      "_\"w": 1324,
      "illance": 1325,
      "_Be": 1326,
      "amp": 1327,
      "_conduct": 1328,
      "_youn": 1329,
      "_Hol": 1330,
      "pped": 1331,
      "ull": 1332,
      "ourg": 1333,
      "ournal": 1334,
      "_Russ": 1335,
      "_traff": 1336,
      "_Paris": 1337,
      "_President": 1338,
      "_chang": 1339,
      "_deal": 1340,
      "_ord": 1341,
      "ocr": 1342,
      "_right": 1343,
      "_1,": 1344,
      "_Wh": 1345,
      "_sum": 1346,
      "ession": 1347,
      "_agree": 1348,
      "_view": 1349,
      "_left": 1350,
      "_Inter": 1351,
      "_few": 1352,
      "_news": 1353,
      "_peace": 1354,
      "_appear": 1355,
      "_mone": 1356,
      "_$2": 1357,
      "_plane": 1358,
      "_medical": 1359,
      "_independ": 1360,
      "_black": 1361,
      "_bring": 1362,
      "lines": 1363,
      "_continue": 1364,
      "_second": 1365,
      "_pharmac": 1366,
      "_effort": 1367,
      "_drugs": 1368,
      "_Cross": 1369,
      "_appeal": 1370,
      "ission": 1371,
      "_priv": 1372,
      "_development": 1373,
      "_children": 1374,
      "_criminal": 1375,
      "_number": 1376,
      "_Isra": 1377,
      "_surveillance": 1378,
      "_reveal": 1379,
      "_Keny": 1380,
      "_January": 1381,
      "_British": 1382,
      "_Scarb": 1383,
      "_young": 1384,
      "_traffic": 1385,
      "-D": 1386,
      "-b": 1387,
      "-l": 1388,
      "-year": 1389,
      "_9": 1390,
      "ele": 1391,
      "gin": 1392,
      "hold": 1393,
      "hip": 1394,
      "iol": 1395,
      "iam": 1396,
      "iqu": 1397,
      "ium": 1398,
      "oz": 1399,
      "pted": 1400,
      "side": 1401,
      "ton": 1402,
      "til": 1403,
      "ère": 1404,
      "head": 1405,
      "inist": 1406,
      "_then": 1407,
      "erent": 1408,
      "_ob": 1409,
      "_opp": 1410,
      "_occ": 1411,
      "reat": 1412,
      "_wr": 1413,
      "_co": 1414,
      "_city": 1415,
      "atic": 1416,
      "atch": 1417,
      "ished": 1418,
      "_fore": 1419,
      "_injured": 1420,
      "ars": 1421,
      "_mom": 1422,
      "_may": 1423,
      "_mile": 1424,
      "_mark": 1425,
      "al.": 1426,
      "alth": 1427,
      "_how": 1428,
      "_home": 1429,
      "_house": 1430,
      "_don't": 1431,
      "ention": 1432,
      "lear": 1433,
      "lement": 1434,
      "_reb": 1435,
      "_rece": 1436,
      "_requ": 1437,
      "_loo": 1438,
      "_litt": 1439,
      "_loved": 1440,
      "_online": 1441,
      "_grow": 1442,
      "_Comm": 1443,
      "_issu": 1444,
      "_\"t": 1445,
      "ecut": 1446,
      "echn": 1447,
      "ation,": 1448,
      "ation.": 1449,
      "_Minister": 1450,
      "_hel": 1451,
      "et.": 1452,
      "ama": 1453,
      "amb": 1454,
      "_asked": 1455,
      "ment,": 1456,
      "_almost": 1457,
      "_your": 1458,
      "s.\"": 1459,
      "_product": 1460,
      "_Dis": 1461,
      "_Dec": 1462,
      "chool": 1463,
      "_charge": 1464,
      "_until": 1465,
      "ivil": 1466,
      "ity,": 1467,
      "_La": 1468,
      "_suff": 1469,
      "ieu": 1470,
      "ude": 1471,
      "_claim": 1472,
      "ia,": 1473,
      "duction": 1474,
      "_Mr.": 1475,
      "_international": 1476,
      "_become": 1477,
      "raft": 1478,
      "_\"Th": 1479,
      "_partic": 1480,
      "_attem": 1481,
      "iously": 1482,
      "_sche": 1483,
      "_addition": 1484,
      "_\"It": 1485,
      "ney": 1486,
      "_cases": 1487,
      "_tele": 1488,
      "_attacks": 1489,
      "_giving": 1490,
      "_implement": 1491,
      "_concerned": 1492,
      "_network": 1493,
      "_longer": 1494,
      "_miles": 1495,
      "_control": 1496,
      "_involved": 1497,
      "_employees": 1498,
      "_Trans": 1499,
      "_specif": 1500,
      "_situation": 1501,
      "_third": 1502,
      "_local": 1503,
      "_department": 1504,
      "_keep": 1505,
      "_including": 1506,
      "_colle": 1507,
      "_Washing": 1508,
      "uebec": 1509,
      "_Quebec": 1510,
      "_morning": 1511,
      "_travel": 1512,
      "_hospital": 1513,
      "_CGT": 1514,
      "_barrel": 1515,
      "_Holy": 1516,
      "_agreement": 1517,
      "_little": 1518,
      "'m": 1519,
      ".S.": 1520,
      "4,": 1521,
      "4.": 1522,
      "RS": 1523,
      "_ill": 1524,
      "_est": 1525,
      "ck": 1526,
      "craft": 1527,
      "gage": 1528,
      "hic": 1529,
      "iate": 1530,
      "iber": 1531,
      "ients": 1532,
      "no": 1533,
      "por": 1534,
      "tal": 1535,
      "tel": 1536,
      "up": 1537,
      "uly": 1538,
      "uated": 1539,
      "view": 1540,
      "yri": 1541,
      "ôtel": 1542,
      "_techn": 1543,
      "hes": 1544,
      "ines": 1545,
      "ered": 1546,
      "reen": 1547,
      "_sim": 1548,
      "_syst": 1549,
      "one.": 1550,
      "ense": 1551,
      "_war": 1552,
      "_cor": 1553,
      "_cent": 1554,
      "_came": 1555,
      "_cents": 1556,
      "_clear": 1557,
      "_civil": 1558,
      "ats": 1559,
      "atter": 1560,
      "it.": 1561,
      "ither": 1562,
      "itical": 1563,
      "orse": 1564,
      "ories": 1565,
      "order": 1566,
      "anted": 1567,
      "_billion": 1568,
      "_based": 1569,
      "_bene": 1570,
      "_fre": 1571,
      "_far": 1572,
      "_fac": 1573,
      "_fall": 1574,
      "_father": 1575,
      "_full": 1576,
      "ing.": 1577,
      "_ins": 1578,
      "alf": 1579,
      "alyst": 1580,
      "_hot": 1581,
      "_date": 1582,
      "_doll": 1583,
      "_drop": 1584,
      "ice.": 1585,
      "icitor": 1586,
      "_night": 1587,
      "_begin": 1588,
      "_lot": 1589,
      "_low": 1590,
      "_lost": 1591,
      "_laun": 1592,
      "_ear": 1593,
      "_each": 1594,
      "acy": 1595,
      "_got": 1596,
      "_As": 1597,
      "olog": 1598,
      "_Com": 1599,
      "_Cour": 1600,
      "_Care": 1601,
      "_Cable": 1602,
      "_So": 1603,
      "_Saint": 1604,
      "_\"F": 1605,
      "_\"d": 1606,
      "_\"s": 1607,
      "urned": 1608,
      "_Maz": 1609,
      "_stud": 1610,
      "_states": 1611,
      "_stress": 1612,
      "_here": 1613,
      "owie": 1614,
      "ety": 1615,
      "_Bowie": 1616,
      "elt": 1617,
      "_it.": 1618,
      "_Fren": 1619,
      "ains": 1620,
      "rib": 1621,
      "_National": 1622,
      "_prot": 1623,
      "_project": 1624,
      "_process": 1625,
      "_Hôtel": 1626,
      "estiv": 1627,
      "_Rep": 1628,
      "_never": 1629,
      "change": 1630,
      "ively": 1631,
      "_death": 1632,
      "_Om": 1633,
      "_Or": 1634,
      "_15": 1635,
      "_plac": 1636,
      "_years.": 1637,
      "_ago,": 1638,
      "_vot": 1639,
      "_U.S.": 1640,
      "_journal": 1641,
      "ief": 1642,
      "_let": 1643,
      "ump": 1644,
      "_series": 1645,
      "_present": 1646,
      "_result": 1647,
      "argest": 1648,
      "ublished": 1649,
      "_decided": 1650,
      "oke": 1651,
      "_allow": 1652,
      "_million,": 1653,
      "_him.": 1654,
      "_himself": 1655,
      "_immed": 1656,
      "_used": 1657,
      "_sched": 1658,
      "_Thursday.": 1659,
      "_indic": 1660,
      "_months": 1661,
      "_aircraft": 1662,
      "_commit": 1663,
      "_communications": 1664,
      "_course": 1665,
      "_different": 1666,
      "_institution": 1667,
      "_relations": 1668,
      "_releas": 1669,
      "_released": 1670,
      "_certain": 1671,
      "_effect": 1672,
      "_possible": 1673,
      "_Monteb": 1674,
      "_consult": 1675,
      "_transportation": 1676,
      "frisk": 1677,
      "_repres": 1678,
      "_currently": 1679,
      "_199": 1680,
      "_speak": 1681,
      "_spokes": 1682,
      "_European": 1683,
      "_members": 1684,
      "_respon": 1685,
      "_$100": 1686,
      "_factory": 1687,
      "_think": 1688,
      "_army": 1689,
      "_point": 1690,
      "_website": 1691,
      "-and-frisk": 1692,
      "conom": 1693,
      "_orders": 1694,
      "_summ": 1695,
      "_independent": 1696,
      "_Israeli": 1697,
      "_Scarborough": 1698,
      "-Dieu": 1699,
      "_obtain": 1700,
      "_moment": 1701,
      "_help": 1702,
      "_December": 1703,
      "_Washington": 1704,
      "_system": 1705,
      "_Court": 1706,
      "_Mazang": 1707,
      "_French": 1708,
      "_Hôtel-Dieu": 1709,
      "_immediate": 1710,
      "_Montebourg": 1711,
      "),": 1712,
      "-m": 1713,
      "-p": 1714,
      "0,": 1715,
      "1.": 1716,
      "DC": 1717,
      "ault": 1718,
      "bt": 1719,
      "bum": 1720,
      "cl": 1721,
      "cot": 1722,
      "cue": 1723,
      "ev": 1724,
      "ead": 1725,
      "fact": 1726,
      "gest": 1727,
      "ior": 1728,
      "iation": 1729,
      "ians": 1730,
      "kr": 1731,
      "lared": 1732,
      "mis": 1733,
      "nt": 1734,
      "not": 1735,
      "o-": 1736,
      "oid": 1737,
      "oot": 1738,
      "pr": 1739,
      "use": 1740,
      "ufact": 1741,
      "wand": 1742,
      "_tell": 1743,
      "_tens": 1744,
      "_terr": 1745,
      "_aud": 1746,
      "ination": 1747,
      "eries": 1748,
      "rest": 1749,
      "_sk": 1750,
      "_six": 1751,
      "en,": 1752,
      "enn": 1753,
      "ending": 1754,
      "_watch": 1755,
      "itic": 1756,
      "itary": 1757,
      "isation": 1758,
      "ors": 1759,
      "_bo": 1760,
      "_best": 1761,
      "_bus": 1762,
      "_pot": 1763,
      "_prom": 1764,
      "_post": 1765,
      "_fut": 1766,
      "_fur": 1767,
      "_fig": 1768,
      "_inf": 1769,
      "_inh": 1770,
      "_today": 1771,
      "arch": 1772,
      "_mot": 1773,
      "_met": 1774,
      "_me,": 1775,
      "_might": 1776,
      "_marg": 1777,
      "_mother": 1778,
      "al,": 1779,
      "_hol": 1780,
      "_hand": 1781,
      "_host": 1782,
      "_half": 1783,
      "_des": 1784,
      "_died": 1785,
      "_demon": 1786,
      "_deli": 1787,
      "omp": 1788,
      "_real": 1789,
      "_rest": 1790,
      "_reform": 1791,
      "_revel": 1792,
      "_reach": 1793,
      "_ready": 1794,
      "_restr": 1795,
      "_nec": 1796,
      "_econom": 1797,
      "acuated": 1798,
      "_Am": 1799,
      "_All": 1800,
      "_Cent": 1801,
      "_Sou": 1802,
      "_\"M": 1803,
      "_\"S": 1804,
      "irit": 1805,
      "ations.": 1806,
      "ural": 1807,
      "_Man": 1808,
      "imes": 1809,
      "_that,": 1810,
      "_stand": 1811,
      "_staff": 1812,
      "_Bl": 1813,
      "_Bro": 1814,
      "ers.": 1815,
      "_const": 1816,
      "_album": 1817,
      "_proble": 1818,
      "_His": 1819,
      "_comes": 1820,
      "_Day": 1821,
      "andon": 1822,
      "emocr": 1823,
      "_Rwand": 1824,
      "using": 1825,
      "_train": 1826,
      "_ext": 1827,
      "_Pol": 1828,
      "_Public": 1829,
      "_Palliative": 1830,
      "_cho": 1831,
      "_choo": 1832,
      "ived": 1833,
      "ivid": 1834,
      "_ra": 1835,
      "_With": 1836,
      "_abandon": 1837,
      "_play": 1838,
      "_seem": 1839,
      "_seiz": 1840,
      "ants": 1841,
      "_val": 1842,
      "_vide": 1843,
      "_viol": 1844,
      "ffic": 1845,
      "_Ukr": 1846,
      "_leg": 1847,
      "_least": 1848,
      "ially": 1849,
      "_Ind": 1850,
      "_class": 1851,
      "_perform": 1852,
      "_goals": 1853,
      "_arg": 1854,
      "_arri": 1855,
      "_arrest": 1856,
      "_resident": 1857,
      "venue": 1858,
      "_kill": 1859,
      "_Jo": 1860,
      "_July": 1861,
      "aps": 1862,
      "aug": 1863,
      "itte": 1864,
      "_interview": 1865,
      "_manufact": 1866,
      "_declared": 1867,
      "_compet": 1868,
      "_taking": 1869,
      "_planning": 1870,
      "_using": 1871,
      "_(C": 1872,
      "_disch": 1873,
      "_soon": 1874,
      "_scand": 1875,
      "_Thursday,": 1876,
      "_Chin": 1877,
      "_2012": 1878,
      "_2013": 1879,
      "_ground": 1880,
      "_\"If": 1881,
      "_working": 1882,
      "_brought": 1883,
      "_tests": 1884,
      "_airline": 1885,
      "_making": 1886,
      "_associ": 1887,
      "_direct": 1888,
      "_showing": 1889,
      "_investment": 1890,
      "sib": 1891,
      "_security": 1892,
      "_return": 1893,
      "_quarter,": 1894,
      "_suppl": 1895,
      "_confir": 1896,
      "_Airlines": 1897,
      "_terms": 1898,
      "_country's": 1899,
      "_life": 1900,
      "_share,": 1901,
      "_2008": 1902,
      "_controvers": 1903,
      "_employees.": 1904,
      "_stop-and-frisk": 1905,
      "_devices": 1906,
      "arliam": 1907,
      "_election": 1908,
      "_called": 1909,
      "_reinfor": 1910,
      "_avoid": 1911,
      "_waiting": 1912,
      "_body": 1913,
      "_demand": 1914,
      "_Security": 1915,
      "_explained": 1916,
      "_family": 1917,
      "_vehic": 1918,
      "_changes": 1919,
      "_money": 1920,
      "_efforts": 1921,
      "_privile": 1922,
      "_revealed": 1923,
      "ique": 1924,
      "ecutive": 1925,
      "_products": 1926,
      "_Disney": 1927,
      "_attempt": 1928,
      "_television": 1929,
      "_benefit": 1930,
      "_Saint-": 1931,
      "estival": 1932,
      "_scheduled": 1933,
      "_release.": 1934,
      "_represent": 1935,
      "_spokesman": 1936,
      "_Mazanga": 1937,
      "_future": 1938,
      "_demonstr": 1939,
      "_necess": 1940,
      "_problem": 1941,
      "_choose": 1942,
      "arliament": 1943,
      "%)": 1944,
      "-f": 1945,
      "-old": 1946,
      "0.": 1947,
      "2,": 1948,
      "20": 1949,
      "AR": 1950,
      "EO": 1951,
      "MF": 1952,
      "P,": 1953,
      "_esp": 1954,
      "ah": 1955,
      "aul": 1956,
      "aused": 1957,
      "bama": 1958,
      "com": 1959,
      "cast": 1960,
      "dit": 1961,
      "gn": 1962,
      "iant": 1963,
      "ienc": 1964,
      "iens": 1965,
      "joy": 1966,
      "kins": 1967,
      "lish": 1968,
      "nic": 1969,
      "ners": 1970,
      "nity": 1971,
      "ness": 1972,
      "ps": 1973,
      "pap": 1974,
      "rist": 1975,
      "sé": 1976,
      "to": 1977,
      "tt": 1978,
      "tar": 1979,
      "tim": 1980,
      "ub": 1981,
      "uz": 1982,
      "ves": 1983,
      "vad": 1984,
      "yp": 1985,
      "_table": 1986,
      "hen": 1987,
      "er.": 1988,
      "ering": 1989,
      "erry": 1990,
      "_oil": 1991,
      "_sw": 1992,
      "_sing": 1993,
      "_sour": 1994,
      "_sign": 1995,
      "on.": 1996,
      "_woman": 1997,
      "_wanted": 1998,
      "_cave": 1999,
      "_cand": 2000,
      "_coll": 2001,
      "atre": 2002,
      "ism": 2003,
      "isted": 2004,
      "or,": 2005,
      "ory": 2006,
      "ann": 2007,
      "_bed": 2008,
      "_bas": 2009,
      "_boy": 2010,
      "_ple": 2011,
      "_port": 2012,
      "_paid": 2013,
      "_pus": 2014,
      "_past": 2015,
      "_parliament": 2016,
      "_fed": 2017,
      "_fun": 2018,
      "_face": 2019,
      "_festival": 2020,
      "_init": 2021,
      "_toget": 2022,
      "_total": 2023,
      "arant": 2024,
      "_another": 2025,
      "_mer": 2026,
      "_must": 2027,
      "_member": 2028,
      "_mater": 2029,
      "_minister": 2030,
      "_matter": 2031,
      "_hund": 2032,
      "ouw": 2033,
      "ics": 2034,
      "ion.": 2035,
      "ional": 2036,
      "_thous": 2037,
      "_thought": 2038,
      "_things": 2039,
      "lem": 2040,
      "_non": 2041,
      "_near": 2042,
      "_lim": 2043,
      "_list": 2044,
      "_less": 2045,
      "_later": 2046,
      "_largest": 2047,
      "iding": 2048,
      "rove": 2049,
      "stain": 2050,
      "_Ira": 2051,
      "_I'm": 2052,
      "_IMF": 2053,
      "_gri": 2054,
      "_gate": 2055,
      "_general": 2056,
      "_Ass": 2057,
      "_Aug": 2058,
      "olese": 2059,
      "_City": 2060,
      "_CEO": 2061,
      "_She": 2062,
      "_Serv": 2063,
      "_\"N": 2064,
      "_\"the": 2065,
      "ute": 2066,
      "_My": 2067,
      "_Mer": 2068,
      "_More": 2069,
      "_Moz": 2070,
      "ly.": 2071,
      "lysé": 2072,
      "_step": 2073,
      "_stated": 2074,
      "_stren": 2075,
      "_health": 2076,
      "ower": 2077,
      "igin": 2078,
      "igitte": 2079,
      "_Bank": 2080,
      "_Board": 2081,
      "ames": 2082,
      "_asking": 2083,
      "_without": 2084,
      "_Not": 2085,
      "_Net": 2086,
      "_prof": 2087,
      "_production": 2088,
      "_House": 2089,
      "_comed": 2090,
      "_coming": 2091,
      "_compl": 2092,
      "_De": 2093,
      "_Dep": 2094,
      "_Delt": 2095,
      "ops": 2096,
      "opted": 2097,
      "artment": 2098,
      "usic": 2099,
      "_Gl": 2100,
      "_neg": 2101,
      "ake": 2102,
      "osing": 2103,
      "_executive": 2104,
      "_chief": 2105,
      "_unp": 2106,
      "_unit": 2107,
      "though": 2108,
      "_origin": 2109,
      "_One": 2110,
      "_Obama": 2111,
      "unity": 2112,
      "abit": 2113,
      "_rating": 2114,
      "_11": 2115,
      "berg": 2116,
      "_abs": 2117,
      "_Lond": 2118,
      "_subs": 2119,
      "_sustain": 2120,
      "_sex": 2121,
      "_seven": 2122,
      "_Ed": 2123,
      "_En": 2124,
      "_Elysé": 2125,
      "_adopted": 2126,
      "_That": 2127,
      "_jailed": 2128,
      "ard,": 2129,
      "ards": 2130,
      "_whether": 2131,
      "_means": 2132,
      "_contr": 2133,
      "thers": 2134,
      "ance,": 2135,
      "_Ste": 2136,
      "dule": 2137,
      "duce": 2138,
      "olland": 2139,
      "_Kerry": 2140,
      "ages": 2141,
      "agement": 2142,
      "arged": 2143,
      "_upd": 2144,
      "_internal": 2145,
      "_quest": 2146,
      "_prec": 2147,
      "_prep": 2148,
      "_became": 2149,
      "rupt": 2150,
      "_comple": 2151,
      "_comprom": 2152,
      "_Ang": 2153,
      "_planned": 2154,
      "_import": 2155,
      "_time,": 2156,
      "_disapp": 2157,
      "_Next": 2158,
      "_Nevad": 2159,
      "_33": 2160,
      "_38": 2161,
      "_so,": 2162,
      "_Brigitte": 2163,
      "_annual": 2164,
      "aily": 2165,
      "_2011": 2166,
      "_record": 2167,
      "_Yah": 2168,
      "_enjoy": 2169,
      "_credit": 2170,
      "_evening": 2171,
      "_provide": 2172,
      "_shows": 2173,
      "_secret": 2174,
      "_road": 2175,
      "atorium": 2176,
      "iction": 2177,
      "ictions": 2178,
      "_release": 2179,
      "_week,": 2180,
      "_fourth": 2181,
      "_Congolese": 2182,
      "_refin": 2183,
      "_event": 2184,
      "_concerns": 2185,
      "_world's": 2186,
      "_Frontier's": 2187,
      "_trial": 2188,
      "esperson": 2189,
      "_officials": 2190,
      "_authorities": 2191,
      "way.": 2192,
      "_small": 2193,
      "_prior": 2194,
      "_life.": 2195,
      "_Canadian": 2196,
      "-de": 2197,
      "_talk": 2198,
      "_talking": 2199,
      "arlier": 2200,
      "_hours": 2201,
      "_thirty": 2202,
      "_reported": 2203,
      "_guarant": 2204,
      "_spokesperson": 2205,
      "_cremation": 2206,
      "_broad": 2207,
      "_film": 2208,
      "_Spirit": 2209,
      "_Group": 2210,
      "_Grouw": 2211,
      "_organiz": 2212,
      "_solicitor": 2213,
      "_Monday": 2214,
      "_capital": 2215,
      "_patients": 2216,
      "_closure": 2217,
      "_policy": 2218,
      "_sometimes": 2219,
      "_CSeries": 2220,
      "_Beaud": 2221,
      "_Russia": 2222,
      "_newspap": 2223,
      "_bringing": 2224,
      "_pharmacists": 2225,
      "-based": 2226,
      "-year-old": 2227,
      "holders": 2228,
      "inistr": 2229,
      "_foreign": 2230,
      "_market": 2231,
      "_growth": 2232,
      "ambique": 2233,
      "_\"This": 2234,
      "_schedule": 2235,
      "_Transportation": 2236,
      "_simp": 2237,
      "alysts": 2238,
      "_hotel": 2239,
      "_launch": 2240,
      "_Comedy": 2241,
      "_Republic": 2242,
      "_journalists": 2243,
      "_indicated": 2244,
      "_relationship": 2245,
      "_immediately": 2246,
      "_box": 2247,
      "_deliver": 2248,
      "_revelations": 2249,
      "_Amiens": 2250,
      "_Publicis": 2251,
      "_video": 2252,
      "_John": 2253,
      "_discharged": 2254,
      "_vehicles": 2255,
      "_privilege": 2256,
      "nicom": 2257,
      "_together": 2258,
      "_maternity": 2259,
      "_hundred": 2260,
      "_Iraq": 2261,
      "_August": 2262,
      "_Services": 2263,
      "_Mozambique": 2264,
      "_streng": 2265,
      "_Delta": 2266,
      "_Yahoo": 2267,
      "-S": 2268,
      ".6": 2269,
      "5,": 2270,
      "53": 2271,
      "?\"": 2272,
      "DG": 2273,
      "_0": 2274,
      "_[": 2275,
      "_ur": 2276,
      "_ident": 2277,
      "af": 2278,
      "aur": 2279,
      "aign": 2280,
      "back": 2281,
      "co": 2282,
      "dition": 2283,
      "eople": 2284,
      "fer": 2285,
      "ges": 2286,
      "gress": 2287,
      "h.": 2288,
      "ha": 2289,
      "han": 2290,
      "hind": 2291,
      "iary": 2292,
      "ible": 2293,
      "ipped": 2294,
      "ling": 2295,
      "lic": 2296,
      "men": 2297,
      "mak": 2298,
      "more": 2299,
      "oad": 2300,
      "person": 2301,
      "ron": 2302,
      "rac": 2303,
      "u,": 2304,
      "ue,": 2305,
      "wh": 2306,
      "ym": 2307,
      "Â¢": 2308,
      "Ã¶": 2309,
      "çois": 2310,
      "_turn": 2311,
      "_typ": 2312,
      "_aim": 2313,
      "_ahead": 2314,
      "in,": 2315,
      "iness": 2316,
      "inberg": 2317,
      "reed": 2318,
      "_sil": 2319,
      "_sle": 2320,
      "_set": 2321,
      "_sell": 2322,
      "_saw": 2323,
      "_school": 2324,
      "_sense": 2325,
      "ones": 2326,
      "onder": 2327,
      "_wom": 2328,
      "_wonder": 2329,
      "_coun": 2330,
      "_cable": 2331,
      "_canc": 2332,
      "_camp": 2333,
      "_caused": 2334,
      "atur": 2335,
      "atform": 2336,
      "it,": 2337,
      "itter": 2338,
      "itive": 2339,
      "orld": 2340,
      "orpor": 2341,
      "ançois": 2342,
      "_bad": 2343,
      "_board": 2344,
      "_pil": 2345,
      "_pur": 2346,
      "_pop": 2347,
      "_palliative": 2348,
      "_power": 2349,
      "_fr": 2350,
      "_free": 2351,
      "_top": 2352,
      "_mas": 2353,
      "_mid": 2354,
      "_me.": 2355,
      "_mess": 2356,
      "_mod": 2357,
      "_moved": 2358,
      "_mention": 2359,
      "_music": 2360,
      "alif": 2361,
      "_hom": 2362,
      "_hard": 2363,
      "_din": 2364,
      "_dro": 2365,
      "_div": 2366,
      "_doc": 2367,
      "_days": 2368,
      "_daily": 2369,
      "asy": 2370,
      "ico": 2371,
      "ices.": 2372,
      "_thing": 2373,
      "enty": 2374,
      "le,": 2375,
      "_re-": 2376,
      "_reac": 2377,
      "_repl": 2378,
      "_revenue": 2379,
      "_nine": 2380,
      "_national": 2381,
      "_north": 2382,
      "_began": 2383,
      "_lat": 2384,
      "_late": 2385,
      "_live": 2386,
      "_line": 2387,
      "_love": 2388,
      "_leng": 2389,
      "_look": 2390,
      "_lives": 2391,
      "_liber": 2392,
      "_equ": 2393,
      "roduced": 2394,
      "_gen": 2395,
      "_gone": 2396,
      "_Ad": 2397,
      "_Aud": 2398,
      "ols": 2399,
      "_Corpor": 2400,
      "_Calif": 2401,
      "_S&": 2402,
      "_Some": 2403,
      "_Since": 2404,
      "_Sever": 2405,
      "_School": 2406,
      "_Syri": 2407,
      "_form": 2408,
      "_forced": 2409,
      "vert": 2410,
      "_\"B": 2411,
      "_\"L": 2412,
      "_\"P": 2413,
      "oth": 2414,
      "sec": 2415,
      "ech": 2416,
      "irc": 2417,
      "iron": 2418,
      "irth": 2419,
      "_Mart": 2420,
      "_Mich": 2421,
      "_March": 2422,
      "term": 2423,
      "_stat": 2424,
      "_hearing": 2425,
      "cement": 2426,
      "cepted": 2427,
      "_ul": 2428,
      "_us,": 2429,
      "_whom": 2430,
      "am,": 2431,
      "_concept": 2432,
      "_condition": 2433,
      "_Fl": 2434,
      "_Frel": 2435,
      "_Fund": 2436,
      "_Flem": 2437,
      "_alle": 2438,
      "_although": 2439,
      "riff": 2440,
      "_Now": 2441,
      "_North": 2442,
      "_progress": 2443,
      "_comb": 2444,
      "_noted": 2445,
      "_Do": 2446,
      "_Democr": 2447,
      "ortion": 2448,
      "ific": 2449,
      "ateg": 2450,
      "_Roy": 2451,
      "_Rio": 2452,
      "_GP": 2453,
      "osition": 2454,
      "_Pal": 2455,
      "_chann": 2456,
      "_deep": 2457,
      "_debt": 2458,
      "_units": 2459,
      "_univers": 2460,
      "iving": 2461,
      "_said:": 2462,
      "_Over": 2463,
      "ocial": 2464,
      "_shared": 2465,
      "ability": 2466,
      "ablish": 2467,
      "_rat": 2468,
      "_rul": 2469,
      "_rus": 2470,
      "_run": 2471,
      "_rather": 2472,
      "_12": 2473,
      "_13": 2474,
      "_16": 2475,
      "_17": 2476,
      "_West": 2477,
      "_World": 2478,
      "_above": 2479,
      "_platform": 2480,
      "_25": 2481,
      "_Lar": 2482,
      "_Lance": 2483,
      "_Lanc": 2484,
      "_succ": 2485,
      "_seen": 2486,
      "_season": 2487,
      "_ago.": 2488,
      "_agreed": 2489,
      "_Em": 2490,
      "_vice": 2491,
      "_via": 2492,
      "_whose": 2493,
      "_UN": 2494,
      "usted": 2495,
      "_job": 2496,
      "_Inc": 2497,
      "plom": 2498,
      "_clas": 2499,
      "_client": 2500,
      "_goal": 2501,
      "_serious": 2502,
      "_office": 2503,
      "_meat": 2504,
      "_contain": 2505,
      "_myself": 2506,
      "ends": 2507,
      "ended": 2508,
      "_reserv": 2509,
      "_rescue": 2510,
      "_State": 2511,
      "ecting": 2512,
      "_kil": 2513,
      "age.": 2514,
      "_afterno": 2515,
      "former": 2516,
      "itting": 2517,
      "oseph": 2518,
      "_Mrs": 2519,
      "_herself": 2520,
      "_appro": 2521,
      "_applic": 2522,
      "_interest": 2523,
      "_intercept": 2524,
      "_monitor": 2525,
      "_manag": 2526,
      "_management": 2527,
      "_decad": 2528,
      "_political": 2529,
      "_compan": 2530,
      "_compared": 2531,
      "_million.": 2532,
      "_millions": 2533,
      "_planners": 2534,
      "_firm": 2535,
      "_user": 2536,
      "_them.": 2537,
      "_there,": 2538,
      "_emph": 2539,
      "_45": 2540,
      "_incident": 2541,
      "_Head": 2542,
      "apping": 2543,
      "_overse": 2544,
      "_Americans": 2545,
      "ails": 2546,
      "ailable": 2547,
      "_build": 2548,
      "_added": 2549,
      "_added.": 2550,
      "_address": 2551,
      "_addiction": 2552,
      "_Christ": 2553,
      "_underst": 2554,
      "SA)": 2555,
      "_individ": 2556,
      "_better": 2557,
      "_\"In": 2558,
      "new": 2559,
      "_countri": 2560,
      "_bloc": 2561,
      "_blue": 2562,
      "_enough": 2563,
      "ually": 2564,
      "_case.": 2565,
      "_drive": 2566,
      "_driven": 2567,
      "_surpr": 2568,
      "_announcement": 2569,
      "ointed": 2570,
      "_among": 2571,
      "_province": 2572,
      "_taxes.": 2573,
      "_way,": 2574,
      "_phone": 2575,
      "_price": 2576,
      "_returned": 2577,
      "airperson": 2578,
      "ators": 2579,
      "_instead": 2580,
      "_Friday.": 2581,
      "_improve": 2582,
      "_didn't": 2583,
      "_Congress": 2584,
      "_Congreg": 2585,
      "_conference": 2586,
      "_Ditta,": 2587,
      "_agency.": 2588,
      "_carrying": 2589,
      "_possib": 2590,
      "_evacuated": 2591,
      "_Airport": 2592,
      "_Crown": 2593,
      "_appeals": 2594,
      "_appeared": 2595,
      "_tried": 2596,
      "_saying": 2597,
      "espite": 2598,
      "_Germany": 2599,
      "_admit": 2600,
      "_administr": 2601,
      "obal": 2602,
      "_military": 2603,
      "_involving": 2604,
      "_regional": 2605,
      "_profits": 2606,
      "_Canada": 2607,
      "_Snowden,": 2608,
      "-time": 2609,
      "_bags": 2610,
      "_baggage": 2611,
      "_elect": 2612,
      "_speech": 2613,
      "_presence,": 2614,
      "_key": 2615,
      "_criminals": 2616,
      "_crematorium": 2617,
      "_Europe": 2618,
      "_operations": 2619,
      "_check": 2620,
      "_filed": 2621,
      "_Class": 2622,
      "uebuz": 2623,
      "_previous": 2624,
      "_groups": 2625,
      "_solution": 2626,
      "_remain": 2627,
      "_charges": 2628,
      "_charging": 2629,
      "_Wednesday,": 2630,
      "_increased": 2631,
      "_increase": 2632,
      "_available": 2633,
      "_wait": 2634,
      "ashire": 2635,
      "_global": 2636,
      "_Secret": 2637,
      "_Bern": 2638,
      "_expert": 2639,
      "_discuss": 2640,
      "_ceremonies": 2641,
      "_suspected": 2642,
      "...": 2643,
      "ornia": 2644,
      "_hope": 2645,
      "_diplom": 2646,
      "_denied": 2647,
      "_Two": 2648,
      "_Twitter": 2649,
      "_Intern": 2650,
      "_Kenyan": 2651,
      "_coff": 2652,
      "_require": 2653,
      "_particip": 2654,
      "_particular": 2655,
      "_barrels": 2656,
      "_establish": 2657,
      "_technolog": 2658,
      "_clearly": 2659,
      "_civilian": 2660,
      "_insur": 2661,
      "_dollars": 2662,
      "_beginning": 2663,
      "_\"For": 2664,
      "_Omnicom": 2665,
      "_letter": 2666,
      "_business": 2667,
      "_potholders": 2668,
      "_posts": 2669,
      "_further": 2670,
      "_figures": 2671,
      "_motor": 2672,
      "_margin": 2673,
      "_restrictions": 2674,
      "_Centre": 2675,
      "_South": 2676,
      "_constant": 2677,
      "_Rwanda": 2678,
      "_raising": 2679,
      "_Ukraine": 2680,
      "_argu": 2681,
      "_arrived": 2682,
      "_residents": 2683,
      "_scandal": 2684,
      "_directly": 2685,
      "_supplies": 2686,
      "_confirmed": 2687,
      "_reinforce": 2688,
      "_necessary": 2689,
      "201": 2690,
      "ARDC": 2691,
      "_candid": 2692,
      "_thousands": 2693,
      "_Department": 2694,
      "_sustainable": 2695,
      "_Edward": 2696,
      "_Steinberg": 2697,
      "_update": 2698,
      "_question": 2699,
      "_prepared": 2700,
      "_Angel": 2701,
      "_Nevada": 2702,
      "-de-": 2703,
      "_broadcast": 2704,
      "_Grouwels": 2705,
      "_newspaper,": 2706,
      "_simply": 2707,
      "_women": 2708,
      "_campaign": 2709,
      "_pilot": 2710,
      "_division": 2711,
      "_docu": 2712,
      "_length": 2713,
      "_Corporal": 2714,
      "_California": 2715,
      "_Several": 2716,
      "_Frelim": 2717,
      "_Flemish": 2718,
      "_Democratic": 2719,
      "_Lancashire": 2720,
      "_emphas": 2721,
      "_Congregation": 2722,
      "uebuza": 2723,
      "_Secretary": 2724,
      "'I": 2725,
      "'M": 2726,
      "-M": 2727,
      "-N": 2728,
      "-in": 2729,
      "-201": 2730,
      ".3": 2731,
      "24": 2732,
      "200": 2733,
      "32": 2734,
      "Do": 2735,
      "Joseph": 2736,
      "NSA)": 2737,
      "PD": 2738,
      "PH": 2739,
      "SS": 2740,
      "YPD": 2741,
      "_Z": 2742,
      "_enc": 2743,
      "_ide": 2744,
      "ares": 2745,
      "aise": 2746,
      "auss": 2747,
      "br": 2748,
      "by": 2749,
      "bit": 2750,
      "bod": 2751,
      "burn": 2752,
      "bele": 2753,
      "che": 2754,
      "cing": 2755,
      "cal": 2756,
      "cial": 2757,
      "come": 2758,
      "ds": 2759,
      "dle": 2760,
      "eer": 2761,
      "eased": 2762,
      "fort": 2763,
      "figh": 2764,
      "go": 2765,
      "ging": 2766,
      "gand": 2767,
      "go,": 2768,
      "hl": 2769,
      "hat": 2770,
      "haps": 2771,
      "iac": 2772,
      "iver": 2773,
      "iet": 2774,
      "ires": 2775,
      "iated": 2776,
      "ke": 2777,
      "late": 2778,
      "less": 2779,
      "like": 2780,
      "limin": 2781,
      "lix": 2782,
      "me": 2783,
      "mark": 2784,
      "nam": 2785,
      "nel": 2786,
      "oor": 2787,
      "opp": 2788,
      "o-d": 2789,
      "pen": 2790,
      "pos": 2791,
      "pool": 2792,
      "ris": 2793,
      "rÃ¶": 2794,
      "s:": 2795,
      "session": 2796,
      "tr": 2797,
      "tor": 2798,
      "tic": 2799,
      "uesday": 2800,
      "viron": 2801,
      "wart": 2802,
      "xand": 2803,
      "yo": 2804,
      "yond": 2805,
      "_tro": 2806,
      "_tear": 2807,
      "_tack": 2808,
      "_turned": 2809,
      "here": 2810,
      "hest": 2811,
      "hered": 2812,
      "_aid": 2813,
      "_aver": 2814,
      "_apart": 2815,
      "_afr": 2816,
      "inc": 2817,
      "ink": 2818,
      "inct": 2819,
      "inem": 2820,
      "inancial": 2821,
      "incl": 2822,
      "_theatre": 2823,
      "ero": 2824,
      "erted": 2825,
      "erks": 2826,
      "erosp": 2827,
      "_old": 2828,
      "_opt": 2829,
      "rele": 2830,
      "read": 2831,
      "reet": 2832,
      "reak": 2833,
      "_save": 2834,
      "_sort": 2835,
      "_sect": 2836,
      "_sod": 2837,
      "_sens": 2838,
      "_saf": 2839,
      "ench": 2840,
      "_win": 2841,
      "_wif": 2842,
      "_ways": 2843,
      "_won't": 2844,
      "_worth": 2845,
      "_walle": 2846,
      "_woke": 2847,
      "_wake": 2848,
      "_crow": 2849,
      "_circ": 2850,
      "_cinem": 2851,
      "ates.": 2852,
      "atched": 2853,
      "athered": 2854,
      "is,": 2855,
      "isition": 2856,
      "ised.": 2857,
      "anic": 2858,
      "_bal": 2859,
      "_bud": 2860,
      "_bought": 2861,
      "_book": 2862,
      "_border": 2863,
      "_birth": 2864,
      "_break": 2865,
      "_pain": 2866,
      "_path": 2867,
      "_pump": 2868,
      "_published": 2869,
      "ess.": 2870,
      "_fif": 2871,
      "_fight": 2872,
      "_fine": 2873,
      "_fav": 2874,
      "_fail": 2875,
      "_fair": 2876,
      "ingly": 2877,
      "_to.": 2878,
      "_toward": 2879,
      "arb": 2880,
      "arol": 2881,
      "arack": 2882,
      "aries": 2883,
      "_mo": 2884,
      "_min": 2885,
      "_mount": 2886,
      "_miss": 2887,
      "_mob": 2888,
      "_mind": 2889,
      "ala": 2890,
      "ality": 2891,
      "alik": 2892,
      "_hun": 2893,
      "_hum": 2894,
      "_hold": 2895,
      "_hair": 2896,
      "_horse": 2897,
      "_du": 2898,
      "_dou": 2899,
      "_dom": 2900,
      "_dig": 2901,
      "_dam": 2902,
      "_dest": 2903,
      "_dang": 2904,
      "_dark": 2905,
      "ashed": 2906,
      "icol": 2907,
      "icted": 2908,
      "ices,": 2909,
      "ions,": 2910,
      "ionage": 2911,
      "ils": 2912,
      "iling": 2913,
      "ile,": 2914,
      "_threat": 2915,
      "_and,": 2916,
      "lexand": 2917,
      "_TV": 2918,
      "_Tal": 2919,
      "_Tri": 2920,
      "_Tex": 2921,
      "_Tuesday": 2922,
      "veil": 2923,
      "_rese": 2924,
      "_reass": 2925,
      "_reject": 2926,
      "_reduced": 2927,
      "_really": 2928,
      "_reduce": 2929,
      "_nat": 2930,
      "_behind": 2931,
      "_beyond": 2932,
      "_led": 2933,
      "_land": 2934,
      "_lose": 2935,
      "_lik": 2936,
      "_lug": 2937,
      "_large": 2938,
      "_lived": 2939,
      "idence": 2940,
      "idiary": 2941,
      "_ever": 2942,
      "_eight": 2943,
      "_earlier": 2944,
      "_once": 2945,
      "_one.": 2946,
      "aces": 2947,
      "acqu": 2948,
      "ayed": 2949,
      "stitution": 2950,
      "_gun": 2951,
      "_giant": 2952,
      "_gathered": 2953,
      "_Act": 2954,
      "_Aust": 2955,
      "_Afr": 2956,
      "_ARS": 2957,
      "_APH": 2958,
      "_Alexand": 2959,
      "olic": 2960,
      "olved": 2961,
      "_Cr": 2962,
      "_Che": 2963,
      "_Cre": 2964,
      "_Cap": 2965,
      "_Carol": 2966,
      "_Su": 2967,
      "_San": 2968,
      "_Such": 2969,
      "_Soci": 2970,
      "_Sony": 2971,
      "_Social": 2972,
      "ading": 2973,
      "_forces": 2974,
      "_\"A": 2975,
      "_\"a": 2976,
      "_\"c": 2977,
      "_\"e": 2978,
      "_\"m": 2979,
      "_\"not": 2980,
      "set": 2981,
      "sequ": 2982,
      "_These": 2983,
      "irmis": 2984,
      "ation,\"": 2985,
      "_Med": 2986,
      "_May": 2987,
      "_Mean": 2988,
      "imated": 2989,
      "_that.": 2990,
      "tern": 2991,
      "ternal": 2992,
      "_stri": 2993,
      "_hero": 2994,
      "_held": 2995,
      "_heart": 2996,
      "_heard": 2997,
      "_us.": 2998,
      "_By": 2999,
      "_Bill": 3000,
      "_Big": 3001,
      "_Bock": 3002,
      "_Born": 3003,
      "_Border": 3004,
      "_Barack": 3005,
      "amer": 3006,
      "_ask": 3007,
      "_it,": 3008,
      "_it's": 3009,
      "_itself": 3010,
      "_conv": 3011,
      "ment.": 3012,
      "_Fer": 3013,
      "_From": 3014,
      "_Fire": 3015,
      "_Follow": 3016,
      "_FARDC": 3017,
      "_Financial": 3018,
      "riate": 3019,
      "riend": 3020,
      "_yell": 3021,
      "_No": 3022,
      "_Nations": 3023,
      "_NYPD": 3024,
      "_Nicol": 3025,
      "_proce": 3026,
      "_proced": 3027,
      "_produced": 3028,
      "_Haw": 3029,
      "_Horse": 3030,
      "_Holland": 3031,
      "ulf": 3032,
      "_comment": 3033,
      "_commer": 3034,
      "_comedy": 3035,
      "_comfort": 3036,
      "ounding": 3037,
      "_nothing": 3038,
      "_Down": 3039,
      "_Dhl": 3040,
      "and,": 3041,
      "ando": 3042,
      "oper": 3043,
      "atever": 3044,
      "_Rog": 3045,
      "_Rock": 3046,
      "_Go": 3047,
      "_General": 3048,
      "_Green": 3049,
      "_Guebuza": 3050,
      "_area": 3051,
      "aker": 3052,
      "oss": 3053,
      "oses": 3054,
      "_try": 3055,
      "ackburn": 3056,
      "_export": 3057,
      "_except": 3058,
      "_exchange": 3059,
      "_Pro": 3060,
      "_Port": 3061,
      "_Pass": 3062,
      "_Père": 3063,
      "_chance": 3064,
      "_unlike": 3065,
      "_unveil": 3066,
      "_said,": 3067,
      "ths": 3068,
      "_Opp": 3069,
      "_Offic": 3070,
      "_O'M": 3071,
      "_willing": 3072,
      "_shr": 3073,
      "_shop": 3074,
      "_sharing": 3075,
      "ably": 3076,
      "quisition": 3077,
      "_ru": 3078,
      "_ris": 3079,
      "_ran": 3080,
      "_raid": 3081,
      "_risk": 3082,
      "_rats": 3083,
      "isting": 3084,
      "istic": 3085,
      "_abortion": 3086,
      "_plans": 3087,
      "_this,": 3088,
      "_22": 3089,
      "_26": 3090,
      "_Le": 3091,
      "_Lach": 3092,
      "_Lyri": 3093,
      "_Liver": 3094,
      "aren": 3095,
      "arent": 3096,
      "_sub": 3097,
      "_super": 3098,
      "_seat": 3099,
      "_seek": 3100,
      "_ago": 3101,
      "_aged": 3102,
      "_EU": 3103,
      "_Even": 3104,
      "_vis": 3105,
      "_adult": 3106,
      "_advert": 3107,
      "_whole": 3108,
      "_Ugand": 3109,
      "ustri": 3110,
      "encies": 3111,
      "_join": 3112,
      "iev": 3113,
      "ieve": 3114,
      "_spread": 3115,
      "_lear": 3116,
      "_leaving": 3117,
      "ence.": 3118,
      "_Inst": 3119,
      "_closed": 3120,
      "alleng": 3121,
      "umst": 3122,
      "_offers": 3123,
      "_mean": 3124,
      "_meant": 3125,
      "_Frank": 3126,
      "_François": 3127,
      "_content": 3128,
      "iagn": 3129,
      "_arr": 3130,
      "_art": 3131,
      "_feed": 3132,
      "_fees": 3133,
      "_fees,": 3134,
      "ongs": 3135,
      "_resum": 3136,
      "_Star": 3137,
      "_Stand": 3138,
      "_Stacy": 3139,
      "_StrÃ¶": 3140,
      "_kit": 3141,
      "actic": 3142,
      "_Kiev": 3143,
      "ure,": 3144,
      "_accused": 3145,
      "_accomp": 3146,
      "_accusing": 3147,
      "_doing": 3148,
      "_doctor": 3149,
      "au,": 3150,
      "_shell": 3151,
      "ances.": 3152,
      "ittee": 3153,
      "ounded": 3154,
      "_interven": 3155,
      "_expens": 3156,
      "_exposed": 3157,
      "ogr": 3158,
      "_deceased": 3159,
      "ction.": 3160,
      "_$9": 3161,
      "_$50": 3162,
      "_quot": 3163,
      "_quick": 3164,
      "_pred": 3165,
      "_precar": 3166,
      "_prelimin": 3167,
      "_becom": 3168,
      "ruction": 3169,
      "_all,": 3170,
      "_service.": 3171,
      "_him,": 3172,
      "_Analysts": 3173,
      "aval": 3174,
      "_times": 3175,
      "_time.": 3176,
      "_party,": 3177,
      "_users.": 3178,
      "_attend": 3179,
      "_(G": 3180,
      "_(NSA)": 3181,
      "_them,": 3182,
      "_crime": 3183,
      "_crude": 3184,
      "_critic": 3185,
      "_mediation": 3186,
      "_30,": 3187,
      "_31.": 3188,
      "_4.": 3189,
      "_47": 3190,
      "_43.": 3191,
      "_42,": 3192,
      "_others": 3193,
      "_cannot": 3194,
      "_Health": 3195,
      "_people.": 3196,
      "_scen": 3197,
      "_screen": 3198,
      "_finding": 3199,
      "_down,": 3200,
      "_overhead": 3201,
      "_America": 3202,
      "_America,": 3203,
      "enger": 3204,
      "_Its": 3205,
      "_It's": 3206,
      "SA.": 3207,
      "_grad": 3208,
      "_But,": 3209,
      "_months.": 3210,
      "_months,": 3211,
      "_\"There": 3212,
      "_brig": 3213,
      "ropriate": 3214,
      "_enab": 3215,
      "_environ": 3216,
      "ips": 3217,
      "ipal": 3218,
      "ually,": 3219,
      "_testing": 3220,
      "_airlines": 3221,
      "_wants": 3222,
      "_created": 3223,
      "_case": 3224,
      "_firemen": 3225,
      "_firefigh": 3226,
      "_asserted": 3227,
      "_commission": 3228,
      "_surr": 3229,
      "_evening,": 3230,
      "_officer": 3231,
      "_amid": 3232,
      "atively": 3233,
      "_provided": 3234,
      "_taxes": 3235,
      "_difference": 3236,
      "_retire": 3237,
      "_quarter.": 3238,
      "_quarterly": 3239,
      "_room": 3240,
      "_rose": 3241,
      "ized": 3242,
      "atory": 3243,
      "_passing": 3244,
      "_passenger": 3245,
      "_instruction": 3246,
      "_relatively": 3247,
      "_getting": 3248,
      "_needs": 3249,
      "_week.": 3250,
      "_weeks,": 3251,
      "_Friday,": 3252,
      "_day,": 3253,
      "_heads": 3254,
      "_NSA,": 3255,
      "_agency,": 3256,
      "_50": 3257,
      "_possession": 3258,
      "arming": 3259,
      "_reference": 3260,
      "_tracking": 3261,
      "_Ontar": 3262,
      "_pressure": 3263,
      "_announced.": 3264,
      "_world.": 3265,
      "_program.": 3266,
      "_trip": 3267,
      "_happy": 3268,
      "_goodby": 3269,
      "_consid": 3270,
      "_severance": 3271,
      "_admis": 3272,
      "_admitting": 3273,
      "_authorised": 3274,
      "_life,": 3275,
      "_Reut": 3276,
      "_share.": 3277,
      "_putting": 3278,
      "_data.": 3279,
      "_regular": 3280,
      "_repaint": 3281,
      "_device": 3282,
      "_developers": 3283,
      "_talks": 3284,
      "_currenc": 3285,
      "_current": 3286,
      "_personal": 3287,
      "_hours,": 3288,
      "_reports": 3289,
      "_defin": 3290,
      "_feeling": 3291,
      "_includ": 3292,
      "_activities,": 3293,
      "_activities.": 3294,
      "_targeted": 3295,
      "_targeting": 3296,
      "_Vauss": 3297,
      "_operating": 3298,
      "_brok": 3299,
      "_brothers": 3300,
      "_highway": 3301,
      "_organisation": 3302,
      "ically-": 3303,
      "_prevent": 3304,
      "_previously": 3305,
      "_survey": 3306,
      "_soldiers.": 3307,
      "_lawyer's": 3308,
      "_Bombardier's": 3309,
      ".5%": 3310,
      "_entry": 3311,
      "over,": 3312,
      "_thinks": 3313,
      "_Arab": 3314,
      "_strong": 3315,
      "_strateg": 3316,
      "_travell": 3317,
      "_ordered": 3318,
      "_advoc": 3319,
      "_offered": 3320,
      "_army.": 3321,
      "_company's": 3322,
      "_increas": 3323,
      "_recently": 3324,
      "_continued": 3325,
      "_continues": 3326,
      "_practices": 3327,
      "_Goodyear.": 3328,
      "iversary": 3329,
      "_accept": 3330,
      "_patient": 3331,
      "_men,": 3332,
      "_democr": 3333,
      "_distr": 3334,
      "_distrib": 3335,
      "_websit": 3336,
      "_Exchange": 3337,
      "_ceremony": 3338,
      "_happening": 3339,
      "_believe": 3340,
      "_buildings": 3341,
      "_suspect": 3342,
      "_affair": 3343,
      "_slow": 3344,
      "_something": 3345,
      "onym": 3346,
      "_biggest": 3347,
      "alley": 3348,
      "_draw": 3349,
      "_denial": 3350,
      "_conducting": 3351,
      "_Russia,": 3352,
      "_Why": 3353,
      "_What": 3354,
      "_International": 3355,
      "_Kenya's": 3356,
      "_occas": 3357,
      "_occur": 3358,
      "_wrong": 3359,
      "_writing": 3360,
      "_mileage": 3361,
      "_rebell": 3362,
      "_rebels": 3363,
      "_receive": 3364,
      "_received": 3365,
      "_looks": 3366,
      "_looking": 3367,
      "_issued": 3368,
      "_issues": 3369,
      "_suffering": 3370,
      "_claimed": 3371,
      "_additional": 3372,
      "_implemented": 3373,
      "_specific": 3374,
      "_collect": 3375,
      "_collection": 3376,
      "_morning.": 3377,
      "RS)": 3378,
      "ories.": 3379,
      "_billion.": 3380,
      "_face,": 3381,
      "_dollar": 3382,
      "_night,": 3383,
      "_early": 3384,
      "_student": 3385,
      "_stressed": 3386,
      "_death.": 3387,
      "_Omar": 3388,
      "_vote,": 3389,
      "_presented": 3390,
      "_results": 3391,
      "_commitment": 3392,
      "_committed": 3393,
      "_consultant": 3394,
      "_speaking": 3395,
      "_responsible": 3396,
      "_summon": 3397,
      "_Scarborough,": 3398,
      "ault,": 3399,
      "_terror": 3400,
      "_territor": 3401,
      "iticians": 3402,
      "_inhum": 3403,
      "_inhabit": 3404,
      "_holding": 3405,
      "_hostage": 3406,
      "_realise": 3407,
      "_reforms": 3408,
      "_standup": 3409,
      "_Blackburn": 3410,
      "_Brother": 3411,
      "_Day,": 3412,
      "_training": 3413,
      "_Police": 3414,
      "_seizures": 3415,
      "_valu": 3416,
      "_arrested": 3417,
      "_killed": 3418,
      "aught": 3419,
      "_manufacturing": 3420,
      "_2013,": 3421,
      "_controversy": 3422,
      "_controversial": 3423,
      "_elections": 3424,
      "_Saint-Joseph": 3425,
      "_representing": 3426,
      "_espionage": 3427,
      "timate": 3428,
      "_tablet": 3429,
      "_basis": 3430,
      "_boy.": 3431,
      "_pushing": 3432,
      "_parliamentary": 3433,
      "_federal": 3434,
      "_merger": 3435,
      "_nearly": 3436,
      "_limited": 3437,
      "_grips": 3438,
      "_gate.": 3439,
      "_Moreover,": 3440,
      "_profession": 3441,
      "_complaint": 3442,
      "_Glass": 3443,
      "_negative": 3444,
      "_original": 3445,
      "_absence": 3446,
      "_London": 3447,
      "_subsidiary": 3448,
      "_sexual": 3449,
      "_Elysée": 3450,
      "_contract": 3451,
      "_disappointed": 3452,
      "_333": 3453,
      "_recorded": 3454,
      "_refining": 3455,
      "_guarantee": 3456,
      "_Spirit's": 3457,
      "_Beaudoin": 3458,
      "_strengthe": 3459,
      "more,": 3460,
      "while,": 3461,
      "_type": 3462,
      "_aimed": 3463,
      "_cancer.": 3464,
      "_mentioned": 3465,
      "_dinner": 3466,
      "_dropped": 3467,
      "_re-rele": 3468,
      "_replace": 3469,
      "_latest": 3470,
      "_liberal": 3471,
      "_equipped": 3472,
      "_S&P": 3473,
      "secut": 3474,
      "_Martin": 3475,
      "_ultimate": 3476,
      "_alleged": 3477,
      "_Doerks": 3478,
      "_Palace": 3479,
      "_channels": 3480,
      "_ruling": 3481,
      "_rushed": 3482,
      "_success": 3483,
      "_clashes": 3484,
      "_improvement": 3485,
      "_admitted": 3486,
      "_administration": 3487,
      "_Bernard": 3488,
      "_diplomatic": 3489,
      "_Internet": 3490,
      "_technology": 3491,
      "_constantly": 3492,
      "-Malik": 3493,
      "DoS": 3494,
      "_idea": 3495,
      "named": 3496,
      "_tackle": 3497,
      "_average": 3498,
      "_afraid": 3499,
      "_wallet": 3500,
      "_circumst": 3501,
      "_cinema": 3502,
      "_mobile": 3503,
      "_digital": 3504,
      "_Texas": 3505,
      "_likes": 3506,
      "_luggage": 3507,
      "_Austral": 3508,
      "_Afric": 3509,
      "irmishes": 3510,
      "_Meanwhile,": 3511,
      "_Following": 3512,
      "_yellow": 3513,
      "_Nicolas": 3514,
      "_commercial": 3515,
      "_Dhlak": 3516,
      "_Rocket": 3517,
      "_Passengers": 3518,
      "_O'Malley": 3519,
      "_Lachaise": 3520,
      "_Lyriqu": 3521,
      "_Liverpool": 3522,
      "_seeking": 3523,
      "_StrÃ¶bele": 3524,
      "_preliminary": 3525,
      "_environment": 3526,
      "_firefighters": 3527,
      "_Vaussion": 3528,
      "-Maliki": 3529,
      "!\"": 3530,
      "%,": 3531,
      "'re": 3532,
      "'ll": 3533,
      "-F": 3534,
      "-H": 3535,
      "-P": 3536,
      "-T": 3537,
      "-V": 3538,
      "-c": 3539,
      "-g": 3540,
      "-h": 3541,
      "-r": 3542,
      "-res": 3543,
      "-bl": 3544,
      "-per": 3545,
      "-rel": 3546,
      ".7": 3547,
      ".8": 3548,
      "0,000": 3549,
      "18": 3550,
      "3%": 3551,
      "300": 3552,
      "3Â¢": 3553,
      "5.": 3554,
      "6,": 3555,
      "60": 3556,
      "8.": 3557,
      "88": 3558,
      "BC": 3559,
      "Bu": 3560,
      "CH": 3561,
      "Ch": 3562,
      "Cs": 3563,
      "FO": 3564,
      "MP": 3565,
      "NA": 3566,
      "RT": 3567,
      "S)": 3568,
      "SS.": 3569,
      "SRS)": 3570,
      "_z": 3571,
      "_Â": 3572,
      "_ed": 3573,
      "_ver": 3574,
      "_ire": 3575,
      "_eng": 3576,
      "_'I": 3577,
      "ael": 3578,
      "aum": 3579,
      "aution": 3580,
      "bb": 3581,
      "bed": 3582,
      "bro": 3583,
      "bun": 3584,
      "ball": 3585,
      "bass": 3586,
      "bra": 3587,
      "bade": 3588,
      "bourg": 3589,
      "cu": 3590,
      "cite": 3591,
      "count": 3592,
      "comm": 3593,
      "crib": 3594,
      "d,": 3595,
      "din": 3596,
      "eat": 3597,
      "ees": 3598,
      "eter": 3599,
      "eith": 3600,
      "equ": 3601,
      "egr": 3602,
      "far": 3603,
      "face": 3604,
      "flix": 3605,
      "fala": 3606,
      "gy": 3607,
      "gion": 3608,
      "gain": 3609,
      "gry": 3610,
      "ggest": 3611,
      "hon": 3612,
      "has": 3613,
      "hire": 3614,
      "hous": 3615,
      "hod": 3616,
      "i,": 3617,
      "ib": 3618,
      "ien": 3619,
      "iou": 3620,
      "iest": 3621,
      "iance": 3622,
      "io,": 3623,
      "ière": 3624,
      "iety": 3625,
      "jan": 3626,
      "jur": 3627,
      "jun": 3628,
      "kl": 3629,
      "kel": 3630,
      "lam": 3631,
      "liv": 3632,
      "log": 3633,
      "mp": 3634,
      "mes": 3635,
      "mas": 3636,
      "miss": 3637,
      "mother": 3638,
      "n.": 3639,
      "nd": 3640,
      "nes": 3641,
      "ns,": 3642,
      "nown": 3643,
      "nando": 3644,
      "of": 3645,
      "overy": 3646,
      "pre": 3647,
      "pis": 3648,
      "pay": 3649,
      "pir": 3650,
      "published": 3651,
      "panic": 3652,
      "parent": 3653,
      "ré": 3654,
      "rat": 3655,
      "ror": 3656,
      "rus": 3657,
      "rust": 3658,
      "ron,": 3659,
      "rude": 3660,
      "sw": 3661,
      "sen": 3662,
      "sch": 3663,
      "té": 3664,
      "tit": 3665,
      "te.": 3666,
      "tary": 3667,
      "ty.": 3668,
      "turn": 3669,
      "troduced": 3670,
      "ux": 3671,
      "uit": 3672,
      "uel": 3673,
      "uct": 3674,
      "us,": 3675,
      "uge": 3676,
      "umer": 3677,
      "uff": 3678,
      "uations": 3679,
      "uals": 3680,
      "uade": 3681,
      "ves.": 3682,
      "viol": 3683,
      "vacuated": 3684,
      "west": 3685,
      "yl": 3686,
      "yn": 3687,
      "yes": 3688,
      "yle": 3689,
      "y's": 3690,
      "yber": 3691,
      "y-H": 3692,
      "zil": 3693,
      "zek": 3694,
      "zback": 3695,
      "¢te": 3696,
      "Ã¢te": 3697,
      "ér": 3698,
      "éry": 3699,
      "éral": 3700,
      "_ton": 3701,
      "_tas": 3702,
      "_tem": 3703,
      "_tun": 3704,
      "_tire": 3705,
      "_tren": 3706,
      "_tick": 3707,
      "_tank": 3708,
      "_treat": 3709,
      "_tactic": 3710,
      "_taught": 3711,
      "_ach": 3712,
      "_away": 3713,
      "_away.": 3714,
      "_aerosp": 3715,
      "ino": 3716,
      "ins,": 3717,
      "inary": 3718,
      "ines,": 3719,
      "inations": 3720,
      "inking": 3721,
      "injured": 3722,
      "inics": 3723,
      "ery": 3724,
      "eration": 3725,
      "erary": 3726,
      "erous": 3727,
      "erious": 3728,
      "_overn": 3729,
      "_open": 3730,
      "re.": 3731,
      "rev": 3732,
      "rew": 3733,
      "rect": 3734,
      "reater": 3735,
      "_sat": 3736,
      "_sor": 3737,
      "_sal": 3738,
      "_sent": 3739,
      "_sel": 3740,
      "_sound": 3741,
      "_side": 3742,
      "_sought": 3743,
      "_soci": 3744,
      "_session": 3745,
      "_songs": 3746,
      "onian": 3747,
      "onne": 3748,
      "en.": 3749,
      "ened": 3750,
      "enate": 3751,
      "eness": 3752,
      "_wro": 3753,
      "_wel": 3754,
      "_wish": 3755,
      "_water": 3756,
      "ed,\"": 3757,
      "_cat": 3758,
      "_cut": 3759,
      "_cast": 3760,
      "_cult": 3761,
      "_cause": 3762,
      "_cook": 3763,
      "_cover": 3764,
      "_cards": 3765,
      "_camer": 3766,
      "_cyber": 3767,
      "at.": 3768,
      "atine": 3769,
      "aturing": 3770,
      "atically": 3771,
      "ité": 3772,
      "itar": 3773,
      "itly": 3774,
      "itch": 3775,
      "itals": 3776,
      "itiz": 3777,
      "itched": 3778,
      "itute": 3779,
      "itzback": 3780,
      "ison": 3781,
      "ises": 3782,
      "ises,": 3783,
      "isations": 3784,
      "isled": 3785,
      "isible": 3786,
      "orm": 3787,
      "oring": 3788,
      "organ": 3789,
      "an,": 3790,
      "ane,": 3791,
      "anied": 3792,
      "anese": 3793,
      "_bit": 3794,
      "_bur": 3795,
      "_bri": 3796,
      "_base": 3797,
      "_bank": 3798,
      "_bins": 3799,
      "_both": 3800,
      "_par": 3801,
      "_pal": 3802,
      "_pers": 3803,
      "_pack": 3804,
      "_pace": 3805,
      "_pays": 3806,
      "_pap": 3807,
      "_purs": 3808,
      "_pover": 3809,
      "_penn": 3810,
      "ese,": 3811,
      "_fle": 3812,
      "_foc": 3813,
      "_fant": 3814,
      "_fast": 3815,
      "_fans": 3816,
      "_food": 3817,
      "_fru": 3818,
      "_fond": 3819,
      "_fund": 3820,
      "_failed": 3821,
      "_felt": 3822,
      "_foot": 3823,
      "_friend": 3824,
      "_inn": 3825,
      "_injur": 3826,
      "_too,": 3827,
      "ar,": 3828,
      "arat": 3829,
      "armer": 3830,
      "arding": 3831,
      "arie": 3832,
      "arks": 3833,
      "arcot": 3834,
      "arris": 3835,
      "ariety": 3836,
      "_anger": 3837,
      "_analyst": 3838,
      "_analysts": 3839,
      "_antic": 3840,
      "_anonym": 3841,
      "_answ": 3842,
      "_mill": 3843,
      "_mur": 3844,
      "_main": 3845,
      "_mand": 3846,
      "_mall": 3847,
      "_mass": 3848,
      "_mult": 3849,
      "_munic": 3850,
      "_mission": 3851,
      "_match": 3852,
      "_misled": 3853,
      "ale": 3854,
      "aly": 3855,
      "algo,": 3856,
      "_ha": 3857,
      "_hid": 3858,
      "_hill": 3859,
      "_hig": 3860,
      "_hack": 3861,
      "_hab": 3862,
      "_hide": 3863,
      "_hollow": 3864,
      "_hands": 3865,
      "oul": 3866,
      "ouis": 3867,
      "ouvel": 3868,
      "_d'": 3869,
      "_dut": 3870,
      "_dim": 3871,
      "_del": 3872,
      "_done": 3873,
      "_despite": 3874,
      "_diagn": 3875,
      "asted": 3876,
      "ashing": 3877,
      "asures": 3878,
      "ics.": 3879,
      "ice,": 3880,
      "icout": 3881,
      "icine": 3882,
      "icious": 3883,
      "icient": 3884,
      "icit,": 3885,
      "icitly": 3886,
      "ion.\"": 3887,
      "iles": 3888,
      "ilar": 3889,
      "ille": 3890,
      "ilty": 3891,
      "ilitary": 3892,
      "_thus": 3893,
      "_thwart": 3894,
      "omic": 3895,
      "enth": 3896,
      "enton": 3897,
      "ential": 3898,
      "leg": 3899,
      "leased": 3900,
      "ley-H": 3901,
      "_Tin": 3902,
      "_Tro": 3903,
      "_Tim": 3904,
      "_Tour": 3905,
      "_Top": 3906,
      "_Tok": 3907,
      "_Tra": 3908,
      "_Teen": 3909,
      "_Tele": 3910,
      "_reason": 3911,
      "_reduction": 3912,
      "_reorgan": 3913,
      "_name": 3914,
      "_nick": 3915,
      "_numer": 3916,
      "_narcot": 3917,
      "_beef": 3918,
      "_lo": 3919,
      "_lin": 3920,
      "_lay": 3921,
      "_lam": 3922,
      "_lab": 3923,
      "_loy": 3924,
      "_log": 3925,
      "_lied": 3926,
      "_lord": 3927,
      "_liqu": 3928,
      "_lines": 3929,
      "_latter": 3930,
      "_laug": 3931,
      "_losing": 3932,
      "_living": 3933,
      "_loss": 3934,
      "ides": 3935,
      "ide,": 3936,
      "idalgo,": 3937,
      "_eld": 3938,
      "_eart": 3939,
      "_eased": 3940,
      "_either": 3941,
      "_ecot": 3942,
      "_epis": 3943,
      "_eyes": 3944,
      "_ones": 3945,
      "_onlin": 3946,
      "acher": 3947,
      "acity": 3948,
      "ace,": 3949,
      "acy.": 3950,
      "roy": 3951,
      "roll": 3952,
      "ross": 3953,
      "ay,": 3954,
      "_Ips": 3955,
      "_Imp": 3956,
      "_gave": 3957,
      "_gall": 3958,
      "_gather": 3959,
      "_gone.": 3960,
      "_greater": 3961,
      "_AF": 3962,
      "_Af": 3963,
      "_Are": 3964,
      "_App": 3965,
      "_Again": 3966,
      "olun": 3967,
      "olding": 3968,
      "olicitor": 3969,
      "_Col": 3970,
      "_Call": 3971,
      "_Cath": 3972,
      "_Cocaine": 3973,
      "_SA": 3974,
      "_Se": 3975,
      "_Sher": 3976,
      "_Squ": 3977,
      "_Sore": 3978,
      "_Sark": 3979,
      "_Somet": 3980,
      "_SDG": 3981,
      "_Slate": 3982,
      "_Serious": 3983,
      "_Senate": 3984,
      "_Solicitor": 3985,
      "ad.": 3986,
      "ade,": 3987,
      "adition": 3988,
      "adio": 3989,
      "_forget": 3990,
      "_forcing": 3991,
      "_forbade": 3992,
      "ver,": 3993,
      "vers.": 3994,
      "verted": 3995,
      "verthe": 3996,
      "verting": 3997,
      "_\"H": 3998,
      "_\"O": 3999,
      "_\"Y": 4000,
      "_\"l": 4001,
      "_\"se": 4002,
      "_\"un": 4003,
      "_\"reg": 4004,
      "_\"ex": 4005,
      "_\"no": 4006,
      "_\"viol": 4007,
      "ott": 4008,
      "otor": 4009,
      "otel": 4010,
      "otted": 4011,
      "otte": 4012,
      "_Then": 4013,
      "_Theatre": 4014,
      "ecause": 4015,
      "ecially": 4016,
      "uto": 4017,
      "iry": 4018,
      "irac": 4019,
      "irus": 4020,
      "iries": 4021,
      "irsch": 4022,
      "illian": 4023,
      "illings": 4024,
      "illiam": 4025,
      "urer": 4026,
      "urther": 4027,
      "_Mor": 4028,
      "_Mid": 4029,
      "_Mad": 4030,
      "_Mort": 4031,
      "_Mun": 4032,
      "_Most": 4033,
      "_Mary": 4034,
      "_Map": 4035,
      "_Mile": 4036,
      "_Math": 4037,
      "_Many": 4038,
      "_MDG": 4039,
      "_Maur": 4040,
      "_Marie": 4041,
      "_Menton": 4042,
      "imi": 4043,
      "iment": 4044,
      "_that's": 4045,
      "_that,\"": 4046,
      "lying": 4047,
      "ter.": 4048,
      "terpart": 4049,
      "_station": 4050,
      "_stations": 4051,
      "_strug": 4052,
      "_stock": 4053,
      "_stands": 4054,
      "_stages": 4055,
      "_stability": 4056,
      "_steer": 4057,
      "_stopp": 4058,
      "_stories.": 4059,
      "_hear": 4060,
      "igious": 4061,
      "igning": 4062,
      "et,": 4063,
      "ets": 4064,
      "et's": 4065,
      "etary": 4066,
      "_Bun": 4067,
      "_Bell": 4068,
      "_Bog": 4069,
      "_Bra": 4070,
      "_Bash": 4071,
      "_Both": 4072,
      "amas": 4073,
      "amatically": 4074,
      "elle": 4075,
      "_ashe": 4076,
      "_it,\"": 4077,
      "ers'": 4078,
      "ership": 4079,
      "_wasn't": 4080,
      "_convers": 4081,
      "_concess": 4082,
      "_consequ": 4083,
      "_consecut": 4084,
      "_Four": 4085,
      "_Fun": 4086,
      "_Fore": 4087,
      "_Finist": 4088,
      "_Fitzback": 4089,
      "_Further": 4090,
      "_along": 4091,
      "_alone": 4092,
      "_altern": 4093,
      "_al-Maliki": 4094,
      "cture": 4095,
      "ctuary": 4096,
      "ainian": 4097,
      "riv": 4098,
      "_yet": 4099,
      "resse": 4100,
      "_Nour": 4101,
      "_Nich": 4102,
      "_Nym": 4103,
      "_Narb": 4104,
      "_Nouvel": 4105,
      "_proper": 4106,
      "_propos": 4107,
      "_Hun": 4108,
      "_Hence": 4109,
      "_Hall": 4110,
      "_Home": 4111,
      "_Hass": 4112,
      "_Hans": 4113,
      "_Hag": 4114,
      "_High": 4115,
      "_Hidalgo,": 4116,
      "_Hotel": 4117,
      "_Hirsch": 4118,
      "ests.": 4119,
      "_has,": 4120,
      "_hasn't": 4121,
      "ully": 4122,
      "ulatory": 4123,
      "ounter": 4124,
      "_not,": 4125,
      "_notes": 4126,
      "_Dent": 4127,
      "_Due": 4128,
      "_Def": 4129,
      "_Despite": 4130,
      "_DDoS": 4131,
      "_DNA": 4132,
      "ortunity": 4133,
      "anded,": 4134,
      "andmother": 4135,
      "our,": 4136,
      "ours": 4137,
      "ouring": 4138,
      "opular": 4139,
      "employ": 4140,
      "emaker": 4141,
      "ift": 4142,
      "arty's": 4143,
      "_Red": 4144,
      "_Res": 4145,
      "_Row": 4146,
      "_Rue": 4147,
      "_Rout": 4148,
      "_Rob": 4149,
      "ge,": 4150,
      "uses": 4151,
      "uses.": 4152,
      "usual": 4153,
      "_Gom": 4154,
      "_Gend": 4155,
      "_Gaz": 4156,
      "_Gains": 4157,
      "_Géral": 4158,
      "_Gatine": 4159,
      "_neither": 4160,
      "_neo-d": 4161,
      "aked": 4162,
      "akes": 4163,
      "osc": 4164,
      "osite": 4165,
      "_tru": 4166,
      "_trust": 4167,
      "_truth": 4168,
      "_trick": 4169,
      "_traces": 4170,
      "_trading": 4171,
      "acket": 4172,
      "chang": 4173,
      "_examp": 4174,
      "_exha": 4175,
      "_exterm": 4176,
      "_external": 4177,
      "_excite": 4178,
      "_Pr": 4179,
      "_Post": 4180,
      "_Pont": 4181,
      "_Paul": 4182,
      "_People": 4183,
      "_PCs": 4184,
      "_Prev": 4185,
      "_Presse": 4186,
      "_Party's": 4187,
      "_chose": 4188,
      "_challeng": 4189,
      "_chÃ¢te": 4190,
      "_unf": 4191,
      "_uncon": 4192,
      "_unions,": 4193,
      "_unusual": 4194,
      "_unchang": 4195,
      "ivu,": 4196,
      "ooked": 4197,
      "thing": 4198,
      "_Of": 4199,
      "_Old": 4200,
      "_Off": 4201,
      "_Other": 4202,
      "_Oreg": 4203,
      "_Ott": 4204,
      "_Oliv": 4205,
      "_histor": 4206,
      "_shame": 4207,
      "_shock": 4208,
      "_shops": 4209,
      "_shillings": 4210,
      "quent": 4211,
      "quarter": 4212,
      "quiries": 4213,
      "_rate": 4214,
      "_range": 4215,
      "_ruled": 4216,
      "_racket": 4217,
      "ich,": 4218,
      "_14": 4219,
      "_14,": 4220,
      "ity\"": 4221,
      "ist.": 4222,
      "istle": 4223,
      "_Work": 4224,
      "_Wild": 4225,
      "_William": 4226,
      "bert": 4227,
      "_ability": 4228,
      "_abuses.": 4229,
      "_plus": 4230,
      "_this.": 4231,
      "_24": 4232,
      "_2.5": 4233,
      "_250": 4234,
      "_Los": 4235,
      "_Light": 4236,
      "_Law": 4237,
      "_Like": 4238,
      "_Lef": 4239,
      "_Leb": 4240,
      "_Laun": 4241,
      "_Lee": 4242,
      "_Lars": 4243,
      "_Liber": 4244,
      "_Laval": 4245,
      "_Louis": 4246,
      "_suggest": 4247,
      "ession,": 4248,
      "_year's": 4249,
      "_year.\"": 4250,
      "antage": 4251,
      "_agencies": 4252,
      "_Every": 4253,
      "_Ext": 4254,
      "_Either": 4255,
      "_Earlier": 4256,
      "_Evacuated": 4257,
      "_vo": 4258,
      "_von": 4259,
      "_vast": 4260,
      "_vision": 4261,
      "_vict": 4262,
      "_variety": 4263,
      "_volun": 4264,
      "_adap": 4265,
      "_UFO": 4266,
      "_UMP": 4267,
      "_wouldn't": 4268,
      "ences": 4269,
      "ences.": 4270,
      "_Thom": 4271,
      "_ju": 4272,
      "_jur": 4273,
      "_jet": 4274,
      "_spir": 4275,
      "_spare": 4276,
      "_spect": 4277,
      "_space": 4278,
      "_spite": 4279,
      "_spotted": 4280,
      "ight,": 4281,
      "ightly": 4282,
      "_level": 4283,
      "day,": 4284,
      "ence\"": 4285,
      "_Informer": 4286,
      "_clar": 4287,
      "_clim": 4288,
      "_clients": 4289,
      "_club": 4290,
      "_clinics": 4291,
      "_perhaps": 4292,
      "_perverting": 4293,
      "ell.": 4294,
      "ry.": 4295,
      "_serve": 4296,
      "_served": 4297,
      "_seriously": 4298,
      "_off,": 4299,
      "_offices": 4300,
      "_measures": 4301,
      "_Franc": 4302,
      "ated,": 4303,
      "ated,\"": 4304,
      "_contact": 4305,
      "ia.": 4306,
      "_armed": 4307,
      "_fee.": 4308,
      "_feast": 4309,
      "_feared": 4310,
      "_featuring": 4311,
      "_intent": 4312,
      "_intro": 4313,
      "_introduced": 4314,
      "_integr": 4315,
      "_out,": 4316,
      "_out.": 4317,
      "_outr": 4318,
      "_outside": 4319,
      "_outcome": 4320,
      "_myths": 4321,
      "ance.": 4322,
      "ancell": 4323,
      "bling": 4324,
      "assisted": 4325,
      "_resign": 4326,
      "_resolved": 4327,
      "_rescu": 4328,
      "venue,": 4329,
      "_they're": 4330,
      "_Stri": 4331,
      "_Stock": 4332,
      "ection": 4333,
      "ectives": 4334,
      "_kid": 4335,
      "_kept": 4336,
      "_kind": 4337,
      "action": 4338,
      "actly": 4339,
      "_Kam": 4340,
      "_Kier": 4341,
      "_Kins": 4342,
      "_Khan": 4343,
      "_Keith": 4344,
      "_Kroll": 4345,
      "_Kivu,": 4346,
      "aged": 4347,
      "agan": 4348,
      "agers": 4349,
      "ague": 4350,
      "age,": 4351,
      "ierre": 4352,
      "_Jun": 4353,
      "_Jud": 4354,
      "_Journal": 4355,
      "_Jacqu": 4356,
      "_accomm": 4357,
      "ports": 4358,
      "awa": 4359,
      "ode": 4360,
      "_twenty": 4361,
      "_invisible": 4362,
      "_apparen": 4363,
      "_interns": 4364,
      "_intercepted": 4365,
      "_expect": 4366,
      "_express": 4367,
      "_expecting": 4368,
      "_expiry": 4369,
      "itely": 4370,
      "_manner": 4371,
      "oodiest": 4372,
      "_$4": 4373,
      "_$4.": 4374,
      "_$32": 4375,
      "_quiet": 4376,
      "_pregn": 4377,
      "_prefer": 4378,
      "_politicians": 4379,
      "ructure": 4380,
      "_cars": 4381,
      "_allies": 4382,
      "_Ann": 4383,
      "_Anne": 4384,
      "_Another": 4385,
      "_\"Thing": 4386,
      "_planes": 4387,
      "_planemaker": 4388,
      "_times,": 4389,
      "_partial": 4390,
      "_us:": 4391,
      "_(F": 4392,
      "_(R": 4393,
      "_(the": 4394,
      "_(0.": 4395,
      "_(53": 4396,
      "_(incl": 4397,
      "ition,": 4398,
      "_disks": 4399,
      "amework": 4400,
      "_them:": 4401,
      "_them,\"": 4402,
      "_crim": 4403,
      "_crum": 4404,
      "_critical": 4405,
      "_medically-": 4406,
      "_medicine": 4407,
      "_empt": 4408,
      "_Neil": 4409,
      "_Neverthe": 4410,
      "_3,": 4411,
      "_32": 4412,
      "_4,": 4413,
      "_44": 4414,
      "_can't": 4415,
      "ning.": 4416,
      "nings": 4417,
      "_scene": 4418,
      "_final": 4419,
      "_more,": 4420,
      "appropriate": 4421,
      "_overturn": 4422,
      "_anniversary": 4423,
      "_America's": 4424,
      "_government.": 4425,
      "een,": 4426,
      "_law.": 4427,
      "_lawmak": 4428,
      "_Italy": 4429,
      "_Charl": 4430,
      "_Chief": 4431,
      "_Chairperson": 4432,
      "_Chicout": 4433,
      "_Chirac": 4434,
      "_Chancell": 4435,
      "_Unit": 4436,
      "_Union": 4437,
      "_Under": 4438,
      "_Univers": 4439,
      "_Unpublished": 4440,
      "_2014,": 4441,
      "_2010,": 4442,
      "_recall": 4443,
      "_recomm": 4444,
      "_grandmother": 4445,
      "ifficult": 4446,
      "_month.": 4447,
      "_works": 4448,
      "_worked": 4449,
      "_work,\"": 4450,
      "_counts": 4451,
      "ities,": 4452,
      "_blog": 4453,
      "_brings": 4454,
      "_back.": 4455,
      "_backed": 4456,
      "_backlog": 4457,
      "_pay.": 4458,
      "_paying": 4459,
      "_pay-per": 4460,
      "igns": 4461,
      "_you,": 4462,
      "_ending": 4463,
      "_enable": 4464,
      "iple": 4465,
      "_airport": 4466,
      "_these,": 4467,
      "_cash": 4468,
      "_case,": 4469,
      "_cases,": 4470,
      "_makes": 4471,
      "_driving": 4472,
      "_assur": 4473,
      "_assist": 4474,
      "_assured": 4475,
      "_assault": 4476,
      "_assaul": 4477,
      "_community": 4478,
      "_committee": 4479,
      "_followed": 4480,
      "_followed.": 4481,
      "_justice": 4482,
      "_wherever": 4483,
      "_officers": 4484,
      "_ambit": 4485,
      "_floor": 4486,
      "_direction.": 4487,
      "_provid": 4488,
      "_provok": 4489,
      "_provision": 4490,
      "_providing": 4491,
      "_showed": 4492,
      "_team": 4493,
      "_text": 4494,
      "_team,": 4495,
      "_teacher": 4496,
      "_way.": 4497,
      "_phot": 4498,
      "_princ": 4499,
      "_publication": 4500,
      "_publicly": 4501,
      "ark.": 4502,
      "_retrac": 4503,
      "_role": 4504,
      "_rock": 4505,
      "atory,": 4506,
      "_instability": 4507,
      "_relating": 4508,
      "_relayed": 4509,
      "_religious": 4510,
      "_everyday": 4511,
      "_everyone": 4512,
      "_gets": 4513,
      "_\"What": 4514,
      "_supply": 4515,
      "_weeks.": 4516,
      "_again,": 4517,
      "_impress": 4518,
      "_imposed": 4519,
      "_soldier": 4520,
      "_anyone.": 4521,
      "_anyway.": 4522,
      "_day.": 4523,
      "_Congo": 4524,
      "_Congres": 4525,
      "iminated": 4526,
      "_heading": 4527,
      "_headph": 4528,
      "_confident": 4529,
      "_NSA's": 4530,
      "_Renamo,": 4531,
      "_500": 4532,
      "_ended": 4533,
      "nsen,": 4534,
      "phoman": 4535,
      "_owned": 4536,
      "_position": 4537,
      "_majority": 4538,
      "_refused": 4539,
      "_refuse": 4540,
      "_events": 4541,
      "_Airways": 4542,
      "_Cros": 4543,
      "_Croll": 4544,
      "_track,": 4545,
      "_tracks": 4546,
      "_programme": 4547,
      "_tribun": 4548,
      "_termination": 4549,
      "_says.": 4550,
      "_happy.": 4551,
      "_Atomic": 4552,
      "_consisting": 4553,
      "_transition": 4554,
      "_transfer": 4555,
      "_transparent": 4556,
      "eptical": 4557,
      "_country,": 4558,
      "_Renamo's": 4559,
      "_authorisations": 4560,
      "way,": 4561,
      "_smok": 4562,
      "_smiling": 4563,
      "_only.": 4564,
      "rowing": 4565,
      "_Reason": 4566,
      "_Revenue": 4567,
      "_Region": 4568,
      "_Released": 4569,
      "_2004": 4570,
      "_involve": 4571,
      "_November.": 4572,
      "_mostly": 4573,
      "_Trust": 4574,
      "_True": 4575,
      "_stops": 4576,
      "_seeing": 4577,
      "_specul": 4578,
      "_specified": 4579,
      "_doesn't": 4580,
      "_lawyer,": 4581,
      "_Canada,": 4582,
      "-to-": 4583,
      "-tapping": 4584,
      "aud-N": 4585,
      "ervice": 4586,
      "_situations": 4587,
      "_personnel": 4588,
      "_located": 4589,
      "_guid": 4590,
      "_guilty": 4591,
      "_stayed": 4592,
      "_defence": 4593,
      "_defending": 4594,
      "_deficit,": 4595,
      "_departments": 4596,
      "ook,": 4597,
      "_10%": 4598,
      "_10,000": 4599,
      "_197": 4600,
      "_speed": 4601,
      "_cremated": 4602,
      "_operation": 4603,
      "_chec": 4604,
      "_chef": 4605,
      "_cheese,": 4606,
      "_color": 4607,
      "_colours": 4608,
      "_memory": 4609,
      "_numbers": 4610,
      "_Claim": 4611,
      "_Closes": 4612,
      "_Spying": 4613,
      "_M23,": 4614,
      "_organised": 4615,
      "_respect": 4616,
      "_respected": 4617,
      "_decisions": 4618,
      "_$10": 4619,
      "_group's": 4620,
      "_September.": 4621,
      "_Bombardier,": 4622,
      ".57": 4623,
      "_66": 4624,
      "_enter": 4625,
      "_entered": 4626,
      "less,": 4627,
      "_factory.": 4628,
      "_remix": 4629,
      "_removed": 4630,
      "_reinst": 4631,
      "_reintroduced": 4632,
      "_reveals": 4633,
      "_light,": 4634,
      "_Arm": 4635,
      "_Arsen": 4636,
      "_MP,": 4637,
      "_Monetary": 4638,
      "_strang": 4639,
      "_charger": 4640,
      "_order.": 4641,
      "_shortage": 4642,
      "_advantage": 4643,
      "_leader": 4644,
      "_leading": 4645,
      "_buys": 4646,
      "_flight.": 4647,
      "_continuing": 4648,
      "_practice": 4649,
      "_accepted": 4650,
      "_acquisition": 4651,
      "_capable": 4652,
      "_capacity": 4653,
      "_bodies": 4654,
      "_body.": 4655,
      "_patter": 4656,
      "_points": 4657,
      "_town.": 4658,
      "_towns": 4659,
      "_movement": 4660,
      "_hospitals": 4661,
      "_distinct": 4662,
      "_though.": 4663,
      "_glass": 4664,
      "_CGR": 4665,
      "_force,": 4666,
      "_Berlin": 4667,
      "_Execut": 4668,
      "_closing": 4669,
      "_president,": 4670,
      "_accessories": 4671,
      "_experienc": 4672,
      "_experiment": 4673,
      "_police.": 4674,
      "_discover": 4675,
      "_supports": 4676,
      "_ceremony.": 4677,
      "_Montreal-based": 4678,
      "_Montreal-T": 4679,
      "_explains": 4680,
      "_believed": 4681,
      "_believes.": 4682,
      "_families": 4683,
      "_building,": 4684,
      "-service": 4685,
      "_70": 4686,
      "_affect": 4687,
      "_affected": 4688,
      "_slightly": 4689,
      "_costs": 4690,
      "_hopes": 4691,
      "_die,": 4692,
      "_dramatically": 4693,
      "_detected": 4694,
      "_details": 4695,
      "_detectives": 4696,
      "_dream.": 4697,
      "_dreams": 4698,
      "_CSSS.": 4699,
      "_Shop": 4700,
      "_\"wh": 4701,
      "_conducted": 4702,
      "_Paris,": 4703,
      "_Presidential": 4704,
      "_dealer": 4705,
      "_rights": 4706,
      "_1,6": 4707,
      "_White": 4708,
      "_summer": 4709,
      "_viewers": 4710,
      "_appear.": 4711,
      "_appears": 4712,
      "_appearances": 4713,
      "_money.": 4714,
      "_$25": 4715,
      "_plane's": 4716,
      "_independence": 4717,
      "_pharmacy": 4718,
      "_pharmacist.": 4719,
      "_Crossley-H": 4720,
      "_privacy": 4721,
      "_Israel": 4722,
      "_Kenya": 4723,
      "_January,": 4724,
      "_Scarbrough": 4725,
      "-largest": 4726,
      "-lift": 4727,
      "_opposed": 4728,
      "_opposition": 4729,
      "_opportunity": 4730,
      "_opposite": 4731,
      "_occup": 4732,
      "_cooper": 4733,
      "_city.": 4734,
      "_injured,": 4735,
      "_house.": 4736,
      "_receiving": 4737,
      "_request": 4738,
      "_looked": 4739,
      "_growing": 4740,
      "_Common": 4741,
      "_Commission": 4742,
      "_\"tr": 4743,
      "_\"too": 4744,
      "_suffer": 4745,
      "_suffered": 4746,
      "_claims": 4747,
      "_\"That": 4748,
      "_attempted": 4749,
      "_\"It's": 4750,
      "_implementing": 4751,
      "_network,": 4752,
      "_networks,": 4753,
      "_control.": 4754,
      "_controls": 4755,
      "_specifically": 4756,
      "_travelers": 4757,
      "_CGT.": 4758,
      "_estimated": 4759,
      "porate": 4760,
      "_technical": 4761,
      "_war.": 4762,
      "_warning": 4763,
      "_warned": 4764,
      "_corrupt": 4765,
      "_correct": 4766,
      "_corporate": 4767,
      "_center": 4768,
      "_centre": 4769,
      "_freed": 4770,
      "_free.": 4771,
      "_frequent": 4772,
      "_facing": 4773,
      "_hotels": 4774,
      "_lots": 4775,
      "_launched": 4776,
      "_earnings": 4777,
      "ological": 4778,
      "_Soon": 4779,
      "_Sofala": 4780,
      "_\"de": 4781,
      "_students": 4782,
      "_stresses": 4783,
      "_here.": 4784,
      "_protest": 4785,
      "_project,": 4786,
      "_death,": 4787,
      "_Oratory,": 4788,
      "_15,": 4789,
      "_place.": 4790,
      "_place,": 4791,
      "_vote": 4792,
      "_journalist": 4793,
      "_allowed": 4794,
      "_course,": 4795,
      "_institutions": 4796,
      "_effective": 4797,
      "_consultations": 4798,
      "_1992": 4799,
      "_response": 4800,
      "_summit": 4801,
      "_obtaining": 4802,
      "_moment.": 4803,
      "_December.": 4804,
      "_system.": 4805,
      "_Court.": 4806,
      "_Hôtel-Dieu,": 4807,
      "-mile": 4808,
      "-president": 4809,
      "cott": 4810,
      "ooting": 4811,
      "_telling": 4812,
      "_audition": 4813,
      "_audienc": 4814,
      "_skirmishes": 4815,
      "_skeptical": 4816,
      "ennium": 4817,
      "_watching": 4818,
      "_potential": 4819,
      "_promin": 4820,
      "_infected": 4821,
      "_margins": 4822,
      "_holder": 4823,
      "_describ": 4824,
      "_restaur": 4825,
      "_ready,\"": 4826,
      "_economy": 4827,
      "_economic": 4828,
      "_Alliance": 4829,
      "_Central": 4830,
      "_Broad": 4831,
      "_Hispanic": 4832,
      "_Rwandan": 4833,
      "_extens": 4834,
      "_extends": 4835,
      "_choosing": 4836,
      "_Without": 4837,
      "_abandoned": 4838,
      "_abandoning": 4839,
      "_seems": 4840,
      "_seized": 4841,
      "_valid": 4842,
      "_violent": 4843,
      "_violated": 4844,
      "_Ukrainian": 4845,
      "_legal": 4846,
      "_legends": 4847,
      "_performance": 4848,
      "_argue": 4849,
      "_arriving": 4850,
      "_arrests": 4851,
      "_residents.": 4852,
      "_interview.": 4853,
      "_competition": 4854,
      "_competitor": 4855,
      "_(CSRS)": 4856,
      "_China.": 4857,
      "_China's": 4858,
      "_ground-to-": 4859,
      "_association": 4860,
      "_confirm": 4861,
      "_elections.": 4862,
      "_demanded": 4863,
      "_demanding": 4864,
      "_benefits.": 4865,
      "_represented": 4866,
      "_necessity": 4867,
      "%).": 4868,
      "_especially": 4869,
      "to-service": 4870,
      "_source": 4871,
      "_sources": 4872,
      "_signific": 4873,
      "_cave-res": 4874,
      "_collaps": 4875,
      "_bedside": 4876,
      "_bases": 4877,
      "_pleased": 4878,
      "_please": 4879,
      "_portic": 4880,
      "_portico": 4881,
      "_past.": 4882,
      "_funeral": 4883,
      "_initially": 4884,
      "_initiated": 4885,
      "_totaling": 4886,
      "_listen": 4887,
      "_grief": 4888,
      "_generally": 4889,
      "_Associ": 4890,
      "_\"No": 4891,
      "_Merkel": 4892,
      "_Network": 4893,
      "_Netflix": 4894,
      "_profession,": 4895,
      "_comedy.": 4896,
      "_comedians": 4897,
      "_Death": 4898,
      "_negot": 4899,
      "_unpublished": 4900,
      "_unpopular": 4901,
      "_Elysée,": 4902,
      "_adopted.": 4903,
      "_contractor": 4904,
      "_precise": 4905,
      "_precaution": 4906,
      "_completed": 4907,
      "_compromised": 4908,
      "_compromised.": 4909,
      "_important": 4910,
      "_38%": 4911,
      "_enjoying": 4912,
      "_organization": 4913,
      "_solicitor,": 4914,
      "_Monday,": 4915,
      "_Beaudet.": 4916,
      "_Russia.": 4917,
      "_launching": 4918,
      "_deliveries": 4919,
      "_together,\"": 4920,
      "_hundreds": 4921,
      "_Iraqi": 4922,
      "_August,": 4923,
      "_strength": 4924,
      "_urged": 4925,
      "_identified": 4926,
      "oaded": 4927,
      "ronic": 4928,
      "ymb": 4929,
      "_silent": 4930,
      "_sleev": 4931,
      "_counterpart": 4932,
      "_purch": 4933,
      "_powerful": 4934,
      "_framework": 4935,
      "_master": 4936,
      "_middle": 4937,
      "_model": 4938,
      "_musician": 4939,
      "_things.": 4940,
      "_reaching": 4941,
      "_gener": 4942,
      "_Audet.": 4943,
      "_Syria.": 4944,
      "_\"La": 4945,
      "_\"People": 4946,
      "_Michael": 4947,
      "_Michaud-N": 4948,
      "_conditions": 4949,
      "_conditional": 4950,
      "_Nowad": 4951,
      "_Royal": 4952,
      "_GPS": 4953,
      "_debt.": 4954,
      "_universal": 4955,
      "_platforms": 4956,
      "_Larry": 4957,
      "_season.": 4958,
      "_vice-president": 4959,
      "_Inc.": 4960,
      "_goals,": 4961,
      "_containing": 4962,
      "_reserves": 4963,
      "_afternoon.": 4964,
      "_approved": 4965,
      "_application": 4966,
      "_interception": 4967,
      "_managing": 4968,
      "_decades": 4969,
      "_companies": 4970,
      "_user\"": 4971,
      "_45%": 4972,
      "_Christmas": 4973,
      "_understand": 4974,
      "_understood": 4975,
      "_individuals": 4976,
      "_countries": 4977,
      "_countries,": 4978,
      "_blocked": 4979,
      "_province,": 4980,
      "_phone-tapping": 4981,
      "_possibly": 4982,
      "_possibility": 4983,
      "_electronic": 4984,
      "_solutions": 4985,
      "_discussions": 4986,
      "_coffee": 4987,
      "_required": 4988,
      "_participate": 4989,
      "_participating": 4990,
      "_establishment": 4991,
      "_insurance,": 4992,
      "_Omnicom,": 4993,
      "_figures,": 4994,
      "_motorist": 4995,
      "_motorists": 4996,
      "_marginally": 4997,
      "_Centre-V": 4998,
      "_Ukraine's": 4999,
      "_scandalous": 5000,
      "_candidate": 5001,
      "_candidates": 5002,
      "_Angeles": 5003,
      "-de-Bu": 5004,
      "_broadcasting": 5005,
      "_Frelimo": 5006,
      "_Lancashire,": 5007,
      "-into-service": 5008,
      "_encour": 5009,
      "body": 5010,
      "chens": 5011,
      "_troops": 5012,
      "_option": 5013,
      "_sector": 5014,
      "_soda,": 5015,
      "_sensitive": 5016,
      "_safety": 5017,
      "enchmark": 5018,
      "_wife": 5019,
      "_budget": 5020,
      "_pumpkins": 5021,
      "_fifty": 5022,
      "_favour": 5023,
      "_fairly": 5024,
      "_moving": 5025,
      "_missiles": 5026,
      "_hunting": 5027,
      "_human": 5028,
      "_hair,": 5029,
      "_double": 5030,
      "_domin": 5031,
      "_damage": 5032,
      "_destroy": 5033,
      "_Trier": 5034,
      "_research": 5035,
      "_nature": 5036,
      "_earlier.": 5037,
      "stitutional.": 5038,
      "_gunman": 5039,
      "_ARS,": 5040,
      "_APHP,": 5041,
      "_Chev": 5042,
      "_Crem": 5043,
      "_Capital": 5044,
      "_Carolines,": 5045,
      "_Society": 5046,
      "_Socialist": 5047,
      "_\"even": 5048,
      "_heroin": 5049,
      "_Fernando": 5050,
      "_Hawkins": 5051,
      "_Hollande,": 5052,
      "ulfed": 5053,
      "_comfortable": 5054,
      "_Government": 5055,
      "_Portug": 5056,
      "_unlikely": 5057,
      "_unveiled": 5058,
      "_Officer": 5059,
      "_shrinking": 5060,
      "_rule": 5061,
      "_risks": 5062,
      "_subject": 5063,
      "_visit": 5064,
      "_advertising": 5065,
      "_Uganda.": 5066,
      "ustrial": 5067,
      "_joined": 5068,
      "_learnt": 5069,
      "_Institute": 5070,
      "_meaning": 5071,
      "_Franklin": 5072,
      "_artists": 5073,
      "_Standard": 5074,
      "_kitchens": 5075,
      "_accompanied": 5076,
      "_doctors": 5077,
      "_expensive": 5078,
      "ograp": 5079,
      "_$96": 5080,
      "_quickly": 5081,
      "_precarious": 5082,
      "_becoming": 5083,
      "_criticism": 5084,
      "_scene.": 5085,
      "_brigade,": 5086,
      "_surrounding": 5087,
      "_retirement": 5088,
      "_Ontario,": 5089,
      "_admissible": 5090,
      "_Reuters": 5091,
      "_repainting": 5092,
      "_definitely": 5093,
      "_includes": 5094,
      "_broken": 5095,
      "_entry-into-service": 5096,
      "_Arabic": 5097,
      "_travelling": 5098,
      "_increasingly": 5099,
      "_district": 5100,
      "_distribut": 5101,
      "_website.": 5102,
      "_Exchange.": 5103,
      "_occasion,": 5104,
      "_occurred": 5105,
      "_rebellion": 5106,
      "_dollars.": 5107,
      "_terrorism": 5108,
      "_territory": 5109,
      "_inhumation": 5110,
      "_inhabitants": 5111,
      "_Blackburn,": 5112,
      "_re-release": 5113,
      "_allegedly": 5114,
      "_circumstances": 5115,
      "_Australian": 5116,
      "_Dhlakama": 5117,
      "_environmental": 5118,
      "CHQ": 5119,
      "RTC": 5120,
      "_zero": 5121,
      "_Â£": 5122,
      "brooke": 5123,
      "countable": 5124,
      "communications": 5125,
      "hasa": 5126,
      "housing": 5127,
      "missed": 5128,
      "rudeau": 5129,
      "uxe": 5130,
      "_tonight": 5131,
      "_trend": 5132,
      "_achieve": 5133,
      "_overnight": 5134,
      "_salaries": 5135,
      "_self": 5136,
      "_cultural": 5137,
      "_brief": 5138,
      "_bankrupt": 5139,
      "_persuade": 5140,
      "_paper": 5141,
      "_flew": 5142,
      "_fantasy": 5143,
      "_friends,": 5144,
      "armerie": 5145,
      "_anticip": 5146,
      "_millennium": 5147,
      "_murder": 5148,
      "_mandate": 5149,
      "_mall.": 5150,
      "_massive": 5151,
      "_municipal": 5152,
      "_hidden": 5153,
      "_highest": 5154,
      "_thwarted": 5155,
      "_Tokyo": 5156,
      "_Traffic": 5157,
      "_Teenagers": 5158,
      "_reorganisation": 5159,
      "_nicknamed": 5160,
      "_numerous": 5161,
      "_loyal": 5162,
      "_elder": 5163,
      "_ecotax": 5164,
      "_Ipsos": 5165,
      "_Against": 5166,
      "_Catholic": 5167,
      "_Sherbrooke": 5168,
      "_Square": 5169,
      "_Sorensen,": 5170,
      "_Sarkoz": 5171,
      "_\"regular": 5172,
      "_Mileage.": 5173,
      "_Bunagan": 5174,
      "_Bogot": 5175,
      "_Brazil": 5176,
      "_Basharat": 5177,
      "_concessions": 5178,
      "_consequences": 5179,
      "_consecutive": 5180,
      "_Foreign": 5181,
      "_Finistère": 5182,
      "_Furthermore,": 5183,
      "_alternative": 5184,
      "_Noury": 5185,
      "_Nichols": 5186,
      "_Nymphoman": 5187,
      "_Narbonne": 5188,
      "_Nouvelle": 5189,
      "_Hassan": 5190,
      "_Hague,": 5191,
      "_Highway": 5192,
      "_Gendarmerie": 5193,
      "_Gaza": 5194,
      "_Gainsbourg": 5195,
      "_Gérald": 5196,
      "_Gatineau,": 5197,
      "_neo-democr": 5198,
      "_extermination": 5199,
      "_excitement": 5200,
      "_Pont-de-Bu": 5201,
      "_challenging": 5202,
      "_chÃ¢teau": 5203,
      "_unconstitutional.": 5204,
      "_unchanged": 5205,
      "_Oregon,": 5206,
      "_Ottawa": 5207,
      "_Olivier": 5208,
      "quarters": 5209,
      "_Lefev": 5210,
      "_Lebanese": 5211,
      "_Extra": 5212,
      "_victim": 5213,
      "_Kierzek": 5214,
      "_Kinshasa": 5215,
      "_Journalists": 5216,
      "_accommod": 5217,
      "_apparently": 5218,
      "_pregnanc": 5219,
      "_\"Things": 5220,
      "_(including": 5221,
      "_medically-assisted": 5222,
      "_Nevertheless,": 5223,
      "_lawmakers": 5224,
      "_Charlotte": 5225,
      "_Chicoutimi": 5226,
      "_Chancellor": 5227,
      "_University": 5228,
      "_assaulted": 5229,
      "_ambitious": 5230,
      "_tribunal": 5231,
      "_Arsenault,": 5232,
      "_distinctive": 5233,
      "_Executives": 5234,
      "_Montreal-Trudeau": 5235,
      "_Crossley-Holland": 5236,
      "_restaurant": 5237,
      "_ground-to-air": 5238,
      "_significant": 5239,
      "_cave-rescue": 5240,
      "_Michaud-Nér": 5241,
      "_Centre-Ville": 5242,
      "_Nymphomaniac": 5243
    },
    "merges": [
      [
        "_",
        "t"
      ],
      [
        "h",
        "e"
      ],
      [
        "_",
        "a"
      ],
      [
        "i",
        "n"
      ],
      [
        "_t",
        "he"
      ],
      [
        "e",
        "r"
      ],
      [
        "_",
        "o"
      ],
      [
        "r",
        "e"
      ],
      [
        "_",
        "s"
      ],
      [
        "o",
        "n"
      ],
      [
        "e",
        "n"
      ],
      [
        "_",
        "w"
      ],
      [
        "e",
        "d"
      ],
      [
        "_",
        "c"
      ],
      [
        "a",
        "t"
      ],
      [
        "i",
        "t"
      ],
      [
        "i",
        "s"
      ],
      [
        "o",
        "r"
      ],
      [
        "_o",
        "f"
      ],
      [
        "a",
        "n"
      ],
      [
        "_",
        "b"
      ],
      [
        "_",
        "p"
      ],
      [
        "e",
        "s"
      ],
      [
        "_",
        "f"
      ],
      [
        "in",
        "g"
      ],
      [
        "_",
        "in"
      ],
      [
        "_t",
        "o"
      ],
      [
        "a",
        "r"
      ],
      [
        "_a",
        "n"
      ],
      [
        "_",
        "m"
      ],
      [
        "a",
        "l"
      ],
      [
        "_",
        "h"
      ],
      [
        "o",
        "u"
      ],
      [
        "_",
        "d"
      ],
      [
        "a",
        "s"
      ],
      [
        "i",
        "c"
      ],
      [
        "i",
        "on"
      ],
      [
        "i",
        "l"
      ],
      [
        "_t",
        "h"
      ],
      [
        "_an",
        "d"
      ],
      [
        "o",
        "m"
      ],
      [
        "en",
        "t"
      ],
      [
        "l",
        "e"
      ],
      [
        "_",
        "T"
      ],
      [
        "v",
        "e"
      ],
      [
        "_",
        "re"
      ],
      [
        "_",
        "n"
      ],
      [
        "_b",
        "e"
      ],
      [
        "_",
        "l"
      ],
      [
        "i",
        "d"
      ],
      [
        "_",
        "e"
      ],
      [
        "_o",
        "n"
      ],
      [
        "a",
        "c"
      ],
      [
        "r",
        "o"
      ],
      [
        "a",
        "y"
      ],
      [
        "s",
        "t"
      ],
      [
        "_",
        "I"
      ],
      [
        "_",
        "g"
      ],
      [
        "_",
        "A"
      ],
      [
        "o",
        "l"
      ],
      [
        "_",
        "C"
      ],
      [
        "_",
        "S"
      ],
      [
        "a",
        "d"
      ],
      [
        "_f",
        "or"
      ],
      [
        "_",
        "is"
      ],
      [
        "v",
        "er"
      ],
      [
        "_",
        "\""
      ],
      [
        "o",
        "t"
      ],
      [
        "s",
        "e"
      ],
      [
        "_T",
        "he"
      ],
      [
        "e",
        "c"
      ],
      [
        "u",
        "t"
      ],
      [
        "i",
        "r"
      ],
      [
        "at",
        "ion"
      ],
      [
        "il",
        "l"
      ],
      [
        "u",
        "r"
      ],
      [
        "_",
        "M"
      ],
      [
        "i",
        "m"
      ],
      [
        "_th",
        "at"
      ],
      [
        "l",
        "y"
      ],
      [
        "t",
        "er"
      ],
      [
        "_s",
        "t"
      ],
      [
        "_",
        "he"
      ],
      [
        "c",
        "e"
      ],
      [
        "o",
        "w"
      ],
      [
        "_",
        "u"
      ],
      [
        "i",
        "g"
      ],
      [
        "_w",
        "h"
      ],
      [
        "e",
        "t"
      ],
      [
        "_",
        "B"
      ],
      [
        "a",
        "m"
      ],
      [
        "e",
        "l"
      ],
      [
        "_a",
        "s"
      ],
      [
        "_",
        "it"
      ],
      [
        "_a",
        "t"
      ],
      [
        "er",
        "s"
      ],
      [
        "_w",
        "as"
      ],
      [
        "_c",
        "on"
      ],
      [
        "l",
        "d"
      ],
      [
        "m",
        "ent"
      ],
      [
        "_",
        "F"
      ],
      [
        "_a",
        "l"
      ],
      [
        "it",
        "h"
      ],
      [
        "c",
        "t"
      ],
      [
        "a",
        "ve"
      ],
      [
        "a",
        "in"
      ],
      [
        "r",
        "i"
      ],
      [
        "_w",
        "ith"
      ],
      [
        "_",
        "y"
      ],
      [
        "re",
        "s"
      ],
      [
        "_",
        "N"
      ],
      [
        "s",
        "."
      ],
      [
        "_b",
        "y"
      ],
      [
        "_p",
        "ro"
      ],
      [
        "_",
        "H"
      ],
      [
        "es",
        "t"
      ],
      [
        "e",
        "ar"
      ],
      [
        "_h",
        "as"
      ],
      [
        "p",
        "p"
      ],
      [
        "u",
        "l"
      ],
      [
        "_c",
        "om"
      ],
      [
        "ou",
        "n"
      ],
      [
        "_n",
        "ot"
      ],
      [
        "_",
        "D"
      ],
      [
        "or",
        "t"
      ],
      [
        "an",
        "d"
      ],
      [
        "ou",
        "r"
      ],
      [
        "o",
        "p"
      ],
      [
        "e",
        "m"
      ],
      [
        "'",
        "s"
      ],
      [
        "i",
        "f"
      ],
      [
        "ou",
        "ld"
      ],
      [
        "a",
        "id"
      ],
      [
        "s",
        ","
      ],
      [
        "ar",
        "t"
      ],
      [
        "he",
        "r"
      ],
      [
        "at",
        "e"
      ],
      [
        "_",
        "R"
      ],
      [
        "g",
        "e"
      ],
      [
        "u",
        "s"
      ],
      [
        "r",
        "om"
      ],
      [
        "_h",
        "ave"
      ],
      [
        "_",
        "G"
      ],
      [
        "_n",
        "e"
      ],
      [
        "_a",
        "re"
      ],
      [
        "a",
        "k"
      ],
      [
        "o",
        "s"
      ],
      [
        "_t",
        "r"
      ],
      [
        "ac",
        "k"
      ],
      [
        "c",
        "h"
      ],
      [
        "_e",
        "x"
      ],
      [
        "_",
        "P"
      ],
      [
        "i",
        "ve"
      ],
      [
        "_c",
        "h"
      ],
      [
        "_d",
        "e"
      ],
      [
        "i",
        "es"
      ],
      [
        "_u",
        "n"
      ],
      [
        "i",
        "v"
      ],
      [
        "o",
        "o"
      ],
      [
        "_s",
        "aid"
      ],
      [
        "t",
        "h"
      ],
      [
        "_o",
        "r"
      ],
      [
        "t",
        "ed"
      ],
      [
        "_",
        "O"
      ],
      [
        "o",
        "c"
      ],
      [
        "u",
        "n"
      ],
      [
        "_w",
        "ill"
      ],
      [
        ",",
        "\""
      ],
      [
        "h",
        "t"
      ],
      [
        "_f",
        "rom"
      ],
      [
        "_h",
        "is"
      ],
      [
        "e",
        "."
      ],
      [
        "_s",
        "h"
      ],
      [
        "a",
        "b"
      ],
      [
        "m",
        "er"
      ],
      [
        "q",
        "u"
      ],
      [
        "_",
        "r"
      ],
      [
        "o",
        "re"
      ],
      [
        "ic",
        "h"
      ],
      [
        "_be",
        "en"
      ],
      [
        "_",
        "1"
      ],
      [
        "d",
        "ing"
      ],
      [
        "it",
        "y"
      ],
      [
        "is",
        "t"
      ],
      [
        "_",
        "W"
      ],
      [
        "b",
        "er"
      ],
      [
        "_a",
        "b"
      ],
      [
        "_p",
        "l"
      ],
      [
        "_th",
        "is"
      ],
      [
        "_",
        "2"
      ],
      [
        "_",
        "L"
      ],
      [
        "a",
        "re"
      ],
      [
        "_s",
        "u"
      ],
      [
        "es",
        "s"
      ],
      [
        "_y",
        "ear"
      ],
      [
        "e",
        ","
      ],
      [
        "_s",
        "e"
      ],
      [
        "_w",
        "e"
      ],
      [
        "an",
        "t"
      ],
      [
        "_a",
        "g"
      ],
      [
        "_",
        "E"
      ],
      [
        "_",
        "v"
      ],
      [
        "f",
        "f"
      ],
      [
        "_a",
        "d"
      ],
      [
        "c",
        "c"
      ],
      [
        "i",
        "re"
      ],
      [
        "ic",
        "e"
      ],
      [
        "_wh",
        "o"
      ],
      [
        "_wh",
        "ich"
      ],
      [
        "_",
        "U"
      ],
      [
        "u",
        "st"
      ],
      [
        "_w",
        "ould"
      ],
      [
        "_h",
        "ad"
      ],
      [
        "en",
        "c"
      ],
      [
        "_T",
        "h"
      ],
      [
        "_",
        "j"
      ],
      [
        "i",
        "e"
      ],
      [
        "_s",
        "p"
      ],
      [
        "u",
        "d"
      ],
      [
        "ar",
        "d"
      ],
      [
        "ig",
        "ht"
      ],
      [
        "0",
        "0"
      ],
      [
        "_",
        "le"
      ],
      [
        "ou",
        "g"
      ],
      [
        "i",
        "al"
      ],
      [
        "d",
        "er"
      ],
      [
        "d",
        "ay"
      ],
      [
        "u",
        "e"
      ],
      [
        "en",
        "ce"
      ],
      [
        "_w",
        "he"
      ],
      [
        "_I",
        "n"
      ],
      [
        "p",
        "l"
      ],
      [
        "_c",
        "l"
      ],
      [
        "er",
        "e"
      ],
      [
        "_p",
        "er"
      ],
      [
        "al",
        "l"
      ],
      [
        "_it",
        "s"
      ],
      [
        "e",
        "p"
      ],
      [
        "o",
        "st"
      ],
      [
        "_w",
        "ere"
      ],
      [
        "_g",
        "o"
      ],
      [
        "el",
        "l"
      ],
      [
        "u",
        "m"
      ],
      [
        "_the",
        "ir"
      ],
      [
        "f",
        "ter"
      ],
      [
        "r",
        "y"
      ],
      [
        "_s",
        "er"
      ],
      [
        "_of",
        "f"
      ],
      [
        "ar",
        "y"
      ],
      [
        "as",
        "t"
      ],
      [
        "_m",
        "e"
      ],
      [
        "ou",
        "t"
      ],
      [
        "_F",
        "r"
      ],
      [
        "at",
        "ed"
      ],
      [
        "_con",
        "t"
      ],
      [
        "i",
        "a"
      ],
      [
        "t",
        "her"
      ],
      [
        "_a",
        "r"
      ],
      [
        "es",
        ","
      ],
      [
        "_f",
        "e"
      ],
      [
        "_in",
        "t"
      ],
      [
        "_o",
        "ut"
      ],
      [
        "_m",
        "y"
      ],
      [
        "ou",
        "s"
      ],
      [
        "om",
        "e"
      ],
      [
        "on",
        "g"
      ],
      [
        "en",
        "d"
      ],
      [
        "or",
        "k"
      ],
      [
        "an",
        "ce"
      ],
      [
        "enc",
        "y"
      ],
      [
        "b",
        "l"
      ],
      [
        "_p",
        "res"
      ],
      [
        "as",
        "s"
      ],
      [
        "_re",
        "s"
      ],
      [
        "v",
        "en"
      ],
      [
        "_the",
        "y"
      ],
      [
        "an",
        "s"
      ],
      [
        "_S",
        "t"
      ],
      [
        "ec",
        "t"
      ],
      [
        "ation",
        "s"
      ],
      [
        "d",
        "u"
      ],
      [
        "oug",
        "h"
      ],
      [
        "_",
        "k"
      ],
      [
        "ac",
        "e"
      ],
      [
        "ac",
        "t"
      ],
      [
        "ay",
        "s"
      ],
      [
        "ol",
        "l"
      ],
      [
        "_",
        "K"
      ],
      [
        "a",
        "g"
      ],
      [
        "a",
        "ge"
      ],
      [
        "i",
        "er"
      ],
      [
        "u",
        "re"
      ],
      [
        "_a",
        "fter"
      ],
      [
        "_b",
        "ut"
      ],
      [
        "_",
        "J"
      ],
      [
        "_a",
        "cc"
      ],
      [
        "ar",
        "g"
      ],
      [
        "ab",
        "le"
      ],
      [
        "a",
        "p"
      ],
      [
        "p",
        "ort"
      ],
      [
        "_d",
        "o"
      ],
      [
        "ic",
        "al"
      ],
      [
        "ill",
        "ion"
      ],
      [
        "_u",
        "p"
      ],
      [
        "ul",
        "t"
      ],
      [
        "a",
        "u"
      ],
      [
        "a",
        "w"
      ],
      [
        "o",
        "d"
      ],
      [
        "_s",
        "he"
      ],
      [
        "an",
        "c"
      ],
      [
        "_ne",
        "w"
      ],
      [
        "f",
        "or"
      ],
      [
        "o",
        "y"
      ],
      [
        "es",
        "."
      ],
      [
        "ver",
        "y"
      ],
      [
        "_t",
        "w"
      ],
      [
        "it",
        "t"
      ],
      [
        "_p",
        "e"
      ],
      [
        "_in",
        "v"
      ],
      [
        "o",
        "se"
      ],
      [
        "s",
        "o"
      ],
      [
        "u",
        "bl"
      ],
      [
        "v",
        "ed"
      ],
      [
        "re",
        "e"
      ],
      [
        "on",
        "t"
      ],
      [
        "_M",
        "r"
      ],
      [
        "_he",
        "r"
      ],
      [
        "oun",
        "d"
      ],
      [
        "_ab",
        "out"
      ],
      [
        "c",
        "ed"
      ],
      [
        "_a",
        "pp"
      ],
      [
        "in",
        "e"
      ],
      [
        "re",
        "n"
      ],
      [
        "_in",
        "ter"
      ],
      [
        "il",
        "e"
      ],
      [
        "ow",
        "n"
      ],
      [
        "_ex",
        "p"
      ],
      [
        "o",
        "g"
      ],
      [
        "it",
        "e"
      ],
      [
        "_m",
        "on"
      ],
      [
        "_m",
        "an"
      ],
      [
        "_d",
        "ec"
      ],
      [
        "_al",
        "so"
      ],
      [
        "ct",
        "ion"
      ],
      [
        "oo",
        "d"
      ],
      [
        "_",
        "$"
      ],
      [
        "_",
        "qu"
      ],
      [
        "o",
        "k"
      ],
      [
        "_p",
        "re"
      ],
      [
        "_p",
        "ol"
      ],
      [
        "_be",
        "c"
      ],
      [
        "id",
        "ent"
      ],
      [
        "_on",
        "e"
      ],
      [
        "o",
        "ve"
      ],
      [
        "r",
        "a"
      ],
      [
        "r",
        "u"
      ],
      [
        "_c",
        "ar"
      ],
      [
        "ol",
        "d"
      ],
      [
        "_al",
        "l"
      ],
      [
        "_com",
        "p"
      ],
      [
        "_ser",
        "v"
      ],
      [
        "_tw",
        "o"
      ],
      [
        "_t",
        "ak"
      ],
      [
        "er",
        "m"
      ],
      [
        "_m",
        "illion"
      ],
      [
        "_h",
        "im"
      ],
      [
        "_A",
        "n"
      ],
      [
        "_\"",
        "T"
      ],
      [
        "se",
        "l"
      ],
      [
        "op",
        "le"
      ],
      [
        "_pl",
        "an"
      ],
      [
        "_",
        "im"
      ],
      [
        "a",
        "v"
      ],
      [
        "_t",
        "im"
      ],
      [
        "_p",
        "art"
      ],
      [
        "_f",
        "ir"
      ],
      [
        "as",
        "ed"
      ],
      [
        "_u",
        "s"
      ],
      [
        "_at",
        "t"
      ],
      [
        "_whe",
        "n"
      ],
      [
        "_",
        "("
      ],
      [
        "p",
        "t"
      ],
      [
        "he",
        "d"
      ],
      [
        "it",
        "ion"
      ],
      [
        "_d",
        "is"
      ],
      [
        "ver",
        "n"
      ],
      [
        "am",
        "e"
      ],
      [
        "a",
        ","
      ],
      [
        "w",
        "n"
      ],
      [
        "_the",
        "m"
      ],
      [
        "_the",
        "re"
      ],
      [
        "_c",
        "r"
      ],
      [
        "_m",
        "ed"
      ],
      [
        "_e",
        "m"
      ],
      [
        "ver",
        "s"
      ],
      [
        "_N",
        "e"
      ],
      [
        "_2",
        "0"
      ],
      [
        "ubl",
        "ic"
      ],
      [
        "_",
        "3"
      ],
      [
        "_",
        "4"
      ],
      [
        "g",
        "ency"
      ],
      [
        "i",
        "ed"
      ],
      [
        "i",
        "an"
      ],
      [
        "y",
        "."
      ],
      [
        "_o",
        "ther"
      ],
      [
        "_s",
        "o"
      ],
      [
        "_c",
        "an"
      ],
      [
        "_in",
        "c"
      ],
      [
        "ic",
        "es"
      ],
      [
        "id",
        "e"
      ],
      [
        "ur",
        "s"
      ],
      [
        "_H",
        "e"
      ],
      [
        "_pe",
        "ople"
      ],
      [
        "i",
        "ous"
      ],
      [
        "k",
        "s"
      ],
      [
        "n",
        "ing"
      ],
      [
        "_s",
        "c"
      ],
      [
        "_f",
        "in"
      ],
      [
        "_m",
        "ore"
      ],
      [
        "_d",
        "own"
      ],
      [
        "_n",
        "o"
      ],
      [
        "_B",
        "r"
      ],
      [
        "oun",
        "t"
      ],
      [
        "_int",
        "o"
      ],
      [
        "for",
        "m"
      ],
      [
        "_fir",
        "st"
      ],
      [
        "vern",
        "ment"
      ],
      [
        "a",
        "pp"
      ],
      [
        "_o",
        "ver"
      ],
      [
        "is",
        "ion"
      ],
      [
        "or",
        "ding"
      ],
      [
        "_an",
        "n"
      ],
      [
        "_A",
        "mer"
      ],
      [
        "_Th",
        "urs"
      ],
      [
        "_Amer",
        "ic"
      ],
      [
        "_Thurs",
        "day"
      ],
      [
        "a",
        "il"
      ],
      [
        "i",
        "k"
      ],
      [
        "n",
        "ed"
      ],
      [
        "x",
        "t"
      ],
      [
        "ed",
        "."
      ],
      [
        "at",
        "es"
      ],
      [
        "_b",
        "u"
      ],
      [
        "_be",
        "ing"
      ],
      [
        "ur",
        "ing"
      ],
      [
        "_ad",
        "d"
      ],
      [
        "_go",
        "vernment"
      ],
      [
        "'",
        "t"
      ],
      [
        "b",
        "le"
      ],
      [
        "e",
        "en"
      ],
      [
        "h",
        "ing"
      ],
      [
        "n",
        "ow"
      ],
      [
        "en",
        "g"
      ],
      [
        "en",
        "s"
      ],
      [
        "al",
        "s"
      ],
      [
        "ent",
        "s"
      ],
      [
        "_l",
        "aw"
      ],
      [
        "_I",
        "t"
      ],
      [
        "_C",
        "h"
      ],
      [
        "_un",
        "der"
      ],
      [
        "_U",
        "n"
      ],
      [
        "oll",
        "ow"
      ],
      [
        "_20",
        "1"
      ],
      [
        "S",
        "A"
      ],
      [
        "_",
        "if"
      ],
      [
        "an",
        "g"
      ],
      [
        "_in",
        "d"
      ],
      [
        "_re",
        "c"
      ],
      [
        "_be",
        "t"
      ],
      [
        "_g",
        "r"
      ],
      [
        "_\"",
        "I"
      ],
      [
        ".",
        "\""
      ],
      [
        "a",
        "x"
      ],
      [
        "l",
        "l"
      ],
      [
        "n",
        "e"
      ],
      [
        "_s",
        "ome"
      ],
      [
        "_c",
        "ould"
      ],
      [
        "ec",
        "ted"
      ],
      [
        "_st",
        "art"
      ],
      [
        "_B",
        "ut"
      ],
      [
        "res",
        "s"
      ],
      [
        "if",
        "f"
      ],
      [
        "au",
        "se"
      ],
      [
        "_mon",
        "th"
      ],
      [
        "_\"T",
        "he"
      ],
      [
        "e",
        "k"
      ],
      [
        "p",
        "er"
      ],
      [
        "in",
        "ce"
      ],
      [
        "_w",
        "ork"
      ],
      [
        "_c",
        "ount"
      ],
      [
        "it",
        "ies"
      ],
      [
        "_b",
        "l"
      ],
      [
        "_b",
        "r"
      ],
      [
        "_b",
        "ack"
      ],
      [
        "_p",
        "ay"
      ],
      [
        "_th",
        "ree"
      ],
      [
        "ve",
        "l"
      ],
      [
        "ro",
        "p"
      ],
      [
        "ig",
        "n"
      ],
      [
        "_y",
        "ou"
      ],
      [
        "em",
        "ber"
      ],
      [
        "are",
        "d"
      ],
      [
        "_",
        "-"
      ],
      [
        "_",
        "Y"
      ],
      [
        "_",
        "en"
      ],
      [
        "g",
        "r"
      ],
      [
        "i",
        "p"
      ],
      [
        "o",
        ","
      ],
      [
        "u",
        "al"
      ],
      [
        "_t",
        "est"
      ],
      [
        "_a",
        "ir"
      ],
      [
        "_the",
        "se"
      ],
      [
        "_w",
        "ant"
      ],
      [
        "_c",
        "re"
      ],
      [
        "_c",
        "as"
      ],
      [
        "_f",
        "ire"
      ],
      [
        "_m",
        "ak"
      ],
      [
        "_d",
        "ri"
      ],
      [
        "ation",
        "al"
      ],
      [
        "_wh",
        "at"
      ],
      [
        "_as",
        "s"
      ],
      [
        "_com",
        "m"
      ],
      [
        "pl",
        "oy"
      ],
      [
        "f",
        "ore"
      ],
      [
        "y",
        "ing"
      ],
      [
        "_s",
        "ur"
      ],
      [
        "on",
        "d"
      ],
      [
        "at",
        "ing"
      ],
      [
        "it",
        "ed"
      ],
      [
        "_f",
        "ollow"
      ],
      [
        "ar",
        "ter"
      ],
      [
        "_l",
        "ast"
      ],
      [
        "_e",
        "mer"
      ],
      [
        "_e",
        "ven"
      ],
      [
        "ers",
        "on"
      ],
      [
        "_year",
        "s"
      ],
      [
        "_j",
        "ust"
      ],
      [
        "_whe",
        "re"
      ],
      [
        "_off",
        "ic"
      ],
      [
        "_ann",
        "oun"
      ],
      [
        "f",
        "t"
      ],
      [
        "f",
        "it"
      ],
      [
        "k",
        "ing"
      ],
      [
        "l",
        "in"
      ],
      [
        "o",
        "in"
      ],
      [
        "w",
        "een"
      ],
      [
        "y",
        ","
      ],
      [
        "_a",
        "m"
      ],
      [
        "_a",
        "ct"
      ],
      [
        "on",
        "e"
      ],
      [
        "_w",
        "or"
      ],
      [
        "at",
        "ive"
      ],
      [
        "an",
        "ge"
      ],
      [
        "_f",
        "l"
      ],
      [
        "_d",
        "ire"
      ],
      [
        "_d",
        "uring"
      ],
      [
        "il",
        "d"
      ],
      [
        "_be",
        "fore"
      ],
      [
        "ad",
        "e"
      ],
      [
        "ut",
        "ion"
      ],
      [
        "_st",
        "ill"
      ],
      [
        "ain",
        "e"
      ],
      [
        "_pro",
        "v"
      ],
      [
        "_sh",
        "ow"
      ],
      [
        "_Th",
        "is"
      ],
      [
        "_cont",
        "in"
      ],
      [
        "_inv",
        "est"
      ],
      [
        "_pol",
        "ice"
      ],
      [
        "_bec",
        "ause"
      ],
      [
        "_tim",
        "e"
      ],
      [
        "\"",
        "."
      ],
      [
        "c",
        "er"
      ],
      [
        "s",
        "i"
      ],
      [
        "_t",
        "e"
      ],
      [
        "_t",
        "ax"
      ],
      [
        "_s",
        "ec"
      ],
      [
        "_w",
        "ay"
      ],
      [
        "_c",
        "our"
      ],
      [
        "at",
        "h"
      ],
      [
        "is",
        "h"
      ],
      [
        "_p",
        "h"
      ],
      [
        "_p",
        "r"
      ],
      [
        "_p",
        "ublic"
      ],
      [
        "ar",
        "k"
      ],
      [
        "_d",
        "iff"
      ],
      [
        "as",
        "e"
      ],
      [
        "_th",
        "an"
      ],
      [
        "_re",
        "t"
      ],
      [
        "id",
        "ay"
      ],
      [
        "ac",
        "h"
      ],
      [
        "ct",
        "or"
      ],
      [
        "ain",
        "t"
      ],
      [
        "ist",
        "s"
      ],
      [
        "_qu",
        "arter"
      ],
      [
        "_att",
        "ack"
      ],
      [
        "_bet",
        "ween"
      ],
      [
        "_",
        "ro"
      ],
      [
        "a",
        "ir"
      ],
      [
        "b",
        "s"
      ],
      [
        "g",
        "an"
      ],
      [
        "i",
        "z"
      ],
      [
        "k",
        "ed"
      ],
      [
        "m",
        "ed"
      ],
      [
        "p",
        "art"
      ],
      [
        "r",
        "ough"
      ],
      [
        "w",
        "ays"
      ],
      [
        "y",
        "ear"
      ],
      [
        "er",
        ","
      ],
      [
        "at",
        "or"
      ],
      [
        "is",
        "e"
      ],
      [
        "_p",
        "ass"
      ],
      [
        "_in",
        "st"
      ],
      [
        "ou",
        "p"
      ],
      [
        "ic",
        "t"
      ],
      [
        "_re",
        "l"
      ],
      [
        "_re",
        "le"
      ],
      [
        "_e",
        "very"
      ],
      [
        "_g",
        "et"
      ],
      [
        "_g",
        "iv"
      ],
      [
        "ad",
        "y"
      ],
      [
        "_\"",
        "W"
      ],
      [
        "ut",
        "h"
      ],
      [
        "ig",
        "h"
      ],
      [
        "_ne",
        "ed"
      ],
      [
        "_su",
        "pp"
      ],
      [
        "_we",
        "ek"
      ],
      [
        "_ag",
        "ain"
      ],
      [
        "_Fr",
        "iday"
      ],
      [
        "ru",
        "g"
      ],
      [
        "_serv",
        "ice"
      ],
      [
        "sel",
        "f"
      ],
      [
        "_im",
        "p"
      ],
      [
        "_em",
        "ploy"
      ],
      [
        "ik",
        "e"
      ],
      [
        "_emer",
        "gency"
      ],
      [
        "a",
        "j"
      ],
      [
        "d",
        "en"
      ],
      [
        "e",
        "ver"
      ],
      [
        "_s",
        "old"
      ],
      [
        "on",
        ","
      ],
      [
        "en",
        "am"
      ],
      [
        "_c",
        "er"
      ],
      [
        "it",
        "al"
      ],
      [
        "an",
        "y"
      ],
      [
        "_f",
        "our"
      ],
      [
        "_an",
        "y"
      ],
      [
        "_d",
        "id"
      ],
      [
        "_d",
        "ay"
      ],
      [
        "_e",
        "ff"
      ],
      [
        "_C",
        "ong"
      ],
      [
        "im",
        "in"
      ],
      [
        "_he",
        "ad"
      ],
      [
        "_con",
        "f"
      ],
      [
        "_N",
        "SA"
      ],
      [
        "_D",
        "itt"
      ],
      [
        "_R",
        "enam"
      ],
      [
        "_ag",
        "ency"
      ],
      [
        "du",
        "ct"
      ],
      [
        "_car",
        "ry"
      ],
      [
        "aj",
        "or"
      ],
      [
        "_",
        "5"
      ],
      [
        "_",
        "end"
      ],
      [
        "n",
        "s"
      ],
      [
        "n",
        "al"
      ],
      [
        "p",
        "h"
      ],
      [
        "s",
        "s"
      ],
      [
        "_o",
        "wn"
      ],
      [
        "_p",
        "os"
      ],
      [
        "ar",
        "m"
      ],
      [
        "_m",
        "ajor"
      ],
      [
        "_d",
        "rug"
      ],
      [
        "_th",
        "rough"
      ],
      [
        "_re",
        "f"
      ],
      [
        "_e",
        "v"
      ],
      [
        "_A",
        "ir"
      ],
      [
        "_C",
        "ro"
      ],
      [
        "_M",
        "ont"
      ],
      [
        "_st",
        "ate"
      ],
      [
        "_con",
        "cer"
      ],
      [
        "_al",
        "ways"
      ],
      [
        "_pro",
        "gr"
      ],
      [
        "em",
        "on"
      ],
      [
        "us",
        "s"
      ],
      [
        "_tr",
        "ack"
      ],
      [
        "_O",
        "n"
      ],
      [
        "oc",
        "aine"
      ],
      [
        "_Fr",
        "ont"
      ],
      [
        "_pres",
        "s"
      ],
      [
        "_acc",
        "ording"
      ],
      [
        "_app",
        "e"
      ],
      [
        "_Americ",
        "an"
      ],
      [
        "_Un",
        "ited"
      ],
      [
        "_announ",
        "ced"
      ],
      [
        "_wor",
        "ld"
      ],
      [
        "_progr",
        "am"
      ],
      [
        "_Front",
        "ier"
      ],
      [
        "\"",
        ","
      ],
      [
        "_",
        "very"
      ],
      [
        "a",
        "ff"
      ],
      [
        "l",
        "ine"
      ],
      [
        "t",
        "he"
      ],
      [
        "t",
        "ain"
      ],
      [
        "_t",
        "ri"
      ],
      [
        "_t",
        "erm"
      ],
      [
        "_a",
        "uth"
      ],
      [
        "_s",
        "ay"
      ],
      [
        "_s",
        "ays"
      ],
      [
        "it",
        "or"
      ],
      [
        "is",
        "s"
      ],
      [
        "es",
        "p"
      ],
      [
        "_h",
        "app"
      ],
      [
        "_n",
        "et"
      ],
      [
        "_l",
        "ong"
      ],
      [
        "_g",
        "ood"
      ],
      [
        "_A",
        "t"
      ],
      [
        "_C",
        "an"
      ],
      [
        "_for",
        "mer"
      ],
      [
        "ot",
        "her"
      ],
      [
        "ur",
        "n"
      ],
      [
        "_con",
        "s"
      ],
      [
        "_com",
        "e"
      ],
      [
        "s,",
        "\""
      ],
      [
        "_G",
        "erm"
      ],
      [
        "_ne",
        "xt"
      ],
      [
        "_tr",
        "ans"
      ],
      [
        "_said",
        "."
      ],
      [
        "_se",
        "ver"
      ],
      [
        "_ad",
        "m"
      ],
      [
        "ie",
        "w"
      ],
      [
        "oug",
        "ht"
      ],
      [
        "ep",
        "t"
      ],
      [
        "_Ne",
        "w"
      ],
      [
        "_count",
        "ry"
      ],
      [
        "_offic",
        "ial"
      ],
      [
        "_Renam",
        "o"
      ],
      [
        "_auth",
        "or"
      ],
      [
        "a",
        "."
      ],
      [
        "f",
        "r"
      ],
      [
        "i",
        "x"
      ],
      [
        "m",
        "ber"
      ],
      [
        "o",
        "b"
      ],
      [
        "w",
        "ay"
      ],
      [
        "re",
        "l"
      ],
      [
        "_s",
        "m"
      ],
      [
        "_s",
        "ince"
      ],
      [
        "_w",
        "ell"
      ],
      [
        "_c",
        "ocaine"
      ],
      [
        "is",
        "ter"
      ],
      [
        "_p",
        "ri"
      ],
      [
        "ing",
        "s"
      ],
      [
        "_m",
        "il"
      ],
      [
        "ic",
        "k"
      ],
      [
        "ion",
        "s"
      ],
      [
        "_th",
        "ose"
      ],
      [
        "om",
        "m"
      ],
      [
        "_l",
        "if"
      ],
      [
        "_on",
        "ly"
      ],
      [
        "ro",
        "w"
      ],
      [
        "_g",
        "as"
      ],
      [
        "_C",
        "og"
      ],
      [
        "ec",
        "o"
      ],
      [
        "ce",
        "pt"
      ],
      [
        "_u",
        "se"
      ],
      [
        "_N",
        "ove"
      ],
      [
        "_R",
        "e"
      ],
      [
        "_ex",
        "pl"
      ],
      [
        "_sh",
        "are"
      ],
      [
        "_2",
        "00"
      ],
      [
        "_cont",
        "ro"
      ],
      [
        "ure",
        "d"
      ],
      [
        "_inv",
        "ol"
      ],
      [
        "_med",
        "ia"
      ],
      [
        "_follow",
        "ing"
      ],
      [
        "_act",
        "iv"
      ],
      [
        "_\"W",
        "e"
      ],
      [
        "_employ",
        "e"
      ],
      [
        "_Nove",
        "mber"
      ],
      [
        "2",
        "3"
      ],
      [
        "g",
        "le"
      ],
      [
        "j",
        "ect"
      ],
      [
        "m",
        "an"
      ],
      [
        "o",
        "ved"
      ],
      [
        "u",
        "res"
      ],
      [
        "w",
        "ork"
      ],
      [
        "y",
        "st"
      ],
      [
        "er",
        "al"
      ],
      [
        "at",
        "er"
      ],
      [
        "at",
        "her"
      ],
      [
        "_b",
        "ill"
      ],
      [
        "_p",
        "ut"
      ],
      [
        "es",
        "day"
      ],
      [
        "_to",
        "o"
      ],
      [
        "_m",
        "ost"
      ],
      [
        "ou",
        "se"
      ],
      [
        "_d",
        "at"
      ],
      [
        "_T",
        "r"
      ],
      [
        "_re",
        "g"
      ],
      [
        "_re",
        "p"
      ],
      [
        "_n",
        "ow"
      ],
      [
        "_S",
        "now"
      ],
      [
        "ur",
        "ren"
      ],
      [
        "_st",
        "op"
      ],
      [
        "el",
        "i"
      ],
      [
        "el",
        "s"
      ],
      [
        "_pro",
        "fit"
      ],
      [
        "ul",
        "ar"
      ],
      [
        "us",
        "sel"
      ],
      [
        "os",
        "p"
      ],
      [
        "_de",
        "v"
      ],
      [
        "_de",
        "vel"
      ],
      [
        "_pl",
        "ace"
      ],
      [
        "_year",
        "."
      ],
      [
        "_se",
        "e"
      ],
      [
        "_E",
        "u"
      ],
      [
        "_sp",
        "ec"
      ],
      [
        "00",
        "0"
      ],
      [
        "act",
        "or"
      ],
      [
        "_do",
        "es"
      ],
      [
        "anc",
        "ial"
      ],
      [
        "_man",
        "y"
      ],
      [
        "_tak",
        "e"
      ],
      [
        "_tak",
        "en"
      ],
      [
        "av",
        "ing"
      ],
      [
        "_Br",
        "ussel"
      ],
      [
        "eng",
        "ers"
      ],
      [
        "_law",
        "y"
      ],
      [
        "_mak",
        "e"
      ],
      [
        "si",
        "ble"
      ],
      [
        "_Ditt",
        "a"
      ],
      [
        "_Can",
        "ad"
      ],
      [
        "_Cog",
        "eco"
      ],
      [
        "_Snow",
        "den"
      ],
      [
        "_devel",
        "op"
      ],
      [
        "-",
        "d"
      ],
      [
        "-",
        "t"
      ],
      [
        "-",
        "on"
      ],
      [
        "a",
        "ud"
      ],
      [
        "e",
        "f"
      ],
      [
        "g",
        "ed"
      ],
      [
        "h",
        "n"
      ],
      [
        "n",
        "'t"
      ],
      [
        "t",
        "y"
      ],
      [
        "u",
        "g"
      ],
      [
        "u",
        "ch"
      ],
      [
        "_t",
        "al"
      ],
      [
        "_t",
        "arg"
      ],
      [
        "in",
        "ister"
      ],
      [
        "er",
        "v"
      ],
      [
        "re",
        "d"
      ],
      [
        "re",
        "ady"
      ],
      [
        "_s",
        "it"
      ],
      [
        "_w",
        "ent"
      ],
      [
        "_c",
        "ust"
      ],
      [
        "_c",
        "urren"
      ],
      [
        "is",
        "ed"
      ],
      [
        "is",
        "ing"
      ],
      [
        "or",
        "d"
      ],
      [
        "an",
        "k"
      ],
      [
        "_b",
        "ag"
      ],
      [
        "_p",
        "erson"
      ],
      [
        "ing",
        ","
      ],
      [
        "ar",
        "l"
      ],
      [
        "_h",
        "our"
      ],
      [
        "ic",
        "ult"
      ],
      [
        "ion",
        ","
      ],
      [
        "_th",
        "ir"
      ],
      [
        "om",
        "b"
      ],
      [
        "om",
        "et"
      ],
      [
        "_re",
        "port"
      ],
      [
        "_l",
        "oc"
      ],
      [
        "_l",
        "ike"
      ],
      [
        "_e",
        "le"
      ],
      [
        "st",
        "r"
      ],
      [
        "_g",
        "u"
      ],
      [
        "_g",
        "ive"
      ],
      [
        "_The",
        "re"
      ],
      [
        "ur",
        "ity"
      ],
      [
        "_st",
        "ay"
      ],
      [
        "ow",
        "ever"
      ],
      [
        "_wh",
        "ile"
      ],
      [
        "ers",
        ","
      ],
      [
        "ment",
        "s"
      ],
      [
        "_al",
        "ready"
      ],
      [
        "os",
        "ed"
      ],
      [
        "_ch",
        "ild"
      ],
      [
        "_de",
        "f"
      ],
      [
        "_de",
        "part"
      ],
      [
        "oo",
        "k"
      ],
      [
        "oc",
        "i"
      ],
      [
        "un",
        "ic"
      ],
      [
        "_1",
        "0"
      ],
      [
        "_1",
        "9"
      ],
      [
        "_W",
        "e"
      ],
      [
        "_j",
        "ud"
      ],
      [
        "_sp",
        "e"
      ],
      [
        "_sp",
        "ok"
      ],
      [
        "_go",
        "ing"
      ],
      [
        "_ar",
        "ound"
      ],
      [
        "_fe",
        "el"
      ],
      [
        "_pres",
        "ence"
      ],
      [
        "_k",
        "e"
      ],
      [
        "_cr",
        "imin"
      ],
      [
        "_inc",
        "l"
      ],
      [
        "_cre",
        "m"
      ],
      [
        "_dire",
        "ctor"
      ],
      [
        "_invest",
        "ig"
      ],
      [
        "_cour",
        "t"
      ],
      [
        "_again",
        "st"
      ],
      [
        "_sever",
        "al"
      ],
      [
        "_activ",
        "ities"
      ],
      [
        "_Eu",
        "rop"
      ],
      [
        "_targ",
        "et"
      ],
      [
        "_cust",
        "om"
      ],
      [
        ",",
        "000"
      ],
      [
        "S",
        "."
      ],
      [
        "_",
        "V"
      ],
      [
        "c",
        "ar"
      ],
      [
        "c",
        "ent"
      ],
      [
        "i",
        "ent"
      ],
      [
        "i",
        "ers"
      ],
      [
        "l",
        "ed"
      ],
      [
        "o",
        "ol"
      ],
      [
        "t",
        "ing"
      ],
      [
        "u",
        "ation"
      ],
      [
        "in",
        "d"
      ],
      [
        "in",
        "s"
      ],
      [
        "_o",
        "ur"
      ],
      [
        "_o",
        "per"
      ],
      [
        "_c",
        "he"
      ],
      [
        "_c",
        "ol"
      ],
      [
        "_c",
        "are"
      ],
      [
        "_c",
        "all"
      ],
      [
        "it",
        "s"
      ],
      [
        "_b",
        "ro"
      ],
      [
        "_f",
        "il"
      ],
      [
        "ar",
        "ge"
      ],
      [
        "_m",
        "em"
      ],
      [
        "_h",
        "igh"
      ],
      [
        "_n",
        "um"
      ],
      [
        "_be",
        "l"
      ],
      [
        "_I",
        "s"
      ],
      [
        "_A",
        "l"
      ],
      [
        "_A",
        "cc"
      ],
      [
        "_C",
        "l"
      ],
      [
        "_S",
        "p"
      ],
      [
        "_S",
        "ept"
      ],
      [
        "_M",
        "23"
      ],
      [
        "ly",
        ","
      ],
      [
        "ter",
        "s"
      ],
      [
        "_B",
        "omb"
      ],
      [
        "ri",
        "ed"
      ],
      [
        "_G",
        "r"
      ],
      [
        "_G",
        "oo"
      ],
      [
        "_tr",
        "ying"
      ],
      [
        "ies",
        ","
      ],
      [
        "_or",
        "gan"
      ],
      [
        "oc",
        "k"
      ],
      [
        "_W",
        "as"
      ],
      [
        "ard",
        "ier"
      ],
      [
        "ue",
        "b"
      ],
      [
        "_res",
        "p"
      ],
      [
        "_St",
        "ates"
      ],
      [
        "_k",
        "now"
      ],
      [
        "port",
        "ation"
      ],
      [
        "ical",
        "ly"
      ],
      [
        "_dec",
        "ision"
      ],
      [
        "_$",
        "1"
      ],
      [
        "_pre",
        "v"
      ],
      [
        "_serv",
        "ices"
      ],
      [
        "_gr",
        "oup"
      ],
      [
        "_sur",
        "ve"
      ],
      [
        "_sold",
        "iers"
      ],
      [
        "arm",
        "ac"
      ],
      [
        "_Germ",
        "an"
      ],
      [
        "_Brussel",
        "s"
      ],
      [
        "_lawy",
        "er"
      ],
      [
        "_custom",
        "ers"
      ],
      [
        "_Sept",
        "ember"
      ],
      [
        "_Bomb",
        "ardier"
      ],
      [
        "_Goo",
        "gle"
      ],
      [
        ".",
        "5"
      ],
      [
        "_",
        "6"
      ],
      [
        "_",
        "Q"
      ],
      [
        "_",
        "ent"
      ],
      [
        "a",
        "z"
      ],
      [
        "e",
        "b"
      ],
      [
        "e",
        "an"
      ],
      [
        "f",
        "ul"
      ],
      [
        "g",
        "er"
      ],
      [
        "i",
        "od"
      ],
      [
        "i",
        "ative"
      ],
      [
        "l",
        "es"
      ],
      [
        "n",
        "ational"
      ],
      [
        "n",
        "esday"
      ],
      [
        "o",
        "ver"
      ],
      [
        "o",
        "ard"
      ],
      [
        "t",
        "e"
      ],
      [
        "t",
        "en"
      ],
      [
        "u",
        "ary"
      ],
      [
        "v",
        "ing"
      ],
      [
        "w",
        "ard"
      ],
      [
        "re",
        "al"
      ],
      [
        "re",
        "am"
      ],
      [
        "_s",
        "ol"
      ],
      [
        "_s",
        "ite"
      ],
      [
        "on",
        "'t"
      ],
      [
        "en",
        "e"
      ],
      [
        "ed",
        "nesday"
      ],
      [
        "it",
        "ing"
      ],
      [
        "it",
        "ution"
      ],
      [
        "_f",
        "am"
      ],
      [
        "_f",
        "actor"
      ],
      [
        "_in",
        "form"
      ],
      [
        "ar",
        "is"
      ],
      [
        "_m",
        "or"
      ],
      [
        "_m",
        "ade"
      ],
      [
        "_th",
        "in"
      ],
      [
        "_re",
        "m"
      ],
      [
        "_re",
        "in"
      ],
      [
        "_re",
        "ve"
      ],
      [
        "_l",
        "ight"
      ],
      [
        "id",
        "ed"
      ],
      [
        "_A",
        "r"
      ],
      [
        "_The",
        "y"
      ],
      [
        "_M",
        "P"
      ],
      [
        "_M",
        "on"
      ],
      [
        "im",
        "e"
      ],
      [
        "_st",
        "r"
      ],
      [
        "ig",
        "ence"
      ],
      [
        "_F",
        "or"
      ],
      [
        "res",
        "ident"
      ],
      [
        "_H",
        "owever"
      ],
      [
        "_D",
        "av"
      ],
      [
        "ort",
        "h"
      ],
      [
        "and",
        "s"
      ],
      [
        "if",
        "ied"
      ],
      [
        "us",
        "ed"
      ],
      [
        "_G",
        "ood"
      ],
      [
        "_tr",
        "ave"
      ],
      [
        "_ch",
        "arg"
      ],
      [
        "_ch",
        "ange"
      ],
      [
        "iv",
        "es"
      ],
      [
        "_or",
        "der"
      ],
      [
        "un",
        "d"
      ],
      [
        "_sh",
        "ort"
      ],
      [
        "_sh",
        "ould"
      ],
      [
        "_W",
        "ednesday"
      ],
      [
        "_year",
        ","
      ],
      [
        "_ad",
        "v"
      ],
      [
        "_U",
        "S"
      ],
      [
        "_le",
        "ad"
      ],
      [
        "_le",
        "ave"
      ],
      [
        "_per",
        "cent"
      ],
      [
        "_per",
        "iod"
      ],
      [
        "ell",
        "igence"
      ],
      [
        "_off",
        "er"
      ],
      [
        "_ar",
        "m"
      ],
      [
        "_fe",
        "e"
      ],
      [
        "du",
        "ced"
      ],
      [
        "_K",
        "en"
      ],
      [
        "_exp",
        "ected"
      ],
      [
        "_comp",
        "any"
      ],
      [
        "_An",
        "d"
      ],
      [
        "_inc",
        "re"
      ],
      [
        "_fin",
        "ancial"
      ],
      [
        "_bu",
        "y"
      ],
      [
        "_bu",
        "il"
      ],
      [
        "_rec",
        "ent"
      ],
      [
        "_Y",
        "ork"
      ],
      [
        "_fl",
        "ight"
      ],
      [
        "_contin",
        "u"
      ],
      [
        "_pr",
        "act"
      ],
      [
        "_pass",
        "engers"
      ],
      [
        "_carry",
        "-on"
      ],
      [
        "_dat",
        "a"
      ],
      [
        "_investig",
        "ation"
      ],
      [
        "_Acc",
        "ording"
      ],
      [
        "_Good",
        "year"
      ],
      [
        "3",
        "."
      ],
      [
        "_",
        "8"
      ],
      [
        "a",
        "im"
      ],
      [
        "a",
        "un"
      ],
      [
        "b",
        "ers"
      ],
      [
        "c",
        "es"
      ],
      [
        "c",
        "ess"
      ],
      [
        "e",
        "e"
      ],
      [
        "i",
        "vers"
      ],
      [
        "j",
        "ured"
      ],
      [
        "n",
        "er"
      ],
      [
        "o",
        "ber"
      ],
      [
        "t",
        "ly"
      ],
      [
        "u",
        "ding"
      ],
      [
        "_a",
        "c"
      ],
      [
        "_a",
        "v"
      ],
      [
        "_a",
        "ction"
      ],
      [
        "er",
        "r"
      ],
      [
        "er",
        "ence"
      ],
      [
        "re",
        "g"
      ],
      [
        "_s",
        "us"
      ],
      [
        "_s",
        "ame"
      ],
      [
        "_w",
        "a"
      ],
      [
        "_c",
        "ap"
      ],
      [
        "it",
        "an"
      ],
      [
        "is",
        "k"
      ],
      [
        "_b",
        "od"
      ],
      [
        "_p",
        "at"
      ],
      [
        "_p",
        "oin"
      ],
      [
        "_to",
        "ld"
      ],
      [
        "_to",
        "ok"
      ],
      [
        "_to",
        "wn"
      ],
      [
        "_m",
        "en"
      ],
      [
        "_m",
        "ove"
      ],
      [
        "_m",
        "uch"
      ],
      [
        "_h",
        "osp"
      ],
      [
        "_d",
        "em"
      ],
      [
        "_d",
        "ist"
      ],
      [
        "as",
        "h"
      ],
      [
        "_th",
        "ough"
      ],
      [
        "om",
        "an"
      ],
      [
        "_I",
        "f"
      ],
      [
        "_g",
        "l"
      ],
      [
        "_A",
        "fter"
      ],
      [
        "_A",
        "gency"
      ],
      [
        "_C",
        "G"
      ],
      [
        "_S",
        "ec"
      ],
      [
        "_for",
        "ce"
      ],
      [
        "_B",
        "er"
      ],
      [
        "ct",
        "ober"
      ],
      [
        "ul",
        "ed"
      ],
      [
        "and",
        "-"
      ],
      [
        "_O",
        "ctober"
      ],
      [
        "_ab",
        "le"
      ],
      [
        "_su",
        "ch"
      ],
      [
        "_we",
        "bs"
      ],
      [
        "_E",
        "x"
      ],
      [
        "_cl",
        "os"
      ],
      [
        "_cl",
        "ose"
      ],
      [
        "all",
        "iative"
      ],
      [
        "ep",
        "end"
      ],
      [
        "_me",
        "et"
      ],
      [
        "_Fr",
        "ance"
      ],
      [
        "_int",
        "elligence"
      ],
      [
        "_pres",
        "ident"
      ],
      [
        "_J",
        "an"
      ],
      [
        "_acc",
        "ess"
      ],
      [
        "anc",
        "es"
      ],
      [
        "_exp",
        "er"
      ],
      [
        "_pol",
        "ic"
      ],
      [
        "_car",
        "ried"
      ],
      [
        "_dis",
        "c"
      ],
      [
        "_fin",
        "d"
      ],
      [
        "_Br",
        "it"
      ],
      [
        "ail",
        "ed"
      ],
      [
        "_start",
        "ed"
      ],
      [
        "_dri",
        "vers"
      ],
      [
        "_diff",
        "icult"
      ],
      [
        "_giv",
        "en"
      ],
      [
        "_supp",
        "ort"
      ],
      [
        "_cer",
        "emon"
      ],
      [
        "_Mont",
        "real"
      ],
      [
        "_happ",
        "en"
      ],
      [
        "_expl",
        "ain"
      ],
      [
        "unic",
        "ations"
      ],
      [
        "_jud",
        "ge"
      ],
      [
        "_bel",
        "ie"
      ],
      [
        "_fam",
        "il"
      ],
      [
        "_inform",
        "ation"
      ],
      [
        "_However",
        ","
      ],
      [
        "_Dav",
        "id"
      ],
      [
        "_buil",
        "ding"
      ],
      [
        "_sus",
        "p"
      ],
      [
        "-",
        "s"
      ],
      [
        "-",
        "and-"
      ],
      [
        ".",
        "."
      ],
      [
        "5",
        "0"
      ],
      [
        "A",
        "D"
      ],
      [
        "_",
        "7"
      ],
      [
        "_",
        "ve"
      ],
      [
        "a",
        "'s"
      ],
      [
        "c",
        "on"
      ],
      [
        "c",
        "hed"
      ],
      [
        "e",
        "x"
      ],
      [
        "g",
        "et"
      ],
      [
        "i",
        "o"
      ],
      [
        "m",
        "ost"
      ],
      [
        "o",
        "."
      ],
      [
        "o",
        "is"
      ],
      [
        "r",
        "al"
      ],
      [
        "s",
        "u"
      ],
      [
        "t",
        "s"
      ],
      [
        "v",
        "ision"
      ],
      [
        "_t",
        "en"
      ],
      [
        "_a",
        "ff"
      ],
      [
        "re",
        "t"
      ],
      [
        "_s",
        "l"
      ],
      [
        "_s",
        "omet"
      ],
      [
        "on",
        "y"
      ],
      [
        "en",
        "eral"
      ],
      [
        "ed",
        ","
      ],
      [
        "ed",
        "y"
      ],
      [
        "_c",
        "ost"
      ],
      [
        "or",
        "n"
      ],
      [
        "or",
        "ough"
      ],
      [
        "_of",
        "ten"
      ],
      [
        "_b",
        "ar"
      ],
      [
        "_b",
        "ig"
      ],
      [
        "es",
        "e"
      ],
      [
        "_f",
        "ive"
      ],
      [
        "_f",
        "ell"
      ],
      [
        "_f",
        "ound"
      ],
      [
        "ar",
        "ing"
      ],
      [
        "al",
        "le"
      ],
      [
        "al",
        "ly"
      ],
      [
        "_h",
        "op"
      ],
      [
        "_h",
        "aving"
      ],
      [
        "_d",
        "i"
      ],
      [
        "_d",
        "r"
      ],
      [
        "_d",
        "en"
      ],
      [
        "_d",
        "et"
      ],
      [
        "_d",
        "ue"
      ],
      [
        "_d",
        "ream"
      ],
      [
        "as",
        "on"
      ],
      [
        "il",
        "ity"
      ],
      [
        "_T",
        "w"
      ],
      [
        "_T",
        "itan"
      ],
      [
        "_C",
        "S"
      ],
      [
        "_C",
        "AD"
      ],
      [
        "_S",
        "h"
      ],
      [
        "_S",
        "car"
      ],
      [
        "_\"",
        "w"
      ],
      [
        "ill",
        "ance"
      ],
      [
        "_B",
        "e"
      ],
      [
        "am",
        "p"
      ],
      [
        "_con",
        "duct"
      ],
      [
        "_y",
        "oun"
      ],
      [
        "_H",
        "ol"
      ],
      [
        "pp",
        "ed"
      ],
      [
        "ul",
        "l"
      ],
      [
        "our",
        "g"
      ],
      [
        "our",
        "nal"
      ],
      [
        "_R",
        "uss"
      ],
      [
        "_tr",
        "aff"
      ],
      [
        "_P",
        "aris"
      ],
      [
        "_P",
        "resident"
      ],
      [
        "_ch",
        "ang"
      ],
      [
        "_de",
        "al"
      ],
      [
        "_or",
        "d"
      ],
      [
        "oc",
        "r"
      ],
      [
        "_r",
        "ight"
      ],
      [
        "_1",
        ","
      ],
      [
        "_W",
        "h"
      ],
      [
        "_su",
        "m"
      ],
      [
        "ess",
        "ion"
      ],
      [
        "_ag",
        "ree"
      ],
      [
        "_v",
        "iew"
      ],
      [
        "_le",
        "ft"
      ],
      [
        "_In",
        "ter"
      ],
      [
        "_fe",
        "w"
      ],
      [
        "_new",
        "s"
      ],
      [
        "_pe",
        "ace"
      ],
      [
        "_app",
        "ear"
      ],
      [
        "_mon",
        "e"
      ],
      [
        "_$",
        "2"
      ],
      [
        "_plan",
        "e"
      ],
      [
        "_med",
        "ical"
      ],
      [
        "_ind",
        "epend"
      ],
      [
        "_bl",
        "ack"
      ],
      [
        "_br",
        "ing"
      ],
      [
        "lin",
        "es"
      ],
      [
        "_contin",
        "ue"
      ],
      [
        "_sec",
        "ond"
      ],
      [
        "_ph",
        "armac"
      ],
      [
        "_eff",
        "ort"
      ],
      [
        "_drug",
        "s"
      ],
      [
        "_Cro",
        "ss"
      ],
      [
        "_appe",
        "al"
      ],
      [
        "iss",
        "ion"
      ],
      [
        "_pri",
        "v"
      ],
      [
        "_develop",
        "ment"
      ],
      [
        "_child",
        "ren"
      ],
      [
        "_crimin",
        "al"
      ],
      [
        "_num",
        "ber"
      ],
      [
        "_Is",
        "ra"
      ],
      [
        "_surve",
        "illance"
      ],
      [
        "_reve",
        "al"
      ],
      [
        "_Ken",
        "y"
      ],
      [
        "_Jan",
        "uary"
      ],
      [
        "_Brit",
        "ish"
      ],
      [
        "_Scar",
        "b"
      ],
      [
        "_youn",
        "g"
      ],
      [
        "_traff",
        "ic"
      ],
      [
        "-",
        "D"
      ],
      [
        "-",
        "b"
      ],
      [
        "-",
        "l"
      ],
      [
        "-",
        "year"
      ],
      [
        "_",
        "9"
      ],
      [
        "e",
        "le"
      ],
      [
        "g",
        "in"
      ],
      [
        "h",
        "old"
      ],
      [
        "h",
        "ip"
      ],
      [
        "i",
        "ol"
      ],
      [
        "i",
        "am"
      ],
      [
        "i",
        "qu"
      ],
      [
        "i",
        "um"
      ],
      [
        "o",
        "z"
      ],
      [
        "p",
        "ted"
      ],
      [
        "s",
        "ide"
      ],
      [
        "t",
        "on"
      ],
      [
        "t",
        "il"
      ],
      [
        "è",
        "re"
      ],
      [
        "he",
        "ad"
      ],
      [
        "in",
        "ist"
      ],
      [
        "_the",
        "n"
      ],
      [
        "er",
        "ent"
      ],
      [
        "_o",
        "b"
      ],
      [
        "_o",
        "pp"
      ],
      [
        "_o",
        "cc"
      ],
      [
        "re",
        "at"
      ],
      [
        "_w",
        "r"
      ],
      [
        "_c",
        "o"
      ],
      [
        "_c",
        "ity"
      ],
      [
        "at",
        "ic"
      ],
      [
        "at",
        "ch"
      ],
      [
        "is",
        "hed"
      ],
      [
        "_f",
        "ore"
      ],
      [
        "_in",
        "jured"
      ],
      [
        "ar",
        "s"
      ],
      [
        "_m",
        "om"
      ],
      [
        "_m",
        "ay"
      ],
      [
        "_m",
        "ile"
      ],
      [
        "_m",
        "ark"
      ],
      [
        "al",
        "."
      ],
      [
        "al",
        "th"
      ],
      [
        "_h",
        "ow"
      ],
      [
        "_h",
        "ome"
      ],
      [
        "_h",
        "ouse"
      ],
      [
        "_d",
        "on't"
      ],
      [
        "ent",
        "ion"
      ],
      [
        "le",
        "ar"
      ],
      [
        "le",
        "ment"
      ],
      [
        "_re",
        "b"
      ],
      [
        "_re",
        "ce"
      ],
      [
        "_re",
        "qu"
      ],
      [
        "_l",
        "oo"
      ],
      [
        "_l",
        "itt"
      ],
      [
        "_l",
        "oved"
      ],
      [
        "_on",
        "line"
      ],
      [
        "_g",
        "row"
      ],
      [
        "_C",
        "omm"
      ],
      [
        "_is",
        "su"
      ],
      [
        "_\"",
        "t"
      ],
      [
        "ec",
        "ut"
      ],
      [
        "ec",
        "hn"
      ],
      [
        "ation",
        ","
      ],
      [
        "ation",
        "."
      ],
      [
        "_M",
        "inister"
      ],
      [
        "_he",
        "l"
      ],
      [
        "et",
        "."
      ],
      [
        "am",
        "a"
      ],
      [
        "am",
        "b"
      ],
      [
        "_as",
        "ked"
      ],
      [
        "ment",
        ","
      ],
      [
        "_al",
        "most"
      ],
      [
        "_y",
        "our"
      ],
      [
        "s.",
        "\""
      ],
      [
        "_pro",
        "duct"
      ],
      [
        "_D",
        "is"
      ],
      [
        "_D",
        "ec"
      ],
      [
        "ch",
        "ool"
      ],
      [
        "_ch",
        "arge"
      ],
      [
        "_un",
        "til"
      ],
      [
        "iv",
        "il"
      ],
      [
        "ity",
        ","
      ],
      [
        "_L",
        "a"
      ],
      [
        "_su",
        "ff"
      ],
      [
        "ie",
        "u"
      ],
      [
        "ud",
        "e"
      ],
      [
        "_cl",
        "aim"
      ],
      [
        "ia",
        ","
      ],
      [
        "du",
        "ction"
      ],
      [
        "_Mr",
        "."
      ],
      [
        "_inter",
        "national"
      ],
      [
        "_bec",
        "ome"
      ],
      [
        "ra",
        "ft"
      ],
      [
        "_\"T",
        "h"
      ],
      [
        "_part",
        "ic"
      ],
      [
        "_att",
        "em"
      ],
      [
        "ious",
        "ly"
      ],
      [
        "_sc",
        "he"
      ],
      [
        "_add",
        "ition"
      ],
      [
        "_\"I",
        "t"
      ],
      [
        "ne",
        "y"
      ],
      [
        "_cas",
        "es"
      ],
      [
        "_te",
        "le"
      ],
      [
        "_attack",
        "s"
      ],
      [
        "_giv",
        "ing"
      ],
      [
        "_imp",
        "lement"
      ],
      [
        "_concer",
        "ned"
      ],
      [
        "_net",
        "work"
      ],
      [
        "_long",
        "er"
      ],
      [
        "_mil",
        "es"
      ],
      [
        "_contro",
        "l"
      ],
      [
        "_invol",
        "ved"
      ],
      [
        "_employe",
        "es"
      ],
      [
        "_Tr",
        "ans"
      ],
      [
        "_spec",
        "if"
      ],
      [
        "_sit",
        "uation"
      ],
      [
        "_thir",
        "d"
      ],
      [
        "_loc",
        "al"
      ],
      [
        "_depart",
        "ment"
      ],
      [
        "_ke",
        "ep"
      ],
      [
        "_incl",
        "uding"
      ],
      [
        "_col",
        "le"
      ],
      [
        "_Was",
        "hing"
      ],
      [
        "ueb",
        "ec"
      ],
      [
        "_Q",
        "uebec"
      ],
      [
        "_mor",
        "ning"
      ],
      [
        "_trave",
        "l"
      ],
      [
        "_hosp",
        "ital"
      ],
      [
        "_CG",
        "T"
      ],
      [
        "_bar",
        "rel"
      ],
      [
        "_Hol",
        "y"
      ],
      [
        "_agree",
        "ment"
      ],
      [
        "_litt",
        "le"
      ],
      [
        "'",
        "m"
      ],
      [
        ".",
        "S."
      ],
      [
        "4",
        ","
      ],
      [
        "4",
        "."
      ],
      [
        "R",
        "S"
      ],
      [
        "_",
        "ill"
      ],
      [
        "_",
        "est"
      ],
      [
        "c",
        "k"
      ],
      [
        "c",
        "raft"
      ],
      [
        "g",
        "age"
      ],
      [
        "h",
        "ic"
      ],
      [
        "i",
        "ate"
      ],
      [
        "i",
        "ber"
      ],
      [
        "i",
        "ents"
      ],
      [
        "n",
        "o"
      ],
      [
        "p",
        "or"
      ],
      [
        "t",
        "al"
      ],
      [
        "t",
        "el"
      ],
      [
        "u",
        "p"
      ],
      [
        "u",
        "ly"
      ],
      [
        "u",
        "ated"
      ],
      [
        "v",
        "iew"
      ],
      [
        "y",
        "ri"
      ],
      [
        "ô",
        "tel"
      ],
      [
        "_t",
        "echn"
      ],
      [
        "he",
        "s"
      ],
      [
        "in",
        "es"
      ],
      [
        "er",
        "ed"
      ],
      [
        "re",
        "en"
      ],
      [
        "_s",
        "im"
      ],
      [
        "_s",
        "yst"
      ],
      [
        "on",
        "e."
      ],
      [
        "en",
        "se"
      ],
      [
        "_w",
        "ar"
      ],
      [
        "_c",
        "or"
      ],
      [
        "_c",
        "ent"
      ],
      [
        "_c",
        "ame"
      ],
      [
        "_c",
        "ents"
      ],
      [
        "_c",
        "lear"
      ],
      [
        "_c",
        "ivil"
      ],
      [
        "at",
        "s"
      ],
      [
        "at",
        "ter"
      ],
      [
        "it",
        "."
      ],
      [
        "it",
        "her"
      ],
      [
        "it",
        "ical"
      ],
      [
        "or",
        "se"
      ],
      [
        "or",
        "ies"
      ],
      [
        "or",
        "der"
      ],
      [
        "an",
        "ted"
      ],
      [
        "_b",
        "illion"
      ],
      [
        "_b",
        "ased"
      ],
      [
        "_b",
        "ene"
      ],
      [
        "_f",
        "re"
      ],
      [
        "_f",
        "ar"
      ],
      [
        "_f",
        "ac"
      ],
      [
        "_f",
        "all"
      ],
      [
        "_f",
        "ather"
      ],
      [
        "_f",
        "ull"
      ],
      [
        "ing",
        "."
      ],
      [
        "_in",
        "s"
      ],
      [
        "al",
        "f"
      ],
      [
        "al",
        "yst"
      ],
      [
        "_h",
        "ot"
      ],
      [
        "_d",
        "ate"
      ],
      [
        "_d",
        "oll"
      ],
      [
        "_d",
        "rop"
      ],
      [
        "ic",
        "e."
      ],
      [
        "ic",
        "itor"
      ],
      [
        "_n",
        "ight"
      ],
      [
        "_be",
        "gin"
      ],
      [
        "_l",
        "ot"
      ],
      [
        "_l",
        "ow"
      ],
      [
        "_l",
        "ost"
      ],
      [
        "_l",
        "aun"
      ],
      [
        "_e",
        "ar"
      ],
      [
        "_e",
        "ach"
      ],
      [
        "ac",
        "y"
      ],
      [
        "_g",
        "ot"
      ],
      [
        "_A",
        "s"
      ],
      [
        "ol",
        "og"
      ],
      [
        "_C",
        "om"
      ],
      [
        "_C",
        "our"
      ],
      [
        "_C",
        "are"
      ],
      [
        "_C",
        "able"
      ],
      [
        "_S",
        "o"
      ],
      [
        "_S",
        "aint"
      ],
      [
        "_\"",
        "F"
      ],
      [
        "_\"",
        "d"
      ],
      [
        "_\"",
        "s"
      ],
      [
        "ur",
        "ned"
      ],
      [
        "_M",
        "az"
      ],
      [
        "_st",
        "ud"
      ],
      [
        "_st",
        "ates"
      ],
      [
        "_st",
        "ress"
      ],
      [
        "_he",
        "re"
      ],
      [
        "ow",
        "ie"
      ],
      [
        "et",
        "y"
      ],
      [
        "_B",
        "owie"
      ],
      [
        "el",
        "t"
      ],
      [
        "_it",
        "."
      ],
      [
        "_F",
        "ren"
      ],
      [
        "ain",
        "s"
      ],
      [
        "ri",
        "b"
      ],
      [
        "_N",
        "ational"
      ],
      [
        "_pro",
        "t"
      ],
      [
        "_pro",
        "ject"
      ],
      [
        "_pro",
        "cess"
      ],
      [
        "_H",
        "ôtel"
      ],
      [
        "est",
        "iv"
      ],
      [
        "_R",
        "ep"
      ],
      [
        "_ne",
        "ver"
      ],
      [
        "ch",
        "ange"
      ],
      [
        "ive",
        "ly"
      ],
      [
        "_de",
        "ath"
      ],
      [
        "_O",
        "m"
      ],
      [
        "_O",
        "r"
      ],
      [
        "_1",
        "5"
      ],
      [
        "_pl",
        "ac"
      ],
      [
        "_year",
        "s."
      ],
      [
        "_ag",
        "o,"
      ],
      [
        "_v",
        "ot"
      ],
      [
        "_U",
        ".S."
      ],
      [
        "_j",
        "ournal"
      ],
      [
        "ie",
        "f"
      ],
      [
        "_le",
        "t"
      ],
      [
        "um",
        "p"
      ],
      [
        "_ser",
        "ies"
      ],
      [
        "_pres",
        "ent"
      ],
      [
        "_res",
        "ult"
      ],
      [
        "arg",
        "est"
      ],
      [
        "ubl",
        "ished"
      ],
      [
        "_dec",
        "ided"
      ],
      [
        "ok",
        "e"
      ],
      [
        "_all",
        "ow"
      ],
      [
        "_million",
        ","
      ],
      [
        "_him",
        "."
      ],
      [
        "_him",
        "self"
      ],
      [
        "_im",
        "med"
      ],
      [
        "_us",
        "ed"
      ],
      [
        "_sc",
        "hed"
      ],
      [
        "_Thursday",
        "."
      ],
      [
        "_ind",
        "ic"
      ],
      [
        "_month",
        "s"
      ],
      [
        "_air",
        "craft"
      ],
      [
        "_comm",
        "it"
      ],
      [
        "_comm",
        "unications"
      ],
      [
        "_cour",
        "se"
      ],
      [
        "_diff",
        "erent"
      ],
      [
        "_inst",
        "itution"
      ],
      [
        "_rel",
        "ations"
      ],
      [
        "_rele",
        "as"
      ],
      [
        "_rele",
        "ased"
      ],
      [
        "_cer",
        "tain"
      ],
      [
        "_eff",
        "ect"
      ],
      [
        "_pos",
        "sible"
      ],
      [
        "_Mont",
        "eb"
      ],
      [
        "_cons",
        "ult"
      ],
      [
        "_trans",
        "portation"
      ],
      [
        "fr",
        "isk"
      ],
      [
        "_rep",
        "res"
      ],
      [
        "_curren",
        "tly"
      ],
      [
        "_19",
        "9"
      ],
      [
        "_spe",
        "ak"
      ],
      [
        "_spok",
        "es"
      ],
      [
        "_Europ",
        "ean"
      ],
      [
        "_mem",
        "bers"
      ],
      [
        "_resp",
        "on"
      ],
      [
        "_$1",
        "00"
      ],
      [
        "_factor",
        "y"
      ],
      [
        "_thin",
        "k"
      ],
      [
        "_arm",
        "y"
      ],
      [
        "_poin",
        "t"
      ],
      [
        "_webs",
        "ite"
      ],
      [
        "-and-",
        "frisk"
      ],
      [
        "con",
        "om"
      ],
      [
        "_ord",
        "ers"
      ],
      [
        "_sum",
        "m"
      ],
      [
        "_independ",
        "ent"
      ],
      [
        "_Isra",
        "eli"
      ],
      [
        "_Scarb",
        "orough"
      ],
      [
        "-D",
        "ieu"
      ],
      [
        "_ob",
        "tain"
      ],
      [
        "_mom",
        "ent"
      ],
      [
        "_hel",
        "p"
      ],
      [
        "_Dec",
        "ember"
      ],
      [
        "_Washing",
        "ton"
      ],
      [
        "_syst",
        "em"
      ],
      [
        "_Cour",
        "t"
      ],
      [
        "_Maz",
        "ang"
      ],
      [
        "_Fren",
        "ch"
      ],
      [
        "_Hôtel",
        "-Dieu"
      ],
      [
        "_immed",
        "iate"
      ],
      [
        "_Monteb",
        "ourg"
      ],
      [
        ")",
        ","
      ],
      [
        "-",
        "m"
      ],
      [
        "-",
        "p"
      ],
      [
        "0",
        ","
      ],
      [
        "1",
        "."
      ],
      [
        "D",
        "C"
      ],
      [
        "a",
        "ult"
      ],
      [
        "b",
        "t"
      ],
      [
        "b",
        "um"
      ],
      [
        "c",
        "l"
      ],
      [
        "c",
        "ot"
      ],
      [
        "c",
        "ue"
      ],
      [
        "e",
        "v"
      ],
      [
        "e",
        "ad"
      ],
      [
        "f",
        "act"
      ],
      [
        "g",
        "est"
      ],
      [
        "i",
        "or"
      ],
      [
        "i",
        "ation"
      ],
      [
        "i",
        "ans"
      ],
      [
        "k",
        "r"
      ],
      [
        "l",
        "ared"
      ],
      [
        "m",
        "is"
      ],
      [
        "n",
        "t"
      ],
      [
        "n",
        "ot"
      ],
      [
        "o",
        "-"
      ],
      [
        "o",
        "id"
      ],
      [
        "o",
        "ot"
      ],
      [
        "p",
        "r"
      ],
      [
        "u",
        "se"
      ],
      [
        "u",
        "fact"
      ],
      [
        "w",
        "and"
      ],
      [
        "_t",
        "ell"
      ],
      [
        "_t",
        "ens"
      ],
      [
        "_t",
        "err"
      ],
      [
        "_a",
        "ud"
      ],
      [
        "in",
        "ation"
      ],
      [
        "er",
        "ies"
      ],
      [
        "re",
        "st"
      ],
      [
        "_s",
        "k"
      ],
      [
        "_s",
        "ix"
      ],
      [
        "en",
        ","
      ],
      [
        "en",
        "n"
      ],
      [
        "en",
        "ding"
      ],
      [
        "_w",
        "atch"
      ],
      [
        "it",
        "ic"
      ],
      [
        "it",
        "ary"
      ],
      [
        "is",
        "ation"
      ],
      [
        "or",
        "s"
      ],
      [
        "_b",
        "o"
      ],
      [
        "_b",
        "est"
      ],
      [
        "_b",
        "us"
      ],
      [
        "_p",
        "ot"
      ],
      [
        "_p",
        "rom"
      ],
      [
        "_p",
        "ost"
      ],
      [
        "_f",
        "ut"
      ],
      [
        "_f",
        "ur"
      ],
      [
        "_f",
        "ig"
      ],
      [
        "_in",
        "f"
      ],
      [
        "_in",
        "h"
      ],
      [
        "_to",
        "day"
      ],
      [
        "ar",
        "ch"
      ],
      [
        "_m",
        "ot"
      ],
      [
        "_m",
        "et"
      ],
      [
        "_m",
        "e,"
      ],
      [
        "_m",
        "ight"
      ],
      [
        "_m",
        "arg"
      ],
      [
        "_m",
        "other"
      ],
      [
        "al",
        ","
      ],
      [
        "_h",
        "ol"
      ],
      [
        "_h",
        "and"
      ],
      [
        "_h",
        "ost"
      ],
      [
        "_h",
        "alf"
      ],
      [
        "_d",
        "es"
      ],
      [
        "_d",
        "ied"
      ],
      [
        "_d",
        "emon"
      ],
      [
        "_d",
        "eli"
      ],
      [
        "om",
        "p"
      ],
      [
        "_re",
        "al"
      ],
      [
        "_re",
        "st"
      ],
      [
        "_re",
        "form"
      ],
      [
        "_re",
        "vel"
      ],
      [
        "_re",
        "ach"
      ],
      [
        "_re",
        "ady"
      ],
      [
        "_re",
        "str"
      ],
      [
        "_n",
        "ec"
      ],
      [
        "_e",
        "conom"
      ],
      [
        "ac",
        "uated"
      ],
      [
        "_A",
        "m"
      ],
      [
        "_A",
        "ll"
      ],
      [
        "_C",
        "ent"
      ],
      [
        "_S",
        "ou"
      ],
      [
        "_\"",
        "M"
      ],
      [
        "_\"",
        "S"
      ],
      [
        "ir",
        "it"
      ],
      [
        "ation",
        "s."
      ],
      [
        "ur",
        "al"
      ],
      [
        "_M",
        "an"
      ],
      [
        "im",
        "es"
      ],
      [
        "_that",
        ","
      ],
      [
        "_st",
        "and"
      ],
      [
        "_st",
        "aff"
      ],
      [
        "_B",
        "l"
      ],
      [
        "_B",
        "ro"
      ],
      [
        "ers",
        "."
      ],
      [
        "_con",
        "st"
      ],
      [
        "_al",
        "bum"
      ],
      [
        "_pro",
        "ble"
      ],
      [
        "_H",
        "is"
      ],
      [
        "_com",
        "es"
      ],
      [
        "_D",
        "ay"
      ],
      [
        "and",
        "on"
      ],
      [
        "em",
        "ocr"
      ],
      [
        "_R",
        "wand"
      ],
      [
        "us",
        "ing"
      ],
      [
        "_tr",
        "ain"
      ],
      [
        "_ex",
        "t"
      ],
      [
        "_P",
        "ol"
      ],
      [
        "_P",
        "ublic"
      ],
      [
        "_P",
        "alliative"
      ],
      [
        "_ch",
        "o"
      ],
      [
        "_ch",
        "oo"
      ],
      [
        "iv",
        "ed"
      ],
      [
        "iv",
        "id"
      ],
      [
        "_r",
        "a"
      ],
      [
        "_W",
        "ith"
      ],
      [
        "_ab",
        "andon"
      ],
      [
        "_pl",
        "ay"
      ],
      [
        "_se",
        "em"
      ],
      [
        "_se",
        "iz"
      ],
      [
        "ant",
        "s"
      ],
      [
        "_v",
        "al"
      ],
      [
        "_v",
        "ide"
      ],
      [
        "_v",
        "iol"
      ],
      [
        "ff",
        "ic"
      ],
      [
        "_U",
        "kr"
      ],
      [
        "_le",
        "g"
      ],
      [
        "_le",
        "ast"
      ],
      [
        "ial",
        "ly"
      ],
      [
        "_In",
        "d"
      ],
      [
        "_cl",
        "ass"
      ],
      [
        "_per",
        "form"
      ],
      [
        "_go",
        "als"
      ],
      [
        "_ar",
        "g"
      ],
      [
        "_ar",
        "ri"
      ],
      [
        "_ar",
        "rest"
      ],
      [
        "_res",
        "ident"
      ],
      [
        "ven",
        "ue"
      ],
      [
        "_k",
        "ill"
      ],
      [
        "_J",
        "o"
      ],
      [
        "_J",
        "uly"
      ],
      [
        "ap",
        "s"
      ],
      [
        "au",
        "g"
      ],
      [
        "itt",
        "e"
      ],
      [
        "_inter",
        "view"
      ],
      [
        "_man",
        "ufact"
      ],
      [
        "_dec",
        "lared"
      ],
      [
        "_comp",
        "et"
      ],
      [
        "_tak",
        "ing"
      ],
      [
        "_plan",
        "ning"
      ],
      [
        "_us",
        "ing"
      ],
      [
        "_(",
        "C"
      ],
      [
        "_dis",
        "ch"
      ],
      [
        "_so",
        "on"
      ],
      [
        "_sc",
        "and"
      ],
      [
        "_Thursday",
        ","
      ],
      [
        "_Ch",
        "in"
      ],
      [
        "_201",
        "2"
      ],
      [
        "_201",
        "3"
      ],
      [
        "_gr",
        "ound"
      ],
      [
        "_\"I",
        "f"
      ],
      [
        "_work",
        "ing"
      ],
      [
        "_br",
        "ought"
      ],
      [
        "_test",
        "s"
      ],
      [
        "_air",
        "line"
      ],
      [
        "_mak",
        "ing"
      ],
      [
        "_ass",
        "oci"
      ],
      [
        "_dire",
        "ct"
      ],
      [
        "_show",
        "ing"
      ],
      [
        "_invest",
        "ment"
      ],
      [
        "si",
        "b"
      ],
      [
        "_sec",
        "urity"
      ],
      [
        "_ret",
        "urn"
      ],
      [
        "_quarter",
        ","
      ],
      [
        "_supp",
        "l"
      ],
      [
        "_conf",
        "ir"
      ],
      [
        "_Air",
        "lines"
      ],
      [
        "_term",
        "s"
      ],
      [
        "_country",
        "'s"
      ],
      [
        "_lif",
        "e"
      ],
      [
        "_share",
        ","
      ],
      [
        "_200",
        "8"
      ],
      [
        "_contro",
        "vers"
      ],
      [
        "_employe",
        "es."
      ],
      [
        "_stop",
        "-and-frisk"
      ],
      [
        "_dev",
        "ices"
      ],
      [
        "arl",
        "iam"
      ],
      [
        "_ele",
        "ction"
      ],
      [
        "_call",
        "ed"
      ],
      [
        "_rein",
        "for"
      ],
      [
        "_av",
        "oid"
      ],
      [
        "_wa",
        "iting"
      ],
      [
        "_bod",
        "y"
      ],
      [
        "_dem",
        "and"
      ],
      [
        "_Sec",
        "urity"
      ],
      [
        "_explain",
        "ed"
      ],
      [
        "_famil",
        "y"
      ],
      [
        "_ve",
        "hic"
      ],
      [
        "_chang",
        "es"
      ],
      [
        "_mone",
        "y"
      ],
      [
        "_effort",
        "s"
      ],
      [
        "_priv",
        "ile"
      ],
      [
        "_reveal",
        "ed"
      ],
      [
        "iqu",
        "e"
      ],
      [
        "ecut",
        "ive"
      ],
      [
        "_product",
        "s"
      ],
      [
        "_Dis",
        "ney"
      ],
      [
        "_attem",
        "pt"
      ],
      [
        "_tele",
        "vision"
      ],
      [
        "_bene",
        "fit"
      ],
      [
        "_Saint",
        "-"
      ],
      [
        "estiv",
        "al"
      ],
      [
        "_sched",
        "uled"
      ],
      [
        "_releas",
        "e."
      ],
      [
        "_repres",
        "ent"
      ],
      [
        "_spokes",
        "man"
      ],
      [
        "_Mazang",
        "a"
      ],
      [
        "_fut",
        "ure"
      ],
      [
        "_demon",
        "str"
      ],
      [
        "_nec",
        "ess"
      ],
      [
        "_proble",
        "m"
      ],
      [
        "_choo",
        "se"
      ],
      [
        "arliam",
        "ent"
      ],
      [
        "%",
        ")"
      ],
      [
        "-",
        "f"
      ],
      [
        "-",
        "old"
      ],
      [
        "0",
        "."
      ],
      [
        "2",
        ","
      ],
      [
        "2",
        "0"
      ],
      [
        "A",
        "R"
      ],
      [
        "E",
        "O"
      ],
      [
        "M",
        "F"
      ],
      [
        "P",
        ","
      ],
      [
        "_",
        "esp"
      ],
      [
        "a",
        "h"
      ],
      [
        "a",
        "ul"
      ],
      [
        "a",
        "used"
      ],
      [
        "b",
        "ama"
      ],
      [
        "c",
        "om"
      ],
      [
        "c",
        "ast"
      ],
      [
        "d",
        "it"
      ],
      [
        "g",
        "n"
      ],
      [
        "i",
        "ant"
      ],
      [
        "i",
        "enc"
      ],
      [
        "i",
        "ens"
      ],
      [
        "j",
        "oy"
      ],
      [
        "k",
        "ins"
      ],
      [
        "l",
        "ish"
      ],
      [
        "n",
        "ic"
      ],
      [
        "n",
        "ers"
      ],
      [
        "n",
        "ity"
      ],
      [
        "n",
        "ess"
      ],
      [
        "p",
        "s"
      ],
      [
        "p",
        "ap"
      ],
      [
        "r",
        "ist"
      ],
      [
        "s",
        "é"
      ],
      [
        "t",
        "o"
      ],
      [
        "t",
        "t"
      ],
      [
        "t",
        "ar"
      ],
      [
        "t",
        "im"
      ],
      [
        "u",
        "b"
      ],
      [
        "u",
        "z"
      ],
      [
        "v",
        "es"
      ],
      [
        "v",
        "ad"
      ],
      [
        "y",
        "p"
      ],
      [
        "_t",
        "able"
      ],
      [
        "he",
        "n"
      ],
      [
        "er",
        "."
      ],
      [
        "er",
        "ing"
      ],
      [
        "er",
        "ry"
      ],
      [
        "_o",
        "il"
      ],
      [
        "_s",
        "w"
      ],
      [
        "_s",
        "ing"
      ],
      [
        "_s",
        "our"
      ],
      [
        "_s",
        "ign"
      ],
      [
        "on",
        "."
      ],
      [
        "_w",
        "oman"
      ],
      [
        "_w",
        "anted"
      ],
      [
        "_c",
        "ave"
      ],
      [
        "_c",
        "and"
      ],
      [
        "_c",
        "oll"
      ],
      [
        "at",
        "re"
      ],
      [
        "is",
        "m"
      ],
      [
        "is",
        "ted"
      ],
      [
        "or",
[...]
