{
  "version": "1.0",
  "truncation": null,
  "padding": null,
  "added_tokens": [
    {
      "id": 0,
      "content": "<s>",
      "single_word": false,
      "lstrip": false,
      "rstrip": false,
      "normalized": false,
      "special": true
    },
    {
      "id": 1,
      "content": "<pad>",
      "single_word": false,
      "lstrip": false,
      "rstrip": false,
      "normalized": false,
      "special": true
    },
    {
      "id": 2,
      "content": "</s>",
      "single_word": false,
      "lstrip": false,
      "rstrip": false,
      "normalized": false,
      "special": true
    },
    {
      "id": 3,
      "content": "<unk>",
      "single_word": false,
      "lstrip": false,
      "rstrip": false,
      "normalized": false,
      "special": true
    }
  ],
  "normalizer": null,
  "pre_tokenizer": {
    "type": "Whitespace"
  },
  "post_processor": {
    "type": "TemplateProcessing",
    "single": [
      {
        "SpecialToken": {
          "id": "<s>",
          "type_id": 0
        }
      },
      {
        "Sequence": {
          "id": "A",
          "type_id": 0
        }
      },
      {
        "SpecialToken": {
          "id": "</s>",
          "type_id": 0
        }
      }
    ],
    "pair": [
      {
        "SpecialToken": {
          "id": "<s>",
          "type_id": 0
        }
      },
      {
        "Sequence": {
          "id": "A",
          "type_id": 0
        }
      },
      {
        "SpecialToken": {
          "id": "</s>",
          "type_id": 0
        }
      },
      {
        "Sequence": {
          "id": "B",
          "type_id": 1
        }
      },
      {
        "SpecialToken": {
          "id": "</s>",
          "type_id": 1
        }
      }
    ],
    "special_tokens": {
      "</s>": {
        "id": "</s>",
        "ids": [
          2
        ],
        "tokens": [
          "</s>"
        ]
      },
      "<s>": {
        "id": "<s>",
        "ids": [
          0
        ],
        "tokens": [
          "<s>"
        ]
      }
    }
  },
  "decoder": {
    "type": "BPEDecoder",
    "suffix": "</w>"
  },
  "model": {
    "type": "BPE",
    "dropout": null,
    "unk_token": "<unk>",
    "continuing_subword_prefix": null,
    "end_of_word_suffix": null,
    "fuse_unk": false,
    "byte_fallback": false,
    "ignore_merges": false,
    "vocab": {
      "<s>": 0,
      "<pad>": 1,
      "</s>": 2,
      "<unk>": 3,
      "!": 4,
      "\"": 5,
      "$": 6,
      "%": 7,
      "&": 8,
      "'": 9,
      "(": 10,
      ")": 11,
      "+": 12,
      ",": 13,
      "-": 14,
      ".": 15,
      "/": 16,
      "0": 17,
      "1": 18,
      "2": 19,
      "3": 20,
      "4": 21,
      "5": 22,
      "6": 23,
      "7": 24,
      "8": 25,
      "9": 26,
      ":": 27,
      ";": 28,
      "?": 29,
      "A": 30,
      "B": 31,
      "C": 32,
      "D": 33,
      "E": 34,
      "F": 35,
      "G": 36,
      "H": 37,
      "I": 38,
      "J": 39,
      "K": 40,
      "L": 41,
      "M": 42,
      "N": 43,
      "O": 44,
      "P": 45,
      "Q": 46,
      "R": 47,
      "S": 48,
      "T": 49,
      "U": 50,
      "V": 51,
      "W": 52,
      "X": 53,
      "Y": 54,
      "Z": 55,
      "[": 56,
      "]": 57,
      "a": 58,
      "b": 59,
      "c": 60,
      "d": 61,
      "e": 62,
      "f": 63,
      "g": 64,
      "h": 65,
      "i": 66,
      "j": 67,
      "k": 68,
      "l": 69,
      "m": 70,
      "n": 71,
      "o": 72,
      "p": 73,
      "q": 74,
      "r": 75,
      "s": 76,
      "t": 77,
      "u": 78,
      "v": 79,
      "w": 80,
      "x": 81,
      "y": 82,
      "z": 83,
      "¢": 84,
      "£": 85,
      "§": 86,
      "¨": 87,
      "©": 88,
      "ª": 89,
      "«": 90,
      "­": 91,
      "®": 92,
      "¯": 93,
      "°": 94,
      "´": 95,
      "¶": 96,
      "¹": 97,
      "»": 98,
      "¼": 99,
      "Â": 100,
      "Ã": 101,
      "Å": 102,
      "â": 103,
      "ˆ": 104,
      "–": 105,
      "“": 106,
      "‡": 107,
      "‰": 108,
      "€": 109,
      "™": 110,
      "es": 111,
      "en": 112,
      "on": 113,
      "de": 114,
      "an": 115,
      "re": 116,
      "le": 117,
      "ai": 118,
      "qu": 119,
      "ou": 120,
      "er": 121,
      "ent": 122,
      "la": 123,
      "ti": 124,
      "is": 125,
      "in": 126,
      "rÃ": 127,
      "un": 128,
      "ar": 129,
      "et": 130,
      "ur": 131,
      "les": 132,
      "te": 133,
      "au": 134,
      "or": 135,
      "tÃ": 136,
      "que": 137,
      "des": 138,
      "il": 139,
      "se": 140,
      "our": 141,
      "ce": 142,
      "li": 143,
      "ment": 144,
      "dÃ": 145,
      "tion": 146,
      "tr": 147,
      "ch": 148,
      "om": 149,
      "si": 150,
      "av": 151,
      "pr": 152,
      "di": 153,
      "ne": 154,
      "ant": 155,
      "du": 156,
      "ont": 157,
      "ait": 158,
      "as": 159,
      "ans": 160,
      "al": 161,
      "par": 162,
      "ri": 163,
      "el": 164,
      "me": 165,
      "con": 166,
      "oi": 167,
      "us": 168,
      "une": 169,
      "at": 170,
      "est": 171,
      "ag": 172,
      "ci": 173,
      "ais": 174,
      "pour": 175,
      "prÃ": 176,
      "ation": 177,
      "qui": 178,
      "eu": 179,
      "am": 180,
      "pl": 181,
      "com": 182,
      "dans": 183,
      "sur": 184,
      "ac": 185,
      "pro": 186,
      "res": 187,
      "vi": 188,
      "ouv": 189,
      "pas": 190,
      "ap": 191,
      "nÃ": 192,
      "son": 193,
      "po": 194,
      "mÃ": 195,
      "ter": 196,
      "ain": 197,
      "ous": 198,
      "tre": 199,
      "ons": 200,
      "fi": 201,
      "lÃ": 202,
      "ec": 203,
      "pÃ": 204,
      "aux": 205,
      "ois": 206,
      "it": 207,
      "urs": 208,
      "ab": 209,
      "su": 210,
      "sÃ": 211,
      "pu": 212,
      "elle": 213,
      "end": 214,
      "ces": 215,
      "ni": 216,
      "tu": 217,
      "per": 218,
      "ol": 219,
      "ex": 220,
      "por": 221,
      "aire": 222,
      "plus": 223,
      "cÃ": 224,
      "ser": 225,
      "ale": 226,
      "Le": 227,
      "mi": 228,
      "ran": 229,
      "tes": 230,
      "ques": 231,
      "man": 232,
      "oir": 233,
      "cla": 234,
      "ff": 235,
      "ers": 236,
      "aient": 237,
      "ve": 238,
      "oc": 239,
      "ge": 240,
      "im": 241,
      "Ãª": 242,
      "Les": 243,
      "for": 244,
      "gÃ": 245,
      "pe": 246,
      "ux": 247,
      "La": 248,
      "bre": 249,
      "ir": 250,
      "pa": 251,
      "cu": 252,
      "age": 253,
      "avec": 254,
      "mes": 255,
      "ens": 256,
      "che": 257,
      "aÃ": 258,
      "co": 259,
      "Il": 260,
      "der": 261,
      "sont": 262,
      "ses": 263,
      "ins": 264,
      "lu": 265,
      "lle": 266,
      "ance": 267,
      "mais": 268,
      "entre": 269,
      "ro": 270,
      "ati": 271,
      "cour": 272,
      "vÃ": 273,
      "tait": 274,
      "mo": 275,
      "ad": 276,
      "nes": 277,
      "dent": 278,
      "ion": 279,
      "tou": 280,
      "jour": 281,
      "ils": 282,
      "ors": 283,
      "tat": 284,
      "00": 285,
      "ts": 286,
      "ie": 287,
      "mis": 288,
      "sa": 289,
      "ue": 290,
      "clarÃ": 291,
      "itÃ": 292,
      "mon": 293,
      "ence": 294,
      "cont": 295,
      "min": 296,
      "quÃ": 297,
      "teur": 298,
      "ette": 299,
      "sent": 300,
      "ouver": 301,
      "cer": 302,
      "dis": 303,
      "ali": 304,
      "sion": 305,
      "Ãªtre": 306,
      "ants": 307,
      "gr": 308,
      "nous": 309,
      "ations": 310,
      "ille": 311,
      "no": 312,
      "vis": 313,
      "ord": 314,
      "fait": 315,
      "je": 316,
      "puis": 317,
      "tions": 318,
      "bi": 319,
      "ph": 320,
      "avait": 321,
      "aut": 322,
      "parti": 323,
      "person": 324,
      "em": 325,
      "»,": 326,
      "nement": 327,
      "fin": 328,
      "vo": 329,
      "pris": 330,
      "port": 331,
      "iÃ": 332,
      "ys": 333,
      "able": 334,
      "Un": 335,
      "ard": 336,
      "tres": 337,
      "\",": 338,
      "mar": 339,
      "leur": 340,
      "eux": 341,
      "eur": 342,
      "ra": 343,
      "dev": 344,
      "avoir": 345,
      "inter": 346,
      "ble": 347,
      "peu": 348,
      "lon": 349,
      "deux": 350,
      "endre": 351,
      "lis": 352,
      "ssi": 353,
      "met": 354,
      "ric": 355,
      "ine": 356,
      "teurs": 357,
      "poli": 358,
      "mer": 359,
      "oÃ": 360,
      "and": 361,
      "amÃ": 362,
      "nouv": 363,
      "aprÃ": 364,
      "bÃ": 365,
      "pre": 366,
      "ver": 367,
      "so": 368,
      "tent": 369,
      "annÃ": 370,
      "comme": 371,
      "cette": 372,
      "op": 373,
      "cons": 374,
      "20": 375,
      "ten": 376,
      "©.": 377,
      "mil": 378,
      "bli": 379,
      "ments": 380,
      "gu": 381,
      "ren": 382,
      "chan": 383,
      "gran": 384,
      "rait": 385,
      "ta": 386,
      "aires": 387,
      "car": 388,
      "to": 389,
      "tri": 390,
      "ains": 391,
      "don": 392,
      "ps": 393,
      "aine": 394,
      "sem": 395,
      "pli": 396,
      "©,": 397,
      "rec": 398,
      "cours": 399,
      "ron": 400,
      "bu": 401,
      "cou": 402,
      "hÃ": 403,
      "tats": 404,
      "ob": 405,
      "indi": 406,
      "ffi": 407,
      "ma": 408,
      "rap": 409,
      "vent": 410,
      "elles": 411,
      "alement": 412,
      "og": 413,
      "fÃ": 414,
      "alis": 415,
      "sou": 416,
      "contre": 417,
      "jet": 418,
      "lors": 419,
      "premi": 420,
      "autres": 421,
      "chÃ": 422,
      "nom": 423,
      "lec": 424,
      "non": 425,
      "ªme": 426,
      "ages": 427,
      "uni": 428,
      "chi": 429,
      "oit": 430,
      "leurs": 431,
      "gouver": 432,
      "enne": 433,
      "ents": 434,
      "avant": 435,
      "Mais": 436,
      "opÃ": 437,
      "tant": 438,
      "rer": 439,
      "tique": 440,
      "trav": 441,
      "publi": 442,
      "ven": 443,
      "dit": 444,
      "eau": 445,
      "nu": 446,
      "fois": 447,
      "pend": 448,
      "ler": 449,
      "faire": 450,
      "tement": 451,
      "quel": 452,
      "mÃªme": 453,
      "cri": 454,
      "tem": 455,
      "acc": 456,
      "lui": 457,
      "jou": 458,
      "pla": 459,
      "depuis": 460,
      "ing": 461,
      "sident": 462,
      "ju": 463,
      "ig": 464,
      "enf": 465,
      "ist": 466,
      "sex": 467,
      "derni": 468,
      "gouvernement": 469,
      "Ch": 470,
      "uti": 471,
      "comm": 472,
      "201": 473,
      "jus": 474,
      "lo": 475,
      "ond": 476,
      "tra": 477,
      "ite": 478,
      "sse": 479,
      "€“": 480,
      "direc": 481,
      "personnes": 482,
      "crÃ": 483,
      "ction": 484,
      "hom": 485,
      "pel": 486,
      "sie": 487,
      "pri": 488,
      "minis": 489,
      "Je": 490,
      "comp": 491,
      "cr": 492,
      "lan": 493,
      "ul": 494,
      "anci": 495,
      "tout": 496,
      "jours": 497,
      "galement": 498,
      "ique": 499,
      "ail": 500,
      "pres": 501,
      "Fran": 502,
      "bles": 503,
      "rais": 504,
      "oire": 505,
      "aines": 506,
      "0Â": 507,
      "En": 508,
      "ions": 509,
      "selon": 510,
      "ges": 511,
      "Unis": 512,
      "cis": 513,
      "hu": 514,
      "jeu": 515,
      "ner": 516,
      "servi": 517,
      "soci": 518,
      "Ce": 519,
      "trÃ": 520,
      "trois": 521,
      "milli": 522,
      "nombre": 523,
      "utilis": 524,
      "st": 525,
      "resp": 526,
      "ber": 527,
      "nation": 528,
      "plu": 529,
      "vers": 530,
      "cher": 531,
      "ves": 532,
      "deman": 533,
      "lement": 534,
      "porte": 535,
      "cur": 536,
      "col": 537,
      "vre": 538,
      "tru": 539,
      "trans": 540,
      "pi": 541,
      "aussi": 542,
      "cert": 543,
      "bien": 544,
      "aur": 545,
      "cas": 546,
      "lar": 547,
      "titu": 548,
      "org": 549,
      "pass": 550,
      "appel": 551,
      "jeudi": 552,
      "san": 553,
      "ure": 554,
      "part": 555,
      "\".": 556,
      "sor": 557,
      "tan": 558,
      "expli": 559,
      "200": 560,
      "ga": 561,
      "main": 562,
      "mati": 563,
      "pouv": 564,
      "ral": 565,
      "alle": 566,
      "ats": 567,
      "pays": 568,
      "temps": 569,
      "dont": 570,
      "mor": 571,
      "lig": 572,
      "indiquÃ": 573,
      "pendant": 574,
      "hi": 575,
      "oy": 576,
      "vous": 577,
      "grand": 578,
      "Au": 579,
      "Nous": 580,
      "ca": 581,
      "sol": 582,
      "».": 583,
      "sig": 584,
      "produ": 585,
      "organ": 586,
      "ajou": 587,
      "mois": 588,
      "ris": 589,
      "voi": 590,
      "ret": 591,
      "alors": 592,
      "ture": 593,
      "SA": 594,
      "cor": 595,
      "In": 596,
      "cent": 597,
      "eff": 598,
      "rent": 599,
      "vol": 600,
      "vendre": 601,
      "intÃ": 602,
      "ill": 603,
      "ables": 604,
      "form": 605,
      "grou": 606,
      "Par": 607,
      "fu": 608,
      "ger": 609,
      "mbre": 610,
      "sous": 611,
      "rÃª": 612,
      "els": 613,
      "pare": 614,
      "coup": 615,
      "Ob": 616,
      "bon": 617,
      "fs": 618,
      "sans": 619,
      "arri": 620,
      "conn": 621,
      "appare": 622,
      "ban": 623,
      "dr": 624,
      "men": 625,
      "ru": 626,
      "sus": 627,
      "tel": 628,
      "nel": 629,
      "moins": 630,
      "police": 631,
      "sexu": 632,
      "respons": 633,
      "Com": 634,
      "Une": 635,
      "ton": 636,
      "iste": 637,
      "rie": 638,
      "agne": 639,
      "vie": 640,
      "monde": 641,
      "vendredi": 642,
      "Ne": 643,
      "th": 644,
      "aille": 645,
      "autre": 646,
      "citÃ": 647,
      "peut": 648,
      "place": 649,
      "can": 650,
      "fer": 651,
      "lin": 652,
      "aise": 653,
      "premiÃ": 654,
      "blÃ": 655,
      "os": 656,
      "tiques": 657,
      "char": 658,
      "confi": 659,
      "pos": 660,
      "toujours": 661,
      "mission": 662,
      "voy": 663,
      "ystÃ": 664,
      "19": 665,
      "iques": 666,
      "lais": 667,
      "pen": 668,
      "rou": 669,
      "taient": 670,
      "ennes": 671,
      "quÃª": 672,
      "proch": 673,
      "change": 674,
      "Pour": 675,
      "grÃ": 676,
      "mu": 677,
      "nant": 678,
      "off": 679,
      "ration": 680,
      "tous": 681,
      "lation": 682,
      "ass": 683,
      "concer": 684,
      "pourrait": 685,
      "projet": 686,
      "tuÃ": 687,
      "entrepris": 688,
      "enfants": 689,
      "Mar": 690,
      "cap": 691,
      "ifi": 692,
      "loi": 693,
      "mb": 694,
      "ot": 695,
      "systÃ": 696,
      "espÃ": 697,
      "enquÃª": 698,
      "annon": 699,
      "all": 700,
      "phon": 701,
      "autor": 702,
      "travail": 703,
      "organis": 704,
      "5Â": 705,
      "An": 706,
      "De": 707,
      "cre": 708,
      "ement": 709,
      "gue": 710,
      "nent": 711,
      "pec": 712,
      "ront": 713,
      "va": 714,
      "cep": 715,
      "siÃ": 716,
      "passag": 717,
      "cin": 718,
      "gen": 719,
      "gar": 720,
      "sance": 721,
      "anti": 722,
      "avons": 723,
      "avions": 724,
      "sui": 725,
      "chez": 726,
      "sieurs": 727,
      "ajoutÃ": 728,
      "Des": 729,
      "aff": 730,
      "gi": 731,
      "loc": 732,
      "ow": 733,
      "ple": 734,
      "vu": 735,
      "€™": 736,
      "lieu": 737,
      "ama": 738,
      "permet": 739,
      "europÃ": 740,
      "ffici": 741,
      "France": 742,
      "curitÃ": 743,
      "appareils": 744,
      "Et": 745,
      "bri": 746,
      "cli": 747,
      "oin": 748,
      "raient": 749,
      "ang": 750,
      "erre": 751,
      "tin": 752,
      "atre": 753,
      "mand": 754,
      "politique": 755,
      "donnÃ": 756,
      "sociÃ": 757,
      "2Â": 758,
      "Dans": 759,
      "Eur": 760,
      "fil": 761,
      "jÃ": 762,
      "rai": 763,
      "rest": 764,
      "voir": 765,
      "trouv": 766,
      "cho": 767,
      "sul": 768,
      "ricain": 769,
      "millions": 770,
      "passagers": 771,
      "cau": 772,
      "fon": 773,
      "fran": 774,
      "lent": 775,
      "mont": 776,
      "cela": 777,
      "avaient": 778,
      "eure": 779,
      "surve": 780,
      "vitÃ": 781,
      "blessÃ": 782,
      "On": 783,
      "bar": 784,
      "raÃ": 785,
      "tier": 786,
      "ilitÃ": 787,
      "liÃ": 788,
      "sions": 789,
      "prÃª": 790,
      "octo": 791,
      "peti": 792,
      "pay": 793,
      "Ils": 794,
      "alitÃ": 795,
      "nouvelle": 796,
      "premier": 797,
      "jusqu": 798,
      "hui": 799,
      "groupe": 800,
      "New": 801,
      "..": 802,
      "Go": 803,
      "Si": 804,
      "ay": 805,
      "bou": 806,
      "dre": 807,
      "gent": 808,
      "ident": 809,
      "dic": 810,
      "diff": 811,
      "dus": 812,
      "amment": 813,
      "posÃ": 814,
      "cul": 815,
      "journ": 816,
      "partie": 817,
      "public": 818,
      "dernier": 819,
      "directeur": 820,
      "surveill": 821,
      "octobre": 822,
      "ole": 823,
      "inform": 824,
      "import": 825,
      "jourd": 826,
      "mise": 827,
      "contrÃ": 828,
      "vision": 829,
      "empl": 830,
      "compag": 831,
      "services": 832,
      "plusieurs": 833,
      "surveillance": 834,
      "Qu": 835,
      "affi": 836,
      "bas": 837,
      "fa": 838,
      "ante": 839,
      "reprÃ": 840,
      "tive": 841,
      "inci": 842,
      "riÃ": 843,
      "atta": 844,
      "possi": 845,
      "sera": 846,
      "marchÃ": 847,
      "Obama": 848,
      "Euro": 849,
      "fes": 850,
      "hist": 851,
      "id": 852,
      "moi": 853,
      "reg": 854,
      "armÃ": 855,
      "tein": 856,
      "action": 857,
      "suis": 858,
      "ricains": 859,
      "semble": 860,
      "but": 861,
      "ministre": 862,
      "certains": 863,
      "franÃ": 864,
      "cation": 865,
      "clu": 866,
      "net": 867,
      "vel": 868,
      "eng": 869,
      "libÃ": 870,
      "conom": 871,
      "ath": 872,
      "semaine": 873,
      "raison": 874,
      "Europe": 875,
      "velop": 876,
      "Jo": 877,
      "ate": 878,
      "som": 879,
      "tend": 880,
      "quatre": 881,
      "ures": 882,
      "sement": 883,
      "tron": 884,
      "ainsi": 885,
      "suite": 886,
      "ock": 887,
      "chef": 888,
      "toute": 889,
      "grande": 890,
      "accus": 891,
      "communi": 892,
      "homme": 893,
      "musi": 894,
      "NSA": 895,
      "bes": 896,
      "beau": 897,
      "cen": 898,
      "do": 899,
      "fond": 900,
      "gens": 901,
      "hab": 902,
      "ici": 903,
      "sour": 904,
      "soi": 905,
      "val": 906,
      "vrai": 907,
      "air": 908,
      "amp": 909,
      "ancien": 910,
      "santÃ": 911,
      "mort": 912,
      "Th": 913,
      "hau": 914,
      "rence": 915,
      "sais": 916,
      "spÃ": 917,
      "soit": 918,
      "table": 919,
      "vou": 920,
      "enco": 921,
      "quent": 922,
      "quand": 923,
      "lations": 924,
      "seu": 925,
      "seig": 926,
      "liv": 927,
      "trali": 928,
      "problÃ": 929,
      "appar": 930,
      "ellement": 931,
      "porter": 932,
      "gram": 933,
      "devant": 934,
      "expliquÃ": 935,
      "encore": 936,
      "Al": 937,
      "Elle": 938,
      "ales": 939,
      "cad": 940,
      "fam": 941,
      "faÃ": 942,
      "heure": 943,
      "pon": 944,
      "sy": 945,
      "sence": 946,
      "tour": 947,
      "envi": 948,
      "tien": 949,
      "inÃ": 950,
      "sitÃ": 951,
      "prendre": 952,
      "contr": 953,
      "uses": 954,
      "actu": 955,
      "procÃ": 956,
      "viol": 957,
      "fiÃ": 958,
      "serait": 959,
      "nos": 960,
      "long": 961,
      "nouveau": 962,
      "alisÃ": 963,
      "connais": 964,
      "compagni": 965,
      "environ": 966,
      "23": 967,
      "Cette": 968,
      "Tr": 969,
      "az": 970,
      "bat": 971,
      "dou": 972,
      "gment": 973,
      "jam": 974,
      "mal": 975,
      "nage": 976,
      "oli": 977,
      "pit": 978,
      "ras": 979,
      "esp": 980,
      "quant": 981,
      "unes": 982,
      "prom": 983,
      "rir": 984,
      "comment": 985,
      "acti": 986,
      "program": 987,
      "posi": 988,
      "nique": 989,
      "olog": 990,
      "moy": 991,
      "not": 992,
      "peuvent": 993,
      "milit": 994,
      "pouvoir": 995,
      "enquÃªte": 996,
      "britan": 997,
      "informations": 998,
      "be": 999,
      "cl": 1000,
      "centre": 1001,
      "dro": 1002,
      "ez": 1003,
      "tte": 1004,
      "tac": 1005,
      "tab": 1006,
      "taire": 1007,
      "vil": 1008,
      "veu": 1009,
      "auc": 1010,
      "ork": 1011,
      "parole": 1012,
      "vient": 1013,
      "forme": 1014,
      "eures": 1015,
      "lectron": 1016,
      "derniÃ": 1017,
      "nationale": 1018,
      "demande": 1019,
      "truc": 1020,
      "diffÃ": 1021,
      "1Â": 1022,
      "FA": 1023,
      "den": 1024,
      "fem": 1025,
      "frais": 1026,
      "ire": 1027,
      "pes": 1028,
      "pens": 1029,
      "ry": 1030,
      "esti": 1031,
      "trait": 1032,
      "site": 1033,
      "priÃ": 1034,
      "allÃ": 1035,
      "cond": 1036,
      "condu": 1037,
      "its": 1038,
      "exam": 1039,
      "vembre": 1040,
      "ros": 1041,
      "novembre": 1042,
      "personne": 1043,
      "devrait": 1044,
      "mettre": 1045,
      "donc": 1046,
      "ligne": 1047,
      "beaucoup": 1048,
      "habit": 1049,
      "CA": 1050,
      "ba": 1051,
      "couver": 1052,
      "heures": 1053,
      "mouv": 1054,
      "rmÃ": 1055,
      "rale": 1056,
      "savoir": 1057,
      "spec": 1058,
      "ville": 1059,
      "we": 1060,
      "quer": 1061,
      "isÃ": 1062,
      "indÃ": 1063,
      "augment": 1064,
      "sep": 1065,
      "avion": 1066,
      "propriÃ": 1067,
      "passÃ": 1068,
      "tax": 1069,
      "enfant": 1070,
      "hommes": 1071,
      "crois": 1072,
      "bertÃ": 1073,
      "responsable": 1074,
      "concernant": 1075,
      "entreprises": 1076,
      "payer": 1077,
      "8Â": 1078,
      "AmÃ": 1079,
      "Su": 1080,
      "aque": 1081,
      "afin": 1082,
      "four": 1083,
      "ien": 1084,
      "land": 1085,
      "rem": 1086,
      "tinÃ": 1087,
      "tisse": 1088,
      "ise": 1089,
      "israÃ": 1090,
      "aujourd": 1091,
      "sec": 1092,
      "avoc": 1093,
      "die": 1094,
      "dition": 1095,
      "memb": 1096,
      "conf": 1097,
      "conti": 1098,
      "commer": 1099,
      "sup": 1100,
      "constitu": 1101,
      "rapport": 1102,
      "travaille": 1103,
      "service": 1104,
      "annoncÃ": 1105,
      "jamais": 1106,
      "notamment": 1107,
      "lectroniques": 1108,
      "membres": 1109,
      "Con": 1110,
      "Lond": 1111,
      "Tou": 1112,
      "ak": 1113,
      "gion": 1114,
      "ich": 1115,
      "nat": 1116,
      "sait": 1117,
      "thÃ": 1118,
      "vue": 1119,
      "ences": 1120,
      "rement": 1121,
      "reven": 1122,
      "levÃ": 1123,
      "tiÃ": 1124,
      "istes": 1125,
      "auprÃ": 1126,
      "trop": 1127,
      "chin": 1128,
      "sidÃ": 1129,
      "prati": 1130,
      "asse": 1131,
      "estre": 1132,
      "plan": 1133,
      "terr": 1134,
      "expl": 1135,
      "ports": 1136,
      "ogle": 1137,
      "sexe": 1138,
      "nombreux": 1139,
      "aurait": 1140,
      "changement": 1141,
      "credi": 1142,
      "Google": 1143,
      "cadre": 1144,
      "Londres": 1145,
      "6Â": 1146,
      "Aus": 1147,
      "Air": 1148,
      "Br": 1149,
      "Ber": 1150,
      "DC": 1151,
      "Etats": 1152,
      "Mor": 1153,
      "M23": 1154,
      "York": 1155,
      "bor": 1156,
      "bais": 1157,
      "cti": 1158,
      "ier": 1159,
      "sai": 1160,
      "souv": 1161,
      "soir": 1162,
      "isla": 1163,
      "tech": 1164,
      "illi": 1165,
      "tran": 1166,
      "dias": 1167,
      "aller": 1168,
      "considÃ": 1169,
      "agÃ": 1170,
      "agence": 1171,
      "plÃ": 1172,
      "comman": 1173,
      "portÃ": 1174,
      "000": 1175,
      "visant": 1176,
      "jeunes": 1177,
      "partici": 1178,
      "nouvelles": 1179,
      "lorsqu": 1180,
      "justi": 1181,
      "prix": 1182,
      "cision": 1183,
      "effec": 1184,
      "avocat": 1185,
      "10Â": 1186,
      "Ren": 1187,
      "by": 1188,
      "cations": 1189,
      "frÃ": 1190,
      "fais": 1191,
      "gh": 1192,
      "ies": 1193,
      "mat": 1194,
      "sal": 1195,
      "uÃ": 1196,
      "vant": 1197,
      "ende": 1198,
      "one": 1199,
      "argent": 1200,
      "quelle": 1201,
      "rieur": 1202,
      "attein": 1203,
      "agit": 1204,
      "cir": 1205,
      "quipe": 1206,
      "coÃ": 1207,
      "moment": 1208,
      "notre": 1209,
      "tenir": 1210,
      "FranÃ": 1211,
      "gaz": 1212,
      "hicu": 1213,
      "oyÃ": 1214,
      "corps": 1215,
      "droi": 1216,
      "clients": 1217,
      "possible": 1218,
      "seignement": 1219,
      "espion": 1220,
      "activitÃ": 1221,
      "10": 1222,
      "Bw": 1223,
      "Bar": 1224,
      "Mo": 1225,
      "ah": 1226,
      "ateur": 1227,
      "ck": 1228,
      "card": 1229,
      "dats": 1230,
      "jec": 1231,
      "nis": 1232,
      "pir": 1233,
      "test": 1234,
      "onnÃ": 1235,
      "las": 1236,
      "inf": 1237,
      "inqui": 1238,
      "arrÃª": 1239,
      "ets": 1240,
      "quement": 1241,
      "destinÃ": 1242,
      "diri": 1243,
      "conse": 1244,
      "ack": 1245,
      "pÃª": 1246,
      "maison": 1247,
      "toutes": 1248,
      "00Â": 1249,
      "deven": 1250,
      "ricaine": 1251,
      "mercredi": 1252,
      "renseignement": 1253,
      "accord": 1254,
      "utilisation": 1255,
      "large": 1256,
      "matin": 1257,
      "cinq": 1258,
      "cause": 1259,
      "identifi": 1260,
      "britannique": 1261,
      "mouvement": 1262,
      "continu": 1263,
      "Australi": 1264,
      "Bwelle": 1265,
      "Sy": 1266,
      "Sur": 1267,
      "Uni": 1268,
      "ach": 1269,
      "camp": 1270,
      "ds": 1271,
      "dol": 1272,
      "fai": 1273,
      "fus": 1274,
      "if": 1275,
      "ieu": 1276,
      "ke": 1277,
      "mment": 1278,
      "offici": 1279,
      "ana": 1280,
      "oritÃ": 1281,
      "trai": 1282,
      "trou": 1283,
      "trim": 1284,
      "trouver": 1285,
      "chir": 1286,
      "omÃ": 1287,
      "diffici": 1288,
      "assu": 1289,
      "parents": 1290,
      "rien": 1291,
      "popu": 1292,
      "cue": 1293,
      "mondi": 1294,
      "autom": 1295,
      "financi": 1296,
      "soins": 1297,
      "tribu": 1298,
      "chiens": 1299,
      "ministr": 1300,
      "pression": 1301,
      "Cela": 1302,
      "sorti": 1303,
      "retour": 1304,
      "Inter": 1305,
      "autoritÃ": 1306,
      "veloppe": 1307,
      "Joh": 1308,
      "vraiment": 1309,
      "seulement": 1310,
      "drogue": 1311,
      "spectac": 1312,
      "As": 1313,
      "AprÃ": 1314,
      "Alle": 1315,
      "Dr": 1316,
      "DÃ": 1317,
      "Roy": 1318,
      "Son": 1319,
      "Sel": 1320,
      "Sno": 1321,
      "dy": 1322,
      "dom": 1323,
      "doc": 1324,
      "eÂ": 1325,
      "ide": 1326,
      "pai": 1327,
      "pom": 1328,
      "sau": 1329,
      "sant": 1330,
      "tal": 1331,
      "wden": 1332,
      "enreg": 1333,
      "aide": 1334,
      "quoi": 1335,
      "tis": 1336,
      "inves": 1337,
      "aus": 1338,
      "lier": 1339,
      "chois": 1340,
      "pren": 1341,
      "princi": 1342,
      "rit": 1343,
      "connu": 1344,
      "oix": 1345,
      "attent": 1346,
      "pourraient": 1347,
      "fice": 1348,
      "mieux": 1349,
      "peine": 1350,
      "personnel": 1351,
      "prise": 1352,
      "tenant": 1353,
      "guerre": 1354,
      "aliste": 1355,
      "lorsque": 1356,
      "publiÃ": 1357,
      "quelques": 1358,
      "2011": 1359,
      "presse": 1360,
      "demandÃ": 1361,
      "volu": 1362,
      "responsables": 1363,
      "voyage": 1364,
      "organisation": 1365,
      "trouvÃ": 1366,
      "histoire": 1367,
      "voul": 1368,
      "famille": 1369,
      "programme": 1370,
      "chinois": 1371,
      "explo": 1372,
      "cardin": 1373,
      "dirige": 1374,
      "John": 1375,
      "Selon": 1376,
      "Snowden": 1377,
      "),": 1378,
      "77": 1379,
      "Dav": 1380,
      "Hal": 1381,
      "RDC": 1382,
      "are": 1383,
      "bour": 1384,
      "bag": 1385,
      "bord": 1386,
      "bilitÃ": 1387,
      "cal": 1388,
      "coc": 1389,
      "da": 1390,
      "font": 1391,
      "idÃ": 1392,
      "join": 1393,
      "mp": 1394,
      "nor": 1395,
      "nord": 1396,
      "tom": 1397,
      "vois": 1398,
      "reÃ": 1399,
      "laquelle": 1400,
      "armes": 1401,
      "seau": 1402,
      "seul": 1403,
      "livre": 1404,
      "prend": 1405,
      "ash": 1406,
      "riennes": 1407,
      "accÃ": 1408,
      "poin": 1409,
      "fier": 1410,
      "suc": 1411,
      "sud": 1412,
      "sujet": 1413,
      "clare": 1414,
      "vement": 1415,
      "grav": 1416,
      "ricaines": 1417,
      "politiques": 1418,
      "consom": 1419,
      "20Â": 1420,
      "juge": 1421,
      "commen": 1422,
      "national": 1423,
      "sormais": 1424,
      "alleman": 1425,
      "allemand": 1426,
      "Paris": 1427,
      "arrivÃ": 1428,
      "entreprise": 1429,
      "...": 1430,
      "employÃ": 1431,
      "sommes": 1432,
      "besoin": 1433,
      "The": 1434,
      "position": 1435,
      "condam": 1436,
      "espionnage": 1437,
      "docu": 1438,
      "9Â": 1439,
      "Dit": 1440,
      "Lors": 1441,
      "Mon": 1442,
      "Pa": 1443,
      "ateurs": 1444,
      "ctions": 1445,
      "fav": 1446,
      "feu": 1447,
      "gage": 1448,
      "gie": 1449,
      "lant": 1450,
      "oto": 1451,
      "rant": 1452,
      "rations": 1453,
      "ty": 1454,
      "dec": 1455,
      "recher": 1456,
      "tif": 1457,
      "tifs": 1458,
      "indus": 1459,
      "ili": 1460,
      "celle": 1461,
      "tro": 1462,
      "trie": 1463,
      "agis": 1464,
      "amo": 1465,
      "amas": 1466,
      "vidÃ": 1467,
      "termin": 1468,
      "seront": 1469,
      "maniÃ": 1470,
      "occu": 1471,
      "fort": 1472,
      "cosse": 1473,
      "senti": 1474,
      "illet": 1475,
      "ards": 1476,
      "crimin": 1477,
      "tembre": 1478,
      "privÃ": 1479,
      "piers": 1480,
      "garÃ": 1481,
      "soldats": 1482,
      "droit": 1483,
      "menÃ": 1484,
      "Commission": 1485,
      "chargÃ": 1486,
      "annonce": 1487,
      "phones": 1488,
      "accusÃ": 1489,
      "compagnies": 1490,
      "FAA": 1491,
      "croissance": 1492,
      "terror": 1493,
      "Brux": 1494,
      "baisse": 1495,
      "inquiÃ": 1496,
      "dollar": 1497,
      "veloppement": 1498,
      "pompiers": 1499,
      "15": 1500,
      "3Â": 1501,
      "4Â": 1502,
      "Bo": 1503,
      "Mme": 1504,
      "Nor": 1505,
      "Nation": 1506,
      "Pro": 1507,
      "RÃ": 1508,
      "Sain": 1509,
      "bo": 1510,
      "cet": 1511,
      "eaux": 1512,
      "gy": 1513,
      "ly": 1514,
      "log": 1515,
      "mag": 1516,
      "magne": 1517,
      "rom": 1518,
      "rendre": 1519,
      "zone": 1520,
      "ani": 1521,
      "anal": 1522,
      "quar": 1523,
      "ente": 1524,
      "lesquel": 1525,
      "orig": 1526,
      "seur": 1527,
      "ceux": 1528,
      "lit": 1529,
      "ches": 1530,
      "chaÃ": 1531,
      "chaque": 1532,
      "situÃ": 1533,
      "rier": 1534,
      "ritÃ": 1535,
      "rique": 1536,
      "attend": 1537,
      "cident": 1538,
      "quit": 1539,
      "plom": 1540,
      "appro": 1541,
      "cess": 1542,
      "questions": 1543,
      "veau": 1544,
      "senter": 1545,
      "grap": 1546,
      "photo": 1547,
      "gula": 1548,
      "mala": 1549,
      "chimi": 1550,
      "2012": 1551,
      "lowe": 1552,
      "troisiÃ": 1553,
      "risque": 1554,
      "proches": 1555,
      "affaire": 1556,
      "filles": 1557,
      "petit": 1558,
      "important": 1559,
      "dossi": 1560,
      "septembre": 1561,
      "commerci": 1562,
      "souvent": 1563,
      "Renamo": 1564,
      "Syrie": 1565,
      "trimestre": 1566,
      "mondiale": 1567,
      "Allemagne": 1568,
      "cardinaux": 1569,
      "Hallowe": 1570,
      "cocaÃ": 1571,
      "condamnÃ": 1572,
      "Ditta": 1573,
      "Halloween": 1574,
      "Ar": 1575,
      "Bro": 1576,
      "Ex": 1577,
      "Fron": 1578,
      "Mali": 1579,
      "UE": 1580,
      "bus": 1581,
      "cro": 1582,
      "cents": 1583,
      "doi": 1584,
      "doit": 1585,
      "eurs": 1586,
      "fron": 1587,
      "go": 1588,
      "gros": 1589,
      "mas": 1590,
      "rend": 1591,
      "scÃ": 1592,
      "tur": 1593,
      "let": 1594,
      "entÃ": 1595,
      "ines": 1596,
      "telle": 1597,
      "illÃ": 1598,
      "seurs": 1599,
      "train": 1600,
      "parce": 1601,
      "parfois": 1602,
      "ambi": 1603,
      "putÃ": 1604,
      "tude": 1605,
      "atis": 1606,
      "administr": 1607,
      "say": 1608,
      "sentÃ": 1609,
      "votre": 1610,
      "nouveaux": 1611,
      "rendu": 1612,
      "changer": 1613,
      "alistes": 1614,
      "univer": 1615,
      "ington": 1616,
      "ulti": 1617,
      "sociation": 1618,
      "plupart": 1619,
      "collec": 1620,
      "explique": 1621,
      "matiÃ": 1622,
      "bonne": 1623,
      "fonction": 1624,
      "face": 1625,
      "sources": 1626,
      "soient": 1627,
      "connaissance": 1628,
      "femme": 1629,
      "Morsi": 1630,
      "Australie": 1631,
      "campagne": 1632,
      "chirur": 1633,
      "Frontier": 1634,
      "Ban": 1635,
      "CS": 1636,
      "Co": 1637,
      "GÃ": 1638,
      "HÃ": 1639,
      "Md": 1640,
      "Nouv": 1641,
      "Re": 1642,
      "Sh": 1643,
      "Wash": 1644,
      "YM": 1645,
      "belles": 1646,
      "fen": 1647,
      "fou": 1648,
      "fac": 1649,
      "faut": 1650,
      "ition": 1651,
      "lois": 1652,
      "maÃ": 1653,
      "noir": 1654,
      "ore": 1655,
      "pal": 1656,
      "sen": 1657,
      "sage": 1658,
      "tard": 1659,
      "vin": 1660,
      "vac": 1661,
      "enir": 1662,
      "ensemble": 1663,
      "rece": 1664,
      "lex": 1665,
      "erry": 1666,
      "iser": 1667,
      "ari": 1668,
      "eter": 1669,
      "aume": 1670,
      "ori": 1671,
      "queue": 1672,
      "secrÃ": 1673,
      "situ": 1674,
      "neu": 1675,
      "oie": 1676,
      "ager": 1677,
      "comb": 1678,
      "protÃ": 1679,
      "profes": 1680,
      "vier": 1681,
      "ape": 1682,
      "abilitÃ": 1683,
      "pubertÃ": 1684,
      "niques": 1685,
      "tudi": 1686,
      "exper": 1687,
      "question": 1688,
      "ocr": 1689,
      "pati": 1690,
      "000Â": 1691,
      "biomÃ": 1692,
      "phy": 1693,
      "particu": 1694,
      "empÃª": 1695,
      "prison": 1696,
      "devraient": 1697,
      "deuxiÃ": 1698,
      "tenu": 1699,
      "gues": 1700,
      "objec": 1701,
      "inga": 1702,
      "derniers": 1703,
      "2013": 1704,
      "ministÃ": 1705,
      "compte": 1706,
      "lande": 1707,
      "nombreuses": 1708,
      "utiliser": 1709,
      "2008": 1710,
      "grands": 1711,
      "voiture": 1712,
      "sexuels": 1713,
      "genre": 1714,
      "suivre": 1715,
      "rester": 1716,
      "choses": 1717,
      "affirmÃ": 1718,
      "communiquÃ": 1719,
      "hausse": 1720,
      "veulent": 1721,
      "aucune": 1722,
      "financiÃ": 1723,
      "dirigeants": 1724,
      "bagages": 1725,
      "succÃ": 1726,
      "allemande": 1727,
      "Bruxelles": 1728,
      "National": 1729,
      "Washington": 1730,
      "17": 1731,
      "Bour": 1732,
      "Car": 1733,
      "Cog": 1734,
      "Gran": 1735,
      "Is": 1736,
      "Li": 1737,
      "Mich": 1738,
      "Ou": 1739,
      "Pi": 1740,
      "St": 1741,
      "Tim": 1742,
      "aoÃ": 1743,
      "br": 1744,
      "dâ": 1745,
      "gla": 1746,
      "gles": 1747,
      "gau": 1748,
      "hy": 1749,
      "ki": 1750,
      "mation": 1751,
      "pou": 1752,
      "sci": 1753,
      "sens": 1754,
      "essay": 1755,
      "encontre": 1756,
      "ony": 1757,
      "annu": 1758,
      "recours": 1759,
      "oun": 1760,
      "tives": 1761,
      "tefois": 1762,
      "tection": 1763,
      "illes": 1764,
      "sein": 1765,
      "cembre": 1766,
      "liens": 1767,
      "chent": 1768,
      "chau": 1769,
      "ombar": 1770,
      "dies": 1771,
      "dire": 1772,
      "rienne": 1773,
      "confÃ": 1774,
      "conclu": 1775,
      "aison": 1776,
      "combat": 1777,
      "accep": 1778,
      "accident": 1779,
      "passer": 1780,
      "poser": 1781,
      "eco": 1782,
      "ites": 1783,
      "perdu": 1784,
      "existe": 1785,
      "serve": 1786,
      "midi": 1787,
      "manie": 1788,
      "forces": 1789,
      "pales": 1790,
      "courant": 1791,
      "sente": 1792,
      "partir": 1793,
      "liste": 1794,
      "tendu": 1795,
      "trice": 1796,
      "rapide": 1797,
      "publique": 1798,
      "venir": 1799,
      "quelque": 1800,
      "Char": 1801,
      "commun": 1802,
      "trafi": 1803,
      "trader": 1804,
      "direction": 1805,
      "utilisÃ": 1806,
      "stock": 1807,
      "appelÃ": 1808,
      "tandis": 1809,
      "sign": 1810,
      "produits": 1811,
      "rÃªt": 1812,
      "charge": 1813,
      "199": 1814,
      "pense": 1815,
      "capa": 1816,
      "phone": 1817,
      "chose": 1818,
      "identitÃ": 1819,
      "journal": 1820,
      "attaque": 1821,
      "conomique": 1822,
      "atholi": 1823,
      "communications": 1824,
      "Trans": 1825,
      "pital": 1826,
      "moyen": 1827,
      "militaires": 1828,
      "secteur": 1829,
      "Toutefois": 1830,
      "Airbus": 1831,
      "hicules": 1832,
      "continuer": 1833,
      "difficile": 1834,
      "Internet": 1835,
      "Royaume": 1836,
      "gyp": 1837,
      "chimiques": 1838,
      "YMCA": 1839,
      "Cogeco": 1840,
      "gauche": 1841,
      "11": 1842,
      "15Â": 1843,
      "25": 1844,
      "30": 1845,
      "45": 1846,
      "Cr": 1847,
      "Ces": 1848,
      "Cour": 1849,
      "Gaz": 1850,
      "Me": 1851,
      "Mont": 1852,
      "Nord": 1853,
      "Or": 1854,
      "bable": 1855,
      "ct": 1856,
      "cus": 1857,
      "clÃ": 1858,
      "haut": 1859,
      "jan": 1860,
      "maire": 1861,
      "multi": 1862,
      "nait": 1863,
      "of": 1864,
      "ode": 1865,
      "pan": 1866,
      "pie": 1867,
      "scol": 1868,
      "tun": 1869,
      "use": 1870,
      "encour": 1871,
      "ong": 1872,
      "anÂ": 1873,
      "anim": 1874,
      "rela": 1875,
      "ert": 1876,
      "entifi": 1877,
      "incen": 1878,
      "aul": 1879,
      "audi": 1880,
      "tÃª": 1881,
      "secours": 1882,
      "celui": 1883,
      "trang": 1884,
      "simp": 1885,
      "avais": 1886,
      "pron": 1887,
      "prim": 1888,
      "ney": 1889,
      "neur": 1890,
      "parmi": 1891,
      "parler": 1892,
      "meille": 1893,
      "consÃ": 1894,
      "consul": 1895,
      "atu": 1896,
      "euse": 1897,
      "ami": 1898,
      "comÃ": 1899,
      "commission": 1900,
      "accue": 1901,
      "protection": 1902,
      "probable": 1903,
      "vice": 1904,
      "poque": 1905,
      "pose": 1906,
      "terme": 1907,
      "territ": 1908,
      "fici": 1909,
      "ity": 1910,
      "super": 1911,
      "nifi": 1912,
      "expÃ": 1913,
      "claration": 1914,
      "veille": 1915,
      "formÃ": 1916,
      "brev": 1917,
      "mesure": 1918,
      "coles": 1919,
      "inst": 1920,
      "roport": 1921,
      "atie": 1922,
      "ative": 1923,
      "ordre": 1924,
      "prises": 1925,
      "tention": 1926,
      "construc": 1927,
      "rencontre": 1928,
      "obil": 1929,
      "objet": 1930,
      "soutien": 1931,
      "nuit": 1932,
      "istan": 1933,
      "lancÃ": 1934,
      "milliards": 1935,
      "plutÃ": 1936,
      "truction": 1937,
      "aura": 1938,
      "solu": 1939,
      "ailleurs": 1940,
      "offre": 1941,
      "capit": 1942,
      "ception": 1943,
      "permettre": 1944,
      "film": 1945,
      "NewÂ": 1946,
      "moig": 1947,
      "musique": 1948,
      "aucun": 1949,
      "estime": 1950,
      "justice": 1951,
      "investisse": 1952,
      "consomma": 1953,
      "dollars": 1954,
      "frontiÃ": 1955,
      "ombardi": 1956,
      "capacitÃ": 1957,
      "tunnel": 1958,
      "33": 1959,
      "Can": 1960,
      "Etat": 1961,
      "Pal": 1962,
      "Rob": 1963,
      "Se": 1964,
      "Sans": 1965,
      "Singa": 1966,
      "Tri": 1967,
      "adu": 1968,
      "bil": 1969,
      "bec": 1970,
      "blan": 1971,
      "couv": 1972,
      "dan": 1973,
      "eing": 1974,
      "fr": 1975,
      "fille": 1976,
      "gence": 1977,
      "glement": 1978,
      "ha": 1979,
      "lun": 1980,
      "lance": 1981,
      "ok": 1982,
      "rage": 1983,
      "sÂ": 1984,
      "tor": 1985,
      "tais": 1986,
      "taires": 1987,
      "ances": 1988,
      "rebelles": 1989,
      "erci": 1990,
      "isme": 1991,
      "urgen": 1992,
      "tements": 1993,
      "dessus": 1994,
      "cemment": 1995,
      "trent": 1996,
      "chu": 1997,
      "nelle": 1998,
      "partement": 1999,
      "atoire": 2000,
      "civi": 2001,
      "amen": 2002,
      "plai": 2003,
      "profi": 2004,
      "reste": 2005,
      "vio": 2006,
      "tudes": 2007,
      "rangÃ": 2008,
      "force": 2009,
      "atifs": 2010,
      "ada": 2011,
      "adop": 2012,
      "sentant": 2013,
      "disent": 2014,
      "gratu": 2015,
      "visage": 2016,
      "mari": 2017,
      "toy": 2018,
      "semb": 2019,
      "obtenir": 2020,
      "indique": 2021,
      "vention": 2022,
      "soulig": 2023,
      "crit": 2024,
      "anciens": 2025,
      "cisÃ": 2026,
      "colla": 2027,
      "titude": 2028,
      "centaines": 2029,
      "tels": 2030,
      "fermet": 2031,
      "Martin": 2032,
      "otages": 2033,
      "Depuis": 2034,
      "mandat": 2035,
      "sultat": 2036,
      "sultats": 2037,
      "ayant": 2038,
      "faci": 2039,
      "livres": 2040,
      "heureux": 2041,
      "compagnie": 2042,
      "tablis": 2043,
      "veut": 2044,
      "augmentÃ": 2045,
      "fournis": 2046,
      "nature": 2047,
      "commandes": 2048,
      "conseil": 2049,
      "volution": 2050,
      "David": 2051,
      "commencÃ": 2052,
      "Boeing": 2053,
      "origine": 2054,
      "graph": 2055,
      "doivent": 2056,
      "universitÃ": 2057,
      "Nouvelle": 2058,
      "MontrÃ": 2059,
      "scolaire": 2060,
      "brevets": 2061,
      "Singapour": 2062,
      "adul": 2063,
      "urgences": 2064,
      ").": 2065,
      "18Â": 2066,
      "50": 2067,
      "BS": 2068,
      "Bun": 2069,
      "Bow": 2070,
      "Bien": 2071,
      "Bombardi": 2072,
      "Du": 2073,
      "Glas": 2074,
      "Lou": 2075,
      "Pu": 2076,
      "Ru": 2077,
      "Rus": 2078,
      "asi": 2079,
      "adi": 2080,
      "blo": 2081,
      "catholi": 2082,
      "dur": 2083,
      "date": 2084,
      "gur": 2085,
      "lles": 2086,
      "lait": 2087,
      "mour": 2088,
      "muni": 2089,
      "mocr": 2090,
      "oti": 2091,
      "pil": 2092,
      "pous": 2093,
      "rme": 2094,
      "salle": 2095,
      "tÂ": 2096,
      "taux": 2097,
      "vÃª": 2098,
      "voit": 2099,
      "oncÃ": 2100,
      "reau": 2101,
      "aider": 2102,
      "quis": 2103,
      "enton": 2104,
      "tic": 2105,
      "tine": 2106,
      "iner": 2107,
      "unitÃ": 2108,
      "arma": 2109,
      "ettes": 2110,
      "limi": 2111,
      "mentaire": 2112,
      "chant": 2113,
      "six": 2114,
      "dix": 2115,
      "diplom": 2116,
      "assur": 2117,
      "concur": 2118,
      "oires": 2119,
      "ates": 2120,
      "ague": 2121,
      "citoy": 2122,
      "amer": 2123,
      "plain": 2124,
      "act": 2125,
      "actions": 2126,
      "proces": 2127,
      "victi": 2128,
      "appli": 2129,
      "sub": 2130,
      "suff": 2131,
      "nie": 2132,
      "niveau": 2133,
      "miles": 2134,
      "tesse": 2135,
      "immÃ": 2136,
      "impli": 2137,
      "formes": 2138,
      "cole": 2139,
      "derriÃ": 2140,
      "admis": 2141,
      "visÃ": 2142,
      "pharma": 2143,
      "fini": 2144,
      "interro": 2145,
      "nouvel": 2146,
      "carriÃ": 2147,
      "trib": 2148,
      "donner": 2149,
      "semaines": 2150,
      "ronau": 2151,
      "maj": 2152,
      "souff": 2153,
      "chien": 2154,
      "chiff": 2155,
      "sidenti": 2156,
      "juillet": 2157,
      "presque": 2158,
      "star": 2159,
      "respec": 2160,
      "certaines": 2161,
      "maintenant": 2162,
      "Aujourd": 2163,
      "production": 2164,
      "connaÃ": 2165,
      "candi": 2166,
      "confirmÃ": 2167,
      "allait": 2168,
      "garder": 2169,
      "garanti": 2170,
      "prÃªt": 2171,
      "journalistes": 2172,
      "basÃ": 2173,
      "tivement": 2174,
      "incident": 2175,
      "possibilitÃ": 2176,
      "longtemps": 2177,
      "femmes": 2178,
      "conduc": 2179,
      "taxes": 2180,
      "Sud": 2181,
      "supplÃ": 2182,
      "travailler": 2183,
      "circu": 2184,
      "faible": 2185,
      "automobil": 2186,
      "enregis": 2187,
      "administration": 2188,
      "chirurgi": 2189,
      "vince": 2190,
      "situation": 2191,
      "Grande": 2192,
      "janvier": 2193,
      "trangers": 2194,
      "simplement": 2195,
      "territoire": 2196,
      "fermeture": 2197,
      "Bombardier": 2198,
      "processus": 2199,
      "pharmaci": 2200,
      "14": 2201,
      "Ab": 2202,
      "Alex": 2203,
      "Bret": 2204,
      "Cert": 2205,
      "Deux": 2206,
      "Fin": 2207,
      "Gu": 2208,
      "Hu": 2209,
      "Hamas": 2210,
      "Lord": 2211,
      "Mer": 2212,
      "RS": 2213,
      "Sa": 2214,
      "Tur": 2215,
      "ace": 2216,
      "cab": 2217,
      "dra": 2218,
      "eid": 2219,
      "fol": 2220,
      "fils": 2221,
      "frap": 2222,
      "front": 2223,
      "km": 2224,
      "ls": 2225,
      "lus": 2226,
      "mai": 2227,
      "nais": 2228,
      "rue": 2229,
      "sh": 2230,
      "sil": 2231,
      "tation": 2232,
      "tendre": 2233,
      "uvre": 2234,
      "vont": 2235,
      "vas": 2236,
      "vacc": 2237,
      "essai": 2238,
      "envoy": 2239,
      "dem": 2240,
      "ane": 2241,
      "reti": 2242,
      "relation": 2243,
      "refus": 2244,
      "reconnu": 2245,
      "reconnaissance": 2246,
      "quali": 2247,
      "tini": 2248,
      "tiquÃ": 2249,
      "auv": 2250,
      "auteur": 2251,
      "lie": 2252,
      "libertÃ": 2253,
      "chat": 2254,
      "chance": 2255,
      "sir": 2256,
      "sites": 2257,
      "dia": 2258,
      "diz": 2259,
      "alliÃ": 2260,
      "meu": 2261,
      "meur": 2262,
      "conser": 2263,
      "usine": 2264,
      "agres": 2265,
      "cidÃ": 2266,
      "cider": 2267,
      "province": 2268,
      "passe": 2269,
      "posent": 2270,
      "tuer": 2271,
      "exem": 2272,
      "exerci": 2273,
      "manif": 2274,
      "occa": 2275,
      "forte": 2276,
      "chefs": 2277,
      "cos": 2278,
      "cot": 2279,
      "lutte": 2280,
      "atif": 2281,
      "monie": 2282,
      "dispon": 2283,
      "iller": 2284,
      "ordin": 2285,
      "portables": 2286,
      "radi": 2287,
      "intersexu": 2288,
      "verse": 2289,
      "vertu": 2290,
      "milieu": 2291,
      "rences": 2292,
      "changes": 2293,
      "grandes": 2294,
      "donne": 2295,
      "bureau": 2296,
      "rappel": 2297,
      "ventu": 2298,
      "lection": 2299,
      "lections": 2300,
      "venu": 2301,
      "pendance": 2302,
      "loin": 2303,
      "loge": 2304,
      "directement": 2305,
      "cales": 2306,
      "voie": 2307,
      "effor": 2308,
      "rentes": 2309,
      "formation": 2310,
      "groupes": 2311,
      "arrive": 2312,
      "mener": 2313,
      "sexuelle": 2314,
      "lines": 2315,
      "laissÃ": 2316,
      "prochaine": 2317,
      "changements": 2318,
      "offrir": 2319,
      "projets": 2320,
      "affaires": 2321,
      "pleine": 2322,
      "causÃ": 2323,
      "News": 2324,
      "QuÃ": 2325,
      "malgrÃ": 2326,
      "base": 2327,
      "couvert": 2328,
      "taxe": 2329,
      "constitution": 2330,
      "planifi": 2331,
      "Berlin": 2332,
      "effectuÃ": 2333,
      "atteindre": 2334,
      "droite": 2335,
      "droits": 2336,
      "Barack": 2337,
      "tests": 2338,
      "devenu": 2339,
      "identifiÃ": 2340,
      "population": 2341,
      "paix": 2342,
      "point": 2343,
      "terminÃ": 2344,
      "occup": 2345,
      "dossier": 2346,
      "particulier": 2347,
      "chauff": 2348,
      "incendie": 2349,
      "civile": 2350,
      "Ruby": 2351,
      "Russie": 2352,
      "ronautique": 2353,
      "majoritÃ": 2354,
      "Bretagne": 2355,
      "manifest": 2356,
      "disponi": 2357,
      "16": 2358,
      "100Â": 2359,
      "25Â": 2360,
      "36": 2361,
      "Af": 2362,
      "BC": 2363,
      "CG": 2364,
      "Cor": 2365,
      "Dis": 2366,
      "Ford": 2367,
      "GM": 2368,
      "Grou": 2369,
      "Kerry": 2370,
      "PÃ": 2371,
      "Scot": 2372,
      "Tous": 2373,
      "Vous": 2374,
      "bel": 2375,
      "bres": 2376,
      "bons": 2377,
      "boÃ": 2378,
      "bru": 2379,
      "dant": 2380,
      "ear": 2381,
      "effi": 2382,
      "fun": 2383,
      "gle": 2384,
      "gres": 2385,
      "ko": 2386,
      "lâ": 2387,
      "lende": 2388,
      "mains": 2389,
      "nolog": 2390,
      "ody": 2391,
      "ption": 2392,
      "pelle": 2393,
      "page": 2394,
      "pond": 2395,
      "rus": 2396,
      "rard": 2397,
      "sac": 2398,
      "tants": 2399,
      "um": 2400,
      "vain": 2401,
      "voc": 2402,
      "veux": 2403,
      "wit": 2404,
      "way": 2405,
      "yn": 2406,
      "essenti": 2407,
      "ennent": 2408,
      "ensuite": 2409,
      "demi": 2410,
      "remi": 2411,
      "relations": 2412,
      "lever": 2413,
      "quoti": 2414,
      "enten": 2415,
      "titre": 2416,
      "istÃ": 2417,
      "unal": 2418,
      "art": 2419,
      "tec": 2420,
      "tex": 2421,
      "orique": 2422,
      "ilÃ": 2423,
      "secre": 2424,
      "lien": 2425,
      "libre": 2426,
      "liatifs": 2427,
      "mentaires": 2428,
      "choix": 2429,
      "avan": 2430,
      "aver": 2431,
      "aval": 2432,
      "diction": 2433,
      "duit": 2434,
      "association": 2435,
      "ritable": 2436,
      "riode": 2437,
      "med": 2438,
      "membre": 2439,
      "atter": 2440,
      "attendu": 2441,
      "agana": 2442,
      "cien": 2443,
      "citrou": 2444,
      "pourra": 2445,
      "complÃ": 2446,
      "aces": 2447,
      "propre": 2448,
      "propres": 2449,
      "propos": 2450,
      "restri": 2451,
      "viter": 2452,
      "vitesse": 2453,
      "appu": 2454,
      "podi": 2455,
      "terre": 2456,
      "itz": 2457,
      "abord": 2458,
      "suit": 2459,
      "niÃ": 2460,
      "nitÃ": 2461,
      "nico": 2462,
      "mique": 2463,
      "classe": 2464,
      "images": 2465,
      "imposÃ": 2466,
      "former": 2467,
      "cuis": 2468,
      "mesures": 2469,
      "instant": 2470,
      "atique": 2471,
      "missi": 2472,
      "jeune": 2473,
      "autour": 2474,
      "autant": 2475,
      "euro": 2476,
      "interne": 2477,
      "international": 2478,
      "anda": 2479,
      "tentÃ": 2480,
      "changÃ": 2481,
      "chanteur": 2482,
      "rapports": 2483,
      "jetÃ": 2484,
      "premiers": 2485,
      "avantage": 2486,
      "travers": 2487,
      "quelqu": 2488,
      "accro": 2489,
      "istrÃ": 2490,
      "2014": 2491,
      "juste": 2492,
      "primÃ": 2493,
      "press": 2494,
      "raisons": 2495,
      "Entre": 2496,
      "auraient": 2497,
      "hire": 2498,
      "signes": 2499,
      "signifi": 2500,
      "produit": 2501,
      "voix": 2502,
      "Obeid": 2503,
      "suspen": 2504,
      "possÃ": 2505,
      "Pourquoi": 2506,
      "suivi": 2507,
      "gime": 2508,
      "montrÃ": 2509,
      "Goody": 2510,
      "culture": 2511,
      "attaques": 2512,
      "violence": 2513,
      "violences": 2514,
      "moyens": 2515,
      "tabli": 2516,
      "pensent": 2517,
      "couverte": 2518,
      "fourni": 2519,
      "conflit": 2520,
      "pratiques": 2521,
      "arrÃªtÃ": 2522,
      "australi": 2523,
      "explosion": 2524,
      "bourg": 2525,
      "faveur": 2526,
      "decins": 2527,
      "industrie": 2528,
      "analys": 2529,
      "lesquels": 2530,
      "quitter": 2531,
      "cessaire": 2532,
      "commercial": 2533,
      "Maliki": 2534,
      "palliatifs": 2535,
      "combats": 2536,
      "objectifs": 2537,
      "IsraÃ": 2538,
      "Pierre": 2539,
      "scientifi": 2540,
      "trafic": 2541,
      "gypte": 2542,
      "tÃªte": 2543,
      "Tripodi": 2544,
      "Bunagana": 2545,
      "pilo": 2546,
      "citoyens": 2547,
      "exemple": 2548,
      "exercice": 2549,
      "occasion": 2550,
      "intersexuÃ": 2551,
      "quotidi": 2552,
      "secrets": 2553,
      "restrictions": 2554,
      "nicotine": 2555,
      "Goodyear": 2556,
      "$,": 2557,
      "12": 2558,
      "18": 2559,
      "40": 2560,
      "60Â": 2561,
      "70": 2562,
      "7Â": 2563,
      "AC": 2564,
      "AF": 2565,
      "Av": 2566,
      "Bri": 2567,
      "Cou": 2568,
      "Centre": 2569,
      "Ed": 2570,
      "Fenton": 2571,
      "HS": 2572,
      "Ira": 2573,
      "Ma": 2574,
      "Ni": 2575,
      "Nis": 2576,
      "Nour": 2577,
      "ON": 2578,
      "Pas": 2579,
      "Peu": 2580,
      "Stre": 2581,
      "Sec": 2582,
      "Scar": 2583,
      "Tit": 2584,
      "Val": 2585,
      "Wi": 2586,
      "West": 2587,
      "cs": 2588,
      "cy": 2589,
      "cale": 2590,
      "clin": 2591,
      "dat": 2592,
      "dres": 2593,
      "fo": 2594,
      "fla": 2595,
      "fau": 2596,
      "fab": 2597,
      "gag": 2598,
      "gisla": 2599,
      "iti": 2600,
      "jur": 2601,
      "ket": 2602,
      "kil": 2603,
      "nages": 2604,
      "oÂ": 2605,
      "oles": 2606,
      "obli": 2607,
      "pons": 2608,
      "piÃ": 2609,
      "pape": 2610,
      "sages": 2611,
      "satis": 2612,
      "vait": 2613,
      "vale": 2614,
      "vrier": 2615,
      "wn": 2616,
      "essence": 2617,
      "eny": 2618,
      "devis": 2619,
      "reux": 2620,
      "retrai": 2621,
      "retrouver": 2622,
      "entrÃ": 2623,
      "ental": 2624,
      "entiÃ": 2625,
      "lade": 2626,
      "tir": 2627,
      "isi": 2628,
      "invitÃ": 2629,
      "intention": 2630,
      "indem": 2631,
      "autÃ": 2632,
      "sements": 2633,
      "second": 2634,
      "lieux": 2635,
      "lienne": 2636,
      "avance": 2637,
      "dimin": 2638,
      "division": 2639,
      "rience": 2640,
      "contin": 2641,
      "usÃ": 2642,
      "ciÃ": 2643,
      "compÃ": 2644,
      "acte": 2645,
      "actÃ": 2646,
      "restÃ": 2647,
      "resse": 2648,
      "viend": 2649,
      "viennent": 2650,
      "appris": 2651,
      "sons": 2652,
      "potent": 2653,
      "endant": 2654,
      "perman": 2655,
      "perfor": 2656,
      "exprim": 2657,
      "seraient": 2658,
      "immeu": 2659,
      "forcÃ": 2660,
      "peur": 2661,
      "ira": 2662,
      "coopÃ": 2663,
      "modÃ": 2664,
      "modi": 2665,
      "disant": 2666,
      "disait": 2667,
      "discours": 2668,
      "distribu": 2669,
      "visi": 2670,
      "puisque": 2671,
      "bientÃ": 2672,
      "phÃ": 2673,
      "finance": 2674,
      "voquÃ": 2675,
      "voilÃ": 2676,
      "marque": 2677,
      "devront": 2678,
      "mettent": 2679,
      "ineÂ": 2680,
      "guÃ": 2681,
      "tot": 2682,
      "total": 2683,
      "semblÃ": 2684,
      "coute": 2685,
      "obser": 2686,
      "ventes": 2687,
      "alisation": 2688,
      "lecteurs": 2689,
      "lectri": 2690,
      "plate": 2691,
      "juin": 2692,
      "Chine": 2693,
      "tradition": 2694,
      "privil": 2695,
      "langue": 2696,
      "ails": 2697,
      "cise": 2698,
      "Cependant": 2699,
      "milliers": 2700,
      "demander": 2701,
      "pick": 2702,
      "pouvons": 2703,
      "pouvaient": 2704,
      "hier": 2705,
      "organes": 2706,
      "SAS": 2707,
      "Parti": 2708,
      "rÃªts": 2709,
      "connue": 2710,
      "banque": 2711,
      "banlieu": 2712,
      "ruption": 2713,
      "fermÃ": 2714,
      "poste": 2715,
      "voyages": 2716,
      "suiv": 2717,
      "gies": 2718,
      "anglais": 2719,
      "restent": 2720,
      "montre": 2721,
      "petite": 2722,
      "dical": 2723,
      "dicale": 2724,
      "emploi": 2725,
      "fesseur": 2726,
      "velopper": 2727,
      "tendance": 2728,
      "seule": 2729,
      "syn": 2730,
      "clair": 2731,
      "villa": 2732,
      "tructure": 2733,
      "FARDC": 2734,
      "examen": 2735,
      "habitu": 2736,
      "habitants": 2737,
      "sept": 2738,
      "assez": 2739,
      "technolog": 2740,
      "particip": 2741,
      "faisant": 2742,
      "circons": 2743,
      "pirat": 2744,
      "assurer": 2745,
      "DrÂ": 2746,
      "enregistrÃ": 2747,
      "choisir": 2748,
      "princip": 2749,
      "attentats": 2750,
      "allemands": 2751,
      "document": 2752,
      "documents": 2753,
      "Lorsque": 2754,
      "decine": 2755,
      "recherche": 2756,
      "industri": 2757,
      "Saint": 2758,
      "quartier": 2759,
      "Express": 2760,
      "croy": 2761,
      "fense": 2762,
      "neuf": 2763,
      "profession": 2764,
      "patients": 2765,
      "physi": 2766,
      "Bourse": 2767,
      "glace": 2768,
      "conclusions": 2769,
      "palestini": 2770,
      "Croix": 2771,
      "Gaza": 2772,
      "animaux": 2773,
      "ault": 2774,
      "accueilli": 2775,
      "constructeur": 2776,
      "Palmer": 2777,
      "couvrir": 2778,
      "plaisir": 2779,
      "adoptÃ": 2780,
      "adultes": 2781,
      "assurance": 2782,
      "victimes": 2783,
      "enregistre": 2784,
      "folk": 2785,
      "lendemain": 2786,
      "entendu": 2787,
      "atterris": 2788,
      "AFP": 2789,
      "Irak": 2790,
      "Nissan": 2791,
      "Titan": 2792,
      "continue": 2793,
      "potenti": 2794,
      "performan": 2795,
      "privilÃ": 2796,
      "1er": 2797,
      "21": 2798,
      "Ad": 2799,
      "Aff": 2800,
      "Asie": 2801,
      "Care": 2802,
      "Camer": 2803,
      "Dale": 2804,
      "Ge": 2805,
      "GrÃ": 2806,
      "Gal": 2807,
      "Hol": 2808,
      "Jon": 2809,
      "Ke": 2810,
      "MÃ": 2811,
      "Mal": 2812,
      "Mlle": 2813,
      "Mot": 2814,
      "Nations": 2815,
      "Per": 2816,
      "Pit": 2817,
      "Pate": 2818,
      "Premi": 2819,
      "Rock": 2820,
      "RBS": 2821,
      "Toff": 2822,
      "Villi": 2823,
      "cle": 2824,
      "caux": 2825,
      "cend": 2826,
      "cand": 2827,
      "ee": 2828,
      "ey": 2829,
      "gol": 2830,
      "gations": 2831,
      "glis": 2832,
      "gow": 2833,
      "han": 2834,
      "hor": 2835,
      "lson": 2836,
      "mou": 2837,
      "mauv": 2838,
      "nour": 2839,
      "naire": 2840,
      "naires": 2841,
      "oo": 2842,
      "pau": 2843,
      "ptÃ": 2844,
      "poi": 2845,
      "rat": 2846,
      "rents": 2847,
      "smar": 2848,
      "stra": 2849,
      "scand": 2850,
      "ttes": 2851,
      "uve": 2852,
      "ups": 2853,
      "vation": 2854,
      "vils": 2855,
      "essais": 2856,
      "relÃ": 2857,
      "repÃ": 2858,
      "refu": 2859,
      "retrouv": 2860,
      "reprise": 2861,
      "remanie": 2862,
      "aig": 2863,
      "quait": 2864,
      "quence": 2865,
      "ouÃ": 2866,
      "ough": 2867,
      "lah": 2868,
      "timi": 2869,
      "tiers": 2870,
      "intro": 2871,
      "archi": 2872,
      "artis": 2873,
      "urity": 2874,
      "dess": 2875,
      "secon": 2876,
      "cel": 2877,
      "lite": 2878,
      "trom": 2879,
      "triÃ": 2880,
      "avez": 2881,
      "avenir": 2882,
      "prouv": 2883,
      "dici": 2884,
      "ditions": 2885,
      "diver": 2886,
      "durÃ": 2887,
      "parle": 2888,
      "parcour": 2889,
      "rieure": 2890,
      "ellois": 2891,
      "metiÃ": 2892,
      "congÃ": 2893,
      "ussi": 2894,
      "cible": 2895,
      "civils": 2896,
      "cimetiÃ": 2897,
      "pourront": 2898,
      "quipÃ": 2899,
      "compar": 2900,
      "comprend": 2901,
      "acteur": 2902,
      "proche": 2903,
      "progres": 2904,
      "viaire": 2905,
      "sond": 2906,
      "termes": 2907,
      "fix": 2908,
      "fication": 2909,
      "supÃ": 2910,
      "perpÃ": 2911,
      "permis": 2912,
      "exÃ": 2913,
      "airement": 2914,
      "mani": 2915,
      "manu": 2916,
      "importe": 2917,
      "impossible": 2918,
      "pace": 2919,
      "cupÃ": 2920,
      "coce": 2921,
      "session": 2922,
      "inscri": 2923,
      "entretien": 2924,
      "roviaire": 2925,
      "adap": 2926,
      "dente": 2927,
      "sade": 2928,
      "monÃ": 2929,
      "conten": 2930,
      "discus": 2931,
      "ordonnÃ": 2932,
      "faits": 2933,
      "auth": 2934,
      "personn": 2935,
      "vote": 2936,
      "portant": 2937,
      "mars": 2938,
      "racon": 2939,
      "interfÃ": 2940,
      "opin": 2941,
      "constru": 2942,
      "psy": 2943,
      "buz": 2944,
      "indiquent": 2945,
      "Maison": 2946,
      "jouer": 2947,
      "placer": 2948,
      "judici": 2949,
      "homo": 2950,
      "cisions": 2951,
      "nergie": 2952,
      "versaire": 2953,
      "passant": 2954,
      "sorte": 2955,
      "tances": 2956,
      "matique": 2957,
      "morts": 2958,
      "produire": 2959,
      "effet": 2960,
      "fut": 2961,
      "fuite": 2962,
      "appareil": 2963,
      "banques": 2964,
      "sexuelles": 2965,
      "ferroviaire": 2966,
      "confir": 2967,
      "penser": 2968,
      "route": 2969,
      "Pourtant": 2970,
      "assis": 2971,
      "assass": 2972,
      "phonique": 2973,
      "autorisÃ": 2974,
      "local": 2975,
      "locale": 2976,
      "own": 2977,
      "prÃªteurs": 2978,
      "petites": 2979,
      "information": 2980,
      "affirme": 2981,
      "teindre": 2982,
      "engagÃ": 2983,
      "accusation": 2984,
      "saison": 2985,
      "tablettes": 2986,
      "livrÃ": 2987,
      "apparition": 2988,
      "tournÃ": 2989,
      "contro": 2990,
      "doute": 2991,
      "promes": 2992,
      "promis": 2993,
      "programmes": 2994,
      "britanniques": 2995,
      "clen": 2996,
      "tissement": 2997,
      "CongrÃ": 2998,
      "Tout": 2999,
      "revenus": 3000,
      "borough": 3001,
      "saisi": 3002,
      "islamis": 3003,
      "techniques": 3004,
      "trangÃ": 3005,
      "participer": 3006,
      "atteint": 3007,
      "hicule": 3008,
      "influ": 3009,
      "acheter": 3010,
      "officiellement": 3011,
      "traitement": 3012,
      "assure": 3013,
      "spectacle": 3014,
      "spectacles": 3015,
      "voulait": 3016,
      "joint": 3017,
      "norme": 3018,
      "tombÃ": 3019,
      "grave": 3020,
      "favor": 3021,
      "type": 3022,
      "agissait": 3023,
      "Professeur": 3024,
      "Sainte": 3025,
      "analy": 3026,
      "lesquelles": 3027,
      "cessaires": 3028,
      "photos": 3029,
      "gulateur": 3030,
      "Banque": 3031,
      "recev": 3032,
      "expert": 3033,
      "empÃªcher": 3034,
      "Times": 3035,
      "combattants": 3036,
      "acceptÃ": 3037,
      "rapidement": 3038,
      "communautÃ": 3039,
      "traders": 3040,
      "audience": 3041,
      "prononcÃ": 3042,
      "capitale": 3043,
      "consommateurs": 3044,
      "Canada": 3045,
      "soulignÃ": 3046,
      "tablissement": 3047,
      "Glasgow": 3048,
      "impliquÃ": 3049,
      "tribunal": 3050,
      "chiffres": 3051,
      "garantir": 3052,
      "automobilistes": 3053,
      "naissance": 3054,
      "vaccin": 3055,
      "envoyÃ": 3056,
      "dizaines": 3057,
      "efforts": 3058,
      "CGT": 3059,
      "Disney": 3060,
      "missiles": 3061,
      "Avec": 3062,
      "Coulson": 3063,
      "ONU": 3064,
      "Security": 3065,
      "diminuÃ": 3066,
      "pickups": 3067,
      "banlieue": 3068,
      "Daley": 3069,
      "Patek": 3070,
      "Premier": 3071,
      "Toffee": 3072,
      "Villiers": 3073,
      "smart": 3074,
      "stratÃ": 3075,
      "scandale": 3076,
      "%)": 3077,
      "13": 3078,
      "12Â": 3079,
      "26": 3080,
      "38": 3081,
      "90": 3082,
      "At": 3083,
      "Ami": 3084,
      "Aux": 3085,
      "Act": 3086,
      "Beau": 3087,
      "Blan": 3088,
      "Bill": 3089,
      "CN": 3090,
      "CÃ": 3091,
      "Cons": 3092,
      "Di": 3093,
      "Don": 3094,
      "Del": 3095,
      "Dieu": 3096,
      "FM": 3097,
      "Fe": 3098,
      "Gau": 3099,
      "Im": 3100,
      "Jus": 3101,
      "Ka": 3102,
      "Ki": 3103,
      "LÃ": 3104,
      "Lar": 3105,
      "Mi": 3106,
      "Malle": 3107,
      "Maz": 3108,
      "OI": 3109,
      "PD": 3110,
      "PS": 3111,
      "Pen": 3112,
      "Plu": 3113,
      "Peter": 3114,
      "Plus": 3115,
      "Pendant": 3116,
      "Ro": 3117,
      "Rog": 3118,
      "So": 3119,
      "SÃ": 3120,
      "Twit": 3121,
      "Vi": 3122,
      "Vale": 3123,
      "Ville": 3124,
      "Wil": 3125,
      "ael": 3126,
      "achÃ": 3127,
      "brÃ": 3128,
      "bran": 3129,
      "bot": 3130,
      "billet": 3131,
      "cÅ": 3132,
      "ctu": 3133,
      "caire": 3134,
      "cair": 3135,
      "dait": 3136,
      "dence": 3137,
      "davantage": 3138,
      "fas": 3139,
      "flÃ": 3140,
      "fend": 3141,
      "fÃª": 3142,
      "fail": 3143,
      "git": 3144,
      "griÃ": 3145,
      "hon": 3146,
      "has": 3147,
      "ham": 3148,
      "hors": 3149,
      "ji": 3150,
      "kr": 3151,
      "ks": 3152,
      "laire": 3153,
      "mur": 3154,
      "nav": 3155,
      "orÃ": 3156,
      "paient": 3157,
      "piste": 3158,
      "raux": 3159,
      "sâ": 3160,
      "sun": 3161,
      "sav": 3162,
      "stat": 3163,
      "tap": 3164,
      "ttement": 3165,
      "taille": 3166,
      "tape": 3167,
      "up": 3168,
      "uer": 3169,
      "uation": 3170,
      "vet": 3171,
      "vul": 3172,
      "vague": 3173,
      "ward": 3174,
      "yÃ": 3175,
      "ze": 3176,
      "©-": 3177,
      "©\",": 3178,
      "ªmes": 3179,
      "esÂ": 3180,
      "espace": 3181,
      "enÂ": 3182,
      "dement": 3183,
      "decin": 3184,
      "anni": 3185,
      "anga": 3186,
      "reli": 3187,
      "recul": 3188,
      "reporter": 3189,
      "recomman": 3190,
      "retrouvÃ": 3191,
      "reprises": 3192,
      "aie": 3193,
      "qua": 3194,
      "quet": 3195,
      "eries": 3196,
      "enter": 3197,
      "tient": 3198,
      "isation": 3199,
      "insur": 3200,
      "incar": 3201,
      "urgent": 3202,
      "urgence": 3203,
      "tebourg": 3204,
      "ours": 3205,
      "lion": 3206,
      "liers": 3207,
      "chac": 3208,
      "sive": 3209,
      "avis": 3210,
      "prest": 3211,
      "dique": 3212,
      "diman": 3213,
      "ducation": 3214,
      "asin": 3215,
      "albu": 3216,
      "rions": 3217,
      "concert": 3218,
      "condition": 3219,
      "convain": 3220,
      "congol": 3221,
      "conditions": 3222,
      "attribu": 3223,
      "cifi": 3224,
      "ciers": 3225,
      "pourtant": 3226,
      "pourquoi": 3227,
      "poursuivre": 3228,
      "amis": 3229,
      "plow": 3230,
      "compris": 3231,
      "compli": 3232,
      "acÃ": 3233,
      "via": 3234,
      "vite": 3235,
      "vivre": 3236,
      "mÃªmes": 3237,
      "aint": 3238,
      "auxquel": 3239,
      "ith": 3240,
      "itaire": 3241,
      "subi": 3242,
      "exi": 3243,
      "export": 3244,
      "exist": 3245,
      "extrÃ": 3246,
      "porteurs": 3247,
      "serment": 3248,
      "impÃ": 3249,
      "forcer": 3250,
      "messages": 3251,
      "chement": 3252,
      "cheval": 3253,
      "cheveux": 3254,
      "colÃ": 3255,
      "derson": 3256,
      "inspec": 3257,
      "atiques": 3258,
      "journÃ": 3259,
      "montÃ": 3260,
      "contact": 3261,
      "ouvert": 3262,
      "dispar": 3263,
      "discu": 3264,
      "alifor": 3265,
      "bile": 3266,
      "biens": 3267,
      "partis": 3268,
      "nements": 3269,
      "finir": 3270,
      "devait": 3271,
      "intercep": 3272,
      "internationale": 3273,
      "policiers": 3274,
      "preuve": 3275,
      "opposition": 3276,
      "tenue": 3277,
      "gure": 3278,
      "guer": 3279,
      "gurÃ": 3280,
      "guliÃ": 3281,
      "rapportÃ": 3282,
      "aliser": 3283,
      "souh": 3284,
      "soutenir": 3285,
      "unique": 3286,
      "venant": 3287,
      "jugÃ": 3288,
      "juges": 3289,
      "gouvernementales": 3290,
      "Che": 3291,
      "2015": 3292,
      "directrice": 3293,
      "Jean": 3294,
      "crise": 3295,
      "gestion": 3296,
      "utilisant": 3297,
      "transmis": 3298,
      "transport": 3299,
      "transports": 3300,
      "pouvez": 3301,
      "signe": 3302,
      "signÃ": 3303,
      "correc": 3304,
      "corruption": 3305,
      "centrale": 3306,
      "volont": 3307,
      "fusion": 3308,
      "coupable": 3309,
      "bonbons": 3310,
      "arriÃ": 3311,
      "suspec": 3312,
      "sexuel": 3313,
      "Comment": 3314,
      "canadi": 3315,
      "configurÃ": 3316,
      "posant": 3317,
      "possession": 3318,
      "laisse": 3319,
      "laisser": 3320,
      "pensÃ": 3321,
      "roulÃ": 3322,
      "prochain": 3323,
      "enquÃªtes": 3324,
      "allons": 3325,
      "organisÃ": 3326,
      "organisme": 3327,
      "Ange": 3328,
      "gueur": 3329,
      "cinÃ": 3330,
      "localitÃ": 3331,
      "plein": 3332,
      "permettrait": 3333,
      "client": 3334,
      "montrer": 3335,
      "prÃªts": 3336,
      "payÃ": 3337,
      "dicaux": 3338,
      "journaliste": 3339,
      "importance": 3340,
      "importants": 3341,
      "emplois": 3342,
      "festi": 3343,
      "histoires": 3344,
      "historique": 3345,
      "regard": 3346,
      "club": 3347,
      "conomiques": 3348,
      "fonds": 3349,
      "source": 3350,
      "hauteur": 3351,
      "actuellement": 3352,
      "ologue": 3353,
      "militaire": 3354,
      "commerce": 3355,
      "pratique": 3356,
      "souvenir": 3357,
      "islamique": 3358,
      "endettement": 3359,
      "largeur": 3360,
      "faite": 3361,
      "fusil": 3362,
      "difficiles": 3363,
      "sortie": 3364,
      "Association": 3365,
      "choisi": 3366,
      "principe": 3367,
      "777": 3368,
      "points": 3369,
      "Montebourg": 3370,
      "terroriste": 3371,
      "terrorisme": 3372,
      "Nora": 3373,
      "animÃ": 3374,
      "dossiers": 3375,
      "Broad": 3376,
      "Bank": 3377,
      "fouille": 3378,
      "vacuÃ": 3379,
      "recevoir": 3380,
      "ariat": 3381,
      "experts": 3382,
      "hypo": 3383,
      "essayer": 3384,
      "Charles": 3385,
      "Transport": 3386,
      "pieds": 3387,
      "bilan": 3388,
      "lundi": 3389,
      "amener": 3390,
      "graphie": 3391,
      "Bowie": 3392,
      "mourir": 3393,
      "suffis": 3394,
      "conducteurs": 3395,
      "circulation": 3396,
      "chaton": 3397,
      "diatement": 3398,
      "radio": 3399,
      "disponibles": 3400,
      "texte": 3401,
      "citrouilles": 3402,
      "analystes": 3403,
      "Edward": 3404,
      "Nouri": 3405,
      "Scarborough": 3406,
      "retraite": 3407,
      "circonstances": 3408,
      "piratage": 3409,
      "atterrissage": 3410,
      "Geor": 3411,
      "Galles": 3412,
      "Pitcair": 3413,
      "glise": 3414,
      "remaniement": 3415,
      "Kaplow": 3416,
      "Malley": 3417,
      "Mazanga": 3418,
      "Plusieurs": 3419,
      "Twitter": 3420,
      "anniversaire": 3421,
      "dimanche": 3422,
      "album": 3423,
      "Pitcairn": 3424,
      "Kaplowitz": 3425,
      "$.": 3426,
      "%,": 3427,
      "'\"": 3428,
      "31": 3429,
      "35": 3430,
      "43": 3431,
      "40Â": 3432,
      "53": 3433,
      "60": 3434,
      "AS": 3435,
      "Agen": 3436,
      "Bid": 3437,
      "Cla": 3438,
      "Caire": 3439,
      "Clin": 3440,
      "Califor": 3441,
      "Damas": 3442,
      "El": 3443,
      "Est": 3444,
      "Fi": 3445,
      "Face": 3446,
      "How": 3447,
      "Hare": 3448,
      "Kam": 3449,
      "Lan": 3450,
      "ME": 3451,
      "Man": 3452,
      "Mat": 3453,
      "Po": 3454,
      "PrÃ": 3455,
      "Phu": 3456,
      "Sou": 3457,
      "Ste": 3458,
      "Sil": 3459,
      "Sam": 3460,
      "Ti": 3461,
      "Tas": 3462,
      "TSA": 3463,
      "Wall": 3464,
      "Yah": 3465,
      "af": 3466,
      "aÂ": 3467,
      "bur": 3468,
      "baux": 3469,
      "bois": 3470,
      "bol": 3471,
      "cam": 3472,
      "fan": 3473,
      "fec": 3474,
      "fendre": 3475,
      "gin": 3476,
      "gation": 3477,
      "giÃ": 3478,
      "gique": 3479,
      "hou": 3480,
      "h30": 3481,
      "joie": 3482,
      "kg": 3483,
      "kin": 3484,
      "kest": 3485,
      "kistan": 3486,
      "lby": 3487,
      "mus": 3488,
      "nard": 3489,
      "naie": 3490,
      "oeu": 3491,
      "ples": 3492,
      "pap": 3493,
      "rin": 3494,
      "ril": 3495,
      "rons": 3496,
      "roit": 3497,
      "rats": 3498,
      "sants": 3499,
      "structure": 3500,
      "tter": 3501,
      "tali": 3502,
      "tages": 3503,
      "vali": 3504,
      "wlby": 3505,
      "xi": 3506,
      "xes": 3507,
      "yeux": 3508,
      "©\"": 3509,
      "espr": 3510,
      "envis": 3511,
      "enseig": 3512,
      "envisage": 3513,
      "del": 3514,
      "det": 3515,
      "deÂ": 3516,
      "demment": 3517,
      "anony": 3518,
      "rez": 3519,
      "reprendre": 3520,
      "reconnaÃ": 3521,
      "ley": 3522,
      "leÂ": 3523,
      "lequel": 3524,
      "aimÃ": 3525,
      "outi": 3526,
      "ouin": 3527,
      "ouest": 3528,
      "oubli": 3529,
      "era": 3530,
      "enti": 3531,
      "entier": 3532,
      "lable": 3533,
      "intes": 3534,
      "inage": 3535,
      "inclu": 3536,
      "informÃ": 3537,
      "initi": 3538,
      "unis": 3539,
      "arde": 3540,
      "arrest": 3541,
      "oration": 3542,
      "seil": 3543,
      "lire": 3544,
      "lico": 3545,
      "lits": 3546,
      "liaison": 3547,
      "mentÃ": 3548,
      "mention": 3549,
      "troi": 3550,
      "trole": 3551,
      "chap": 3552,
      "champ": 3553,
      "chasse": 3554,
      "sivement": 3555,
      "dits": 3556,
      "due": 3557,
      "dure": 3558,
      "duire": 3559,
      "assou": 3560,
      "associÃ": 3561,
      "alÃ": 3562,
      "alter": 3563,
      "parlement": 3564,
      "riers": 3565,
      "medi": 3566,
      "agir": 3567,
      "agences": 3568,
      "cite": 3569,
      "cial": 3570,
      "ciga": 3571,
      "cialiste": 3572,
      "aises": 3573,
      "ambas": 3574,
      "commis": 3575,
      "comprendre": 3576,
      "actes": 3577,
      "accu": 3578,
      "acteurs": 3579,
      "accompag": 3580,
      "procu": 3581,
      "provoquÃ": 3582,
      "viÃ": 3583,
      "apprÃ": 3584,
      "appropriÃ": 3585,
      "pop": 3586,
      "fie": 3587,
      "figur": 3588,
      "endrier": 3589,
      "extÃ": 3590,
      "exas": 3591,
      "migr": 3592,
      "rang": 3593,
      "manque": 3594,
      "clatÃ": 3595,
      "veil": 3596,
      "formi": 3597,
      "fortement": 3598,
      "Laur": 3599,
      "irak": 3600,
      "parer": 3601,
      "ller": 3602,
      "entrer": 3603,
      "atives": 3604,
      "court": 3605,
      "moin": 3606,
      "moder": 3607,
      "adres": 3608,
      "adhÃ": 3609,
      "adoles": 3610,
      "samedi": 3611,
      "montrent": 3612,
      "monnaie": 3613,
      "sents": 3614,
      "ouverture": 3615,
      "cerveau": 3616,
      "ordable": 3617,
      "puisÃ": 3618,
      "puisse": 3619,
      "phe": 3620,
      "auto": 3621,
      "embar": 3622,
      "votÃ": 3623,
      "voter": 3624,
      "voler": 3625,
      "portable": 3626,
      "ablement": 3627,
      "marine": 3628,
      "rate": 3629,
      "raff": 3630,
      "interprÃ": 3631,
      "intervention": 3632,
      "mettant": 3633,
      "tenter": 3634,
      "options": 3635,
      "consac": 3636,
      "tenait": 3637,
      "carte": 3638,
      "cartes": 3639,
      "trique": 3640,
      "trices": 3641,
      "rone": 3642,
      "rontÃ": 3643,
      "coutes": 3644,
      "coups": 3645,
      "obs": 3646,
      "maje": 3647,
      "rappelle": 3648,
      "soutenu": 3649,
      "nommer": 3650,
      "uniquement": 3651,
      "gouverneur": 3652,
      "avantages": 3653,
      "traver": 3654,
      "venait": 3655,
      "venus": 3656,
      "numÃ": 3657,
      "crivant": 3658,
      "jouÃ": 3659,
      "ings": 3660,
      "igh": 3661,
      "Chouin": 3662,
      "commune": 3663,
      "commence": 3664,
      "2010": 3665,
      "compter": 3666,
      "cru": 3667,
      "ulaire": 3668,
      "ancienne": 3669,
      "ailles": 3670,
      "huit": 3671,
      "sty": 3672,
      "berg": 3673,
      "cherche": 3674,
      "transporteurs": 3675,
      "certaine": 3676,
      "titution": 3677,
      "appels": 3678,
      "sante": 3679,
      "2005": 3680,
      "2009": 3681,
      "pouvait": 3682,
      "oyen": 3683,
      "ajoute": 3684,
      "voici": 3685,
      "rette": 3686,
      "cente": 3687,
      "rente": 3688,
      "Parlement": 3689,
      "fumer": 3690,
      "rÃªve": 3691,
      "Obser": 3692,
      "arriver": 3693,
      "Comme": 3694,
      "rieurs": 3695,
      "confiance": 3696,
      "198": 3697,
      "prochains": 3698,
      "concerne": 3699,
      "allant": 3700,
      "autorise": 3701,
      "anticorps": 3702,
      "affron": 3703,
      "permettant": 3704,
      "fondÃ": 3705,
      "montant": 3706,
      "petits": 3707,
      "boutiques": 3708,
      "importante": 3709,
      "Quand": 3710,
      "engage": 3711,
      "musicien": 3712,
      "fonda": 3713,
      "fondateur": 3714,
      "icile": 3715,
      "soirÃ": 3716,
      "valoir": 3717,
      "ThaÃ": 3718,
      "familles": 3719,
      "pondu": 3720,
      "actuelle": 3721,
      "azi": 3722,
      "pitaux": 3723,
      "rassu": 3724,
      "rassemblÃ": 3725,
      "espoir": 3726,
      "ologique": 3727,
      "pensait": 3728,
      "conduite": 3729,
      "examens": 3730,
      "examiner": 3731,
      "remplacer": 3732,
      "confrontÃ": 3733,
      "constitue": 3734,
      "Conseil": 3735,
      "Airlines": 3736,
      "Bernard": 3737,
      "boration": 3738,
      "technique": 3739,
      "transi": 3740,
      "tranger": 3741,
      "Renault": 3742,
      "mater": 3743,
      "Moz": 3744,
      "Moore": 3745,
      "Moha": 3746,
      "arrÃªter": 3747,
      "pÃªchÃ": 3748,
      "identification": 3749,
      "achet": 3750,
      "domicile": 3751,
      "sauvet": 3752,
      "prenant": 3753,
      "Johnson": 3754,
      "Davis": 3755,
      "calendrier": 3756,
      "joindre": 3757,
      "tomber": 3758,
      "seuls": 3759,
      "graves": 3760,
      "jugement": 3761,
      "Pawlby": 3762,
      "recherches": 3763,
      "sentiment": 3764,
      "criminels": 3765,
      "Nortel": 3766,
      "lysÃ": 3767,
      "magasin": 3768,
      "approche": 3769,
      "gulateurs": 3770,
      "maladie": 3771,
      "Brown": 3772,
      "grosses": 3773,
      "lettre": 3774,
      "ambiti": 3775,
      "Coen": 3776,
      "oriental": 3777,
      "Michaux": 3778,
      "Stand": 3779,
      "signalÃ": 3780,
      "Transports": 3781,
      "meilleurs": 3782,
      "probablement": 3783,
      "chutÃ": 3784,
      "Publi": 3785,
      "catholiques": 3786,
      "voitures": 3787,
      "plainte": 3788,
      "candidat": 3789,
      "Abbot": 3790,
      "Certaines": 3791,
      "Turkest": 3792,
      "frontali": 3793,
      "vaste": 3794,
      "retirer": 3795,
      "cossais": 3796,
      "logement": 3797,
      "Scotland": 3798,
      "brut": 3799,
      "effica": 3800,
      "signifie": 3801,
      "scientifiques": 3802,
      "quotidien": 3803,
      "flam": 3804,
      "gislateurs": 3805,
      "juri": 3806,
      "kilomÃ": 3807,
      "indemne": 3808,
      "viendra": 3809,
      "permanence": 3810,
      "financement": 3811,
      "accueillir": 3812,
      "Affordable": 3813,
      "Cameroun": 3814,
      "Jonath": 3815,
      "hormon": 3816,
      "nourris": 3817,
      "pauvre": 3818,
      "refuse": 3819,
      "discussions": 3820,
      "personnalitÃ": 3821,
      "raconte": 3822,
      "opinion": 3823,
      "promesse": 3824,
      "smartphones": 3825,
      "Blanche": 3826,
      "CNN": 3827,
      "Delta": 3828,
      "OIAC": 3829,
      "Roger": 3830,
      "quatriÃ": 3831,
      "enterrÃ": 3832,
      "chacun": 3833,
      "Broadway": 3834,
      "hypothÃ": 3835,
      "Georges": 3836,
      "Agency": 3837,
      "Biden": 3838,
      "Clinton": 3839,
      "Phuket": 3840,
      "Tasmanie": 3841,
      "Yahoo": 3842,
      "esprit": 3843,
      "outils": 3844,
      "licoptÃ": 3845,
      "Chouinard": 3846,
      "Mohamed": 3847,
      "sauvetage": 3848,
      "Turkestan": 3849,
      "100": 3850,
      "16Â": 3851,
      "24": 3852,
      "21Â": 3853,
      "300": 3854,
      "42": 3855,
      "47": 3856,
      "42Â": 3857,
      "700Â": 3858,
      "95": 3859,
      "AD": 3860,
      "AP": 3861,
      "Ap": 3862,
      "Amer": 3863,
      "Abou": 3864,
      "Agence": 3865,
      "ABC": 3866,
      "Bl": 3867,
      "Bam": 3868,
      "Bure": 3869,
      "DS": 3870,
      "Day": 3871,
      "Es": 3872,
      "ElysÃ": 3873,
      "For": 3874,
      "Flig": 3875,
      "Gom": 3876,
      "Garde": 3877,
      "Ha": 3878,
      "Hom": 3879,
      "Hez": 3880,
      "Jom": 3881,
      "Kr": 3882,
      "Lle": 3883,
      "Long": 3884,
      "Mu": 3885,
      "Mur": 3886,
      "MÃª": 3887,
      "Mul": 3888,
      "Moyen": 3889,
      "No": 3890,
      "Nex": 3891,
      "NoÃ": 3892,
      "Om": 3893,
      "Ori": 3894,
      "Paul": 3895,
      "Que": 3896,
      "Ri": 3897,
      "Run": 3898,
      "SS": 3899,
      "San": 3900,
      "Spi": 3901,
      "TC": 3902,
      "Te": 3903,
      "Texas": 3904,
      "US": 3905,
      "Ukr": 3906,
      "Vati": 3907,
      "Xin": 3908,
      "ase": 3909,
      "ame": 3910,
      "ader": 3911,
      "bom": 3912,
      "bra": 3913,
      "blon": 3914,
      "bloc": 3915,
      "bate": 3916,
      "bras": 3917,
      "cat": 3918,
      "camÃ": 3919,
      "dg": 3920,
      "dois": 3921,
      "drait": 3922,
      "dures": 3923,
      "ei": 3924,
      "edy": 3925,
      "fis": 3926,
      "flu": 3927,
      "feux": 3928,
      "fallait": 3929,
      "gal": 3930,
      "gest": 3931,
      "ggÃ": 3932,
      "gard": 3933,
      "ganda": 3934,
      "hen": 3935,
      "his": 3936,
      "itement": 3937,
      "keny": 3938,
      "lai": 3939,
      "laient": 3940,
      "line": 3941,
      "mage": 3942,
      "moire": 3943,
      "nâ": 3944,
      "oins": 3945,
      "obile": 3946,
      "pis": 3947,
      "rav": 3948,
      "rages": 3949,
      "sis": 3950,
      "sin": 3951,
      "stri": 3952,
      "stitu": 3953,
      "savaient": 3954,
      "sili": 3955,
      "shire": 3956,
      "td": 3957,
      "uil": 3958,
      "var": 3959,
      "vatoire": 3960,
      "vada": 3961,
      "wa": 3962,
      "wels": 3963,
      "wyn": 3964,
      "yÂ": 3965,
      "zon": 3966,
      "este": 3967,
      "ense": 3968,
      "enlever": 3969,
      "dette": 3970,
      "devient": 3971,
      "ano": 3972,
      "anz": 3973,
      "ande": 3974,
      "ander": 3975,
      "anie": 3976,
      "anmoins": 3977,
      "relig": 3978,
      "remise": 3979,
      "aidÃ": 3980,
      "aimer": 3981,
      "quâ": 3982,
      "quasi": 3983,
      "oud": 3984,
      "oug": 3985,
      "entes": 3986,
      "entend": 3987,
      "timent": 3988,
      "tiens": 3989,
      "tivÃ": 3990,
      "titres": 3991,
      "isent": 3992,
      "issu": 3993,
      "isaient": 3994,
      "istant": 3995,
      "issement": 3996,
      "inÂ": 3997,
      "infor": 3998,
      "inverse": 3999,
      "arron": 4000,
      "ety": 4001,
      "teen": 4002,
      "teau": 4003,
      "seph": 4004,
      "cependant": 4005,
      "lim": 4006,
      "lio": 4007,
      "liber": 4008,
      "liban": 4009,
      "trant": 4010,
      "traction": 4011,
      "chas": 4012,
      "cham": 4013,
      "chelle": 4014,
      "sidence": 4015,
      "pru": 4016,
      "diag": 4017,
      "diffi": 4018,
      "antes": 4019,
      "ases": 4020,
      "alaise": 4021,
      "altitude": 4022,
      "parten": 4023,
      "paravant": 4024,
      "rifiÃ": 4025,
      "rifier": 4026,
      "ell": 4027,
      "conne": 4028,
      "concours": 4029,
      "convers": 4030,
      "contribu": 4031,
      "usage": 4032,
      "ataires": 4033,
      "attitude": 4034,
      "agent": 4035,
      "agin": 4036,
      "agri": 4037,
      "agnes": 4038,
      "cier": 4039,
      "ciblÃ": 4040,
      "ambu": 4041,
      "compor": 4042,
      "comitÃ": 4043,
      "comparti": 4044,
      "command": 4045,
      "acces": 4046,
      "acquis": 4047,
      "progrÃ": 4048,
      "proposÃ": 4049,
      "provenant": 4050,
      "ressent": 4051,
      "viv": 4052,
      "vices": 4053,
      "vivent": 4054,
      "vigueur": 4055,
      "ters": 4056,
      "figure": 4057,
      "auxÂ": 4058,
      "abil": 4059,
      "aband": 4060,
      "absence": 4061,
      "suggÃ": 4062,
      "pul": 4063,
      "cessitÃ": 4064,
      "nies": 4065,
      "nicom": 4066,
      "pertes": 4067,
      "extra": 4068,
      "exclu": 4069,
      "exprimÃ": 4070,
      "aler": 4071,
      "mie": 4072,
      "mile": 4073,
      "range": 4074,
      "classi": 4075,
      "ocrate": 4076,
      "imp": 4077,
      "image": 4078,
      "ford": 4079,
      "pein": 4080,
      "uxellois": 4081,
      "parÃ": 4082,
      "patron": 4083,
      "pakistan": 4084,
      "cule": 4085,
      "cutÃ": 4086,
      "culin": 4087,
      "message": 4088,
      "ensus": 4089,
      "chemin": 4090,
      "coin": 4091,
      "coali": 4092,
      "insistÃ": 4093,
      "lumin": 4094,
      "lutter": 4095,
      "rogÃ": 4096,
      "courriers": 4097,
      "motion": 4098,
      "mobil": 4099,
      "addiction": 4100,
      "dents": 4101,
      "touchÃ": 4102,
      "minim": 4103,
      "minoritÃ": 4104,
      "ouverte": 4105,
      "dissement": 4106,
      "dispose": 4107,
      "alimentaires": 4108,
      "visite": 4109,
      "visions": 4110,
      "phis": 4111,
      "phases": 4112,
      "empre": 4113,
      "emprison": 4114,
      "finalement": 4115,
      "vos": 4116,
      "volÃ": 4117,
      "voquant": 4118,
      "marquÃ": 4119,
      "rales": 4120,
      "devons": 4121,
      "interception": 4122,
      "peuple": 4123,
      "mettait": 4124,
      "versÃ": 4125,
      "version": 4126,
      "sophis": 4127,
      "tente": 4128,
      "tentative": 4129,
      "consci": 4130,
      "construction": 4131,
      "tenus": 4132,
      "renforcÃ": 4133,
      "caractÃ": 4134,
      "triques": 4135,
      "record": 4136,
      "indivi": 4137,
      "ffice": 4138,
      "alisme": 4139,
      "lector": 4140,
      "univers": 4141,
      "vendu": 4142,
      "pendent": 4143,
      "pendante": 4144,
      "crime": 4145,
      "critiques": 4146,
      "critiquÃ": 4147,
      "placÃ": 4148,
      "sidente": 4149,
      "sidents": 4150,
      "juif": 4151,
      "juana": 4152,
      "Chen": 4153,
      "Chris": 4154,
      "lotte": 4155,
      "directives": 4156,
      "servir": 4157,
      "sociaux": 4158,
      "troisÂ": 4159,
      "milliard": 4160,
      "berla": 4161,
      "verses": 4162,
      "cherchent": 4163,
      "collines": 4164,
      "truit": 4165,
      "pire": 4166,
      "pidÃ": 4167,
      "auront": 4168,
      "casque": 4169,
      "titudes": 4170,
      "orgie": 4171,
      "passage": 4172,
      "partager": 4173,
      "tante": 4174,
      "expliquer": 4175,
      "2001": 4176,
      "2002": 4177,
      "matisÃ": 4178,
      "matiques": 4179,
      "cateurs": 4180,
      "cafÃ": 4181,
      "corresp": 4182,
      "Inde": 4183,
      "IntÃ": 4184,
      "vols": 4185,
      "arrivait": 4186,
      "bank": 4187,
      "bande": 4188,
      "nelles": 4189,
      "responsabilitÃ": 4190,
      "Common": 4191,
      "Comedy": 4192,
      "Nevada": 4193,
      "thme": 4194,
      "placement": 4195,
      "196": 4196,
      "Mary": 4197,
      "Marie": 4198,
      "otage": 4199,
      "enquÃªteurs": 4200,
      "travaillant": 4201,
      "travailliste": 4202,
      "organisations": 4203,
      "Andre": 4204,
      "Angle": 4205,
      "Anderson": 4206,
      "suivant": 4207,
      "locaux": 4208,
      "permettent": 4209,
      "ting": 4210,
      "EuropÃ": 4211,
      "trouvait": 4212,
      "caution": 4213,
      "monter": 4214,
      "cultÃ": 4215,
      "Quant": 4216,
      "Quel": 4217,
      "attaquer": 4218,
      "conomie": 4219,
      "conomies": 4220,
      "Joseph": 4221,
      "toutefois": 4222,
      "musicales": 4223,
      "musicaux": 4224,
      "censÃ": 4225,
      "cennies": 4226,
      "voulu": 4227,
      "livrer": 4228,
      "poney": 4229,
      "symb": 4230,
      "syrien": 4231,
      "contrain": 4232,
      "contraire": 4233,
      "actuel": 4234,
      "actuels": 4235,
      "olie": 4236,
      "positions": 4237,
      "militants": 4238,
      "villes": 4239,
      "penses": 4240,
      "rythme": 4241,
      "estimÃ": 4242,
      "isements": 4243,
      "secret": 4244,
      "confront": 4245,
      "conflits": 4246,
      "travailleurs": 4247,
      "Yorkshire": 4248,
      "allergies": 4249,
      "participÃ": 4250,
      "matori": 4251,
      "salaires": 4252,
      "conseiller": 4253,
      "devenir": 4254,
      "devenue": 4255,
      "renseignements": 4256,
      "achat": 4257,
      "troupes": 4258,
      "automobile": 4259,
      "ministration": 4260,
      "sortir": 4261,
      "spectaculaire": 4262,
      "domaine": 4263,
      "paiement": 4264,
      "attentat": 4265,
      "personnels": 4266,
      "voulons": 4267,
      "chinoise": 4268,
      "normes": 4269,
      "voisine": 4270,
      "feuille": 4271,
      "agissent": 4272,
      "terroristes": 4273,
      "quittÃ": 4274,
      "approfon": 4275,
      "maladies": 4276,
      "masculin": 4277,
      "ambique": 4278,
      "collectÃ": 4279,
      "chirurgie": 4280,
      "CSeries": 4281,
      "tudiants": 4282,
      "patient": 4283,
      "objectif": 4284,
      "17Â": 4285,
      "Carol": 4286,
      "Michael": 4287,
      "Ouganda": 4288,
      "Star": 4289,
      "Timberla": 4290,
      "bruxellois": 4291,
      "pouse": 4292,
      "pouces": 4293,
      "annuelle": 4294,
      "Gazprom": 4295,
      "multipli": 4296,
      "panne": 4297,
      "encourage": 4298,
      "consult": 4299,
      "consultant": 4300,
      "ficier": 4301,
      "constructeurs": 4302,
      "investissement": 4303,
      "investissements": 4304,
      "consommateur": 4305,
      "blanc": 4306,
      "danseurs": 4307,
      "glementation": 4308,
      "trentaine": 4309,
      "chute": 4310,
      "gratuitement": 4311,
      "collage": 4312,
      "collaboration": 4313,
      "facile": 4314,
      "tablissements": 4315,
      "asile": 4316,
      "catholique": 4317,
      "durant": 4318,
      "munici": 4319,
      "vÃªques": 4320,
      "limite": 4321,
      "diplomatie": 4322,
      "interrogÃ": 4323,
      "sidentielle": 4324,
      "pharmaciens": 4325,
      "Abdel": 4326,
      "Alexander": 4327,
      "Certains": 4328,
      "cabin": 4329,
      "drame": 4330,
      "refusÃ": 4331,
      "qualifiÃ": 4332,
      "conserver": 4333,
      "agressions": 4334,
      "logements": 4335,
      "planificateurs": 4336,
      "manifestation": 4337,
      "Afrique": 4338,
      "Grouwels": 4339,
      "funÃ": 4340,
      "avertissement": 4341,
      "fournir": 4342,
      "pilote": 4343,
      "Brigit": 4344,
      "HS2": 4345,
      "Street": 4346,
      "fabric": 4347,
      "devises": 4348,
      "immeuble": 4349,
      "lectricitÃ": 4350,
      "syndic": 4351,
      "village": 4352,
      "technologie": 4353,
      "principalement": 4354,
      "potentiel": 4355,
      "performances": 4356,
      "Administration": 4357,
      "Hollande": 4358,
      "Motor": 4359,
      "Rockstar": 4360,
      "mauvaise": 4361,
      "introdu": 4362,
      "artistes": 4363,
      "seconde": 4364,
      "sondage": 4365,
      "fixÃ": 4366,
      "manipu": 4367,
      "psychi": 4368,
      "confirmer": 4369,
      "assassinÃ": 4370,
      "saisies": 4371,
      "analyse": 4372,
      "Donc": 4373,
      "Feder": 4374,
      "Gaulle": 4375,
      "Kivu": 4376,
      "fÃªte": 4377,
      "faillite": 4378,
      "jiang": 4379,
      "vulnÃ": 4380,
      "recommandÃ": 4381,
      "exige": 4382,
      "souhait": 4383,
      "festival": 4384,
      "souvenirs": 4385,
      "suffisamment": 4386,
      "South": 4387,
      "bollah": 4388,
      "musul": 4389,
      "champion": 4390,
      "ambassade": 4391,
      "formid": 4392,
      "irakien": 4393,
      "chercheurs": 4394,
      "Observatoire": 4395,
      "affrontements": 4396,
      "maternitÃ": 4397,
      "Mozambique": 4398,
      "Standard": 4399,
      "Publicis": 4400,
      "Abbott": 4401,
      "hormones": 4402,
      "pauvretÃ": 4403,
      "ADN": 4404,
      "Ameri": 4405,
      "Blair": 4406,
      "Bamford": 4407,
      "Bureau": 4408,
      "Fligh": 4409,
      "Hezbollah": 4410,
      "Jomba": 4411,
      "Llewyn": 4412,
      "Murphy": 4413,
      "MÃªme": 4414,
      "Next": 4415,
      "Omnicom": 4416,
      "Orient": 4417,
      "Ukraine": 4418,
      "Vatican": 4419,
      "Xinjiang": 4420,
      "bateau": 4421,
      "diagnos": 4422,
      "difficultÃ": 4423,
      "comportement": 4424,
      "coalition": 4425,
      "empreintes": 4426,
      "emprisonnement": 4427,
      "Angleterre": 4428,
      "matorium": 4429,
      "Brigitte": 4430,
      "%.": 4431,
      "120Â": 4432,
      "14Â": 4433,
      "27": 4434,
      "28": 4435,
      "32": 4436,
      "37": 4437,
      "30Â": 4438,
      "325Â": 4439,
      "44": 4440,
      "55": 4441,
      "50Â": 4442,
      "64": 4443,
      "600": 4444,
      "80": 4445,
      "83": 4446,
      "AÃ": 4447,
      "Ain": 4448,
      "Avi": 4449,
      "ARS": 4450,
      "Be": 4451,
      "Bf": 4452,
      "Bu": 4453,
      "Bla": 4454,
      "Bali": 4455,
      "Bru": 4456,
      "Bock": 4457,
      "CC": 4458,
      "Ca": 4459,
      "CrÃ": 4460,
      "Clar": 4461,
      "Dj": 4462,
      "Dres": 4463,
      "Die": 4464,
      "Down": 4465,
      "Edis": 4466,
      "Eth": 4467,
      "Elles": 4468,
      "FÃ": 4469,
      "FrÃ": 4470,
      "Freli": 4471,
      "Gen": 4472,
      "Gre": 4473,
      "Gue": 4474,
      "GCS": 4475,
      "Has": 4476,
      "Jeu": 4477,
      "Jac": 4478,
      "Jim": 4479,
      "Kins": 4480,
      "Keny": 4481,
      "Khan": 4482,
      "Lig": 4483,
      "MD": 4484,
      "Mes": 4485,
      "Mou": 4486,
      "Mis": 4487,
      "Mit": 4488,
      "Mex": 4489,
      "Mbuz": 4490,
      "NY": 4491,
      "NÃ": 4492,
      "Net": 4493,
      "Os": 4494,
      "Ph": 4495,
      "Pla": 4496,
      "Perry": 4497,
      "Presse": 4498,
      "Pliber": 4499,
      "Qai": 4500,
      "QaÃ": 4501,
      "Qass": 4502,
      "Rw": 4503,
      "Reu": 4504,
      "Ros": 4505,
      "Rien": 4506,
      "Ser": 4507,
      "Sun": 4508,
      "Seu": 4509,
      "Scor": 4510,
      "Stein": 4511,
      "TV": 4512,
      "TrÃ": 4513,
      "Tony": 4514,
      "Vette": 4515,
      "We": 4516,
      "Ya": 4517,
      "ZÃ": 4518,
      "awe": 4519,
      "belle": 4520,
      "bad": 4521,
      "bille": 4522,
      "coi": 4523,
      "cran": 4524,
      "caces": 4525,
      "drap": 4526,
      "dos": 4527,
      "ed": 4528,
      "ements": 4529,
      "euses": 4530,
      "fre": 4531,
      "far": 4532,
      "fur": 4533,
      "fans": 4534,
      "fous": 4535,
      "fru": 4536,
      "falaise": 4537,
      "gon": 4538,
      "gou": 4539,
      "gas": 4540,
      "gri": 4541,
      "gus": 4542,
      "gend": 4543,
      "goÃ": 4544,
      "gains": 4545,
      "gions": 4546,
      "gner": 4547,
      "galitÃ": 4548,
      "iale": 4549,
      "itions": 4550,
      "ja": 4551,
      "jeux": 4552,
      "jolie": 4553,
      "kel": 4554,
      "kins": 4555,
      "ld": 4556,
      "lor": 4557,
      "mant": 4558,
      "mait": 4559,
      "mans": 4560,
      "mam": 4561,
      "muti": 4562,
      "mass": 4563,
      "math": 4564,
      "masse": 4565,
      "ny": 4566,
      "nab": 4567,
      "noc": 4568,
      "nette": 4569,
      "noire": 4570,
      "native": 4571,
      "nazi": 4572,
      "odes": 4573,
      "odu": 4574,
      "ota": 4575,
      "ogues": 4576,
      "rac": 4577,
      "raire": 4578,
      "rati": 4579,
      "ring": 4580,
      "rables": 4581,
      "rock": 4582,
      "sti": 4583,
      "stÃ": 4584,
      "saient": 4585,
      "sses": 4586,
      "sad": 4587,
      "shÃ": 4588,
      "sariat": 4589,
      "tai": 4590,
      "tar": 4591,
      "tad": 4592,
      "tures": 4593,
      "tari": 4594,
      "ut": 4595,
      "ues": 4596,
      "vus": 4597,
      "vres": 4598,
      "vaut": 4599,
      "ving": 4600,
      "voire": 4601,
      "xon": 4602,
      "ym": 4603,
      "yr": 4604,
      "yer": 4605,
      "yale": 4606,
      "yth": 4607,
      "©:": 4608,
      "envers": 4609,
      "enva": 4610,
      "onÃ": 4611,
      "onne": 4612,
      "dez": 4613,
      "dehors": 4614,
      "anÃ": 4615,
      "anistan": 4616,
      "reur": 4617,
      "repli": 4618,
      "regrou": 4619,
      "remu": 4620,
      "regar": 4621,
      "reconnais": 4622,
      "revient": 4623,
      "retrait": 4624,
      "recue": 4625,
      "regarder": 4626,
      "rejetÃ": 4627,
      "rejoindre": 4628,
      "repein": 4629,
      "leader": 4630,
      "aime": 4631,
      "ainement": 4632,
      "qualitÃ": 4633,
      "quili": 4634,
      "oux": 4635,
      "ermou": 4636,
      "laÃ": 4637,
      "lariÃ": 4638,
      "tirÃ": 4639,
      "tition": 4640,
      "tisÃ": 4641,
      "tiend": 4642,
      "tirer": 4643,
      "tirent": 4644,
      "ticents": 4645,
      "isse": 4646,
      "isant": 4647,
      "istique": 4648,
      "ind": 4649,
      "ince": 4650,
      "infÃ": 4651,
      "inhu": 4652,
      "incur": 4653,
      "incitÃ": 4654,
      "inhabitu": 4655,
      "incroy": 4656,
      "inappropriÃ": 4657,
      "union": 4658,
      "arn": 4659,
      "ares": 4660,
      "artic": 4661,
      "teaux": 4662,
      "teig": 4663,
      "teuse": 4664,
      "auph": 4665,
      "auparavant": 4666,
      "ores": 4667,
      "orti": 4668,
      "oral": 4669,
      "orie": 4670,
      "dessous": 4671,
      "descen": 4672,
      "destruction": 4673,
      "descend": 4674,
      "illa": 4675,
      "illis": 4676,
      "sek": 4677,
      "section": 4678,
      "celles": 4679,
      "lix": 4680,
      "lius": 4681,
      "liqui": 4682,
      "lioration": 4683,
      "tront": 4684,
      "traient": 4685,
      "trad": 4686,
      "trine": 4687,
      "triste": 4688,
      "trisÃ": 4689,
      "trente": 4690,
      "chans": 4691,
      "choc": 4692,
      "chrom": 4693,
      "ome": 4694,
      "omes": 4695,
      "sif": 4696,
      "sim": 4697,
      "side": 4698,
      "sible": 4699,
      "sibles": 4700,
      "sives": 4701,
      "sifs": 4702,
      "avril": 4703,
      "diÃ": 4704,
      "ditÃ": 4705,
      "diation": 4706,
      "diaque": 4707,
      "dicales": 4708,
      "allu": 4709,
      "alth": 4710,
      "parlÃ": 4711,
      "partout": 4712,
      "rif": 4713,
      "riel": 4714,
      "riens": 4715,
      "rieux": 4716,
      "meurs": 4717,
      "coni": 4718,
      "contra": 4719,
      "convoi": 4720,
      "concep": 4721,
      "conjoin": 4722,
      "oile": 4723,
      "attendre": 4724,
      "attraction": 4725,
      "atteig": 4726,
      "agi": 4727,
      "agrÃ": 4728,
      "cieuse": 4729,
      "aisÃ": 4730,
      "poursuit": 4731,
      "prÃªme": 4732,
      "quiÃ": 4733,
      "quipage": 4734,
      "amende": 4735,
      "ployÃ": 4736,
      "composÃ": 4737,
      "compren": 4738,
      "compromis": 4739,
      "survÃ": 4740,
      "surprenant": 4741,
      "acle": 4742,
      "acquÃ": 4743,
      "active": 4744,
      "accompli": 4745,
      "provis": 4746,
      "proposition": 4747,
      "propose": 4748,
      "ressens": 4749,
      "vit": 4750,
      "vict": 4751,
      "viande": 4752,
      "apon": 4753,
      "aper": 4754,
      "appelle": 4755,
      "approuv": 4756,
      "sonne": 4757,
      "poils": 4758,
      "poteaux": 4759,
      "fidÃ": 4760,
      "fiants": 4761,
      "itant": 4762,
      "itali": 4763,
      "itaires": 4764,
      "abi": 4765,
      "abri": 4766,
      "abais": 4767,
      "absolu": 4768,
      "sumÃ": 4769,
      "suites": 4770,
      "suprÃªme": 4771,
      "endroit": 4772,
      "ologues": 4773,
      "excitÃ": 4774,
      "exception": 4775,
      "porno": 4776,
      "serves": 4777,
      "miÃ": 4778,
      "mitÃ": 4779,
      "micro": 4780,
      "rance": 4781,
      "ffÃ": 4782,
      "immen": 4783,
      "impression": 4784,
      "irs": 4785,
      "irrÃ": 4786,
      "cules": 4787,
      "cution": 4788,
      "culÃ": 4789,
      "sese": 4790,
      "instru": 4791,
      "lumiÃ": 4792,
      "maisons": 4793,
      "royale": 4794,
      "mode": 4795,
      "motivÃ": 4796,
      "admission": 4797,
      "adjoint": 4798,
      "dentes": 4799,
      "mises": 4800,
      "misme": 4801,
      "salariÃ": 4802,
      "monies": 4803,
      "montrant": 4804,
      "content": 4805,
      "minin": 4806,
      "miniÃ": 4807,
      "sentation": 4808,
      "distin": 4809,
      "note": 4810,
      "puissent": 4811,
      "partisans": 4812,
      "voles": 4813,
      "mardi": 4814,
      "marche": 4815,
      "mariÃ": 4816,
      "marquer": 4817,
      "euros": 4818,
      "devoir": 4819,
      "devra": 4820,
      "internes": 4821,
      "interdit": 4822,
      "internation": 4823,
      "bleu": 4824,
      "longue": 4825,
      "lison": 4826,
      "andais": 4827,
      "soli": 4828,
      "opport": 4829,
      "const": 4830,
      "consensus": 4831,
      "tensions": 4832,
      "tendus": 4833,
      "guit": 4834,
      "guisements": 4835,
      "renvoy": 4836,
      "renoncÃ": 4837,
      "renforcer": 4838,
      "chante": 4839,
      "grandi": 4840,
      "tateurs": 4841,
      "carg": 4842,
      "cardiaque": 4843,
      "tox": 4844,
      "semestre": 4845,
      "plir": 4846,
      "bul": 4847,
      "coupe": 4848,
      "couleurs": 4849,
      "indice": 4850,
      "indiquant": 4851,
      "matÃ": 4852,
      "rapporte": 4853,
      "soupÃ": 4854,
      "soumis": 4855,
      "souligne": 4856,
      "noms": 4857,
      "nomÃ": 4858,
      "lecteur": 4859,
      "nonci": 4860,
      "unies": 4861,
      "chiite": 4862,
      "publiques": 4863,
      "publicitÃ": 4864,
      "vendus": 4865,
      "crire": 4866,
      "critÃ": 4867,
      "accor": 4868,
      "istance": 4869,
      "gouvernements": 4870,
      "gouvernemental": 4871,
      "Cham": 4872,
      "Chaque": 4873,
      "hommage": 4874,
      "prime": 4875,
      "prioritÃ": 4876,
      "privois": 4877,
      "compagne": 4878,
      "complex": 4879,
      "croire": 4880,
      "craig": 4881,
      "craint": 4882,
      "lante": 4883,
      "Frank": 4884,
      "ciser": 4885,
      "humain": 4886,
      "nergÃ": 4887,
      "utilisateurs": 4888,
      "stand": 4889,
      "stabilitÃ": 4890,
      "stabil": 4891,
      "bert": 4892,
      "demandant": 4893,
      "transporter": 4894,
      "transactions": 4895,
      "certain": 4896,
      "cashire": 4897,
      "titure": 4898,
      "appelait": 4899,
      "sange": 4900,
      "partagÃ": 4901,
      "sort": 4902,
      "2004": 4903,
      "2006": 4904,
      "2007": 4905,
      "maintien": 4906,
      "ralent": 4907,
      "rally": 4908,
      "morph": 4909,
      "Auc": 4910,
      "Audet": 4911,
      "cade": 4912,
      "solos": 4913,
      "signation": 4914,
      "produc": 4915,
      "voies": 4916,
      "voiler": 4917,
      "retard": 4918,
      "Inc": 4919,
      "Institu": 4920,
      "centes": 4921,
      "central": 4922,
      "rentrÃ": 4923,
      "volon": 4924,
      "Parmi": 4925,
      "coupes": 4926,
      "couples": 4927,
      "arrivent": 4928,
      "menace": 4929,
      "menacÃ": 4930,
      "rude": 4931,
      "suscitÃ": 4932,
      "nels": 4933,
      "Communi": 4934,
      "the": 4935,
      "cancer": 4936,
      "fera": 4937,
      "osomes": 4938,
      "configur": 4939,
      "confirme": 4940,
      "197": 4941,
      "laissant": 4942,
      "pensons": 4943,
      "roulant": 4944,
      "prochaines": 4945,
      "offen": 4946,
      "offres": 4947,
      "assaut": 4948,
      "caporal": 4949,
      "mbour": 4950,
      "travaillÃ": 4951,
      "travaillait": 4952,
      "organiser": 4953,
      "Anne": 4954,
      "genres": 4955,
      "affec": 4956,
      "permettra": 4957,
      "clientÃ": 4958,
      "filiale": 4959,
      "restaur": 4960,
      "trouve": 4961,
      "chorÃ": 4962,
      "fonctions": 4963,
      "barak": 4964,
      "prÃªtÃ": 4965,
      "bout": 4966,
      "boutique": 4967,
      "diffusÃ": 4968,
      "culaire": 4969,
      "affir": 4970,
      "bases": 4971,
      "fax": 4972,
      "anteÂ": 4973,
      "veloppÃ": 4974,
      "somme": 4975,
      "sommet": 4976,
      "besoins": 4977,
      "cennie": 4978,
      "dose": 4979,
      "souri": 4980,
      "souris": 4981,
      "soires": 4982,
      "vraie": 4983,
      "ampleur": 4984,
      "hauts": 4985,
      "apparaÃ": 4986,
      "apparten": 4987,
      "heureuse": 4988,
      "ponse": 4989,
      "pondent": 4990,
      "syrienne": 4991,
      "actualitÃ": 4992,
      "violents": 4993,
      "environnement": 4994,
      "Trav": 4995,
      "Trois": 4996,
      "douce": 4997,
      "douleur": 4998,
      "promen": 4999,
      "commentaire": 5000,
      "actifs": 5001,
      "moyenne": 5002,
      "notation": 5003,
      "beaux": 5004,
      "belius": 5005,
      "clairement": 5006,
      "drogues": 5007,
      "traiter": 5008,
      "examin": 5009,
      "examinÃ": 5010,
      "habitant": 5011,
      "bah": 5012,
      "mouvements": 5013,
      "spectateurs": 5014,
      "augmenter": 5015,
      "augmentant": 5016,
      "Suite": 5017,
      "pratiquÃ": 5018,
      "terrains": 5019,
      "Morris": 5020,
      "baisser": 5021,
      "ctic": 5022,
      "saisie": 5023,
      "justifiÃ": 5024,
      "justifier": 5025,
      "effectifs": 5026,
      "effectuer": 5027,
      "faisait": 5028,
      "ghanistan": 5029,
      "salon": 5030,
      "quipements": 5031,
      "gazodu": 5032,
      "Moham": 5033,
      "arrÃªt": 5034,
      "largement": 5035,
      "identifier": 5036,
      "campagnes": 5037,
      "ieuse": 5038,
      "keys": 5039,
      "officielle": 5040,
      "assurÃ": 5041,
      "populaire": 5042,
      "Assad": 5043,
      "Assange": 5044,
      "Royal": 5045,
      "Sony": 5046,
      "domin": 5047,
      "sauf": 5048,
      "sauver": 5049,
      "investiture": 5050,
      "prennent": 5051,
      "preneurs": 5052,
      "voyageurs": 5053,
      "vouloir": 5054,
      "bourse": 5055,
      "allemandes": 5056,
      "Lorsqu": 5057,
      "Monkeys": 5058,
      "troliÃ": 5059,
      "occupÃ": 5060,
      "bosse": 5061,
      "book": 5062,
      "magnifi": 5063,
      "rompu": 5064,
      "littÃ": 5065,
      "plombÃ": 5066,
      "approvision": 5067,
      "gularitÃ": 5068,
      "importantes": 5069,
      "Arctic": 5070,
      "Malik": 5071,
      "tellement": 5072,
      "collecte": 5073,
      "collectif": 5074,
      "CSSS": 5075,
      "Reed": 5076,
      "seni": 5077,
      "professeur": 5078,
      "tenues": 5079,
      "glacÃ": 5080,
      "essayÃ": 5081,
      "annuel": 5082,
      "oundÃ": 5083,
      "Charlie": 5084,
      "signalisation": 5085,
      "457": 5086,
      "Oracle": 5087,
      "multiples": 5088,
      "pied": 5089,
      "encouragÃ": 5090,
      "encourager": 5091,
      "relative": 5092,
      "relativement": 5093,
      "tÃªtes": 5094,
      "meilleur": 5095,
      "instance": 5096,
      "rencontrer": 5097,
      "soutiennent": 5098,
      "capital": 5099,
      "films": 5100,
      "moignage": 5101,
      "investisseurs": 5102,
      "333": 5103,
      "Sebelius": 5104,
      "lunettes": 5105,
      "lancement": 5106,
      "profit": 5107,
      "violÃ": 5108,
      "violer": 5109,
      "gratuits": 5110,
      "mariage": 5111,
      "semblait": 5112,
      "faciale": 5113,
      "fournisseurs": 5114,
      "DavidÂ": 5115,
      "adulte": 5116,
      "Bowler": 5117,
      "Glass": 5118,
      "Louis": 5119,
      "bloquÃ": 5120,
      "durable": 5121,
      "mocratie": 5122,
      "mocrates": 5123,
      "pousser": 5124,
      "limitÃ": 5125,
      "concurrents": 5126,
      "suffrages": 5127,
      "interroger": 5128,
      "sidentielles": 5129,
      "candidats": 5130,
      "conducteur": 5131,
      "automobiliste": 5132,
      "Huawe": 5133,
      "Merkel": 5134,
      "Turner": 5135,
      "frappe": 5136,
      "km2": 5137,
      "retirÃ": 5138,
      "chanceliÃ": 5139,
      "ordinateur": 5140,
      "rappelÃ": 5141,
      "planification": 5142,
      "occupations": 5143,
      "chauffeur": 5144,
      "Afghanistan": 5145,
      "Corteen": 5146,
      "Scott": 5147,
      "bellion": 5148,
      "russe": 5149,
      "essentiellement": 5150,
      "tectÃ": 5151,
      "librement": 5152,
      "avancer": 5153,
      "instantanÃ": 5154,
      "accroch": 5155,
      "suspendu": 5156,
      "culturel": 5157,
      "australienne": 5158,
      "scientifique": 5159,
      "pilotes": 5160,
      "Max": 5161,
      "Peut": 5162,
      "Stream": 5163,
      "cliniques": 5164,
      "gagner": 5165,
      "valeur": 5166,
      "valeurs": 5167,
      "devise": 5168,
      "exprimer": 5169,
      "immeubles": 5170,
      "modifiÃ": 5171,
      "modifier": 5172,
      "totalement": 5173,
      "observÃ": 5174,
      "clairage": 5175,
      "villages": 5176,
      "industriel": 5177,
      "industriels": 5178,
      "physiques": 5179,
      "performance": 5180,
      "Keith": 5181,
      "MlleÂ": 5182,
      "Personne": 5183,
      "cendres": 5184,
      "poitrine": 5185,
      "rature": 5186,
      "retrouve": 5187,
      "cellu": 5188,
      "parcourus": 5189,
      "comparaison": 5190,
      "inscrire": 5191,
      "judiciaires": 5192,
      "controversÃ": 5193,
      "clenchÃ": 5194,
      "islamiste": 5195,
      "islamistes": 5196,
      "influen": 5197,
      "Amiens": 5198,
      "BillÂ": 5199,
      "FMI": 5200,
      "Justin": 5201,
      "Larry": 5202,
      "Valero": 5203,
      "hasa": 5204,
      "sung": 5205,
      "savent": 5206,
      "tapis": 5207,
      "prestations": 5208,
      "cifique": 5209,
      "auxquelles": 5210,
      "existence": 5211,
      "extrÃªme": 5212,
      "inspecteurs": 5213,
      "discuter": 5214,
      "guerite": 5215,
      "volontaire": 5216,
      "Angela": 5217,
      "fusillade": 5218,
      "777X": 5219,
      "Californie": 5220,
      "Ellison": 5221,
      "Facebook": 5222,
      "Lancashire": 5223,
      "Silver": 5224,
      "Samsung": 5225,
      "oeuvre": 5226,
      "mentionnÃ": 5227,
      "troite": 5228,
      "cigarette": 5229,
      "accuse": 5230,
      "accompagnÃ": 5231,
      "migration": 5232,
      "embarquement": 5233,
      "obstruction": 5234,
      "nommera": 5235,
      "style": 5236,
      "engagement": 5237,
      "fondament": 5238,
      "rassurer": 5239,
      "transition": 5240,
      "ambitieux": 5241,
      "efficace": 5242,
      "flammes": 5243,
      "Jonathan": 5244,
      "Goma": 5245,
      "Homme": 5246,
      "Notre": 5247,
      "Runy": 5248,
      "SantÃ": 5249,
      "Spirit": 5250,
      "gestes": 5251,
      "hispan": 5252,
      "kenyans": 5253,
      "stric": 5254,
      "issue": 5255,
      "arrondissement": 5256,
      "libanais": 5257,
      "chassÃ": 5258,
      "connec": 5259,
      "compartiments": 5260,
      "accessoires": 5261,
      "abandon": 5262,
      "pakistanais": 5263,
      "coincÃ": 5264,
      "sophistiquÃ": 5265,
      "lectorale": 5266,
      "correspond": 5267,
      "Andrew": 5268,
      "contraintes": 5269,
      "confrontation": 5270,
      "Timberlake": 5271,
      "municipales": 5272,
      "cabinet": 5273,
      "musulmans": 5274,
      "formidable": 5275,
      "Ainsi": 5276,
      "Aviation": 5277,
      "BfV": 5278,
      "Black": 5279,
      "Bruce": 5280,
      "Djermou": 5281,
      "Drescher": 5282,
      "Frelimo": 5283,
      "Green": 5284,
      "Guebuz": 5285,
      "GCSE": 5286,
      "Jeudi": 5287,
      "Kinshasa": 5288,
      "Kenya": 5289,
      "Ligue": 5290,
      "Moubarak": 5291,
      "Mexique": 5292,
      "Mbuzi": 5293,
      "NYPD": 5294,
      "Plibersek": 5295,
      "Qaida": 5296,
      "Rwanda": 5297,
      "Reuters": 5298,
      "Scorsese": 5299,
      "Steinberg": 5300,
      "Vettel": 5301,
      "YaoundÃ": 5302,
      "billets": 5303,
      "massac": 5304,
      "vingt": 5305,
      "inhumation": 5306,
      "incroyable": 5307,
      "articles": 5308,
      "trading": 5309,
      "chromosomes": 5310,
      "concept": 5311,
      "provisoire": 5312,
      "victoire": 5313,
      "approuvÃ": 5314,
      "absolument": 5315,
      "immense": 5316,
      "instruments": 5317,
      "privoiser": 5318,
      "rallyes": 5319,
      "gazoduc": 5320,
      "Mohammed": 5321,
      "magnifique": 5322,
      "Huawei": 5323,
      "Djermoune": 5324,
      "120": 5325,
      "11Â": 5326,
      "13Â": 5327,
      "22": 5328,
      "26Â": 5329,
      "32Â": 5330,
      "300Â": 5331,
      "45Â": 5332,
      "57": 5333,
      "500": 5334,
      "500Â": 5335,
      "63": 5336,
      "65": 5337,
      "66": 5338,
      "88": 5339,
      "80Â": 5340,
      "Ac": 5341,
      "Aren": 5342,
      "Aler": 5343,
      "Amb": 5344,
      "Adol": 5345,
      "BI": 5346,
      "Ben": 5347,
      "BrÃ": 5348,
      "Bor": 5349,
      "Bil": 5350,
      "Bas": 5351,
      "Bat": 5352,
      "Bir": 5353,
      "Bul": 5354,
      "Bash": 5355,
      "CH": 5356,
      "CI": 5357,
      "Ci": 5358,
      "Cli": 5359,
      "Cap": 5360,
      "Col": 5361,
      "CitÃ": 5362,
      "ChÃ": 5363,
      "Cana": 5364,
      "Catholi": 5365,
      "Citi": 5366,
      "Dh": 5367,
      "Do": 5368,
      "Den": 5369,
      "Dan": 5370,
      "Dou": 5371,
      "Der": 5372,
      "Dhab": 5373,
      "EC": 5374,
      "Even": 5375,
      "Fo": 5376,
      "Fer": 5377,
      "Fir": 5378,
      "Fond": 5379,
      "Festi": 5380,
      "Flor": 5381,
      "Gl": 5382,
      "GPS": 5383,
      "HP": 5384,
      "He": 5385,
      "Hy": 5386,
      "Hen": 5387,
      "Har": 5388,
      "Hali": 5389,
      "Hist": 5390,
      "Hall": 5391,
      "Hak": 5392,
      "High": 5393,
      "HTC": 5394,
      "IB": 5395,
      "II": 5396,
      "Ici": 5397,
      "Itali": 5398,
      "Jag": 5399,
      "Jam": 5400,
      "Jack": 5401,
      "Ken": 5402,
      "Kir": 5403,
      "Kati": 5404,
      "Kie": 5405,
      "Kath": 5406,
      "Katie": 5407,
      "LG": 5408,
      "Lin": 5409,
      "Lat": 5410,
      "Land": 5411,
      "Los": 5412,
      "Laval": 5413,
      "Ltd": 5414,
      "Mc": 5415,
      "MÂ": 5416,
      "Mil": 5417,
      "Mouv": 5418,
      "Main": 5419,
      "Morgan": 5420,
      "Meng": 5421,
      "Mone": 5422,
      "Menton": 5423,
      "Miller": 5424,
      "Non": 5425,
      "Not": 5426,
      "Nath": 5427,
      "NEC": 5428,
      "Oli": 5429,
      "Omar": 5430,
      "Otages": 5431,
      "Office": 5432,
      "OMD": 5433,
      "Pe": 5434,
      "Por": 5435,
      "Pres": 5436,
      "Pris": 5437,
      "Pak": 5438,
      "Pha": 5439,
      "PME": 5440,
      "RF": 5441,
      "Ron": 5442,
      "Ret": 5443,
      "SM": 5444,
      "Sar": 5445,
      "Sav": 5446,
      "Spr": 5447,
      "Sous": 5448,
      "SpÃ": 5449,
      "StrÃ": 5450,
      "Stac": 5451,
      "SanÂ": 5452,
      "Sisi": 5453,
      "TI": 5454,
      "Tan": 5455,
      "Tun": 5456,
      "Tor": 5457,
      "Thom": 5458,
      "Thi": 5459,
      "Terre": 5460,
      "UBS": 5461,
      "VI": 5462,
      "Vo": 5463,
      "Van": 5464,
      "Vis": 5465,
      "Voi": 5466,
      "Vir": 5467,
      "Vendre": 5468,
      "Vall": 5469,
      "Vaus": 5470,
      "Wh": 5471,
      "Wal": 5472,
      "XX": 5473,
      "Ye": 5474,
      "You": 5475,
      "Zo": 5476,
      "ala": 5477,
      "atÃ": 5478,
      "ades": 5479,
      "adÃ": 5480,
      "ache": 5481,
      "ben": 5482,
      "bin": 5483,
      "bal": 5484,
      "bap": 5485,
      "balle": 5486,
      "blin": 5487,
      "brou": 5488,
      "blog": 5489,
      "cles": 5490,
      "cous": 5491,
      "cence": 5492,
      "cali": 5493,
      "cra": 5494,
      "clo": 5495,
      "drÃ": 5496,
      "dons": 5497,
      "dgÃ": 5498,
      "doin": 5499,
      "dacteur": 5500,
      "drone": 5501,
      "dauph": 5502,
      "ek": 5503,
      "eil": 5504,
      "fati": 5505,
      "faus": 5506,
      "from": 5507,
      "foie": 5508,
      "fety": 5509,
      "flotte": 5510,
      "gan": 5511,
      "gre": 5512,
      "gne": 5513,
      "gnÃ": 5514,
      "glÃ": 5515,
      "gers": 5516,
      "gÃª": 5517,
      "gad": 5518,
      "grec": 5519,
      "gler": 5520,
      "gite": 5521,
      "gnant": 5522,
      "her": 5523,
      "har": 5524,
      "hol": 5525,
      "hos": 5526,
      "hsud": 5527,
      "ia": 5528,
      "io": 5529,
      "iennes": 5530,
      "itinÃ": 5531,
      "jon": 5532,
      "jac": 5533,
      "japon": 5534,
      "kh": 5535,
      "ku": 5536,
      "kie": 5537,
      "kama": 5538,
      "kate": 5539,
      "ksen": 5540,
      "lv": 5541,
      "lour": 5542,
      "lons": 5543,
      "lux": 5544,
      "ling": 5545,
      "laise": 5546,
      "mun": 5547,
      "mins": 5548,
      "mages": 5549,
      "mystÃ": 5550,
      "mocrate": 5551,
      "myth": 5552,
      "na": 5553,
      "nÂ": 5554,
      "nit": 5555,
      "nale": 5556,
      "naient": 5557,
      "nsy": 5558,
      "naliste": 5559,
      "ola": 5560,
      "oys": 5561,
      "oteurs": 5562,
      "oton": 5563,
      "osurveillance": 5564,
      "oeil": 5565,
      "pH": 5566,
      "pent": 5567,
      "pant": 5568,
      "pat": 5569,
      "ptions": 5570,
      "peux": 5571,
      "pages": 5572,
      "ping": 5573,
      "pique": 5574,
      "pagne": 5575,
      "rur": 5576,
      "rain": 5577,
      "rable": 5578,
      "ramÃ": 5579,
      "ralement": 5580,
      "rth": 5581,
      "ratis": 5582,
      "stu": 5583,
      "scep": 5584,
      "scul": 5585,
      "saccord": 5586,
      "studi": 5587,
      "sordre": 5588,
      "spons": 5589,
      "tain": 5590,
      "tons": 5591,
      "toit": 5592,
      "tton": 5593,
      "tails": 5594,
      "urÃ": 5595,
      "udis": 5596,
      "usion": 5597,
      "umb": 5598,
      "usement": 5599,
      "vor": 5600,
      "vais": 5601,
      "vinci": 5602,
      "vabilitÃ": 5603,
      "work": 5604,
      "wich": 5605,
      "wkins": 5606,
      "xiÃ": 5607,
      "yo": 5608,
      "yant": 5609,
      "zz": 5610,
      "zÃ": 5611,
      "zaine": 5612,
      "zhou": 5613,
      "£.": 5614,
      "©\".": 5615,
      "enc": 5616,
      "encla": 5617,
      "enge": 5618,
      "enue": 5619,
      "enfin": 5620,
      "envie": 5621,
      "encad": 5622,
      "onn": 5623,
      "deme": 5624,
      "dedans": 5625,
      "delÃ": 5626,
      "demain": 5627,
      "deuil": 5628,
      "ancÃ": 5629,
      "anche": 5630,
      "rein": 5631,
      "remis": 5632,
      "rerait": 5633,
      "rejet": 5634,
      "relais": 5635,
      "retran": 5636,
      "remaniÃ": 5637,
      "remettent": 5638,
      "reviendra": 5639,
      "lez": 5640,
      "lets": 5641,
      "levant": 5642,
      "aisie": 5643,
      "quin": 5644,
      "quette": 5645,
      "quanti": 5646,
      "quences": 5647,
      "oure": 5648,
      "ouchement": 5649,
      "eral": 5650,
      "erra": 5651,
      "ervation": 5652,
      "erksen": 5653,
      "entamÃ": 5654,
      "entraÃ": 5655,
      "entrav": 5656,
      "lad": 5657,
      "labor": 5658,
      "laritÃ": 5659,
      "lakama": 5660,
      "ties": 5661,
      "time": 5662,
      "timents": 5663,
      "timbre": 5664,
      "ticules": 5665,
      "issent": 5666,
      "inau": 5667,
      "incon": 5668,
      "inat": 5669,
      "insÃ": 5670,
      "inex": 5671,
      "ineux": 5672,
      "injec": 5673,
      "invisi": 5674,
      "invite": 5675,
      "inologue": 5676,
      "innoc": 5677,
      "arab": 5678,
      "armer": 5679,
      "argu": 5680,
      "etro": 5681,
      "tez": 5682,
      "telet": 5683,
      "aud": 5684,
      "aurÃ": 5685,
      "aurer": 5686,
      "orge": 5687,
      "ortement": 5688,
      "orth": 5689,
      "oratoire": 5690,
      "descente": 5691,
      "iliÃ": 5692,
      "illar": 5693,
      "seÂ": 5694,
      "seins": 5695,
      "secour": 5696,
      "segment": 5697,
      "cein": 5698,
      "ceau": 5699,
      "litÃ": 5700,
      "liance": 5701,
      "limin": 5702,
      "menti": 5703,
      "mentale": 5704,
      "traÃ": 5705,
      "traces": 5706,
      "tracteurs": 5707,
      "chel": 5708,
      "chale": 5709,
      "chaise": 5710,
      "chouÃ": 5711,
      "ombi": 5712,
      "omlion": 5713,
      "simu": 5714,
      "avÃ": 5715,
      "avent": 5716,
      "avenue": 5717,
      "avortement": 5718,
      "prouver": 5719,
      "proie": 5720,
      "dir": 5721,
      "dite": 5722,
      "diat": 5723,
      "diaire": 5724,
      "diens": 5725,
      "dienne": 5726,
      "dicule": 5727,
      "diverses": 5728,
      "dimbour": 5729,
      "divor": 5730,
      "neurs": 5731,
      "onto": 5732,
      "ast": 5733,
      "ason": 5734,
      "associ": 5735,
      "assade": 5736,
      "assignation": 5737,
      "alinga": 5738,
      "altitudes": 5739,
      "parent": 5740,
      "parait": 5741,
      "parois": 5742,
      "parts": 5743,
      "parvenir": 5744,
      "parental": 5745,
      "parisi": 5746,
      "parrain": 5747,
      "rich": 5748,
      "riques": 5749,
      "riche": 5750,
      "rification": 5751,
      "ridicule": 5752,
      "meÂ": 5753,
      "mela": 5754,
      "conÃ": 5755,
      "conce": 5756,
      "convi": 5757,
      "conces": 5758,
      "congrÃ": 5759,
      "confort": 5760,
      "consignes": 5761,
      "contexte": 5762,
      "oiement": 5763,
      "ust": 5764,
      "usines": 5765,
      "aty": 5766,
      "atz": 5767,
      "attÃ": 5768,
      "ataire": 5769,
      "estÂ": 5770,
      "ester": 5771,
      "agents": 5772,
      "ciale": 5773,
      "cieux": 5774,
      "cifiÃ": 5775,
      "cialisÃ": 5776,
      "cialistes": 5777,
      "citation": 5778,
      "aiser": 5779,
      "aissent": 5780,
      "pourparler": 5781,
      "pourrions": 5782,
      "quiers": 5783,
      "quival": 5784,
      "quitte": 5785,
      "euf": 5786,
      "eusement": 5787,
      "plis": 5788,
      "plans": 5789,
      "ploiement": 5790,
      "comble": 5791,
      "surprises": 5792,
      "survenu": 5793,
      "propor": 5794,
      "protest": 5795,
      "proposer": 5796,
      "proposent": 5797,
      "ressÃ": 5798,
      "resser": 5799,
      "ressemble": 5800,
      "restruc": 5801,
      "ressant": 5802,
      "vies": 5803,
      "viens": 5804,
      "vienne": 5805,
      "virus": 5806,
      "videmment": 5807,
      "ouvrir": 5808,
      "pasteur": 5809,
      "passent": 5810,
      "apparti": 5811,
      "apporter": 5812,
      "poÃ": 5813,
      "polÃ": 5814,
      "pots": 5815,
      "tera": 5816,
      "fices": 5817,
      "fira": 5818,
      "oise": 5819,
      "oissÃ": 5820,
      "oiseau": 5821,
      "abus": 5822,
      "ends": 5823,
      "endocr": 5824,
      "cessÃ": 5825,
      "nier": 5826,
      "nient": 5827,
      "nive": 5828,
      "niche": 5829,
      "turÃ": 5830,
      "tuel": 5831,
      "tume": 5832,
      "tuaire": 5833,
      "tudie": 5834,
      "persu": 5835,
      "perdre": 5836,
      "perquis": 5837,
      "percutÃ": 5838,
      "exac": 5839,
      "exter": 5840,
      "excÃ": 5841,
      "expir": 5842,
      "extradition": 5843,
      "portes": 5844,
      "portait": 5845,
      "portique": 5846,
      "servant": 5847,
      "Leak": 5848,
      "mifÃ": 5849,
      "testicules": 5850,
      "mann": 5851,
      "manant": 5852,
      "manger": 5853,
      "clays": 5854,
      "clamer": 5855,
      "clarations": 5856,
      "veÂ": 5857,
      "veineux": 5858,
      "occident": 5859,
      "geoys": 5860,
      "imul": 5861,
      "importÃ": 5862,
      "imagin": 5863,
      "Ãªtes": 5864,
      "peler": 5865,
      "Laden": 5866,
      "Lachaise": 5867,
      "iris": 5868,
      "irac": 5869,
      "pala": 5870,
      "cutif": 5871,
      "code": 5872,
      "coff": 5873,
      "colas": 5874,
      "copie": 5875,
      "insoli": 5876,
      "instal": 5877,
      "institution": 5878,
      "lucr": 5879,
      "llement": 5880,
      "entrepÃ": 5881,
      "roÃ": 5882,
      "rotiques": 5883,
      "atiquement": 5884,
      "course": 5885,
      "courtier": 5886,
      "courante": 5887,
      "mot": 5888,
      "motions": 5889,
      "moments": 5890,
      "moto": 5891,
      "ado": 5892,
      "ador": 5893,
      "adminis": 5894,
      "admettre": 5895,
      "adresse": 5896,
      "denti": 5897,
      "tater": 5898,
      "ieuses": 5899,
      "mistes": 5900,
      "missions": 5901,
      "saur": 5902,
      "satel": 5903,
      "sachant": 5904,
      "ueMax": 5905,
      "montrait": 5906,
      "contour": 5907,
      "contam": 5908,
      "conteste": 5909,
      "mini": 5910,
      "mingh": 5911,
      "sentent": 5912,
      "sentait": 5913,
      "ouverts": 5914,
      "certi": 5915,
      "disons": 5916,
      "dispu": 5917,
      "discrimin": 5918,
      "disposant": 5919,
      "dissimu": 5920,
      "alimentaire": 5921,
      "alimentÃ": 5922,
      "visa": 5923,
      "vise": 5924,
      "visait": 5925,
      "vistes": 5926,
      "ordres": 5927,
      "faites": 5928,
      "puissants": 5929,
      "puissante": 5930,
      "phase": 5931,
      "parties": 5932,
      "partielle": 5933,
      "personnage": 5934,
      "empris": 5935,
      "emporter": 5936,
      "emails": 5937,
      "finit": 5938,
      "finale": 5939,
      "finition": 5940,
      "voquer": 5941,
      "portent": 5942,
      "marins": 5943,
      "marrer": 5944,
      "marges": 5945,
      "marquant": 5946,
      "rare": 5947,
      "rateur": 5948,
      "intermÃ": 5949,
      "internet": 5950,
      "intervient": 5951,
      "interjetÃ": 5952,
      "interrompu": 5953,
      "lision": 5954,
      "solÃ": 5955,
      "soda": 5956,
      "opti": 5957,
      "consist": 5958,
      "constater": 5959,
      "202Â": 5960,
      "guisÃ": 5961,
      "gulier": 5962,
      "renouv": 5963,
      "rendus": 5964,
      "rencontrÃ": 5965,
      "renforce": 5966,
      "rendez": 5967,
      "chantier": 5968,
      "changent": 5969,
      "cars": 5970,
      "carbon": 5971,
      "tolÃ": 5972,
      "trio": 5973,
      "trier": 5974,
      "trick": 5975,
      "donnent": 5976,
      "donnait": 5977,
      "recru": 5978,
      "budgÃ": 5979,
      "coupÃ": 5980,
      "obus": 5981,
      "indiquait": 5982,
      "majeu": 5983,
      "machin": 5984,
      "rapi": 5985,
      "rappro": 5986,
      "rappeler": 5987,
      "vente": 5988,
      "ventions": 5989,
      "alise": 5990,
      "soud": 5991,
      "soutenait": 5992,
      "nommÃ": 5993,
      "uniforme": 5994,
      "chienne": 5995,
      "travaux": 5996,
      "publie": 5997,
      "publier": 5998,
      "vende": 5999,
      "venue": 6000,
      "ditÂ": 6001,
      "crites": 6002,
      "criture": 6003,
      "accent": 6004,
      "plaÃ": 6005,
      "ingbah": 6006,
      "igation": 6007,
      "igno": 6008,
      "enfance": 6009,
      "sexy": 6010,
      "gouvernementale": 6011,
      "Chi": 6012,
      "Chr": 6013,
      "Chanz": 6014,
      "Chirac": 6015,
      "communes": 6016,
      "lot": 6017,
      "trace": 6018,
      "traduit": 6019,
      "direct": 6020,
      "homologue": 6021,
      "prio": 6022,
      "ministres": 6023,
      "cry": 6024,
      "cris": 6025,
      "crack": 6026,
      "lancer": 6027,
      "ancial": 6028,
      "Enfin": 6029,
      "geste": 6030,
      "million": 6031,
      "utilisent": 6032,
      "statis": 6033,
      "bervil": 6034,
      "cherchÃ": 6035,
      "chercher": 6036,
      "portefeuille": 6037,
      "colon": 6038,
      "collÃ": 6039,
      "colline": 6040,
      "collision": 6041,
      "truire": 6042,
      "transfÃ": 6043,
      "pirÃ": 6044,
      "piano": 6045,
      "aurais": 6046,
      "larmes": 6047,
      "laryn": 6048,
      "passages": 6049,
      "appellent": 6050,
      "sang": 6051,
      "2000": 6052,
      "200Â": 6053,
      "moral": 6054,
      "mortes": 6055,
      "lignes": 6056,
      "hiver": 6057,
      "Aube": 6058,
      "Aubervil": 6059,
      "cachÃ": 6060,
      "solvabilitÃ": 6061,
      "producti": 6062,
      "voient": 6063,
      "effets": 6064,
      "rentables": 6065,
      "volte": 6066,
      "formu": 6067,
      "fugiÃ": 6068,
      "rÃªves": 6069,
      "couple": 6070,
      "bondi": 6071,
      "bonnes": 6072,
      "connus": 6073,
      "banquiers": 6074,
      "rues": 6075,
      "suscite": 6076,
      "telles": 6077,
      "tellig": 6078,
      "ComitÃ": 6079,
      "vieÂ": 6080,
      "thique": 6081,
      "canti": 6082,
      "cannab": 6083,
      "charbon": 6084,
      "confidenti": 6085,
      "postes": 6086,
      "1970": 6087,
      "roule": 6088,
      "concerner": 6089,
      "concernait": 6090,
      "Mark": 6091,
      "Marine": 6092,
      "Marguerite": 6093,
      "capteurs": 6094,
      "allaient": 6095,
      "autoritaire": 6096,
      "travaillent": 6097,
      "organise": 6098,
      "creusÃ": 6099,
      "passager": 6100,
      "gara": 6101,
      "garie": 6102,
      "antici": 6103,
      "locataires": 6104,
      "vues": 6105,
      "briÃ": 6106,
      "britÃ": 6107,
      "anglo": 6108,
      "anglaise": 6109,
      "erreur": 6110,
      "erreurs": 6111,
      "restait": 6112,
      "trouvaient": 6113,
      "foncÃ": 6114,
      "Ontari": 6115,
      "baril": 6116,
      "barils": 6117,
      "prÃªter": 6118,
      "Sierra": 6119,
      "bouche": 6120,
      "boucles": 6121,
      "cultur": 6122,
      "journaux": 6123,
      "publics": 6124,
      "publication": 6125,
      "publicain": 6126,
      "publicains": 6127,
      "Quatre": 6128,
      "affiche": 6129,
      "affichent": 6130,
      "attachÃ": 6131,
      "regag": 6132,
      "actionnaires": 6133,
      "nettes": 6134,
      "engou": 6135,
      "Joel": 6136,
      "accusent": 6137,
      "accusations": 6138,
      "dorÃ": 6139,
      "fondation": 6140,
      "valuation": 6141,
      "livraisons": 6142,
      "apparaissent": 6143,
      "porters": 6144,
      "famili": 6145,
      "symp": 6146,
      "tourne": 6147,
      "tournent": 6148,
      "actuelles": 6149,
      "violent": 6150,
      "violente": 6151,
      "connaissent": 6152,
      "doux": 6153,
      "double": 6154,
      "douze": 6155,
      "jambes": 6156,
      "olique": 6157,
      "rassemble": 6158,
      "promet": 6159,
      "commentÃ": 6160,
      "commenter": 6161,
      "commentaires": 6162,
      "positif": 6163,
      "ologne": 6164,
      "bele": 6165,
      "tactique": 6166,
      "pensaient": 6167,
      "conduit": 6168,
      "conduire": 6169,
      "CAC": 6170,
      "CASA": 6171,
      "couverts": 6172,
      "wealth": 6173,
      "week": 6174,
      "augmente": 6175,
      "augmentation": 6176,
      "avionÂ": 6177,
      "croissant": 6178,
      "SuÃ": 6179,
      "Suisse": 6180,
      "remplace": 6181,
      "remportÃ": 6182,
      "secteurs": 6183,
      "supprimÃ": 6184,
      "supporters": 6185,
      "Congo": 6186,
      "akia": 6187,
      "revenu": 6188,
      "revendi": 6189,
      "revenue": 6190,
      "revendic": 6191,
      "asseoir": 6192,
      "planÃ": 6193,
      "exploit": 6194,
      "Berlus": 6195,
      "faisaient": 6196,
      "ghours": 6197,
      "mathÃ": 6198,
      "salaire": 6199,
      "saluÃ": 6200,
      "possibleÂ": 6201,
      "Baratz": 6202,
      "Barclays": 6203,
      "nisme": 6204,
      "infec": 6205,
      "conseillÃ": 6206,
      "matins": 6207,
      "continuent": 6208,
      "Union": 6209,
      "officiels": 6210,
      "traitÃ": 6211,
      "trimes": 6212,
      "financier": 6213,
      "financiers": 6214,
      "sorties": 6215,
      "dommages": 6216,
      "paie": 6217,
      "sauter": 6218,
      "talent": 6219,
      "austÃ": 6220,
      "principal": 6221,
      "attente": 6222,
      "attention": 6223,
      "voluent": 6224,
      "voulaient": 6225,
      "cardinal": 6226,
      "dirigeant": 6227,
      "norm": 6228,
      "tombe": 6229,
      "consommer": 6230,
      "commencer": 6231,
      "Pacifique": 6232,
      "Pamela": 6233,
      "Patrick": 6234,
      "terminer": 6235,
      "fortune": 6236,
      "criminelle": 6237,
      "Bruxellois": 6238,
      "Projet": 6239,
      "boeuf": 6240,
      "loger": 6241,
      "logique": 6242,
      "logici": 6243,
      "magie": 6244,
      "roman": 6245,
      "romans": 6246,
      "aniel": 6247,
      "quartiers": 6248,
      "origin": 6249,
      "attends": 6250,
      "attendent": 6251,
      "attendait": 6252,
      "sentera": 6253,
      "graphi": 6254,
      "malade": 6255,
      "commerciaux": 6256,
      "commerciales": 6257,
      "Brook": 6258,
      "doig": 6259,
      "fronde": 6260,
      "rendent": 6261,
      "rendant": 6262,
      "turation": 6263,
      "ambigus": 6264,
      "ultime": 6265,
      "fonctionnaires": 6266,
      "FrontierÂ": 6267,
      "CSRS": 6268,
      "Sher": 6269,
      "foule": 6270,
      "facteurs": 6271,
      "factur": 6272,
      "noirs": 6273,
      "vacances": 6274,
      "vacuation": 6275,
      "neutre": 6276,
      "particuliÃ": 6277,
      "empÃªche": 6278,
      "empÃªchÃ": 6279,
      "aucunement": 6280,
      "Bourgeoys": 6281,
      "Caringbah": 6282,
      "Island": 6283,
      "Liban": 6284,
      "Pia": 6285,
      "brass": 6286,
      "kiLeak": 6287,
      "sciences": 6288,
      "onyi": 6289,
      "conclusion": 6290,
      "serveurs": 6291,
      "communiste": 6292,
      "trafiquant": 6293,
      "stocks": 6294,
      "stockÃ": 6295,
      "stockage": 6296,
      "signaler": 6297,
      "1992": 6298,
      "gyptien": 6299,
      "250Â": 6300,
      "Mehsud": 6301,
      "Organ": 6302,
      "multicultur": 6303,
      "animal": 6304,
      "relatives": 6305,
      "entification": 6306,
      "auditions": 6307,
      "pronon": 6308,
      "consultation": 6309,
      "accueil": 6310,
      "supermarchÃ": 6311,
      "installÃ": 6312,
      "objets": 6313,
      "solution": 6314,
      "solutions": 6315,
      "moignages": 6316,
      "tunnels": 6317,
      "Cannes": 6318,
      "blanche": 6319,
      "blancs": 6320,
      "danse": 6321,
      "danger": 6322,
      "frus": 6323,
      "frag": 6324,
      "frac": 6325,
      "amenÃ": 6326,
      "profiter": 6327,
      "violation": 6328,
      "gratuite": 6329,
      "marijuana": 6330,
      "semblent": 6331,
      "soulignant": 6332,
      "facilement": 6333,
      "graphique": 6334,
      "Dutton": 6335,
      "Puis": 6336,
      "bloque": 6337,
      "munitions": 6338,
      "mocratique": 6339,
      "poussÃ": 6340,
      "vÃªtements": 6341,
      "diplomatique": 6342,
      "concurrent": 6343,
      "concurrence": 6344,
      "plaintes": 6345,
      "victime": 6346,
      "applique": 6347,
      "appliquÃ": 6348,
      "subti": 6349,
      "subvention": 6350,
      "impliquant": 6351,
      "finitive": 6352,
      "finitivement": 6353,
      "souffre": 6354,
      "chiffre": 6355,
      "chirurgien": 6356,
      "chirurgicaux": 6357,
      "pharmacie": 6358,
      "Financial": 6359,
      "Guerre": 6360,
      "Mercredi": 6361,
      "RSCA": 6362,
      "Safety": 6363,
      "Safira": 6364,
      "cabines": 6365,
      "mairie": 6366,
      "silence": 6367,
      "vastes": 6368,
      "essaie": 6369,
      "dizaine": 6370,
      "meurtrier": 6371,
      "conservÃ": 6372,
      "agressÃ": 6373,
      "passeports": 6374,
      "ordinaire": 6375,
      "ordinateurs": 6376,
      "ventuel": 6377,
      "ventuelle": 6378,
      "ventuellement": 6379,
      "constitutionnel": 6380,
      "BarackÂ": 6381,
      "chauffe": 6382,
      "BCE": 6383,
      "Group": 6384,
      "efficaces": 6385,
      "funts": 6386,
      "pondre": 6387,
      "sacs": 6388,
      "with": 6389,
      "tective": 6390,
      "oriquement": 6391,
      "avanÃ": 6392,
      "avancÃ": 6393,
      "avalanche": 6394,
      "attendues": 6395,
      "citrouille": 6396,
      "appuie": 6397,
      "cuisin": 6398,
      "cuisine": 6399,
      "cuisines": 6400,
      "accroÃ": 6401,
      "tablir": 6402,
      "fournies": 6403,
      "australiens": 6404,
      "analyste": 6405,
      "Nicolas": 6406,
      "Pasteur": 6407,
      "ValueMax": 6408,
      "WikiLeak": 6409,
      "fosse": 6410,
      "foot": 6411,
      "faute": 6412,
      "fabri": 6413,
      "gislatives": 6414,
      "oblige": 6415,
      "ponses": 6416,
      "indemnitÃ": 6417,
      "exprimant": 6418,
      "distribuÃ": 6419,
      "visibilitÃ": 6420,
      "totale": 6421,
      "observer": 6422,
      "lectriques": 6423,
      "langueÂ": 6424,
      "anglaises": 6425,
      "participation": 6426,
      "physique": 6427,
      "palestinien": 6428,
      "palestinienne": 6429,
      "enregistrements": 6430,
      "1erÂ": 6431,
      "CareÂ": 6432,
      "MalgrÃ": 6433,
      "Malaisie": 6434,
      "Motors": 6435,
      "Rocket": 6436,
      "poids": 6437,
      "rattr": 6438,
      "timitÃ": 6439,
      "dessins": 6440,
      "secondes": 6441,
      "cellent": 6442,
      "trompÃ": 6443,
      "divertissement": 6444,
      "progression": 6445,
      "sondages": 6446,
      "manufactur": 6447,
      "adaptÃ": 6448,
      "contenaient": 6449,
      "authenti": 6450,
      "authentification": 6451,
      "construire": 6452,
      "judiciaire": 6453,
      "homosexuel": 6454,
      "futures": 6455,
      "assises": 6456,
      "assassinat": 6457,
      "favorables": 6458,
      "Atlan": 6459,
      "Amirth": 6460,
      "Beaudoin": 6461,
      "Conservation": 6462,
      "DiCa": 6463,
      "Jusqu": 6464,
      "Pennsy": 6465,
      "Vieux": 6466,
      "Wild": 6467,
      "Wilkie": 6468,
      "branche": 6469,
      "hasard": 6470,
      "navigation": 6471,
      "savamment": 6472,
      "statut": 6473,
      "insurgÃ": 6474,
      "convaincus": 6475,
      "congolais": 6476,
      "congolaise": 6477,
      "attribuer": 6478,
      "cifiques": 6479,
      "auxquels": 6480,
      "exportations": 6481,
      "existants": 6482,
      "interceptÃ": 6483,
      "Chev": 6484,
      "transmissions": 6485,
      "correctement": 6486,
      "Angeles": 6487,
      "EdwardÂ": 6488,
      "ASF": 6489,
      "Howie": 6490,
      "Kampala": 6491,
      "Post": 6492,
      "Tian": 6493,
      "africains": 6494,
      "boisson": 6495,
      "camions": 6496,
      "fecture": 6497,
      "papier": 6498,
      "taliban": 6499,
      "validÃ": 6500,
      "envisagÃ": 6501,
      "anonymat": 6502,
      "oublier": 6503,
      "arrestation": 6504,
      "arrestations": 6505,
      "assouplir": 6506,
      "alternative": 6507,
      "commissariat": 6508,
      "procureur": 6509,
      "fief": 6510,
      "figuraient": 6511,
      "rangs": 6512,
      "manquements": 6513,
      "moderne": 6514,
      "adolescent": 6515,
      "raffinage": 6516,
      "consacrent": 6517,
      "majeurs": 6518,
      "traverse": 6519,
      "achetÃ": 6520,
      "frontaliÃ": 6521,
      "frontaliers": 6522,
      "juridique": 6523,
      "AffordableÂ": 6524,
      "nourrisson": 6525,
      "APHP": 6526,
      "DSD": 6527,
      "Forces": 6528,
      "Hawkins": 6529,
      "Mulcaire": 6530,
      "RioÂ": 6531,
      "bombe": 6532,
      "blocs": 6533,
      "dget": 6534,
      "fluores": 6535,
      "zones": 6536,
      "religieuses": 6537,
      "quasiment": 6538,
      "liorer": 6539,
      "partenariat": 6540,
      "conversation": 6541,
      "agricoles": 6542,
      "vivants": 6543,
      "extraordinaire": 6544,
      "impact": 6545,
      "conscience": 6546,
      "individu": 6547,
      "Commonwealth": 6548,
      "symbolique": 6549,
      "conseillers": 6550,
      "bruxelloise": 6551,
      "multipliÃ": 6552,
      "consultations": 6553,
      "fabrication": 6554,
      "syndicats": 6555,
      "manipulations": 6556,
      "psychiatre": 6557,
      "Federal": 6558,
      "ambassadeur": 6559,
      "American": 6560,
      "Flight": 6561,
      "Clarke": 6562,
      "Diego": 6563,
      "Ethan": 6564,
      "General": 6565,
      "Qassam": 6566,
      "Service": 6567,
      "Seule": 6568,
      "coiff": 6569,
      "farouchement": 6570,
      "gasp": 6571,
      "gendarmes": 6572,
      "jaune": 6573,
      "mammifÃ": 6574,
      "mutinÃ": 6575,
      "maths": 6576,
      "nettement": 6577,
      "racont": 6578,
      "quilibre": 6579,
      "incursion": 6580,
      "ortigara": 6581,
      "chansons": 6582,
      "allumÃ": 6583,
      "contraception": 6584,
      "conjoints": 6585,
      "italien": 6586,
      "abaissÃ": 6587,
      "pornographie": 6588,
      "contentement": 6589,
      "constamment": 6590,
      "cargaison": 6591,
      "nonciateur": 6592,
      "accordÃ": 6593,
      "Chambre": 6594,
      "complexe": 6595,
      "Aucun": 6596,
      "producteurs": 6597,
      "Institut": 6598,
      "volontÃ": 6599,
      "Communications": 6600,
      "1976": 6601,
      "restaurant": 6602,
      "appartenance": 6603,
      "promenait": 6604,
      "accrochages": 6605,
      "extrÃªmement": 6606,
      "AngelaÂ": 6607,
      "Silverado": 6608,
      "obstructionnisme": 6609,
      "Runyonyi": 6610,
      "strictes": 6611,
      "connectÃ": 6612,
      "Blackbur": 6613,
      "Greenwich": 6614,
      "Guebuza": 6615,
      "Arena": 6616,
      "Ambassade": 6617,
      "Adolf": 6618,
      "Bild": 6619,
      "Birmingh": 6620,
      "Bulgarie": 6621,
      "Capit": 6622,
      "Canadienne": 6623,
      "Dhlakama": 6624,
      "Doerksen": 6625,
      "Double": 6626,
      "Dhabi": 6627,
      "Evening": 6628,
      "Fonds": 6629,
      "Festival": 6630,
      "Floride": 6631,
      "Hydro": 6632,
      "Henri": 6633,
      "Halifax": 6634,
      "Hakimul": 6635,
      "Highway": 6636,
      "Italie": 6637,
      "Jagger": 6638,
      "KatieÂ": 6639,
      "Kiev": 6640,
      "Latakia": 6641,
      "Mouvement": 6642,
      "Maintenant": 6643,
      "Money": 6644,
      "NotW": 6645,
      "Pakistan": 6646,
      "PhaseÂ": 6647,
      "Springs": 6648,
      "Stacy": 6649,
      "Tunks": 6650,
      "Toronto": 6651,
      "Virgin": 6652,
      "Vendredi": 6653,
      "Vallortigara": 6654,
      "Vaussion": 6655,
      "Yeah": 6656,
      "Zoomlion": 6657,
      "blindÃ": 6658,
      "fausses": 6659,
      "fromage": 6660,
      "gadg": 6661,
      "hospit": 6662,
      "japonais": 6663,
      "lvanie": 6664,
      "mythes": 6665,
      "stupÃ": 6666,
      "enclave": 6667,
      "demeure": 6668,
      "arabe": 6669,
      "armerie": 6670,
      "dimbourg": 6671,
      "divorce": 6672,
      "associations": 6673,
      "pourparlers": 6674,
      "restructuration": 6675,
      "endocrinologue": 6676,
      "niveaux": 6677,
      "expiration": 6678,
      "occidentale": 6679,
      "insolites": 6680,
      "installations": 6681,
      "lucratif": 6682,
      "administra": 6683,
      "emprisonnÃ": 6684,
      "consistoire": 6685,
      "majeure": 6686,
      "machines": 6687,
      "Chanzu": 6688,
      "statistiques": 6689,
      "laryngite": 6690,
      "Aubervilliers": 6691,
      "cannabis": 6692,
      "Ontario": 6693,
      "symptÃ": 6694,
      "Berlusconi": 6695,
      "multiculturalisme": 6696,
      "WikiLeaks": 6697,
      "authenticitÃ": 6698,
      "Amirthalinga": 6699,
      "DiCaprio": 6700,
      "Pennsylvanie": 6701,
      "Birmingham": 6702,
      "Hakimullah": 6703,
      "!\",": 6704,
      "\")": 6705,
      "%).": 6706,
      "(\"": 6707,
      "(-": 6708,
      ".-": 6709,
      "06": 6710,
      "08": 6711,
      "29": 6712,
      "2e": 6713,
      "22Â": 6714,
      "210Â": 6715,
      "29Â": 6716,
      "24Â": 6717,
      "35Â": 6718,
      "31Â": 6719,
      "39Â": 6720,
      "350": 6721,
      "4e": 6722,
      "41Â": 6723,
      "52": 6724,
      "5000": 6725,
      "59Â": 6726,
      "53Â": 6727,
      "62": 6728,
      "68": 6729,
      "71": 6730,
      "73": 6731,
      "70Â": 6732,
      "86": 6733,
      "89": 6734,
      "836": 6735,
      "855": 6736,
      "90Â": 6737,
      "964": 6738,
      "AM": 6739,
      "Am": 6740,
      "Ali": 6741,
      "Alis": 6742,
      "Alors": 6743,
      "Aca": 6744,
      "Atom": 6745,
      "Actu": 6746,
      "AAP": 6747,
      "A350": 6748,
      "Ba": 6749,
      "Bre": 6750,
      "Bis": 6751,
      "Bag": 6752,
      "Bab": 6753,
      "Bog": 6754,
      "Bende": 6755,
      "Boun": 6756,
      "Blun": 6757,
      "Bey": 6758,
      "Bell": 6759,
      "Busines": 6760,
      "CD": 6761,
      "CE": 6762,
      "CO": 6763,
      "CR": 6764,
      "Cl": 6765,
      "Cer": 6766,
      "Cent": 6767,
      "Cal": 6768,
      "Cam": 6769,
      "Celle": 6770,
      "Cir": 6771,
      "Clu": 6772,
      "Cop": 6773,
      "Cru": 6774,
      "Cros": 6775,
      "CDC": 6776,
      "Cyr": 6777,
      "DD": 6778,
      "Dy": 6779,
      "Dre": 6780,
      "Dent": 6781,
      "Det": 6782,
      "Dol": 6783,
      "DDS": 6784,
      "Dame": 6785,
      "Ew": 6786,
      "Etudes": 6787,
      "FO": 6788,
      "Fun": 6789,
      "Feu": 6790,
      "Fac": 6791,
      "FlÃ": 6792,
      "Front": 6793,
      "Fay": 6794,
      "Fair": 6795,
      "FCA": 6796,
      "Fland": 6797,
      "Fitz": 6798,
      "FBI": 6799,
      "Gr": 6800,
      "Ges": 6801,
      "Ger": 6802,
      "Gri": 6803,
      "Gest": 6804,
      "Gend": 6805,
      "Gir": 6806,
      "Gati": 6807,
      "Gard": 6808,
      "Gains": 6809,
      "Gym": 6810,
      "GCH": 6811,
      "Glad": 6812,
      "Ho": 6813,
      "Han": 6814,
      "Hau": 6815,
      "Hans": 6816,
      "Hus": 6817,
      "Hit": 6818,
      "Hab": 6819,
      "Hard": 6820,
      "Heure": 6821,
      "Hay": 6822,
      "Hid": 6823,
      "Hier": 6824,
      "Hong": 6825,
      "Hague": 6826,
      "HyÃ": 6827,
      "HTSA": 6828,
      "Hirs": 6829,
      "Hillar": 6830,
      "IV": 6831,
      "Ie": 6832,
      "Ip": 6833,
      "Ir": 6834,
      "Iran": 6835,
      "Isa": 6836,
      "ICAC": 6837,
      "JP": 6838,
      "Ji": 6839,
      "Ju": 6840,
      "Jen": 6841,
      "Jil": 6842,
      "Jane": 6843,
      "Kar": 6844,
      "Kenne": 6845,
      "Kig": 6846,
      "Kid": 6847,
      "Kier": 6848,
      "Kong": 6849,
      "Katy": 6850,
      "Lun": 6851,
      "Let": 6852,
      "Larri": 6853,
      "Lombardi": 6854,
      "Lisi": 6855,
      "Lown": 6856,
      "MP": 6857,
      "Mun": 6858,
      "Map": 6859,
      "Mad": 6860,
      "Mog": 6861,
      "Maur": 6862,
      "Mid": 6863,
      "Mobil": 6864,
      "NS": 6865,
      "Nar": 6866,
      "Nich": 6867,
      "Nym": 6868,
      "NRF": 6869,
      "NHTSA": 6870,
      "Ot": 6871,
      "Ous": 6872,
      "Oreg": 6873,
      "Oise": 6874,
      "Old": 6875,
      "ODD": 6876,
      "Pont": 6877,
      "Pri": 6878,
      "Pol": 6879,
      "PÃª": 6880,
      "Pass": 6881,
      "Pales": 6882,
      "PCC": 6883,
      "PIB": 6884,
      "Petro": 6885,
      "Pologne": 6886,
      "Rh": 6887,
      "Rou": 6888,
      "Rom": 6889,
      "Rap": 6890,
      "Rab": 6891,
      "Rich": 6892,
      "Radi": 6893,
      "Sm": 6894,
      "Sla": 6895,
      "Sin": 6896,
      "Sor": 6897,
      "Sri": 6898,
      "Sci": 6899,
      "Sit": 6900,
      "Sad": 6901,
      "Sah": 6902,
      "Skate": 6903,
      "Tu": 6904,
      "Ter": 6905,
      "Tin": 6906,
      "Tam": 6907,
      "Tsa": 6908,
      "ThÃ": 6909,
      "Tah": 6910,
      "Trier": 6911,
      "Tok": 6912,
      "Trente": 6913,
      "Toile": 6914,
      "Trude": 6915,
      "UR": 6916,
      "Ush": 6917,
      "UFO": 6918,
      "UMP": 6919,
      "Ver": 6920,
      "Var": 6921,
      "Wor": 6922,
      "Wat": 6923,
      "Willi": 6924,
      "Yard": 6925,
      "Yves": 6926,
      "Yang": 6927,
      "Yong": 6928,
      "aw": 6929,
      "ajus": 6930,
      "aret": 6931,
      "axes": 6932,
      "alable": 6933,
      "alarmes": 6934,
      "bp": 6935,
      "bent": 6936,
      "bla": 6937,
      "bis": 6938,
      "bau": 6939,
      "bain": 6940,
      "bous": 6941,
      "bit": 6942,
      "bim": 6943,
      "baÃ": 6944,
      "blu": 6945,
      "bro": 6946,
      "boy": 6947,
      "ball": 6948,
      "back": 6949,
      "bunal": 6950,
      "cav": 6951,
      "curs": 6952,
      "cable": 6953,
      "caires": 6954,
      "cret": 6955,
      "cock": 6956,
      "cuses": 6957,
      "camer": 6958,
      "catif": 6959,
      "din": 6960,
      "dor": 6961,
      "dam": 6962,
      "dac": 6963,
      "dge": 6964,
      "dad": 6965,
      "dron": 6966,
      "day": 6967,
      "daction": 6968,
      "dney": 6969,
      "fe": 6970,
      "ft": 6971,
      "fle": 6972,
      "fure": 6973,
      "foy": 6974,
      "fasse": 6975,
      "fets": 6976,
      "fting": 6977,
      "flix": 6978,
      "gl": 6979,
      "gis": 6980,
      "gour": 6981,
      "gel": 6982,
      "gais": 6983,
      "gam": 6984,
      "gale": 6985,
      "glo": 6986,
      "gnent": 6987,
      "gritÃ": 6988,
      "gatoire": 6989,
      "gatif": 6990,
      "gatives": 6991,
      "hal": 6992,
      "hri": 6993,
      "had": 6994,
      "h00": 6995,
      "hack": 6996,
      "ix": 6997,
      "iff": 6998,
      "ieux": 6999,
      "ica": 7000,
      "ifs": 7001,
      "joy": 7002,
      "ker": 7003,
      "king": 7004,
      "kland": 7005,
      "lou": 7006,
      "laires": 7007,
      "lbec": 7008,
      "mn": 7009,
      "mÂ": 7010,
      "mel": 7011,
      "mons": 7012,
      "mpÃ": 7013,
      "mette": 7014,
      "mali": 7015,
      "mations": 7016,
      "mul": 7017,
      "mails": 7018,
      "nac": 7019,
      "nons": 7020,
      "nue": 7021,
      "nants": 7022,
      "nand": 7023,
      "nats": 7024,
      "nites": 7025,
      "ov": 7026,
      "olÃ": 7027,
      "oper": 7028,
      "obÃ": 7029,
      "opolitique": 7030,
      "oke": 7031,
      "office": 7032,
      "pter": 7033,
      "ptu": 7034,
      "pper": 7035,
      "paire": 7036,
      "poir": 7037,
      "ppe": 7038,
      "pitÃ": 7039,
      "pand": 7040,
      "pleurs": 7041,
      "pair": 7042,
      "pinÃ": 7043,
      "pistes": 7044,
      "pentÃ": 7045,
      "pauv": 7046,
      "pyr": 7047,
      "rw": 7048,
      "rois": 7049,
      "rants": 7050,
      "ralisÃ": 7051,
      "ramener": 7052,
      "rablement": 7053,
      "railles": 7054,
      "rares": 7055,
      "rouvrir": 7056,
      "sÅ": 7057,
      "sab": 7058,
      "ssÃ": 7059,
      "spor": 7060,
      "savait": 7061,
      "saut": 7062,
      "stres": 7063,
      "sta": 7064,
      "schÃ": 7065,
      "scr": 7066,
      "shu": 7067,
      "scan": 7068,
      "savons": 7069,
      "sama": 7070,
      "sager": 7071,
      "savais": 7072,
      "saint": 7073,
      "sley": 7074,
      "sagrÃ": 7075,
      "tas": 7076,
      "tus": 7077,
      "tage": 7078,
      "tance": 7079,
      "toire": 7080,
      "tair": 7081,
      "toritÃ": 7082,
      "tailles": 7083,
      "toile": 7084,
      "ude": 7085,
      "ution": 7086,
      "ume": 7087,
      "uelle": 7088,
      "uto": 7089,
      "uillÃ": 7090,
      "ukr": 7091,
      "uku": 7092,
      "von": 7093,
      "vau": 7094,
      "vard": 7095,
      "vari": 7096,
      "vagin": 7097,
      "wi": 7098,
      "wing": 7099,
      "warn": 7100,
      "xe": 7101,
      "xel": 7102,
      "xim": 7103,
      "xie": 7104,
      "ya": 7105,
      "yen": 7106,
      "yau": 7107,
      "ynÃ": 7108,
      "yton": 7109,
      "zo": 7110,
      "zy": 7111,
      "zan": 7112,
      "zombi": 7113,
      "¹,": 7114,
      "essu": 7115,
      "escali": 7116,
      "enlÃ": 7117,
      "enchÃ": 7118,
      "envol": 7119,
      "encre": 7120,
      "encl": 7121,
      "encomb": 7122,
      "envoler": 7123,
      "envolÃ": 7124,
      "enjeux": 7125,
      "enker": 7126,
      "onde": 7127,
      "ongÃ": 7128,
      "onnement": 7129,
      "onard": 7130,
      "onnant": 7131,
      "deur": 7132,
      "devienne": 7133,
      "anat": 7134,
      "annes": 7135,
      "anoÃ": 7136,
      "anmen": 7137,
      "anxi": 7138,
      "red": 7139,
      "rej": 7140,
      "requ": 7141,
      "relle": 7142,
      "requÃ": 7143,
      "repris": 7144,
      "report": 7145,
      "recette": 7146,
      "retrans": 7147,
      "revu": 7148,
      "redevenu": 7149,
      "redres": 7150,
      "redess": 7151,
      "rejoint": 7152,
      "retenue": 7153,
      "remettant": 7154,
      "recommand": 7155,
      "remarquÃ": 7156,
      "rebelle": 7157,
      "reculÃ": 7158,
      "rebondi": 7159,
      "repoussÃ": 7160,
      "leÃ": 7161,
      "leen": 7162,
      "lech": 7163,
      "leage": 7164,
      "aid": 7165,
      "aite": 7166,
      "aident": 7167,
      "quad": 7168,
      "questre": 7169,
      "quateur": 7170,
      "quettes": 7171,
      "oui": 7172,
      "ouer": 7173,
      "erne": 7174,
      "eront": 7175,
      "eraient": 7176,
      "erts": 7177,
      "erie": 7178,
      "erta": 7179,
      "erup": 7180,
      "entendre": 7181,
      "entique": 7182,
      "entours": 7183,
      "lam": 7184,
      "lat": 7185,
      "lage": 7186,
      "latitude": 7187,
      "laart": 7188,
      "lacry": 7189,
      "til": 7190,
      "tit": 7191,
      "tige": 7192,
      "tigÃ": 7193,
      "tille": 7194,
      "tienne": 7195,
      "tiez": 7196,
      "isations": 7197,
      "inte": 7198,
      "intr": 7199,
      "ination": 7200,
      "incom": 7201,
      "ingÃ": 7202,
      "indis": 7203,
      "inno": 7204,
      "inten": 7205,
      "injus": 7206,
      "intitu": 7207,
      "inexpli": 7208,
      "intemps": 7209,
      "insul": 7210,
      "incul": 7211,
      "incl": 7212,
      "intelle": 7213,
      "indisponi": 7214,
      "inchangÃ": 7215,
      "inclin": 7216,
      "inconnue": 7217,
      "inconnus": 7218,
      "intellig": 7219,
      "uns": 7220,
      "ara": 7221,
      "aron": 7222,
      "arre": 7223,
      "arme": 7224,
      "arat": 7225,
      "arra": 7226,
      "arist": 7227,
      "arrange": 7228,
      "etÃ": 7229,
      "etland": 7230,
      "urnes": 7231,
      "urlbec": 7232,
      "ted": 7233,
      "teÂ": 7234,
      "teilla": 7235,
      "auquel": 7236,
      "audition": 7237,
      "aumatisÃ": 7238,
      "orien": 7239,
      "ories": 7240,
      "ority": 7241,
      "deste": 7242,
      "destruc": 7243,
      "dessaisie": 7244,
      "ilÂ": 7245,
      "illumin": 7246,
      "illante": 7247,
      "see": 7248,
      "sey": 7249,
      "sez": 7250,
      "seaux": 7251,
      "ourdir": 7252,
      "litre": 7253,
      "ligÃ": 7254,
      "licitÃ": 7255,
      "liore": 7256,
      "liorÃ": 7257,
      "life": 7258,
      "mentation": 7259,
      "tration": 7260,
      "trage": 7261,
      "trot": 7262,
      "chen": 7263,
      "chron": 7264,
      "chton": 7265,
      "cheng": 7266,
      "chaus": 7267,
      "chael": 7268,
      "chologique": 7269,
      "chester": 7270,
      "omani": 7271,
      "omphe": 7272,
      "siens": 7273,
      "simil": 7274,
      "siden": 7275,
      "sibilitÃ": 7276,
      "aveux": 7277,
      "prun": 7278,
      "prince": 7279,
      "printemps": 7280,
      "dien": 7281,
      "dites": 7282,
      "diques": 7283,
      "digÃ": 7284,
      "dica": 7285,
      "diatre": 7286,
      "diate": 7287,
      "digit": 7288,
      "divul": 7289,
      "neau": 7290,
      "antas": 7291,
      "antennes": 7292,
      "duse": 7293,
      "duses": 7294,
      "durer": 7295,
      "duquel": 7296,
      "duits": 7297,
      "durement": 7298,
      "ducti": 7299,
      "assi": 7300,
      "aspir": 7301,
      "asphy": 7302,
      "assemblÃ": 7303,
      "ansÂ": 7304,
      "ald": 7305,
      "aly": 7306,
      "alour": 7307,
      "allais": 7308,
      "algo": 7309,
      "alentours": 7310,
      "paration": 7311,
      "parfai": 7312,
      "parlant": 7313,
      "paroles": 7314,
      "parlons": 7315,
      "paranoÃ": 7316,
      "rire": 7317,
      "rile": 7318,
      "rigÃ": 7319,
      "rico": 7320,
      "ritent": 7321,
      "ritier": 7322,
      "rival": 7323,
      "rieures": 7324,
      "riches": 7325,
      "riviÃ": 7326,
      "rimentale": 7327,
      "rieusement": 7328,
      "elÂ": 7329,
      "ells": 7330,
      "meer": 7331,
      "conde": 7332,
      "contres": 7333,
      "conver": 7334,
      "concent": 7335,
      "contien": 7336,
      "conforme": 7337,
      "concoc": 7338,
      "conformÃ": 7339,
      "conquis": 7340,
      "conformes": 7341,
      "contrib": 7342,
      "consigne": 7343,
      "conviÃ": 7344,
      "convoquant": 7345,
      "oivent": 7346,
      "usent": 7347,
      "usco": 7348,
      "atur": 7349,
      "atten": 7350,
      "attirer": 7351,
      "aginÃ": 7352,
      "aguÃ": 7353,
      "agone": 7354,
      "agira": 7355,
      "cib": 7356,
      "cie": 7357,
      "ciation": 7358,
      "cions": 7359,
      "ciens": 7360,
      "citait": 7361,
      "ciations": 7362,
      "cialement": 7363,
      "cibles": 7364,
      "cipi": 7365,
      "civil": 7366,
      "ciety": 7367,
      "citad": 7368,
      "cipitÃ": 7369,
      "aisons": 7370,
      "pourcent": 7371,
      "poursuite": 7372,
      "poursuites": 7373,
      "ationÂ": 7374,
      "quie": 7375,
      "quipes": 7376,
      "eut": 7377,
      "amor": 7378,
      "amac": 7379,
      "amph": 7380,
      "amuse": 7381,
      "amatiques": 7382,
      "plo": 7383,
      "plant": 7384,
      "plore": 7385,
      "plissement": 7386,
      "plongÃ": 7387,
      "comtÃ": 7388,
      "combien": 7389,
      "comprise": 7390,
      "composition": 7391,
      "compromet": 7392,
      "surant": 7393,
      "surtout": 7394,
      "surprendre": 7395,
      "survient": 7396,
      "surprise": 7397,
      "surplom": 7398,
      "surface": 7399,
      "surnommÃ": 7400,
      "survivants": 7401,
      "aco": 7402,
      "acer": 7403,
      "acter": 7404,
      "accompagne": 7405,
      "prop": 7406,
      "prodi": 7407,
      "profÃ": 7408,
      "projec": 7409,
      "proxi": 7410,
      "profondÃ": 7411,
      "propul": 7412,
      "provinci": 7413,
      "ressources": 7414,
      "ressortir": 7415,
      "vide": 7416,
      "vieux": 7417,
      "viction": 7418,
      "vital": 7419,
      "vidente": 7420,
      "passion": 7421,
      "apa": 7422,
      "aph": 7423,
      "apo": 7424,
      "apÃ": 7425,
      "appla": 7426,
      "apporte": 7427,
      "approches": 7428,
      "apaisÃ": 7429,
      "apprivoiser": 7430,
      "apaiser": 7431,
      "pole": 7432,
      "pool": 7433,
      "post": 7434,
      "poseurs": 7435,
      "terÂ": 7436,
      "teront": 7437,
      "terie": 7438,
      "tertain": 7439,
      "aindre": 7440,
      "tree": 7441,
      "trer": 7442,
      "fir": 7443,
      "fibres": 7444,
      "ficat": 7445,
      "oiselle": 7446,
      "itÂ": 7447,
      "itent": 7448,
      "ithÃ": 7449,
      "abÃ": 7450,
      "abond": 7451,
      "absor": 7452,
      "absol": 7453,
      "abonnÃ": 7454,
      "sure": 7455,
      "suel": 7456,
      "subli": 7457,
      "suffi": 7458,
      "suels": 7459,
      "pubi": 7460,
      "pubiens": 7461,
      "cessi": 7462,
      "cesser": 7463,
      "cession": 7464,
      "cessifs": 7465,
      "nia": 7466,
      "nile": 7467,
      "tuait": 7468,
      "tuitÃ": 7469,
      "tueux": 7470,
      "tueuse": 7471,
      "tuyau": 7472,
      "perÃ": 7473,
      "perte": 7474,
      "percer": 7475,
      "perchÃ": 7476,
      "perdus": 7477,
      "perds": 7478,
      "pertur": 7479,
      "oll": 7480,
      "olles": 7481,
      "olson": 7482,
      "exer": 7483,
      "extin": 7484,
      "exposÃ": 7485,
      "expression": 7486,
      "excus": 7487,
      "excitation": 7488,
      "excellent": 7489,
      "excuses": 7490,
      "portrait": 7491,
      "portuaire": 7492,
      "servis": 7493,
      "Lee": 7494,
      "LeÂ": 7495,
      "Leurs": 7496,
      "LefÃ": 7497,
      "LeeÂ": 7498,
      "League": 7499,
      "Leonard": 7500,
      "mir": 7501,
      "michael": 7502,
      "tesÂ": 7503,
      "testÃ": 7504,
      "questres": 7505,
      "mane": 7506,
      "mandis": 7507,
      "manitaire": 7508,
      "clame": 7509,
      "clamÃ": 7510,
      "clater": 7511,
      "clarer": 7512,
      "clarifier": 7513,
      "classes": 7514,
      "classÃ": 7515,
      "veli": 7516,
      "vements": 7517,
      "veill": 7518,
      "veillÃ": 7519,
      "gereux": 7520,
      "imposer": 7521,
      "imposant": 7522,
      "immobil": 7523,
      "immigration": 7524,
      "imaginÃ": 7525,
      "Ãªte": 7526,
      "Ãªtres": 7527,
      "fortes": 7528,
      "pelez": 7529,
      "irt": 7530,
      "iron": 7531,
      "irritÃ": 7532,
      "palier": 7533,
      "patrio": 7534,
      "cula": 7535,
      "cular": 7536,
      "cutive": 7537,
      "culations": 7538,
      "ensen": 7539,
      "cotÃ": 7540,
      "cost": 7541,
      "cotements": 7542,
      "cotaxe": 7543,
      "coordonnÃ": 7544,
      "Illin": 7545,
      "derlech": 7546,
      "sespÃ": 7547,
      "sespoir": 7548,
      "institu": 7549,
      "insiste": 7550,
      "instable": 7551,
      "instab": 7552,
      "inspirÃ": 7553,
      "lue": 7554,
      "lumer": 7555,
      "entrevue": 7556,
      "entretiens": 7557,
      "roce": 7558,
      "rositÃ": 7559,
      "robe": 7560,
      "robo": 7561,
      "roquettes": 7562,
      "courte": 7563,
      "courir": 7564,
      "courage": 7565,
      "mos": 7566,
      "molÃ": 7567,
      "mogÃ": 7568,
      "mots": 7569,
      "mobi": 7570,
      "moteurs": 7571,
      "motifs": 7572,
      "mobile": 7573,
      "modeste": 7574,
      "adou": 7575,
      "admet": 7576,
      "touche": 7577,
      "toucher": 7578,
      "touchant": 7579,
      "tsÂ": 7580,
      "miste": 7581,
      "saou": 7582,
      "saxon": 7583,
      "ueÂ": 7584,
      "monte": 7585,
      "enceinte": 7586,
      "contentÃ": 7587,
      "contactÃ": 7588,
      "contacter": 7589,
      "minuti": 7590,
      "minines": 7591,
      "sentes": 7592,
      "sentir": 7593,
      "sentants": 7594,
      "certes": 7595,
      "dises": 7596,
      "disques": 7597,
      "disposÃ": 7598,
      "disposition": 7599,
      "distance": 7600,
      "aliments": 7601,
      "ality": 7602,
      "grant": 7603,
      "grad": 7604,
      "gronde": 7605,
      "nopÃ": 7606,
      "viser": 7607,
      "visas": 7608,
      "ordonn": 7609,
      "faitÂ": 7610,
      "puisqu": 7611,
      "puisant": 7612,
      "puisement": 7613,
      "puissance": 7614,
      "puissant": 7615,
      "bijou": 7616,
      "bilation": 7617,
      "biolog": 7618,
      "phr": 7619,
      "phen": 7620,
      "phie": 7621,
      "phomani": 7622,
      "autop": 7623,
      "emment": 7624,
      "emblÃ": 7625,
      "embou": 7626,
      "emmenÃ": 7627,
      "emmener": 7628,
      "emboÃ": 7629,
      "embau": 7630,
      "emprun": 7631,
      "finances": 7632,
      "financÃ": 7633,
      "voque": 7634,
      "votes": 7635,
      "ystal": 7636,
      "marre": 7637,
      "marin": 7638,
      "marsÂ": 7639,
      "radicale": 7640,
      "raflÃ": 7641,
      "devaient": 7642,
      "devrions": 7643,
      "intervenir": 7644,
      "interdiction": 7645,
      "intersection": 7646,
      "interventions": 7647,
      "longe": 7648,
      "longues": 7649,
      "longueur": 7650,
      "listes": 7651,
      "lisses": 7652,
      "mettront": 7653,
      "mergÃ": 7654,
      "andy": 7655,
      "andaise": 7656,
      "androgÃ": 7657,
      "vern": 7658,
      "vert": 7659,
      "verser": 7660,
      "versement": 7661,
      "verpool": 7662,
      "sos": 7663,
      "soft": 7664,
      "tentent": 7665,
      "tenteurs": 7666,
      "tentatives": 7667,
      "oppos": 7668,
      "opposÃ": 7669,
      "consta": 7670,
      "consiste": 7671,
      "conspir": 7672,
      "consistant": 7673,
      "20h": 7674,
      "tenne": 7675,
      "millÃ": 7676,
      "guin": 7677,
      "guiser": 7678,
      "renÃ": 7679,
      "rendement": 7680,
      "rencier": 7681,
      "rencontres": 7682,
      "chanteurs": 7683,
      "chantil": 7684,
      "tawa": 7685,
      "carter": 7686,
      "carnet": 7687,
      "cartels": 7688,
      "triel": 7689,
      "donÃ": 7690,
      "rection": 7691,
      "recettes": 7692,
      "recouverts": 7693,
      "bulle": 7694,
      "buts": 7695,
      "budget": 7696,
      "couter": 7697,
      "couper": 7698,
      "couteur": 7699,
      "coutimi": 7700,
      "coulisses": 7701,
      "obsÃ": 7702,
      "obtenu": 7703,
      "obsolÃ": 7704,
      "obtienne": 7705,
      "mate": 7706,
      "mach": 7707,
      "maxim": 7708,
      "rapproch": 7709,
      "rapproche": 7710,
      "vents": 7711,
      "ventif": 7712,
      "alisent": 7713,
      "alisant": 7714,
      "alisateur": 7715,
      "soulÃ": 7716,
      "soutient": 7717,
      "souviens": 7718,
      "contrepartie": 7719,
      "noncÃ": 7720,
      "noncer": 7721,
      "unior": 7722,
      "unions": 7723,
      "unifier": 7724,
      "chiot": 7725,
      "gouvernÃ": 7726,
      "reront": 7727,
      "publici": 7728,
      "publiquement": 7729,
      "venons": 7730,
      "nuage": 7731,
      "nuclÃ": 7732,
      "pendants": 7733,
      "faireÂ": 7734,
      "criv": 7735,
      "critique": 7736,
      "crivait": 7737,
      "tempÃ": 7738,
      "jouent": 7739,
      "jouit": 7740,
      "joueurs": 7741,
      "plates": 7742,
      "placent": 7743,
      "depuisÂ": 7744,
      "juvÃ": 7745,
      "juger": 7746,
      "jumb": 7747,
      "juifs": 7748,
      "jubilation": 7749,
      "enfrein": 7750,
      "istol": 7751,
      "istmas": 7752,
      "gouvernementÂ": 7753,
      "gouvernementaux": 7754,
      "Chall": 7755,
      "Chez": 7756,
      "utin": 7757,
      "utile": 7758,
      "low": 7759,
      "logÃ": 7760,
      "tradu": 7761,
      "peloton": 7762,
      "comptes": 7763,
      "comptant": 7764,
      "complet": 7765,
      "compense": 7766,
      "crav": 7767,
      "croit": 7768,
      "craindre": 7769,
      "lances": 7770,
      "lange": 7771,
      "langues": 7772,
      "ulli": 7773,
      "prestige": 7774,
      "Francis": 7775,
      "blesse": 7776,
      "blessur": 7777,
      "Entertain": 7778,
      "UnisÂ": 7779,
      "hum": 7780,
      "humour": 7781,
      "humains": 7782,
      "humanitaire": 7783,
      "serviront": 7784,
      "utilise": 7785,
      "stag": 7786,
      "stations": 7787,
      "st300": 7788,
      "berceau": 7789,
      "nationales": 7790,
      "cherch": 7791,
      "demandes": 7792,
      "curitaires": 7793,
      "transpar": 7794,
      "transfer": 7795,
      "transportÃ": 7796,
      "transformation": 7797,
      "transformer": 7798,
      "transmissi": 7799,
      "transgenres": 7800,
      "pires": 7801,
      "piques": 7802,
      "picions": 7803,
      "picotements": 7804,
      "certainement": 7805,
      "casquette": 7806,
      "larg": 7807,
      "largie": 7808,
      "titulaire": 7809,
      "passait": 7810,
      "appelant": 7811,
      "sances": 7812,
      "sanctu": 7813,
      "expliquent": 7814,
      "explications": 7815,
      "gade": 7816,
      "gades": 7817,
      "maintes": 7818,
      "maintient": 7819,
      "matinÃ": 7820,
      "pouvant": 7821,
      "rald": 7822,
      "rallumer": 7823,
      "morale": 7824,
      "mortelle": 7825,
      "ligan": 7826,
      "liger": 7827,
      "oyer": 7828,
      "Autre": 7829,
      "Auth": 7830,
      "AutoritÃ": 7831,
      "catÃ": 7832,
      "cache": 7833,
      "solo": 7834,
      "soldat": 7835,
      "signi": 7836,
      "signer": 7837,
      "signant": 7838,
      "signature": 7839,
      "produite": 7840,
      "productions": 7841,
      "produira": 7842,
      "produisent": 7843,
      "ajout": 7844,
      "ajoutait": 7845,
      "ajoutant": 7846,
      "rise": 7847,
      "risquÃ": 7848,
      "ristiques": 7849,
      "risquent": 7850,
      "retom": 7851,
      "rettes": 7852,
      "SAP": 7853,
      "corations": 7854,
      "corniche": 7855,
      "Informer": 7856,
      "Inside": 7857,
      "IndonÃ": 7858,
      "centure": 7859,
      "effra": 7860,
      "effond": 7861,
      "effacÃ": 7862,
      "effacer": 7863,
      "illant": 7864,
      "illings": 7865,
      "ablesÂ": 7866,
      "group": 7867,
      "Parfois": 7868,
      "Party": 7869,
      "fumÃ": 7870,
      "fuir": 7871,
      "fuites": 7872,
      "fumeurs": 7873,
      "Obamac": 7874,
      "apparemment": 7875,
      "bancaire": 7876,
      "draient": 7877,
      "drome": 7878,
      "draguÃ": 7879,
      "dramatiques": 7880,
      "menait": 7881,
      "menaces": 7882,
      "ruÃ": 7883,
      "rumeur": 7884,
      "suspicions": 7885,
      "nell": 7886,
      "Commis": 7887,
      "tonne": 7888,
      "tonnes": 7889,
      "vieillis": 7890,
      "mondeÂ": 7891,
      "NeilÂ": 7892,
      "thaÃ": 7893,
      "thony": 7894,
      "thodes": 7895,
      "autrement": 7896,
      "autrefois": 7897,
      "canette": 7898,
      "ferai": 7899,
      "ferrÃ": 7900,
      "ferme": 7901,
      "fermes": 7902,
      "fermer": 7903,
      "aiseÂ": 7904,
      "ostÃ": 7905,
      "osci": 7906,
      "ostic": 7907,
      "chars": 7908,
      "confiÃ": 7909,
      "confier": 7910,
      "voyons": 7911,
      "194": 7912,
      "19Â": 7913,
      "1945": 7914,
      "1950": 7915,
      "laissait": 7916,
      "rouge": 7917,
      "roulement": 7918,
      "routh": 7919,
      "routier": 7920,
      "quÃªte": 7921,
      "mutuel": 7922,
      "offrant": 7923,
      "assistance": 7924,
      "concernÃ": 7925,
      "concerts": 7926,
      "concernaient": 7927,
      "projetÃ": 7928,
      "Mars": 7929,
      "MarineÂ": 7930,
      "captÃ": 7931,
      "capable": 7932,
      "capables": 7933,
      "enquÃªter": 7934,
      "phoniques": 7935,
      "autorou": 7936,
      "autoriser": 7937,
      "autorisations": 7938,
      "travaillaient": 7939,
      "Anti": 7940,
      "Andy": 7941,
      "Ancien": 7942,
      "Anderlech": 7943,
      "Antenne": 7944,
      "Anthony": 7945,
      "Defen": 7946,
      "creux": 7947,
      "ronter": 7948,
      "vateur": 7949,
      "cinquant": 7950,
      "cinquiÃ": 7951,
      "gendes": 7952,
      "genoux": 7953,
      "gardes": 7954,
      "gardÃ": 7955,
      "antiterroriste": 7956,
      "avionsÂ": 7957,
      "suivent": 7958,
      "affiliÃ": 7959,
      "affronter": 7960,
      "gier": 7961,
      "gitime": 7962,
      "gitimitÃ": 7963,
      "locales": 7964,
      "localisÃ": 7965,
      "locataire": 7966,
      "pleins": 7967,
      "vuÂ": 7968,
      "permettront": 7969,
      "bridge": 7970,
      "climat": 7971,
      "angles": 7972,
      "angoissÃ": 7973,
      "mandin": 7974,
      "raid": 7975,
      "raids": 7976,
      "restant": 7977,
      "restaurer": 7978,
      "lenteur": 7979,
      "celaÂ": 7980,
      "surveillÃ": 7981,
      "barres": 7982,
      "barquÃ": 7983,
      "baronne": 7984,
      "prÃªte": 7985,
      "prÃªtres": 7986,
      "payent": 7987,
      "Govern": 7988,
      "boule": 7989,
      "bougÃ": 7990,
      "boulever": 7991,
      "dictions": 7992,
      "diffusion": 7993,
      "publicÂ": 7994,
      "publicaine": 7995,
      "octobreÂ": 7996,
      "Quay": 7997,
      "afficher": 7998,
      "basse": 7999,
      "bastion": 8000,
      "fala": 8001,
      "inciter": 8002,
      "possibles": 8003,
      "ObamaÂ": 8004,
      "EuroFir": 8005,
      "festin": 8006,
      "historien": 8007,
      "regorge": 8008,
      "suisse": 8009,
      "ricainsÂ": 8010,
      "clusion": 8011,
      "engin": 8012,
      "engins": 8013,
      "engendre": 8014,
      "conomiste": 8015,
      "atherup": 8016,
      "raisonn": 8017,
      "EuropeÂ": 8018,
      "Joe": 8019,
      "sombres": 8020,
      "somptu": 8021,
      "grandement": 8022,
      "accusant": 8023,
      "communiquer": 8024,
      "musical": 8025,
      "musicale": 8026,
      "iciens": 8027,
      "sourire": 8028,
      "soigner": 8029,
      "valuer": 8030,
      "vraies": 8031,
      "vraisemb": 8032,
      "mortÂ": 8033,
      "Thales": 8034,
      "Thurlbec": 8035,
      "haute": 8036,
      "hausses": 8037,
      "tableau": 8038,
      "voudrait": 8039,
      "quentes": 8040,
      "seuil": 8041,
      "seigneur": 8042,
      "livrance": 8043,
      "apparus": 8044,
      "appartement": 8045,
      "appartenant": 8046,
      "apparente": 8047,
      "apparitions": 8048,
      "porteront": 8049,
      "Alderson": 8050,
      "Albert": 8051,
      "Alliance": 8052,
      "cadres": 8053,
      "syriens": 8054,
      "touriste": 8055,
      "tournant": 8056,
      "contrats": 8057,
      "contractÃ": 8058,
      "contraig": 8059,
      "contractuel": 8060,
      "actualisÃ": 8061,
      "connaissances": 8062,
      "23Â": 8063,
      "Trust": 8064,
      "TrueÂ": 8065,
      "battre": 8066,
      "battu": 8067,
      "bataille": 8068,
      "douz": 8069,
      "malheureux": 8070,
      "rastructure": 8071,
      "rassurant": 8072,
      "activistes": 8073,
      "moyennes": 8074,
      "militant": 8075,
      "pouvoirs": 8076,
      "beke": 8077,
      "lectronique": 8078,
      "demandeur": 8079,
      "pesÃ": 8080,
      "pessi": 8081,
      "pesant": 8082,
      "pesait": 8083,
      "pensais": 8084,
      "estiment": 8085,
      "estimant": 8086,
      "conduisaient": 8087,
      "personnellement": 8088,
      "habitent": 8089,
      "habitation": 8090,
      "bala": 8091,
      "couverture": 8092,
      "spective": 8093,
      "avionneurs": 8094,
      "taxi": 8095,
      "taxation": 8096,
      "enfantÂ": 8097,
      "Suzan": 8098,
      "fourgon": 8099,
      "fournit": 8100,
      "remue": 8101,
      "remporter": 8102,
      "remplacÃ": 8103,
      "remplacement": 8104,
      "remplis": 8105,
      "avocats": 8106,
      "contient": 8107,
      "commerÃ": 8108,
      "supposÃ": 8109,
      "supprim": 8110,
      "constituÃ": 8111,
      "constituent": 8112,
      "rapportent": 8113,
      "rapportaient": 8114,
      "travailleur": 8115,
      "Toulon": 8116,
      "gional": 8117,
      "gionaux": 8118,
      "revenaient": 8119,
      "revendique": 8120,
      "terrain": 8121,
      "sexeÂ": 8122,
      "Airwa": 8123,
      "Bristol": 8124,
      "DCNS": 8125,
      "borne": 8126,
      "baissÃ": 8127,
      "iera": 8128,
      "saisir": 8129,
      "allergique": 8130,
      "commandÃ": 8131,
      "commandement": 8132,
      "participe": 8133,
      "justifie": 8134,
      "effectivement": 8135,
      "effectuait": 8136,
      "faisance": 8137,
      "salles": 8138,
      "salue": 8139,
      "saluer": 8140,
      "atteinte": 8141,
      "atteintes": 8142,
      "espionnent": 8143,
      "10e": 8144,
      "ahÂ": 8145,
      "pirates": 8146,
      "piratÃ": 8147,
      "tester": 8148,
      "testostÃ": 8149,
      "infr": 8150,
      "inflation": 8151,
      "infliger": 8152,
      "infrastructure": 8153,
      "inquiet": 8154,
      "inquiets": 8155,
      "dirigÃ": 8156,
      "continuÃ": 8157,
      "continuitÃ": 8158,
      "Australiens": 8159,
      "Australienne": 8160,
      "BwelleÂ": 8161,
      "Sydney": 8162,
      "Unies": 8163,
      "United": 8164,
      "officiel": 8165,
      "populations": 8166,
      "populaires": 8167,
      "mondial": 8168,
      "mondiaux": 8169,
      "automatique": 8170,
      "automatiquement": 8171,
      "retourne": 8172,
      "retournÃ": 8173,
      "retourner": 8174,
      "InterrogÃ": 8175,
      "veloppeurs": 8176,
      "Asda": 8177,
      "dominÃ": 8178,
      "pompe": 8179,
      "sauvÃ": 8180,
      "tisme": 8181,
      "tissus": 8182,
      "tissait": 8183,
      "choisissent": 8184,
      "prenait": 8185,
      "principales": 8186,
      "organisationÂ": 8187,
      "chinoises": 8188,
      "explosÃ": 8189,
      "exploser": 8190,
      "explosions": 8191,
      "explosifs": 8192,
      "bagarre": 8193,
      "calme": 8194,
      "calcu": 8195,
      "voisins": 8196,
      "voisinage": 8197,
      "gravitÃ": 8198,
      "gravement": 8199,
      "commenÃ": 8200,
      "commencent": 8201,
      "...)": 8202,
      "condamnation": 8203,
      "documentaire": 8204,
      "Monde": 8205,
      "Monusco": 8206,
      "recherchÃ": 8207,
      "recherchent": 8208,
      "iliers": 8209,
      "ilippe": 8210,
      "trophe": 8211,
      "agissements": 8212,
      "amassÃ": 8213,
      "terminal": 8214,
      "occuper": 8215,
      "criminelles": 8216,
      "criminalitÃ": 8217,
      "150": 8218,
      "Board": 8219,
      "Normandin": 8220,
      "board": 8221,
      "gymn": 8222,
      "lycÃ": 8223,
      "lyrique": 8224,
      "logistique": 8225,
      "magique": 8226,
      "quart": 8227,
      "quarts": 8228,
      "origines": 8229,
      "attendant": 8230,
      "attendais": 8231,
      "attendons": 8232,
      "graphier": 8233,
      "photographier": 8234,
      "malades": 8235,
      "chimique": 8236,
      "septembreÂ": 8237,
      "Arsen": 8238,
      "Extra": 8239,
      "Exchange": 8240,
      "Malibu": 8241,
      "crosoft": 8242,
      "gov": 8243,
      "gocier": 8244,
      "massive": 8245,
      "massivement": 8246,
      "administrations": 8247,
      "administrative": 8248,
      "universe": 8249,
      "universi": 8250,
      "collecter": 8251,
      "fonctionner": 8252,
      "Coast": 8253,
      "Cooper": 8254,
      "MdÂ": 8255,
      "Republic": 8256,
      "Reich": 8257,
      "Reason": 8258,
      "Shell": 8259,
      "Shetland": 8260,
      "fenseurs": 8261,
      "foulÃ": 8262,
      "facteur": 8263,
      "facture": 8264,
      "facilitÃ": 8265,
      "loisirs": 8266,
      "sensibles": 8267,
      "situer": 8268,
      "situations": 8269,
      "neuve": 8270,
      "combin": 8271,
      "professeurs": 8272,
      "tudier": 8273,
      "tudiant": 8274,
      "tudiante": 8275,
      "restera": 8276,
      "resteront": 8277,
      "1789": 8278,
      "Bourses": 8279,
      "Cardiff": 8280,
      "Carmichael": 8281,
      "Grand": 8282,
      "Isla": 8283,
      "Like": 8284,
      "Liverpool": 8285,
      "Michaud": 8286,
      "Outre": 8287,
      "Stage": 8288,
      "briller": 8289,
      "brillante": 8290,
      "hygiÃ": 8291,
      "sensation": 8292,
      "annuels": 8293,
      "ounais": 8294,
      "chaude": 8295,
      "combattant": 8296,
      "accepte": 8297,
      "accidentelle": 8298,
      "serveur": 8299,
      "Charlotte": 8300,
      "produitsÂ": 8301,
      "chargeur": 8302,
      "1990": 8303,
      "1991": 8304,
      "1996": 8305,
      "1998": 8306,
      "pensez": 8307,
      "continueront": 8308,
      "gyptiens": 8309,
      "Crolles": 8310,
      "Crystal": 8311,
      "Medic": 8312,
      "trangetÃ": 8313,
      "simples": 8314,
      "pronostic": 8315,
      "primaires": 8316,
      "meilleure": 8317,
      "meilleures": 8318,
      "amides": 8319,
      "amicale": 8320,
      "accueille": 8321,
      "ficit": 8322,
      "ficitaire": 8323,
      "supervision": 8324,
      "supervisÃ": 8325,
      "veiller": 8326,
      "installer": 8327,
      "moigne": 8328,
      "moignÃ": 8329,
      "Paluku": 8330,
      "Robin": 8331,
      "Seconde": 8332,
      "Tribunal": 8333,
      "blanches": 8334,
      "dangereux": 8335,
      "fillette": 8336,
      "glementaire": 8337,
      "glementaires": 8338,
      "tort": 8339,
      "nelleÂ": 8340,
      "nellement": 8341,
      "plaidÃ": 8342,
      "profits": 8343,
      "adoption": 8344,
      "semblant": 8345,
      "sultatÂ": 8346,
      "fournissent": 8347,
      "fournisseur": 8348,
      "naturel": 8349,
      "volutionnaire": 8350,
      "graphe": 8351,
      "Bundes": 8352,
      "DubaÃ": 8353,
      "adieu": 8354,
      "bloquer": 8355,
      "blodistribu": 8356,
      "gural": 8357,
      "poussiÃ": 8358,
      "vÃªtu": 8359,
      "tics": 8360,
      "limitrophe": 8361,
      "sixiÃ": 8362,
      "diplomates": 8363,
      "diplomatiques": 8364,
      "assuraient": 8365,
      "citoyen": 8366,
      "plaints": 8367,
      "application": 8368,
      "applications": 8369,
      "subir": 8370,
      "interroge": 8371,
      "souffrait": 8372,
      "souffrir": 8373,
      "sidentiel": 8374,
      "stars": 8375,
      "respectÃ": 8376,
      "respecter": 8377,
      "respectent": 8378,
      "respectivement": 8379,
      "candidate": 8380,
      "garderÂ": 8381,
      "enregistrent": 8382,
      "chirurgical": 8383,
      "chirurgicale": 8384,
      "pharmaciennes": 8385,
      "Alexei": 8386,
      "Finma": 8387,
      "FinistÃ": 8388,
      "Guang": 8389,
      "Guilla": 8390,
      "Hudg": 8391,
      "Huerta": 8392,
      "cabine": 8393,
      "frappÃ": 8394,
      "frappes": 8395,
      "frappent": 8396,
      "shineÂ": 8397,
      "shirt": 8398,
      "shillings": 8399,
      "silen": 8400,
      "silhou": 8401,
      "vaccinÃ": 8402,
      "envoyer": 8403,
      "qualifi": 8404,
      "qualifier": 8405,
      "qualification": 8406,
      "tiniens": 8407,
      "meurtriÃ": 8408,
      "conservation": 8409,
      "costume": 8410,
      "radios": 8411,
      "venues": 8412,
      "pleinement": 8413,
      "constitutionnelle": 8414,
      "constitutionnelles": 8415,
      "occupant": 8416,
      "occupation": 8417,
      "manifestants": 8418,
      "manifestations": 8419,
      "disponible": 8420,
      "365Â": 8421,
      "CGR": 8422,
      "Cornell": 8423,
      "Groupe": 8424,
      "Toussaint": 8425,
      "belligÃ": 8426,
      "funt": 8427,
      "kozy": 8428,
      "pondait": 8429,
      "vocal": 8430,
      "vocation": 8431,
      "vocaux": 8432,
      "essentiel": 8433,
      "essentiels": 8434,
      "remixes": 8435,
      "texane": 8436,
      "choixÂ": 8437,
      "ritablement": 8438,
      "attendue": 8439,
      "proposant": 8440,
      "appuyer": 8441,
      "appuyant": 8442,
      "abordables": 8443,
      "classeÂ": 8444,
      "classements": 8445,
      "significatif": 8446,
      "suspension": 8447,
      "suspendus": 8448,
      "australiennes": 8449,
      "quotidiennes": 8450,
      "12h30": 8451,
      "1850": 8452,
      "Brigades": 8453,
      "HS2Â": 8454,
      "Noury": 8455,
      "Scarbrou": 8456,
      "WestÂ": 8457,
      "Westmins": 8458,
      "cyber": 8459,
      "flamandis": 8460,
      "fausse": 8461,
      "faudra": 8462,
      "faudrait": 8463,
      "gagnÃ": 8464,
      "jury": 8465,
      "kett": 8466,
      "kilos": 8467,
      "satisfait": 8468,
      "vrierÂ": 8469,
      "retraitÃ": 8470,
      "tirs": 8471,
      "secondaires": 8472,
      "viendrait": 8473,
      "permanente": 8474,
      "exprimait": 8475,
      "disaitÂ": 8476,
      "distribution": 8477,
      "visiter": 8478,
      "financements": 8479,
      "plateforme": 8480,
      "plateformes": 8481,
      "juinÂ": 8482,
      "traditionnel": 8483,
      "demandera": 8484,
      "suivra": 8485,
      "suivante": 8486,
      "syndrome": 8487,
      "habitude": 8488,
      "habitudes": 8489,
      "technologies": 8490,
      "participant": 8491,
      "participants": 8492,
      "pirater": 8493,
      "principaux": 8494,
      "principale": 8495,
      "croyait": 8496,
      "professionnel": 8497,
      "professionnels": 8498,
      "physiquement": 8499,
      "palestiniens": 8500,
      "enregistrement": 8501,
      "atterrissages": 8502,
      "potentiellement": 8503,
      "Affaires": 8504,
      "Cameron": 8505,
      "Holland": 8506,
      "Malko": 8507,
      "NationsÂ": 8508,
      "hantÃ": 8509,
      "mauvaises": 8510,
      "paules": 8511,
      "refuge": 8512,
      "aignÃ": 8513,
      "introduit": 8514,
      "archique": 8515,
      "archipel": 8516,
      "archives": 8517,
      "architec": 8518,
      "artistique": 8519,
      "dessin": 8520,
      "tromper": 8521,
      "trompons": 8522,
      "prouve": 8523,
      "diversi": 8524,
      "diversitÃ": 8525,
      "parcourir": 8526,
      "comparaÃ": 8527,
      "progressÃ": 8528,
      "progressivement": 8529,
      "fixe": 8530,
      "manifes": 8531,
      "manuels": 8532,
      "coceÂ": 8533,
      "inscriptions": 8534,
      "adaptation": 8535,
      "contenu": 8536,
      "discussion": 8537,
      "authentique": 8538,
      "racontÃ": 8539,
      "opinions": 8540,
      "construite": 8541,
      "construits": 8542,
      "psychologique": 8543,
      "homosexuels": 8544,
      "sortez": 8545,
      "confirmation": 8546,
      "assister": 8547,
      "saisonniÃ": 8548,
      "controverse": 8549,
      "controverses": 8550,
      "promesses": 8551,
      "influence": 8552,
      "influents": 8553,
      "recevra": 8554,
      "recevabilitÃ": 8555,
      "Disneyland": 8556,
      "smartphone": 8557,
      "Atta": 8558,
      "Beaudet": 8559,
      "Billy": 8560,
      "Constitution": 8561,
      "Immigration": 8562,
      "Lars": 8563,
      "Mileage": 8564,
      "Microsoft": 8565,
      "PDG": 8566,
      "PSG": 8567,
      "PeterÂ": 8568,
      "Rover": 8569,
      "SociÃ": 8570,
      "Society": 8571,
      "Sofala": 8572,
      "Vivre": 8573,
      "branlÃ": 8574,
      "ctuel": 8575,
      "faste": 8576,
      "fassent": 8577,
      "fascin": 8578,
      "jihad": 8579,
      "navire": 8580,
      "sunnites": 8581,
      "statuÃ": 8582,
      "zek": 8583,
      "relifting": 8584,
      "recommande": 8585,
      "insurge": 8586,
      "insurrection": 8587,
      "urgentes": 8588,
      "urgentiste": 8589,
      "prestataires": 8590,
      "conditionnÃ": 8591,
      "convaincu": 8592,
      "attribuÃ": 8593,
      "exigÃ": 8594,
      "disparu": 8595,
      "disparition": 8596,
      "intercepter": 8597,
      "souhaite": 8598,
      "Cheval": 8599,
      "transportent": 8600,
      "volontairement": 8601,
      "suspect": 8602,
      "suspects": 8603,
      "canadien": 8604,
      "canadienne": 8605,
      "canadiennes": 8606,
      "festivitÃ": 8607,
      "regardant": 8608,
      "TransportÂ": 8609,
      "Transportation": 8610,
      "radioactive": 8611,
      "ASCO": 8612,
      "Clapper": 8613,
      "Clayton": 8614,
      "Howells": 8615,
      "Kamau": 8616,
      "Matt": 8617,
      "Mathi": 8618,
      "Mattis": 8619,
      "Poor": 8620,
      "Stephen": 8621,
      "Silvio": 8622,
      "Tijuana": 8623,
      "afro": 8624,
      "fantÃ": 8625,
      "fectueux": 8626,
      "oeuvres": 8627,
      "rinaire": 8628,
      "rinaires": 8629,
      "valider": 8630,
      "envisager": 8631,
      "enseignes": 8632,
      "anonyme": 8633,
      "oubliÃ": 8634,
      "inclut": 8635,
      "inclusion": 8636,
      "initiale": 8637,
      "chappÃ": 8638,
      "chapper": 8639,
      "assouplissement": 8640,
      "parlementaire": 8641,
      "cigarettes": 8642,
      "accompagner": 8643,
      "Laurent": 8644,
      "Laurie": 8645,
      "moindres": 8646,
      "adresser": 8647,
      "adressant": 8648,
      "adolescents": 8649,
      "autochton": 8650,
      "consacrÃ": 8651,
      "majeur": 8652,
      "traversÃ": 8653,
      "stylo": 8654,
      "fondatrice": 8655,
      "rassurÃ": 8656,
      "espoirs": 8657,
      "acheteurs": 8658,
      "grossesse": 8659,
      "candidature": 8660,
      "efficacitÃ": 8661,
      "flambÃ": 8662,
      "juridiction": 8663,
      "JonathanÂ": 8664,
      "nourrissons": 8665,
      "TasmanieÂ": 8666,
      "Apple": 8667,
      "Apprivoiser": 8668,
      "Kramer": 8669,
      "Kroll": 8670,
      "Muy": 8671,
      "Mulligan": 8672,
      "Tele": 8673,
      "USB": 8674,
      "bombes": 8675,
      "blonde": 8676,
      "blondes": 8677,
      "eilaart": 8678,
      "fiscal": 8679,
      "fiscale": 8680,
      "gallon": 8681,
      "pisode": 8682,
      "sister": 8683,
      "singularitÃ": 8684,
      "silienne": 8685,
      "tdown": 8686,
      "variÃ": 8687,
      "variera": 8688,
      "enseveli": 8689,
      "anzhu": 8690,
      "religieuse": 8691,
      "ougandais": 8692,
      "ougandaise": 8693,
      "entendait": 8694,
      "informatique": 8695,
      "informatiques": 8696,
      "limites": 8697,
      "chambre": 8698,
      "chambres": 8699,
      "prudent": 8700,
      "prudents": 8701,
      "partenaire": 8702,
      "conversations": 8703,
      "contribuables": 8704,
      "ambulances": 8705,
      "commandant": 8706,
      "pulsÃ": 8707,
      "extradÃ": 8708,
      "exclusivement": 8709,
      "exclusives": 8710,
      "rangement": 8711,
      "classique": 8712,
      "classification": 8713,
      "lumines": 8714,
      "minimiser": 8715,
      "individus": 8716,
      "universalitÃ": 8717,
      "milliardaire": 8718,
      "Independent": 8719,
      "Maryland": 8720,
      "Quelque": 8721,
      "approfondi": 8722,
      "approfondies": 8723,
      "Carolines": 8724,
      "MichaelÂ": 8725,
      "encourageait": 8726,
      "consultatif": 8727,
      "syndicat": 8728,
      "Motorola": 8729,
      "introduite": 8730,
      "introduction": 8731,
      "manipuler": 8732,
      "psychia": 8733,
      "Federation": 8734,
      "exigeant": 8735,
      "souhaitent": 8736,
      "championnat": 8737,
      "America": 8738,
      "FlightÂ": 8739,
      "diagnostic": 8740,
      "diagnostiquÃ": 8741,
      "Buis": 8742,
      "DownÂ": 8743,
      "Hassan": 8744,
      "Jacquel": 8745,
      "Mission": 8746,
      "Mitt": 8747,
      "Mitte": 8748,
      "Network": 8749,
      "Netflix": 8750,
      "Oscar": 8751,
      "Philippe": 8752,
      "Play": 8753,
      "Rosenker": 8754,
      "SunshineÂ": 8755,
      "TonyÂ": 8756,
      "Weatherup": 8757,
      "drapeau": 8758,
      "fruit": 8759,
      "fruits": 8760,
      "grimpÃ": 8761,
      "ratio": 8762,
      "ratifiÃ": 8763,
      "tarif": 8764,
      "tadonnÃ": 8765,
      "envah": 8766,
      "envahi": 8767,
      "regroupant": 8768,
      "remuaient": 8769,
      "regarde": 8770,
      "repeindre": 8771,
      "tiendra": 8772,
      "tiendrait": 8773,
      "inhabituel": 8774,
      "inhabituels": 8775,
      "descendus": 8776,
      "liquiditÃ": 8777,
      "simple": 8778,
      "rieuxÂ": 8779,
      "atteigne": 8780,
      "atteignent": 8781,
      "comprenait": 8782,
      "comprenions": 8783,
      "aperÃ": 8784,
      "internationaux": 8785,
      "longuement": 8786,
      "opportun": 8787,
      "opportunitÃ": 8788,
      "guitare": 8789,
      "guitares": 8790,
      "renvoyÃ": 8791,
      "toxique": 8792,
      "toxiques": 8793,
      "craignent": 8794,
      "craignait": 8795,
      "Franklin": 8796,
      "stabilisÃ": 8797,
      "ralentit": 8798,
      "ralentissement": 8799,
      "morpholog": 8800,
      "morphologique": 8801,
      "configuration": 8802,
      "configurations": 8803,
      "offensive": 8804,
      "sommeil": 8805,
      "souriant": 8806,
      "doucement": 8807,
      "examinent": 8808,
      "examinait": 8809,
      "dominante": 8810,
      "approvisionnements": 8811,
      "senior": 8812,
      "seniors": 8813,
      "encouragerait": 8814,
      "BowlerÂ": 8815,
      "cellule": 8816,
      "cellules": 8817,
      "influencÃ": 8818,
      "LarryÂ": 8819,
      "hispanique": 8820,
      "hispaniques": 8821,
      "correspondant": 8822,
      "AndrewÂ": 8823,
      "massacre": 8824,
      "massacres": 8825,
      "vingtaine": 8826,
      "provisoirement": 8827,
      "Accenture": 8828,
      "Alerte": 8829,
      "Born": 8830,
      "Bastille": 8831,
      "Bataller": 8832,
      "Basharat": 8833,
      "CIA": 8834,
      "Civil": 8835,
      "CliveÂ": 8836,
      "Catholic": 8837,
      "Citigroup": 8838,
      "Danse": 8839,
      "DerriÃ": 8840,
      "Fox": 8841,
      "Fernand": 8842,
      "Glen": 8843,
      "Historiquement": 8844,
      "James": 8845,
      "Kirkland": 8846,
      "Kathleen": 8847,
      "Linge": 8848,
      "Nathaniel": 8849,
      "Olivier": 8850,
      "Ports": 8851,
      "Presque": 8852,
      "Ronk": 8853,
      "SMUR": 8854,
      "Sarkozy": 8855,
      "Sousa": 8856,
      "Tandis": 8857,
      "Thomas": 8858,
      "Thierry": 8859,
      "VIME": 8860,
      "Vision": 8861,
      "Voici": 8862,
      "YounÃ": 8863,
      "achevÃ": 8864,
      "binaire": 8865,
      "baptisÃ": 8866,
      "cray": 8867,
      "clos": 8868,
      "dauphin": 8869,
      "fatiguÃ": 8870,
      "lourds": 8871,
      "luxe": 8872,
      "munÃ": 8873,
      "pagneul": 8874,
      "ratisation": 8875,
      "sceptiques": 8876,
      "sculpter": 8877,
      "studios": 8878,
      "sponsor": 8879,
      "encres": 8880,
      "retranchÃ": 8881,
      "quinzaine": 8882,
      "quantitÃ": 8883,
      "entrave": 8884,
      "inaugural": 8885,
      "inconvÃ": 8886,
      "invisible": 8887,
      "innocentes": 8888,
      "ortho": 8889,
      "secouristes": 8890,
      "ceinture": 8891,
      "chaleur": 8892,
      "aventures": 8893,
      "paroisses": 8894,
      "parisiens": 8895,
      "concevoir": 8896,
      "convictions": 8897,
      "concessions": 8898,
      "quivalent": 8899,
      "combler": 8900,
      "proportion": 8901,
      "protestants": 8902,
      "appartient": 8903,
      "persuadÃ": 8904,
      "perquisition": 8905,
      "exactement": 8906,
      "externes": 8907,
      "satelli": 8908,
      "contamination": 8909,
      "minime": 8910,
      "certificat": 8911,
      "dispute": 8912,
      "discrimination": 8913,
      "interrompue": 8914,
      "optimisme": 8915,
      "gulierÂ": 8916,
      "renforcement": 8917,
      "carbone": 8918,
      "recrutement": 8919,
      "rapides": 8920,
      "rapprochÃ": 8921,
      "vendeurs": 8922,
      "ignorer": 8923,
      "Chicoutimi": 8924,
      "Christmas": 8925,
      "colonnes": 8926,
      "productivitÃ": 8927,
      "formulÃ": 8928,
      "cantines": 8929,
      "confidentielles": 8930,
      "regagner": 8931,
      "engouement": 8932,
      "remplacements": 8933,
      "revendiquÃ": 8934,
      "revendications": 8935,
      "trimestriel": 8936,
      "logiciels": 8937,
      "original": 8938,
      "graphies": 8939,
      "Brooks": 8940,
      "doigts": 8941,
      "Sherbro": 8942,
      "brassard": 8943,
      "Organisation": 8944,
      "cuisinier": 8945,
      "football": 8946,
      "fauteuil": 8947,
      "rattraper": 8948,
      "manufacturier": 8949,
      "Atlantique": 8950,
      "Wildlife": 8951,
      "Chevron": 8952,
      "ASFC": 8953,
      "Tiananmen": 8954,
      "fluorescentes": 8955,
      "individuel": 8956,
      "coiffure": 8957,
      "raconter": 8958,
      "Blackburn": 8959,
      "Capital": 8960,
      "Virginie": 8961,
      "gadgets": 8962,
      "hospitalisÃ": 8963,
      "administrateur": 8964,
      "Alistair": 8965,
      "Atomica": 8966,
      "Bref": 8967,
      "Bagdad": 8968,
      "Baby": 8969,
      "Bogota": 8970,
      "Bendemeer": 8971,
      "Bounty": 8972,
      "Blunkett": 8973,
      "Beyrouth": 8974,
      "Business": 8975,
      "CRTC": 8976,
      "Cloud": 8977,
      "Certes": 8978,
      "Central": 8979,
      "Callie": 8980,
      "Cambridge": 8981,
      "Circular": 8982,
      "Club": 8983,
      "Crump": 8984,
      "Crossley": 8985,
      "Cyrille": 8986,
      "Dylan": 8987,
      "Detroit": 8988,
      "Fund": 8989,
      "FrontÂ": 8990,
      "Flandre": 8991,
      "Fitzback": 8992,
      "Gesves": 8993,
      "Germain": 8994,
      "Gendarmerie": 8995,
      "Gatineau": 8996,
      "Gainsbourg": 8997,
      "GymnopÃ": 8998,
      "GCHQ": 8999,
      "Glading": 9000,
      "Hoeilaart": 9001,
      "Hussein": 9002,
      "Hitler": 9003,
      "Heureusement": 9004,
      "Haye": 9005,
      "Hidalgo": 9006,
      "Hirsch": 9007,
      "HillaryÂ": 9008,
      "IVG": 9009,
      "Ipsos": 9010,
      "Irlande": 9011,
      "Isaac": 9012,
      "JPMorgan": 9013,
      "Jianzhu": 9014,
      "Jenny": 9015,
      "Jilin": 9016,
      "Kennedy": 9017,
      "Kigali": 9018,
      "Kierzek": 9019,
      "Lundi": 9020,
      "Letta": 9021,
      "Larribe": 9022,
      "Lowndes": 9023,
      "Maputo": 9024,
      "Mogador": 9025,
      "Narbonne": 9026,
      "Nicholson": 9027,
      "Nymphomani": 9028,
      "Ottawa": 9029,
      "Oussama": 9030,
      "Oregon": 9031,
      "PolynÃ": 9032,
      "Palestiniens": 9033,
      "Romney": 9034,
      "Richard": 9035,
      "Radio": 9036,
      "Slate": 9037,
      "Sorensen": 9038,
      "Skateboard": 9039,
      "Tuchel": 9040,
      "Tinto": 9041,
      "Tamar": 9042,
      "Tsahal": 9043,
      "Tahrir": 9044,
      "Tokyo": 9045,
      "Trudeau": 9046,
      "Usher": 9047,
      "Verbeke": 9048,
      "World": 9049,
      "William": 9050,
      "Yangcheng": 9051,
      "Yongzhou": 9052,
      "ajustÃ": 9053,
      "bpj": 9054,
      "bimoteurs": 9055,
      "cavitÃ": 9056,
      "cocker": 9057,
      "camerounais": 9058,
      "drones": 9059,
      "foyers": 9060,
      "glob": 9061,
      "gourmand": 9062,
      "ovaires": 9063,
      "pyramides": 9064,
      "rwandais": 9065,
      "stade": 9066,
      "scrutin": 9067,
      "shutdown": 9068,
      "ukrain": 9069,
      "wingsuit": 9070,
      "warning": 9071,
      "zombies": 9072,
      "essuyÃ": 9073,
      "escalier": 9074,
      "enclins": 9075,
      "anxieux": 9076,
      "requise": 9077,
      "retransmise": 9078,
      "recommandations": 9079,
      "lacrymogÃ": 9080,
      "intrinsÃ": 9081,
      "innovation": 9082,
      "injustes": 9083,
      "intitulÃ": 9084,
      "inexplicable": 9085,
      "intellectuel": 9086,
      "indisponibilitÃ": 9087,
      "aristocrate": 9088,
      "teillages": 9089,
      "illuminations": 9090,
      "litreuillÃ": 9091,
      "liorerait": 9092,
      "chaussÃ": 9093,
      "sidences": 9094,
      "digitales": 9095,
      "divulguÃ": 9096,
      "ductibles": 9097,
      "parfaitement": 9098,
      "convertis": 9099,
      "contiennent": 9100,
      "concoctÃ": 9101,
      "contribue": 9102,
      "citadins": 9103,
      "pourcentage": 9104,
      "amphithÃ": 9105,
      "proximitÃ": 9106,
      "applaudis": 9107,
      "absolue": 9108,
      "sublimÃ": 9109,
      "suffit": 9110,
      "pubienne": 9111,
      "extinction": 9112,
      "excuser": 9113,
      "Leonardo": 9114,
      "immobilier": 9115,
      "Illinois": 9116,
      "instabilitÃ": 9117,
      "robots": 9118,
      "mobiles": 9119,
      "minutieuse": 9120,
      "bijoux": 9121,
      "autopsie": 9122,
      "embouteillages": 9123,
      "opposants": 9124,
      "conspirateurs": 9125,
      "maximum": 9126,
      "Challenge": 9127,
      "Entertainment": 9128,
      "transfert": 9129,
      "Authority": 9130,
      "Obamacare": 9131,
      "vieillissement": 9132,
      "Anderlecht": 9133,
      "Defender": 9134,
      "cinquantaine": 9135,
      "bouleversÃ": 9136,
      "EuroFirst300": 9137,
      "Thurlbeck": 9138,
      "Suzanne": 9139,
      "supprimer": 9140,
      "Airways": 9141,
      "gymnase": 9142,
      "Arsenault": 9143,
      "Guillaume": 9144,
      "Hudgins": 9145,
      "silhouette": 9146,
      "Scarbrough": 9147,
      "Westminster": 9148,
      "flamandisation": 9149,
      "jihadistes": 9150,
      "ASCOVIME": 9151,
      "FernandoÂ": 9152,
      "Sherbrooke": 9153,
      "Nymphomaniac": 9154
    },
    "merges": [
      [
        "e",
        "s"
      ],
      [
        "e",
        "n"
      ],
      [
        "o",
        "n"
      ],
      [
        "d",
        "e"
      ],
      [
        "a",
        "n"
[...]
