{
  "version": "1.0",
  "truncation": null,
  "padding": null,
  "added_tokens": [
    {
      "id": 0,
      "content": "<s>",
      "single_word": false,
      "lstrip": false,
      "rstrip": false,
      "normalized": false,
      "special": true
    },
    {
      "id": 1,
      "content": "<pad>",
      "single_word": false,
      "lstrip": false,
      "rstrip": false,
      "normalized": false,
      "special": true
    },
    {
      "id": 2,
      "content": "</s>",
      "single_word": false,
      "lstrip": false,
      "rstrip": false,
      "normalized": false,
      "special": true
    },
    {
      "id": 3,
      "content": "<unk>",
      "single_word": false,
      "lstrip": false,
      "rstrip": false,
      "normalized": false,
      "special": true
    }
  ],
  "normalizer": null,
  "pre_tokenizer": {
    "type": "Whitespace"
  },
  "post_processor": {
    "type": "TemplateProcessing",
    "single": [
      {
        "SpecialToken": {
          "id": "<s>",
          "type_id": 0
        }
      },
      {
        "Sequence": {
          "id": "A",
          "type_id": 0
        }
      },
      {
        "SpecialToken": {
          "id": "</s>",
          "type_id": 0
        }
      }
    ],
    "pair": [
      {
        "SpecialToken": {
          "id": "<s>",
          "type_id": 0
        }
      },
      {
        "Sequence": {
          "id": "A",
          "type_id": 0
        }
      },
      {
        "SpecialToken": {
          "id": "</s>",
          "type_id": 0
        }
      },
      {
        "Sequence": {
          "id": "B",
          "type_id": 1
        }
      },
      {
        "SpecialToken": {
          "id": "</s>",
          "type_id": 1
        }
      }
    ],
    "special_tokens": {
      "</s>": {
        "id": "</s>",
        "ids": [
          2
        ],
        "tokens": [
          "</s>"
        ]
      },
      "<s>": {
        "id": "<s>",
        "ids": [
          0
        ],
        "tokens": [
          "<s>"
        ]
      }
    }
  },
  "decoder": {
    "type": "BPEDecoder",
    "suffix": "</w>"
  },
  "model": {
    "type": "BPE",
    "dropout": null,
    "unk_token": "<unk>",
    "continuing_subword_prefix": null,
    "end_of_word_suffix": null,
    "fuse_unk": false,
    "byte_fallback": false,
    "ignore_merges": false,
    "vocab": {
      "<s>": 0,
      "<pad>": 1,
      "</s>": 2,
      "<unk>": 3,
      "!": 4,
      "\"": 5,
      "$": 6,
      "%": 7,
      "&": 8,
      "'": 9,
      "(": 10,
      ")": 11,
      "+": 12,
      ",": 13,
      "-": 14,
      ".": 15,
      "/": 16,
      "0": 17,
      "1": 18,
      "2": 19,
      "3": 20,
      "4": 21,
      "5": 22,
      "6": 23,
      "7": 24,
      "8": 25,
      "9": 26,
      ":": 27,
      ";": 28,
      "?": 29,
      "A": 30,
      "B": 31,
      "C": 32,
      "D": 33,
      "E": 34,
      "F": 35,
      "G": 36,
      "H": 37,
      "I": 38,
      "J": 39,
      "K": 40,
      "L": 41,
      "M": 42,
      "N": 43,
      "O": 44,
      "P": 45,
      "Q": 46,
      "R": 47,
      "S": 48,
      "T": 49,
      "U": 50,
      "V": 51,
      "W": 52,
      "X": 53,
      "Y": 54,
      "Z": 55,
      "[": 56,
      "]": 57,
      "a": 58,
      "b": 59,
      "c": 60,
      "d": 61,
      "e": 62,
      "f": 63,
      "g": 64,
      "h": 65,
      "i": 66,
      "j": 67,
      "k": 68,
      "l": 69,
      "m": 70,
      "n": 71,
      "o": 72,
      "p": 73,
      "q": 74,
      "r": 75,
      "s": 76,
      "t": 77,
      "u": 78,
      "v": 79,
      "w": 80,
      "x": 81,
      "y": 82,
      "z": 83,
      "¢": 84,
      "£": 85,
      "§": 86,
      "¨": 87,
      "©": 88,
      "ª": 89,
      "«": 90,
      "¬": 91,
      "¯": 92,
      "´": 93,
      "¶": 94,
      "¼": 95,
      "Â": 96,
      "Ã": 97,
      "â": 98,
      "‚": 99,
      "‰": 100,
      "th": 101,
      "in": 102,
      "er": 103,
      "the": 104,
      "an": 105,
      "on": 106,
      "re": 107,
      "en": 108,
      "at": 109,
      "ed": 110,
      "or": 111,
      "is": 112,
      "es": 113,
      "al": 114,
      "to": 115,
      "of": 116,
      "ing": 117,
      "as": 118,
      "ar": 119,
      "ou": 120,
      "it": 121,
      "ic": 122,
      "and": 123,
      "ion": 124,
      "he": 125,
      "st": 126,
      "le": 127,
      "om": 128,
      "ent": 129,
      "il": 130,
      "id": 131,
      "be": 132,
      "se": 133,
      "ac": 134,
      "ve": 135,
      "ad": 136,
      "ro": 137,
      "for": 138,
      "ch": 139,
      "ay": 140,
      "ol": 141,
      "wh": 142,
      "ly": 143,
      "ver": 144,
      "ir": 145,
      "ow": 146,
      "ce": 147,
      "ter": 148,
      "ur": 149,
      "that": 150,
      "The": 151,
      "am": 152,
      "ation": 153,
      "de": 154,
      "ig": 155,
      "ot": 156,
      "im": 157,
      "ill": 158,
      "pe": 159,
      "are": 160,
      "tr": 161,
      "con": 162,
      "ag": 163,
      "us": 164,
      "ers": 165,
      "ct": 166,
      "ne": 167,
      "was": 168,
      "ab": 169,
      "un": 170,
      "ith": 171,
      "res": 172,
      "ut": 173,
      "ere": 174,
      "ha": 175,
      "with": 176,
      "com": 177,
      "we": 178,
      "ment": 179,
      "et": 180,
      "ld": 181,
      "op": 182,
      "ul": 183,
      "by": 184,
      "sa": 185,
      "li": 186,
      "ex": 187,
      "fr": 188,
      "pl": 189,
      "has": 190,
      "pro": 191,
      "ts": 192,
      "su": 193,
      "mo": 194,
      "te": 195,
      "our": 196,
      "his": 197,
      "oun": 198,
      "ak": 199,
      "ain": 200,
      "out": 201,
      "said": 202,
      "est": 203,
      "ap": 204,
      "ies": 205,
      "ate": 206,
      "ear": 207,
      "ri": 208,
      "all": 209,
      "not": 210,
      "ther": 211,
      "lo": 212,
      "igh": 213,
      "have": 214,
      "sh": 215,
      "ess": 216,
      ",\"": 217,
      "if": 218,
      "from": 219,
      "ould": 220,
      "art": 221,
      "em": 222,
      "over": 223,
      "so": 224,
      "po": 225,
      "man": 226,
      "ack": 227,
      "will": 228,
      "end": 229,
      "ity": 230,
      "year": 231,
      "one": 232,
      "day": 233,
      "qu": 234,
      "ice": 235,
      "ll": 236,
      "au": 237,
      "ard": 238,
      "ge": 239,
      "por": 240,
      "this": 241,
      "per": 242,
      "been": 243,
      "af": 244,
      "ber": 245,
      "fe": 246,
      "ord": 247,
      "ive": 248,
      "its": 249,
      "who": 250,
      "iv": 251,
      "ial": 252,
      "ist": 253,
      "do": 254,
      "00": 255,
      "up": 256,
      "ich": 257,
      "ant": 258,
      "mer": 259,
      "ast": 260,
      "had": 261,
      "In": 262,
      "ence": 263,
      "gh": 264,
      "me": 265,
      "ust": 266,
      "ire": 267,
      "act": 268,
      "cl": 269,
      "wor": 270,
      "ical": 271,
      "off": 272,
      "their": 273,
      "which": 274,
      "pr": 275,
      "ren": 276,
      "Th": 277,
      "but": 278,
      "ass": 279,
      "were": 280,
      "ous": 281,
      "ance": 282,
      "ight": 283,
      "gr": 284,
      "age": 285,
      "pres": 286,
      "ong": 287,
      "ie": 288,
      "ore": 289,
      "ue": 290,
      "they": 291,
      "ans": 292,
      "ome": 293,
      "bo": 294,
      "new": 295,
      "bl": 296,
      "cre": 297,
      "ident": 298,
      "own": 299,
      "Fr": 300,
      "ke": 301,
      "aw": 302,
      "ions": 303,
      "acc": 304,
      "um": 305,
      "port": 306,
      "sp": 307,
      "ated": 308,
      "ev": 309,
      "med": 310,
      "ser": 311,
      "old": 312,
      "ough": 313,
      "ound": 314,
      "ia": 315,
      "mon": 316,
      "able": 317,
      "ary": 318,
      "cr": 319,
      "dis": 320,
      "pol": 321,
      "tim": 322,
      "ine": 323,
      "air": 324,
      "co": 325,
      "no": 326,
      "ure": 327,
      "part": 328,
      "ud": 329,
      "ations": 330,
      "el": 331,
      "about": 332,
      "ople": 333,
      "would": 334,
      "ra": 335,
      "enc": 336,
      "ks": 337,
      "my": 338,
      "ild": 339,
      "ake": 340,
      "Ch": 341,
      "can": 342,
      "inter": 343,
      "ays": 344,
      "ind": 345,
      ".\"": 346,
      "now": 347,
      "ph": 348,
      "wo": 349,
      "cent": 350,
      "It": 351,
      "ide": 352,
      "pre": 353,
      "ish": 354,
      "ace": 355,
      "people": 356,
      "fir": 357,
      "ree": 358,
      "20": 359,
      "other": 360,
      "ign": 361,
      "du": 362,
      "ever": 363,
      "also": 364,
      "ite": 365,
      "cont": 366,
      "und": 367,
      "od": 368,
      "after": 369,
      "car": 370,
      "fore": 371,
      "ors": 372,
      "more": 373,
      "ian": 374,
      "pos": 375,
      "spe": 376,
      "He": 377,
      "go": 378,
      "low": 379,
      "ices": 380,
      "str": 381,
      "her": 382,
      "pu": 383,
      "An": 384,
      "ip": 385,
      "ied": 386,
      "overn": 387,
      "get": 388,
      "ok": 389,
      "ted": 390,
      "there": 391,
      "vel": 392,
      "chan": 393,
      "cur": 394,
      "she": 395,
      "two": 396,
      "work": 397,
      "when": 398,
      "comp": 399,
      "Mr": 400,
      "sur": 401,
      "ann": 402,
      "ame": 403,
      "br": 404,
      "ib": 405,
      "ile": 406,
      "uro": 407,
      "ult": 408,
      "ase": 409,
      "St": 410,
      "ta": 411,
      "cted": 412,
      "ious": 413,
      "ual": 414,
      "any": 415,
      "overnment": 416,
      "years": 417,
      "time": 418,
      "ck": 419,
      "inv": 420,
      "anc": 421,
      "ates": 422,
      "illion": 423,
      "av": 424,
      "ls": 425,
      "mar": 426,
      "ry": 427,
      "bet": 428,
      "Un": 429,
      "min": 430,
      "than": 431,
      "into": 432,
      "ording": 433,
      "ep": 434,
      "fer": 435,
      "some": 436,
      "them": 437,
      "bec": 438,
      "ction": 439,
      "vices": 440,
      "ition": 441,
      "him": 442,
      "pt": 443,
      "Euro": 444,
      "ced": 445,
      "ef": 446,
      "being": 447,
      "back": 448,
      "could": 449,
      "land": 450,
      "sion": 451,
      "first": 452,
      "201": 453,
      "We": 454,
      "coun": 455,
      "ho": 456,
      "ty": 457,
      "ach": 458,
      "where": 459,
      "most": 460,
      "Br": 461,
      "government": 462,
      "eng": 463,
      "att": 464,
      "publ": 465,
      "ory": 466,
      "ited": 467,
      "prov": 468,
      "ele": 469,
      "ince": 470,
      "ings": 471,
      "add": 472,
      "Europe": 473,
      "Amer": 474,
      "form": 475,
      "Americ": 476,
      "way": 477,
      "reg": 478,
      "try": 479,
      "pp": 480,
      "ating": 481,
      "But": 482,
      "mis": 483,
      "als": 484,
      "cho": 485,
      "child": 486,
      "urs": 487,
      "bu": 488,
      "down": 489,
      "lin": 490,
      "ased": 491,
      "ade": 492,
      "again": 493,
      "uring": 494,
      "ational": 495,
      "ause": 496,
      "million": 497,
      "og": 498,
      "oy": 499,
      "ving": 500,
      "come": 501,
      "dr": 502,
      "fl": 503,
      "just": 504,
      "you": 505,
      "erson": 506,
      "Thurs": 507,
      "Thursday": 508,
      "Is": 509,
      "US": 510,
      "iz": 511,
      "ier": 512,
      "read": 513,
      "ency": 514,
      "ew": 515,
      "sy": 516,
      "ally": 517,
      "ict": 518,
      "before": 519,
      "used": 520,
      "ween": 521,
      "under": 522,
      "This": 523,
      "ath": 524,
      "fin": 525,
      "ten": 526,
      "use": 527,
      "ities": 528,
      "ents": 529,
      "dec": 530,
      "ail": 531,
      "ful": 532,
      "law": 533,
      "oc": 534,
      "says": 535,
      "tak": 536,
      "oup": 537,
      "row": 538,
      "very": 539,
      "urn": 540,
      "appe": 541,
      "between": 542,
      "Ger": 543,
      "these": 544,
      "200": 545,
      "bus": 546,
      "sc": 547,
      "ont": 548,
      "vers": 549,
      "according": 550,
      "Wh": 551,
      "des": 552,
      "gu": 553,
      "even": 554,
      "spec": 555,
      "call": 556,
      "pass": 557,
      "person": 558,
      "ved": 559,
      "vis": 560,
      "int": 561,
      "ollow": 562,
      "many": 563,
      "public": 564,
      "je": 565,
      "mber": 566,
      "sto": 567,
      "alth": 568,
      "ash": 569,
      "show": 570,
      "three": 571,
      "ank": 572,
      "ond": 573,
      "red": 574,
      "head": 575,
      "state": 576,
      "month": 577,
      "SA": 578,
      "ug": 579,
      "iday": 580,
      "plan": 581,
      "because": 582,
      "New": 583,
      "clo": 584,
      "ose": 585,
      "arch": 586,
      "like": 587,
      "offic": 588,
      "police": 589,
      "gen": 590,
      "la": 591,
      "ob": 592,
      "ss": 593,
      "ting": 594,
      "ick": 595,
      "comm": 596,
      "cer": 597,
      "long": 598,
      "ma": 599,
      "mem": 600,
      "sib": 601,
      "ins": 602,
      "sel": 603,
      "ters": 604,
      "che": 605,
      "cess": 606,
      "ek": 607,
      "gan": 608,
      "lar": 609,
      "make": 610,
      "incl": 611,
      "ens": 612,
      "ists": 613,
      "char": 614,
      "what": 615,
      "Friday": 616,
      "On": 617,
      "cus": 618,
      "high": 619,
      "turn": 620,
      "reat": 621,
      "ised": 622,
      "press": 623,
      "ged": 624,
      "say": 625,
      "ort": 626,
      "ise": 627,
      "ared": 628,
      "aff": 629,
      "group": 630,
      "change": 631,
      "United": 632,
      "19": 633,
      "ft": 634,
      "ger": 635,
      "ges": 636,
      "last": 637,
      "mat": 638,
      "take": 639,
      "iness": 640,
      "rele": 641,
      "rench": 642,
      "And": 643,
      "against": 644,
      "Ob": 645,
      "during": 646,
      "follow": 647,
      "ning": 648,
      "ple": 649,
      "vice": 650,
      "rel": 651,
      "start": 652,
      "former": 653,
      "need": 654,
      "ress": 655,
      "should": 656,
      "invest": 657,
      "mark": 658,
      "ject": 659,
      "French": 660,
      "found": 661,
      "thor": 662,
      "hel": 663,
      "still": 664,
      "cons": 665,
      "well": 666,
      "world": 667,
      "De": 668,
      "How": 669,
      "Sc": 670,
      "ave": 671,
      "line": 672,
      "ral": 673,
      "rough": 674,
      "since": 675,
      "thing": 676,
      "sex": 677,
      "ama": 678,
      "trans": 679,
      "ific": 680,
      "every": 681,
      "minis": 682,
      "Com": 683,
      "den": 684,
      "dif": 685,
      "fire": 686,
      "ven": 687,
      "lead": 688,
      "cond": 689,
      "contin": 690,
      "\".": 691,
      "dire": 692,
      "less": 693,
      "want": 694,
      "only": 695,
      "They": 696,
      "expl": 697,
      "place": 698,
      "loc": 699,
      "announ": 700,
      "official": 701,
      "Re": 702,
      "cour": 703,
      "did": 704,
      "how": 705,
      "jor": 706,
      "know": 707,
      "ris": 708,
      "ward": 709,
      "erg": 710,
      "eral": 711,
      "ese": 712,
      "ctor": 713,
      "resident": 714,
      "such": 715,
      "attack": 716,
      "business": 717,
      "major": 718,
      "cut": 719,
      "cover": 720,
      "dri": 721,
      "hand": 722,
      "ove": 723,
      "par": 724,
      "tal": 725,
      "vie": 726,
      "war": 727,
      "through": 728,
      "requ": 729,
      "tell": 730,
      "000": 731,
      "bod": 732,
      "France": 733,
      "Al": 734,
      "mak": 735,
      "os": 736,
      "pri": 737,
      "ered": 738,
      "ale": 739,
      "ics": 740,
      "devices": 741,
      "ments": 742,
      "produ": 743,
      "sup": 744,
      "10": 745,
      "For": 746,
      "di": 747,
      "fam": 748,
      "ures": 749,
      "vi": 750,
      "inj": 751,
      "told": 752,
      "ask": 753,
      "around": 754,
      "beli": 755,
      "sever": 756,
      "aren": 757,
      "net": 758,
      "week": 759,
      "oper": 760,
      "expe": 761,
      "prof": 762,
      "There": 763,
      "American": 764,
      "ready": 765,
      "self": 766,
      "Oc": 767,
      "four": 768,
      "giv": 769,
      "may": 770,
      "tar": 771,
      "set": 772,
      "while": 773,
      "allow": 774,
      "ured": 775,
      "curren": 776,
      "sible": 777,
      "includ": 778,
      "view": 779,
      "At": 780,
      "Air": 781,
      "organ": 782,
      "ital": 783,
      "left": 784,
      "ched": 785,
      "author": 786,
      "peri": 787,
      "Octo": 788,
      "Le": 789,
      "Se": 790,
      "ces": 791,
      "kes": 792,
      "ms": 793,
      "nal": 794,
      "ages": 795,
      "States": 796,
      "Brit": 797,
      "children": 798,
      "October": 799,
      "Go": 800,
      "aim": 801,
      "pay": 802,
      "ton": 803,
      "tain": 804,
      "ves": 805,
      "then": 806,
      "report": 807,
      "itical": 808,
      "trad": 809,
      "engers": 810,
      "Obama": 811,
      "As": 812,
      "Nor": 813,
      "main": 814,
      "made": 815,
      "national": 816,
      "pend": 817,
      "uch": 818,
      "ways": 819,
      "ouse": 820,
      "see": 821,
      "ular": 822,
      "life": 823,
      "curity": 824,
      "surve": 825,
      "country": 826,
      "mission": 827,
      "chool": 828,
      "Isra": 829,
      "ather": 830,
      "ble": 831,
      "col": 832,
      "care": 833,
      "cap": 834,
      "fic": 835,
      "hold": 836,
      "iers": 837,
      "les": 838,
      "num": 839,
      "sm": 840,
      "site": 841,
      "though": 842,
      "ink": 843,
      "incre": 844,
      "rece": 845,
      "ata": 846,
      "ative": 847,
      "devel": 848,
      "tra": 849,
      "sub": 850,
      "move": 851,
      "look": 852,
      "ender": 853,
      "dog": 854,
      "does": 855,
      "present": 856,
      "services": 857,
      "tax": 858,
      "European": 859,
      "German": 860,
      "several": 861,
      "develop": 862,
      "Ac": 863,
      "CA": 864,
      "bers": 865,
      "fact": 866,
      "pat": 867,
      "put": 868,
      "sold": 869,
      "test": 870,
      "search": 871,
      "Scot": 872,
      "Af": 873,
      "Co": 874,
      "cial": 875,
      "kill": 876,
      "light": 877,
      "mor": 878,
      "mus": 879,
      "ned": 880,
      "sit": 881,
      "those": 882,
      "ility": 883,
      "amp": 884,
      "concer": 885,
      "ago": 886,
      "sure": 887,
      "president": 888,
      "prev": 889,
      "However": 890,
      "famil": 891,
      "Bo": 892,
      "NSA": 893,
      "Sy": 894,
      "data": 895,
      "ix": 896,
      "lat": 897,
      "led": 898,
      "ns": 899,
      "real": 900,
      "too": 901,
      "stem": 902,
      "lear": 903,
      "road": 904,
      "conom": 905,
      "nex": 906,
      "wel": 907,
      "ploy": 908,
      "ified": 909,
      "medical": 910,
      "stru": 911,
      "system": 912,
      "taken": 913,
      "investig": 914,
      "market": 915,
      "help": 916,
      "body": 917,
      "Aust": 918,
      "Pal": 919,
      "men": 920,
      "sen": 921,
      "sing": 922,
      "your": 923,
      "aris": 924,
      "stit": 925,
      "omb": 926,
      "second": 927,
      "cept": 928,
      "resp": 929,
      "happ": 930,
      "order": 931,
      "next": 932,
      "\",": 933,
      "Mon": 934,
      "President": 935,
      "az": 936,
      "bi": 937,
      "econom": 938,
      "free": 939,
      "home": 940,
      "mit": 941,
      "mil": 942,
      "oh": 943,
      "paren": 944,
      "spo": 945,
      "vot": 946,
      "wr": 947,
      "ision": 948,
      "issu": 949,
      "already": 950,
      "stud": 951,
      "leg": 952,
      "ross": 953,
      "illance": 954,
      "using": 955,
      "company": 956,
      "iously": 957,
      "ference": 958,
      "build": 959,
      "passengers": 960,
      "announced": 961,
      "target": 962,
      "surveillance": 963,
      "Austral": 964,
      "stitut": 965,
      "Ex": 966,
      "aid": 967,
      "ci": 968,
      "find": 969,
      "gas": 970,
      "gest": 971,
      "grow": 972,
      "nor": 973,
      "same": 974,
      "inis": 975,
      "ones": 976,
      "tom": 977,
      "sts": 978,
      "ided": 979,
      "ime": 980,
      "quar": 981,
      "Chin": 982,
      "ished": 983,
      "carry": 984,
      "called": 985,
      "number": 986,
      "23": 987,
      "FA": 988,
      "Mal": 989,
      "bre": 990,
      "bor": 991,
      "cor": 992,
      "face": 993,
      "ness": 994,
      "pop": 995,
      "right": 996,
      "wat": 997,
      "thir": 998,
      "aring": 999,
      "health": 1000,
      "seat": 1001,
      "imin": 1002,
      "ety": 1003,
      "ext": 1004,
      "fect": 1005,
      "feel": 1006,
      "Inter": 1007,
      "polic": 1008,
      "posed": 1009,
      "going": 1010,
      "good": 1011,
      "added": 1012,
      "close": 1013,
      "following": 1014,
      "injured": 1015,
      "expected": 1016,
      "including": 1017,
      "Syri": 1018,
      "50": 1019,
      "Ar": 1020,
      "Be": 1021,
      "If": 1022,
      "Minis": 1023,
      "based": 1024,
      "hu": 1025,
      "much": 1026,
      "ner": 1027,
      "nes": 1028,
      "sign": 1029,
      "ants": 1030,
      "recent": 1031,
      "stand": 1032,
      "olog": 1033,
      "terr": 1034,
      "depend": 1035,
      "ained": 1036,
      "ports": 1037,
      "activ": 1038,
      "prom": 1039,
      "phone": 1040,
      "invol": 1041,
      "lines": 1042,
      "director": 1043,
      "tellig": 1044,
      "spokes": 1045,
      "Nove": 1046,
      "Tr": 1047,
      "cas": 1048,
      "ctr": 1049,
      "card": 1050,
      "case": 1051,
      "don": 1052,
      "eli": 1053,
      "gn": 1054,
      "ivers": 1055,
      "sent": 1056,
      "sol": 1057,
      "ork": 1058,
      "always": 1059,
      "tow": 1060,
      "iting": 1061,
      "confir": 1062,
      "employ": 1063,
      "ended": 1064,
      "meet": 1065,
      "service": 1066,
      "possible": 1067,
      "formation": 1068,
      "profit": 1069,
      "November": 1070,
      "..": 1071,
      "cord": 1072,
      "fil": 1073,
      "mid": 1074,
      "wom": 1075,
      "thers": 1076,
      "inc": 1077,
      "ism": 1078,
      "imes": 1079,
      "having": 1080,
      "aper": 1081,
      "ately": 1082,
      "soci": 1083,
      "point": 1084,
      "oney": 1085,
      "ically": 1086,
      "medi": 1087,
      "media": 1088,
      "electr": 1089,
      "members": 1090,
      "continu": 1091,
      "current": 1092,
      "Israeli": 1093,
      "telligence": 1094,
      "Bar": 1095,
      "En": 1096,
      "Lond": 1097,
      "National": 1098,
      "Pr": 1099,
      "York": 1100,
      "died": 1101,
      "fo": 1102,
      "got": 1103,
      "gender": 1104,
      "hal": 1105,
      "hour": 1106,
      "ient": 1107,
      "past": 1108,
      "sus": 1109,
      "school": 1110,
      "ude": 1111,
      "whe": 1112,
      "went": 1113,
      "ref": 1114,
      "reach": 1115,
      "took": 1116,
      "ional": 1117,
      "acy": 1118,
      "adv": 1119,
      "tru": 1120,
      "usse": 1121,
      "play": 1122,
      "plann": 1123,
      "tem": 1124,
      "tele": 1125,
      "share": 1126,
      "augh": 1127,
      "claim": 1128,
      "gram": 1129,
      "ances": 1130,
      "ogle": 1131,
      "drug": 1132,
      "months": 1133,
      "release": 1134,
      "ministr": 1135,
      "court": 1136,
      "support": 1137,
      "viol": 1138,
      "given": 1139,
      "British": 1140,
      "Google": 1141,
      "Acc": 1142,
      "Ber": 1143,
      "Gr": 1144,
      "Mar": 1145,
      "M23": 1146,
      "Wed": 1147,
      "bro": 1148,
      "ca": 1149,
      "great": 1150,
      "hic": 1151,
      "king": 1152,
      "lit": 1153,
      "lam": 1154,
      "mand": 1155,
      "pow": 1156,
      "think": 1157,
      "information": 1158,
      "onic": 1159,
      "record": 1160,
      "atic": 1161,
      "ators": 1162,
      "almost": 1163,
      "top": 1164,
      "army": 1165,
      "outh": 1166,
      "chn": 1167,
      "def": 1168,
      "decl": 1169,
      "front": 1170,
      "prote": 1171,
      "aine": 1172,
      "ried": 1173,
      "emerg": 1174,
      "ending": 1175,
      "ief": 1176,
      "book": 1177,
      "cret": 1178,
      "ump": 1179,
      "partment": 1180,
      "contro": 1181,
      "ually": 1182,
      "ancial": 1183,
      "appear": 1184,
      "evening": 1185,
      "consid": 1186,
      "receiv": 1187,
      "nesday": 1188,
      "London": 1189,
      "Wednesday": 1190,
      "),": 1191,
      "Paris": 1192,
      "Ren": 1193,
      "bed": 1194,
      "big": 1195,
      "cu": 1196,
      "clear": 1197,
      "een": 1198,
      "list": 1199,
      "rul": 1200,
      "side": 1201,
      "uation": 1202,
      "ying": 1203,
      "ang": 1204,
      "ons": 1205,
      "ony": 1206,
      "rest": 1207,
      "arm": 1208,
      "pet": 1209,
      "aged": 1210,
      "ush": 1211,
      "never": 1212,
      "program": 1213,
      "short": 1214,
      "fee": 1215,
      "ivil": 1216,
      "anti": 1217,
      "political": 1218,
      "foreign": 1219,
      "Brusse": 1220,
      "vision": 1221,
      "commun": 1222,
      "differ": 1223,
      "travel": 1224,
      "soldiers": 1225,
      "family": 1226,
      "whether": 1227,
      "According": 1228,
      "Brussels": 1229,
      "15": 1230,
      "30": 1231,
      "Bwel": 1232,
      "Can": 1233,
      "EU": 1234,
      "Ju": 1235,
      "bank": 1236,
      "dom": 1237,
      "five": 1238,
      "jud": 1239,
      "money": 1240,
      "ped": 1241,
      "tle": 1242,
      "val": 1243,
      "ys": 1244,
      "intelligence": 1245,
      "really": 1246,
      "return": 1247,
      "research": 1248,
      "ederal": 1249,
      "arri": 1250,
      "security": 1251,
      "death": 1252,
      "track": 1253,
      "agency": 1254,
      "near": 1255,
      "unt": 1256,
      "without": 1257,
      "lies": 1258,
      "shop": 1259,
      "que": 1260,
      "action": 1261,
      "keep": 1262,
      "awn": 1263,
      "partic": 1264,
      "ences": 1265,
      "compan": 1266,
      "bring": 1267,
      "regul": 1268,
      "plane": 1269,
      "started": 1270,
      "Scotland": 1271,
      "half": 1272,
      "emergency": 1273,
      "Bwelle": 1274,
      "--": 1275,
      "Cong": 1276,
      "Joh": 1277,
      "La": 1278,
      "Mo": 1279,
      "came": 1280,
      "dro": 1281,
      "each": 1282,
      "ecut": 1283,
      "fac": 1284,
      "ler": 1285,
      "met": 1286,
      "run": 1287,
      "ub": 1288,
      "uary": 1289,
      "youn": 1290,
      "ero": 1291,
      "another": 1292,
      "reco": 1293,
      "ising": 1294,
      "itor": 1295,
      "stay": 1296,
      "let": 1297,
      "omet": 1298,
      "force": 1299,
      "comes": 1300,
      "exam": 1301,
      "exper": 1302,
      "project": 1303,
      "ship": 1304,
      "That": 1305,
      "news": 1306,
      "discover": 1307,
      "interest": 1308,
      "tail": 1309,
      "better": 1310,
      "2011": 1311,
      "appeal": 1312,
      "species": 1313,
      "custom": 1314,
      "priv": 1315,
      "asked": 1316,
      "killed": 1317,
      "morning": 1318,
      "recogn": 1319,
      "Ad": 1320,
      "Or": 1321,
      "Sh": 1322,
      "Snow": 1323,
      "ben": 1324,
      "bal": 1325,
      "civil": 1326,
      "der": 1327,
      "fight": 1328,
      "gy": 1329,
      "house": 1330,
      "ik": 1331,
      "io": 1332,
      "vol": 1333,
      "reve": 1334,
      "ator": 1335,
      "ests": 1336,
      "today": 1337,
      "staff": 1338,
      "leave": 1339,
      "vehic": 1340,
      "deal": 1341,
      "imple": 1342,
      "tries": 1343,
      "ctions": 1344,
      "suc": 1345,
      "sum": 1346,
      "mother": 1347,
      "team": 1348,
      "ights": 1349,
      "ends": 1350,
      "ired": 1351,
      "office": 1352,
      "pract": 1353,
      "access": 1354,
      "crimin": 1355,
      "comple": 1356,
      "hosp": 1357,
      "ized": 1358,
      "financial": 1359,
      "stop": 1360,
      "large": 1361,
      "wards": 1362,
      "third": 1363,
      "Minister": 1364,
      "town": 1365,
      "electronic": 1366,
      "young": 1367,
      "Snowden": 1368,
      "77": 1369,
      "Con": 1370,
      "Of": 1371,
      "Ser": 1372,
      "ban": 1373,
      "far": 1374,
      "gl": 1375,
      "give": 1376,
      "ians": 1377,
      "lot": 1378,
      "pur": 1379,
      "wit": 1380,
      "yer": 1381,
      "independ": 1382,
      "remain": 1383,
      "ales": 1384,
      "least": 1385,
      "ential": 1386,
      "seem": 1387,
      "condu": 1388,
      "ctors": 1389,
      "nel": 1390,
      "web": 1391,
      "proble": 1392,
      "tee": 1393,
      "tel": 1394,
      "techn": 1395,
      "ournal": 1396,
      "post": 1397,
      "quest": 1398,
      "gether": 1399,
      "perfor": 1400,
      "offer": 1401,
      "distr": 1402,
      "cost": 1403,
      "Germany": 1404,
      "continue": 1405,
      "local": 1406,
      "believ": 1407,
      "period": 1408,
      "looking": 1409,
      "music": 1410,
      "milit": 1411,
      "quarter": 1412,
      "Syria": 1413,
      "employe": 1414,
      "power": 1415,
      "different": 1416,
      "18": 1417,
      "25": 1418,
      "Cent": 1419,
      "Dav": 1420,
      "His": 1421,
      "Pe": 1422,
      "She": 1423,
      "To": 1424,
      "With": 1425,
      "cue": 1426,
      "camp": 1427,
      "father": 1428,
      "ior": 1429,
      "might": 1430,
      "sed": 1431,
      "sour": 1432,
      "ines": 1433,
      "rebe": 1434,
      "ream": 1435,
      "together": 1436,
      "ason": 1437,
      "ural": 1438,
      "amo": 1439,
      "deb": 1440,
      "imp": 1441,
      "pect": 1442,
      "ney": 1443,
      "hair": 1444,
      "coming": 1445,
      "ets": 1446,
      "lier": 1447,
      "live": 1448,
      "exp": 1449,
      "execut": 1450,
      "proper": 1451,
      "aint": 1452,
      "ivid": 1453,
      "doing": 1454,
      "Front": 1455,
      "ought": 1456,
      "coc": 1457,
      "2012": 1458,
      "countries": 1459,
      "host": 1460,
      "published": 1461,
      "full": 1462,
      "saying": 1463,
      "ification": 1464,
      "authorities": 1465,
      "ficult": 1466,
      "small": 1467,
      "dogs": 1468,
      "After": 1469,
      "situation": 1470,
      "FAA": 1471,
      "terror": 1472,
      "cardin": 1473,
      "ministration": 1474,
      "customers": 1475,
      "benef": 1476,
      "11": 1477,
      "60": 1478,
      "Dit": 1479,
      "Hallow": 1480,
      "Pol": 1481,
      "Sep": 1482,
      "ah": 1483,
      "ax": 1484,
      "aign": 1485,
      "bit": 1486,
      "bur": 1487,
      "bill": 1488,
      "billion": 1489,
      "cy": 1490,
      "city": 1491,
      "eve": 1492,
      "equ": 1493,
      "fall": 1494,
      "gir": 1495,
      "mical": 1496,
      "nic": 1497,
      "represent": 1498,
      "ories": 1499,
      "ison": 1500,
      "often": 1501,
      "states": 1502,
      "step": 1503,
      "ches": 1504,
      "chief": 1505,
      "term": 1506,
      "immedi": 1507,
      "contr": 1508,
      "ably": 1509,
      "fri": 1510,
      "process": 1511,
      "tember": 1512,
      "hist": 1513,
      "early": 1514,
      "days": 1515,
      "ively": 1516,
      "ives": 1517,
      "class": 1518,
      "black": 1519,
      "portation": 1520,
      "craf": 1521,
      "phones": 1522,
      "undred": 1523,
      "changes": 1524,
      "flight": 1525,
      "taking": 1526,
      "ashing": 1527,
      "statement": 1528,
      "member": 1529,
      "released": 1530,
      "Commission": 1531,
      "leaders": 1532,
      "officials": 1533,
      "risk": 1534,
      "making": 1535,
      "concerned": 1536,
      "parents": 1537,
      "policy": 1538,
      "confirmed": 1539,
      "violence": 1540,
      "Renamo": 1541,
      "Canad": 1542,
      "companies": 1543,
      "ometimes": 1544,
      "success": 1545,
      "website": 1546,
      "employees": 1547,
      "Ditta": 1548,
      "Halloween": 1549,
      "September": 1550,
      "Ab": 1551,
      "Ag": 1552,
      "DC": 1553,
      "House": 1554,
      "Mic": 1555,
      "Mors": 1556,
      "Rus": 1557,
      "South": 1558,
      "bar": 1559,
      "due": 1560,
      "gin": 1561,
      "hind": 1562,
      "hundred": 1563,
      "joy": 1564,
      "lim": 1565,
      "mot": 1566,
      "ock": 1567,
      "others": 1568,
      "son": 1569,
      "sched": 1570,
      "six": 1571,
      "vic": 1572,
      "wa": 1573,
      "things": 1574,
      "inst": 1575,
      "ene": 1576,
      "ened": 1577,
      "isation": 1578,
      "aly": 1579,
      "associ": 1580,
      "itions": 1581,
      "star": 1582,
      "ides": 1583,
      "become": 1584,
      "amas": 1585,
      "among": 1586,
      "demand": 1587,
      "area": 1588,
      "ults": 1589,
      "exchange": 1590,
      "experi": 1591,
      "suf": 1592,
      "aining": 1593,
      "percent": 1594,
      "berty": 1595,
      "orders": 1596,
      "upt": 1597,
      "grand": 1598,
      "ground": 1599,
      "presence": 1600,
      "board": 1601,
      "2013": 1602,
      "Americans": 1603,
      "Islam": 1604,
      "decision": 1605,
      "ailed": 1606,
      "commit": 1607,
      "chemical": 1608,
      "minister": 1609,
      "difficult": 1610,
      "reported": 1611,
      "development": 1612,
      "later": 1613,
      "investigation": 1614,
      "respon": 1615,
      "economic": 1616,
      "vote": 1617,
      "growth": 1618,
      "activities": 1619,
      "woman": 1620,
      "hours": 1621,
      "little": 1622,
      "until": 1623,
      "implement": 1624,
      "military": 1625,
      "campaign": 1626,
      "Frontier": 1627,
      "cocaine": 1628,
      "Morsi": 1629,
      "12": 1630,
      "40": 1631,
      "45": 1632,
      "Cl": 1633,
      "Care": 1634,
      "Cour": 1635,
      "Gl": 1636,
      "Hol": 1637,
      "MP": 1638,
      "Mont": 1639,
      "No": 1640,
      "One": 1641,
      "So": 1642,
      "UK": 1643,
      "Wor": 1644,
      "Washing": 1645,
      "bag": 1646,
      "cand": 1647,
      "cri": 1648,
      "ging": 1649,
      "glo": 1650,
      "hot": 1651,
      "journal": 1652,
      "ling": 1653,
      "night": 1654,
      "oks": 1655,
      "table": 1656,
      "vide": 1657,
      "ined": 1658,
      "init": 1659,
      "ana": 1660,
      "ret": 1661,
      "redu": 1662,
      "restr": 1663,
      "revel": 1664,
      "ening": 1665,
      "ats": 1666,
      "asing": 1667,
      "story": 1668,
      "ention": 1669,
      "idence": 1670,
      "admit": 1671,
      "olic": 1672,
      "urther": 1673,
      "ament": 1674,
      "conf": 1675,
      "unch": 1676,
      "eremon": 1677,
      "compet": 1678,
      "prove": 1679,
      "supp": 1680,
      "mocr": 1681,
      "soon": 1682,
      "ometr": 1683,
      "discus": 1684,
      "indust": 1685,
      "individ": 1686,
      "pho": 1687,
      "centre": 1688,
      "carried": 1689,
      "puberty": 1690,
      "something": 1691,
      "himself": 1692,
      "effor": 1693,
      "effect": 1694,
      "hope": 1695,
      "provide": 1696,
      "America": 1697,
      "trying": 1698,
      "pped": 1699,
      "lawyer": 1700,
      "2008": 1701,
      "When": 1702,
      "design": 1703,
      "longer": 1704,
      "charge": 1705,
      "course": 1706,
      "product": 1707,
      "believe": 1708,
      "North": 1709,
      "colle": 1710,
      "building": 1711,
      "Australia": 1712,
      "China": 1713,
      "iversity": 1714,
      "received": 1715,
      "communic": 1716,
      "reveal": 1717,
      "Russ": 1718,
      "Court": 1719,
      "Washington": 1720,
      "Aug": 1721,
      "Bank": 1722,
      "Cath": 1723,
      "Egy": 1724,
      "Jan": 1725,
      "Li": 1726,
      "May": 1727,
      "Mart": 1728,
      "MCA": 1729,
      "Pro": 1730,
      "Res": 1731,
      "Some": 1732,
      "Tri": 1733,
      "Two": 1734,
      "Val": 1735,
      "YMCA": 1736,
      "bour": 1737,
      "cli": 1738,
      "cast": 1739,
      "ceremon": 1740,
      "dol": 1741,
      "date": 1742,
      "dist": 1743,
      "daugh": 1744,
      "eing": 1745,
      "fund": 1746,
      "federal": 1747,
      "hard": 1748,
      "ked": 1749,
      "non": 1750,
      "ran": 1751,
      "rist": 1752,
      "sil": 1753,
      "sess": 1754,
      "sometimes": 1755,
      "tw": 1756,
      "tun": 1757,
      "vo": 1758,
      "reports": 1759,
      "held": 1760,
      "ster": 1761,
      "stri": 1762,
      "irth": 1763,
      "cember": 1764,
      "del": 1765,
      "agree": 1766,
      "rescue": 1767,
      "ution": 1768,
      "common": 1769,
      "app": 1770,
      "lled": 1771,
      "geco": 1772,
      "means": 1773,
      "aircraf": 1774,
      "rail": 1775,
      "enced": 1776,
      "cannot": 1777,
      "interview": 1778,
      "indic": 1779,
      "position": 1780,
      "surger": 1781,
      "became": 1782,
      "ization": 1783,
      "decided": 1784,
      "shows": 1785,
      "planes": 1786,
      "News": 1787,
      "likely": 1788,
      "largest": 1789,
      "affic": 1790,
      "relation": 1791,
      "December": 1792,
      "sexual": 1793,
      "explained": 1794,
      "attacks": 1795,
      "Airbus": 1796,
      "Security": 1797,
      "Cogeco": 1798,
      "respond": 1799,
      "Australian": 1800,
      "cases": 1801,
      "television": 1802,
      "caused": 1803,
      "declared": 1804,
      "video": 1805,
      "individual": 1806,
      "photo": 1807,
      "August": 1808,
      "Egypt": 1809,
      "17": 1810,
      "Am": 1811,
      "Cor": 1812,
      "East": 1813,
      "Gaz": 1814,
      "Ira": 1815,
      "Ken": 1816,
      "Ms": 1817,
      "My": 1818,
      "Po": 1819,
      "Sun": 1820,
      "Since": 1821,
      "You": 1822,
      "bas": 1823,
      "blo": 1824,
      "cks": 1825,
      "dit": 1826,
      "ean": 1827,
      "fig": 1828,
      "hy": 1829,
      "hor": 1830,
      "here": 1831,
      "ibut": 1832,
      "jo": 1833,
      "kn": 1834,
      "late": 1835,
      "mun": 1836,
      "pot": 1837,
      "pack": 1838,
      "pite": 1839,
      "ric": 1840,
      "rupt": 1841,
      "tit": 1842,
      "ule": 1843,
      "vir": 1844,
      "erry": 1845,
      "once": 1846,
      "atory": 1847,
      "attem": 1848,
      "iss": 1849,
      "stated": 1850,
      "level": 1851,
      "secret": 1852,
      "ford": 1853,
      "termin": 1854,
      "ury": 1855,
      "pecial": 1856,
      "trial": 1857,
      "trip": 1858,
      "ability": 1859,
      "result": 1860,
      "compl": 1861,
      "weap": 1862,
      "ulation": 1863,
      "plac": 1864,
      "ains": 1865,
      "appro": 1866,
      "ify": 1867,
      "few": 1868,
      "istan": 1869,
      "docu": 1870,
      "meas": 1871,
      "rend": 1872,
      "assist": 1873,
      "grap": 1874,
      "both": 1875,
      "newsp": 1876,
      "identity": 1877,
      "series": 1878,
      "rather": 1879,
      "Char": 1880,
      "strong": 1881,
      "working": 1882,
      "calls": 1883,
      "199": 1884,
      "Britain": 1885,
      "ombard": 1886,
      "Chinese": 1887,
      "Malik": 1888,
      "watch": 1889,
      "Internet": 1890,
      "spokesman": 1891,
      "spokesperson": 1892,
      "Trans": 1893,
      "incident": 1894,
      "foot": 1895,
      "drugs": 1896,
      "judge": 1897,
      "John": 1898,
      "hospital": 1899,
      "cardinals": 1900,
      "Agency": 1901,
      "Montreal": 1902,
      "World": 1903,
      "Martin": 1904,
      "Iraq": 1905,
      "known": 1906,
      "100": 1907,
      "21": 1908,
      "Dis": 1909,
      "Die": 1910,
      "Ed": 1911,
      "Even": 1912,
      "Fin": 1913,
      "Gu": 1914,
      "Government": 1915,
      "Not": 1916,
      "Que": 1917,
      "Sing": 1918,
      "ault": 1919,
      "bot": 1920,
      "border": 1921,
      "dle": 1922,
      "dest": 1923,
      "eor": 1924,
      "fle": 1925,
      "figh": 1926,
      "fety": 1927,
      "hab": 1928,
      "hop": 1929,
      "lan": 1930,
      "must": 1931,
      "male": 1932,
      "ps": 1933,
      "pen": 1934,
      "phas": 1935,
      "pawn": 1936,
      "rad": 1937,
      "var": 1938,
      "wal": 1939,
      "online": 1940,
      "rep": 1941,
      "towards": 1942,
      "ark": 1943,
      "itic": 1944,
      "ley": 1945,
      "secut": 1946,
      "across": 1947,
      "aded": 1948,
      "cement": 1949,
      "cell": 1950,
      "amed": 1951,
      "ames": 1952,
      "deli": 1953,
      "import": 1954,
      "tried": 1955,
      "ither": 1956,
      "within": 1957,
      "comed": 1958,
      "safety": 1959,
      "liament": 1960,
      "plans": 1961,
      "poin": 1962,
      "manag": 1963,
      "works": 1964,
      "price": 1965,
      "accident": 1966,
      "seriously": 1967,
      "times": 1968,
      "party": 1969,
      "internal": 1970,
      "speak": 1971,
      "surpr": 1972,
      "annual": 1973,
      "University": 1974,
      "addition": 1975,
      "region": 1976,
      "buy": 1977,
      "What": 1978,
      "descri": 1979,
      "personal": 1980,
      "although": 1981,
      "gener": 1982,
      "Department": 1983,
      "wanted": 1984,
      "ergy": 1985,
      "majority": 1986,
      "drivers": 1987,
      "network": 1988,
      "organisation": 1989,
      "capital": 1990,
      "increase": 1991,
      "movement": 1992,
      "musical": 1993,
      "prevent": 1994,
      "Boeing": 1995,
      "happy": 1996,
      "biometr": 1997,
      "issue": 1998,
      "issues": 1999,
      "break": 2000,
      "recently": 2001,
      "ology": 2002,
      "involved": 2003,
      "...": 2004,
      "David": 2005,
      "rebels": 2006,
      "equip": 2007,
      "immediately": 2008,
      "Micha": 2009,
      "suffer": 2010,
      "aircraft": 2011,
      "newspaper": 2012,
      "Quebec": 2013,
      "BS": 2014,
      "Bl": 2015,
      "Bow": 2016,
      "Bombard": 2017,
      "Cam": 2018,
      "Do": 2019,
      "Dr": 2020,
      "Geor": 2021,
      "Lou": 2022,
      "March": 2023,
      "Part": 2024,
      "RDC": 2025,
      "School": 2026,
      "Vill": 2027,
      "West": 2028,
      "best": 2029,
      "cause": 2030,
      "fut": 2031,
      "gone": 2032,
      "iat": 2033,
      "job": 2034,
      "kit": 2035,
      "knew": 2036,
      "mas": 2037,
      "mass": 2038,
      "mile": 2039,
      "nu": 2040,
      "pted": 2041,
      "smo": 2042,
      "simp": 2043,
      "ties": 2044,
      "treat": 2045,
      "tests": 2046,
      "uck": 2047,
      "ufact": 2048,
      "win": 2049,
      "won": 2050,
      "yes": 2051,
      "instru": 2052,
      "erve": 2053,
      "anim": 2054,
      "anger": 2055,
      "rew": 2056,
      "reed": 2057,
      "enjoy": 2058,
      "ises": 2059,
      "ali": 2060,
      "asy": 2061,
      "itan": 2062,
      "anda": 2063,
      "enton": 2064,
      "ids": 2065,
      "iding": 2066,
      "seen": 2067,
      "forced": 2068,
      "chall": 2069,
      "white": 2070,
      "terms": 2071,
      "dead": 2072,
      "demon": 2073,
      "defin": 2074,
      "department": 2075,
      "improve": 2076,
      "conference": 2077,
      "ague": 2078,
      "uses": 2079,
      "aband": 2080,
      "ops": 2081,
      "opt": 2082,
      "uled": 2083,
      "saw": 2084,
      "estin": 2085,
      "earlier": 2086,
      "lost": 2087,
      "manufact": 2088,
      "qual": 2089,
      "fell": 2090,
      "ival": 2091,
      "boy": 2092,
      "cream": 2093,
      "Franc": 2094,
      "accused": 2095,
      "spot": 2096,
      "space": 2097,
      "airline": 2098,
      "airlines": 2099,
      "international": 2100,
      "contact": 2101,
      "changed": 2102,
      "ible": 2103,
      "avo": 2104,
      "aving": 2105,
      "choose": 2106,
      "occur": 2107,
      "rown": 2108,
      "Why": 2109,
      "guid": 2110,
      "stock": 2111,
      "certain": 2112,
      "inside": 2113,
      "direct": 2114,
      "announcement": 2115,
      "Republic": 2116,
      "production": 2117,
      "expect": 2118,
      "senior": 2119,
      "wrong": 2120,
      "north": 2121,
      "born": 2122,
      "film": 2123,
      "currently": 2124,
      "consider": 2125,
      "considered": 2126,
      "July": 2127,
      "particip": 2128,
      "complete": 2129,
      "independent": 2130,
      "performan": 2131,
      "sources": 2132,
      "revelations": 2133,
      "Russia": 2134,
      "Catholic": 2135,
      "dollar": 2136,
      "potential": 2137,
      "Bombardier": 2138,
      "future": 2139,
      "demonstr": 2140,
      "Francis": 2141,
      ").": 2142,
      "14": 2143,
      "16": 2144,
      "26": 2145,
      "33": 2146,
      "70": 2147,
      "Au": 2148,
      "Ale": 2149,
      "Ass": 2150,
      "Bro": 2151,
      "CG": 2152,
      "CS": 2153,
      "City": 2154,
      "Cross": 2155,
      "Fire": 2156,
      "Gen": 2157,
      "Hamas": 2158,
      "Lord": 2159,
      "Now": 2160,
      "Ru": 2161,
      "Roy": 2162,
      "Sen": 2163,
      "Ste": 2164,
      "ai": 2165,
      "aul": 2166,
      "ahead": 2167,
      "band": 2168,
      "bol": 2169,
      "birth": 2170,
      "cing": 2171,
      "dam": 2172,
      "ead": 2173,
      "fill": 2174,
      "fem": 2175,
      "fair": 2176,
      "fav": 2177,
      "foc": 2178,
      "gather": 2179,
      "hill": 2180,
      "hack": 2181,
      "ij": 2182,
      "ium": 2183,
      "ker": 2184,
      "lay": 2185,
      "mill": 2186,
      "mess": 2187,
      "name": 2188,
      "paid": 2189,
      "paper": 2190,
      "push": 2191,
      "ring": 2192,
      "ues": 2193,
      "uated": 2194,
      "vacc": 2195,
      "threat": 2196,
      "institut": 2197,
      "theat": 2198,
      "reform": 2199,
      "ature": 2200,
      "orig": 2201,
      "isions": 2202,
      "offee": 2203,
      "assa": 2204,
      "ars": 2205,
      "oud": 2206,
      "outs": 2207,
      "heart": 2208,
      "heard": 2209,
      "omes": 2210,
      "behind": 2211,
      "administration": 2212,
      "room": 2213,
      "forces": 2214,
      "olk": 2215,
      "otine": 2216,
      "pected": 2217,
      "true": 2218,
      "trade": 2219,
      "traffic": 2220,
      "constitut": 2221,
      "cture": 2222,
      "necess": 2223,
      "comment": 2224,
      "ultim": 2225,
      "prob": 2226,
      "ount": 2227,
      "thern": 2228,
      "ife": 2229,
      "audi": 2230,
      "whose": 2231,
      "merous": 2232,
      "credit": 2233,
      "away": 2234,
      "evidence": 2235,
      "serv": 2236,
      "serious": 2237,
      "costs": 2238,
      "noon": 2239,
      "odyear": 2240,
      "afternoon": 2241,
      "possib": 2242,
      "speed": 2243,
      "Health": 2244,
      "getting": 2245,
      "State": 2246,
      "avail": 2247,
      "proved": 2248,
      "elections": 2249,
      "justice": 2250,
      "iction": 2251,
      "ictions": 2252,
      "takes": 2253,
      "special": 2254,
      "showing": 2255,
      "genet": 2256,
      "launch": 2257,
      "selves": 2258,
      "ensive": 2259,
      "charged": 2260,
      "charges": 2261,
      "groups": 2262,
      "matter": 2263,
      "ressed": 2264,
      "leader": 2265,
      "didn": 2266,
      "residents": 2267,
      "talk": 2268,
      "operation": 2269,
      "operating": 2270,
      "Secret": 2271,
      "Goodyear": 2272,
      "Israel": 2273,
      "coll": 2274,
      "thought": 2275,
      "factory": 2276,
      "Board": 2277,
      "Palestin": 2278,
      "water": 2279,
      "Barack": 2280,
      "schools": 2281,
      "reached": 2282,
      "planning": 2283,
      "claims": 2284,
      "Berlin": 2285,
      "recorded": 2286,
      "nearly": 2287,
      "particular": 2288,
      "drop": 2289,
      "expert": 2290,
      "recognition": 2291,
      "fighting": 2292,
      "vehicle": 2293,
      "criminal": 2294,
      "conduct": 2295,
      "problem": 2296,
      "district": 2297,
      "believes": 2298,
      "Today": 2299,
      "debt": 2300,
      "executive": 2301,
      "nicotine": 2302,
      "friend": 2303,
      "hundreds": 2304,
      "motor": 2305,
      "victim": 2306,
      "hotel": 2307,
      "efforts": 2308,
      "communications": 2309,
      "revealed": 2310,
      "January": 2311,
      "tunnel": 2312,
      "agreement": 2313,
      "basis": 2314,
      "weapons": 2315,
      "simply": 2316,
      "available": 2317,
      "13": 2318,
      "32": 2319,
      "42": 2320,
      "Afr": 2321,
      "All": 2322,
      "Bun": 2323,
      "Def": 2324,
      "Ear": 2325,
      "Fe": 2326,
      "Ford": 2327,
      "GM": 2328,
      "Hu": 2329,
      "IM": 2330,
      "Kerry": 2331,
      "Man": 2332,
      "Obe": 2333,
      "RS": 2334,
      "Rob": 2335,
      "Rock": 2336,
      "Sp": 2337,
      "Soc": 2338,
      "Ya": 2339,
      "aver": 2340,
      "aut": 2341,
      "bomb": 2342,
      "cab": 2343,
      "cup": 2344,
      "cum": 2345,
      "die": 2346,
      "dream": 2347,
      "eks": 2348,
      "euro": 2349,
      "ease": 2350,
      "ff": 2351,
      "further": 2352,
      "gold": 2353,
      "hous": 2354,
      "ients": 2355,
      "ket": 2356,
      "mal": 2357,
      "mom": 2358,
      "mation": 2359,
      "ois": 2360,
      "oil": 2361,
      "pil": 2362,
      "round": 2363,
      "rush": 2364,
      "sor": 2365,
      "sha": 2366,
      "sions": 2367,
      "tick": 2368,
      "trend": 2369,
      "ux": 2370,
      "vent": 2371,
      "vill": 2372,
      "wid": 2373,
      "ination": 2374,
      "infl": 2375,
      "rein": 2376,
      "reas": 2377,
      "especial": 2378,
      "along": 2379,
      "allies": 2380,
      "total": 2381,
      "aran": 2382,
      "ouble": 2383,
      "itz": 2384,
      "itory": 2385,
      "ico": 2386,
      "ently": 2387,
      "begin": 2388,
      "season": 2389,
      "acuated": 2390,
      "advis": 2391,
      "role": 2392,
      "tern": 2393,
      "terday": 2394,
      "imposed": 2395,
      "peace": 2396,
      "training": 2397,
      "confl": 2398,
      "agana": 2399,
      "usually": 2400,
      "neigh": 2401,
      "nels": 2402,
      "abl": 2403,
      "abies": 2404,
      "haust": 2405,
      "comb": 2406,
      "commission": 2407,
      "weeks": 2408,
      "liber": 2409,
      "lives": 2410,
      "liative": 2411,
      "exc": 2412,
      "exhaust": 2413,
      "plom": 2414,
      "sug": 2415,
      "mob": 2416,
      "apore": 2417,
      "earn": 2418,
      "log": 2419,
      "podi": 2420,
      "manage": 2421,
      "auto": 2422,
      "porters": 2423,
      "clin": 2424,
      "princ": 2425,
      "create": 2426,
      "key": 2427,
      "spent": 2428,
      "spend": 2429,
      "spying": 2430,
      "critical": 2431,
      "airport": 2432,
      "else": 2433,
      "Christ": 2434,
      "pharm": 2435,
      "brought": 2436,
      "ultural": 2437,
      "anyone": 2438,
      "themselves": 2439,
      "province": 2440,
      "provided": 2441,
      "election": 2442,
      "regular": 2443,
      "understand": 2444,
      "decade": 2445,
      "decisions": 2446,
      "aily": 2447,
      "scene": 2448,
      "While": 2449,
      "despite": 2450,
      "guaran": 2451,
      "intro": 2452,
      "check": 2453,
      "highest": 2454,
      "affair": 2455,
      "consult": 2456,
      "transportation": 2457,
      "locks": 2458,
      "businesses": 2459,
      "require": 2460,
      "required": 2461,
      "bodies": 2462,
      "makers": 2463,
      "prior": 2464,
      "diplom": 2465,
      "asking": 2466,
      "currency": 2467,
      "Airlines": 2468,
      "organization": 2469,
      "trading": 2470,
      "tradition": 2471,
      "increased": 2472,
      "increasing": 2473,
      "receive": 2474,
      "subject": 2475,
      "taxes": 2476,
      "latest": 2477,
      "sense": 2478,
      "parent": 2479,
      "Express": 2480,
      "carrying": 2481,
      "FARDC": 2482,
      "borough": 2483,
      "seats": 2484,
      "Syrian": 2485,
      "huge": 2486,
      "signific": 2487,
      "women": 2488,
      "continues": 2489,
      "Prof": 2490,
      "Prime": 2491,
      "food": 2492,
      "planned": 2493,
      "June": 2494,
      "vehicles": 2495,
      "question": 2496,
      "questions": 2497,
      "Centre": 2498,
      "People": 2499,
      "terrorist": 2500,
      "benefits": 2501,
      "Canada": 2502,
      "responsible": 2503,
      "implemented": 2504,
      "candid": 2505,
      "global": 2506,
      "initial": 2507,
      "industry": 2508,
      "Tripodi": 2509,
      "surgery": 2510,
      "relationship": 2511,
      "individuals": 2512,
      "package": 2513,
      "measures": 2514,
      "Maliki": 2515,
      "Singapore": 2516,
      "fighters": 2517,
      "abandon": 2518,
      "Alex": 2519,
      "General": 2520,
      "Ruby": 2521,
      "female": 2522,
      "origin": 2523,
      "Secretary": 2524,
      "Afric": 2525,
      "Bunagana": 2526,
      "especially": 2527,
      "conflict": 2528,
      "princip": 2529,
      "38": 2530,
      "300": 2531,
      "90": 2532,
      "AF": 2533,
      "Act": 2534,
      "CE": 2535,
      "Cou": 2536,
      "Every": 2537,
      "Follow": 2538,
      "Fenton": 2539,
      "HS": 2540,
      "HÃ": 2541,
      "Just": 2542,
      "Mer": 2543,
      "Mot": 2544,
      "Mul": 2545,
      "More": 2546,
      "Moh": 2547,
      "Ne": 2548,
      "Nour": 2549,
      "Niss": 2550,
      "Pu": 2551,
      "Pier": 2552,
      "Scar": 2553,
      "TV": 2554,
      "Tur": 2555,
      "Titan": 2556,
      "Ug": 2557,
      "athan": 2558,
      "bad": 2559,
      "bri": 2560,
      "bass": 2561,
      "cal": 2562,
      "div": 2563,
      "dark": 2564,
      "daily": 2565,
      "fing": 2566,
      "fun": 2567,
      "failed": 2568,
      "folk": 2569,
      "gun": 2570,
      "gate": 2571,
      "hit": 2572,
      "ham": 2573,
      "iety": 2574,
      "km": 2575,
      "kins": 2576,
      "mind": 2577,
      "mish": 2578,
      "osion": 2579,
      "pm": 2580,
      "pick": 2581,
      "pump": 2582,
      "rate": 2583,
      "rating": 2584,
      "slow": 2585,
      "sens": 2586,
      "sales": 2587,
      "tro": 2588,
      "wide": 2589,
      "analy": 2590,
      "rev": 2591,
      "enn": 2592,
      "enough": 2593,
      "envir": 2594,
      "atur": 2595,
      "alle": 2596,
      "ases": 2597,
      "arrest": 2598,
      "itive": 2599,
      "itals": 2600,
      "ands": 2601,
      "andal": 2602,
      "stage": 2603,
      "leak": 2604,
      "leaving": 2605,
      "enter": 2606,
      "ilities": 2607,
      "below": 2608,
      "belong": 2609,
      "sequ": 2610,
      "acts": 2611,
      "acqu": 2612,
      "ador": 2613,
      "why": 2614,
      "depart": 2615,
      "device": 2616,
      "abor": 2617,
      "above": 2618,
      "etc": 2619,
      "opted": 2620,
      "safe": 2621,
      "lie": 2622,
      "lied": 2623,
      "proced": 2624,
      "suit": 2625,
      "sust": 2626,
      "super": 2627,
      "moved": 2628,
      "teen": 2629,
      "estim": 2630,
      "estival": 2631,
      "establ": 2632,
      "notice": 2633,
      "loved": 2634,
      "iff": 2635,
      "emot": 2636,
      "pose": 2637,
      "quick": 2638,
      "fees": 2639,
      "whole": 2640,
      "antic": 2641,
      "antly": 2642,
      "Ind": 2643,
      "prison": 2644,
      "assign": 2645,
      "blow": 2646,
      "creation": 2647,
      "created": 2648,
      "identified": 2649,
      "event": 2650,
      "ounds": 2651,
      "poll": 2652,
      "nothing": 2653,
      "cents": 2654,
      "spee": 2655,
      "compared": 2656,
      "bruary": 2657,
      "2014": 2658,
      "address": 2659,
      "regional": 2660,
      "buz": 2661,
      "draw": 2662,
      "sym": 2663,
      "final": 2664,
      "appeals": 2665,
      "specific": 2666,
      "ashes": 2667,
      "SAS": 2668,
      "ugg": 2669,
      "general": 2670,
      "lah": 2671,
      "obtain": 2672,
      "turned": 2673,
      "followed": 2674,
      "consist": 2675,
      "Democr": 2676,
      "venue": 2677,
      "driving": 2678,
      "hands": 2679,
      "parliament": 2680,
      "smart": 2681,
      "presented": 2682,
      "CAD": 2683,
      "patents": 2684,
      "patients": 2685,
      "Scott": 2686,
      "previously": 2687,
      "struction": 2688,
      "systems": 2689,
      "Palmer": 2690,
      "Monday": 2691,
      "economy": 2692,
      "miles": 2693,
      "student": 2694,
      "students": 2695,
      "legal": 2696,
      "growing": 2697,
      "popular": 2698,
      "population": 2699,
      "human": 2700,
      "territory": 2701,
      "promised": 2702,
      "involving": 2703,
      "sentenced": 2704,
      "middle": 2705,
      "Engl": 2706,
      "trucks": 2707,
      "Group": 2708,
      "protect": 2709,
      "control": 2710,
      "receiving": 2711,
      "clearly": 2712,
      "domin": 2713,
      "eroon": 2714,
      "example": 2715,
      "discovered": 2716,
      "private": 2717,
      "volun": 2718,
      "seems": 2719,
      "hostage": 2720,
      "girls": 2721,
      "scheduled": 2722,
      "waiting": 2723,
      "experience": 2724,
      "Islamic": 2725,
      "committee": 2726,
      "Holy": 2727,
      "restrictions": 2728,
      "admitted": 2729,
      "bourg": 2730,
      "photos": 2731,
      "Gaza": 2732,
      "Keny": 2733,
      "attempt": 2734,
      "destro": 2735,
      "deliver": 2736,
      "important": 2737,
      "Cameroon": 2738,
      "Party": 2739,
      "numerous": 2740,
      "occurred": 2741,
      "performance": 2742,
      "dollars": 2743,
      "CGT": 2744,
      "millions": 2745,
      "vaccine": 2746,
      "Palestinian": 2747,
      "February": 2748,
      "average": 2749,
      "pilot": 2750,
      "introdu": 2751,
      "AFP": 2752,
      "Following": 2753,
      "Nissan": 2754,
      "Pierre": 2755,
      "environ": 2756,
      "English": 2757,
      "%)": 2758,
      "31": 2759,
      "35": 2760,
      "36": 2761,
      "80": 2762,
      "By": 2763,
      "Che": 2764,
      "Del": 2765,
      "During": 2766,
      "Dale": 2767,
      "Federal": 2768,
      "Ho": 2769,
      "Jo": 2770,
      "Jon": 2771,
      "Jew": 2772,
      "Med": 2773,
      "Mus": 2774,
      "Nations": 2775,
      "PC": 2776,
      "Pit": 2777,
      "Pak": 2778,
      "Pate": 2779,
      "RC": 2780,
      "RBS": 2781,
      "Su": 2782,
      "Saint": 2783,
      "Tha": 2784,
      "Times": 2785,
      "Toffee": 2786,
      "UN": 2787,
      "War": 2788,
      "Wall": 2789,
      "bud": 2790,
      "broad": 2791,
      "cat": 2792,
      "cit": 2793,
      "cir": 2794,
      "cash": 2795,
      "da": 2796,
      "gow": 2797,
      "gri": 2798,
      "govern": 2799,
      "gress": 2800,
      "hon": 2801,
      "hip": 2802,
      "ipe": 2803,
      "ires": 2804,
      "ience": 2805,
      "ique": 2806,
      "lum": 2807,
      "mur": 2808,
      "mag": 2809,
      "mix": 2810,
      "nation": 2811,
      "nia": 2812,
      "pion": 2813,
      "psy": 2814,
      "rich": 2815,
      "scre": 2816,
      "slight": 2817,
      "tend": 2818,
      "vast": 2819,
      "wing": 2820,
      "wife": 2821,
      "ye": 2822,
      "yet": 2823,
      "thous": 2824,
      "infr": 2825,
      "insur": 2826,
      "inner": 2827,
      "theless": 2828,
      "ane": 2829,
      "reen": 2830,
      "rect": 2831,
      "reet": 2832,
      "recomm": 2833,
      "revol": 2834,
      "enable": 2835,
      "energy": 2836,
      "espion": 2837,
      "alone": 2838,
      "tour": 2839,
      "asgow": 2840,
      "arian": 2841,
      "iter": 2842,
      "itself": 2843,
      "ication": 2844,
      "lebr": 2845,
      "entr": 2846,
      "ily": 2847,
      "ille": 2848,
      "beha": 2849,
      "began": 2850,
      "sell": 2851,
      "seek": 2852,
      "seven": 2853,
      "acter": 2854,
      "acity": 2855,
      "adult": 2856,
      "adopted": 2857,
      "roll": 2858,
      "formed": 2859,
      "chair": 2860,
      "irit": 2861,
      "celebr": 2862,
      "tery": 2863,
      "dete": 2864,
      "igr": 2865,
      "aret": 2866,
      "conne": 2867,
      "consu": 2868,
      "unity": 2869,
      "respect": 2870,
      "ute": 2871,
      "comfor": 2872,
      "weak": 2873,
      "mention": 2874,
      "open": 2875,
      "extra": 2876,
      "except": 2877,
      "estic": 2878,
      "apped": 2879,
      "ateg": 2880,
      "love": 2881,
      "shut": 2882,
      "shared": 2883,
      "email": 2884,
      "emphas": 2885,
      "social": 2886,
      "porter": 2887,
      "porate": 2888,
      "istic": 2889,
      "doctors": 2890,
      "meant": 2891,
      "clus": 2892,
      "rent": 2893,
      "These": 2894,
      "books": 2895,
      "Fran": 2896,
      "evacuated": 2897,
      "served": 2898,
      "monitor": 2899,
      "cris": 2900,
      "crime": 2901,
      "critic": 2902,
      "elines": 2903,
      "myself": 2904,
      "intersex": 2905,
      "intercept": 2906,
      "central": 2907,
      "century": 2908,
      "idea": 2909,
      "prep": 2910,
      "carri": 2911,
      "goals": 2912,
      "hero": 2913,
      "Ange": 2914,
      "gets": 2915,
      "lson": 2916,
      "ption": 2917,
      "hood": 2918,
      "type": 2919,
      "missil": 2920,
      "ize": 2921,
      "tens": 2922,
      "occup": 2923,
      "appeared": 2924,
      "scient": 2925,
      "scandal": 2926,
      "White": 2927,
      "intended": 2928,
      "character": 2929,
      "custo": 2930,
      "denied": 2931,
      "leading": 2932,
      "explosion": 2933,
      "rising": 2934,
      "driven": 2935,
      "request": 2936,
      "telling": 2937,
      "maker": 2938,
      "makes": 2939,
      "operations": 2940,
      "profess": 2941,
      "gives": 2942,
      "giving": 2943,
      "mayor": 2944,
      "Leban": 2945,
      "traders": 2946,
      "seeing": 2947,
      "doesn": 2948,
      "sites": 2949,
      "concerns": 2950,
      "previous": 2951,
      "writing": 2952,
      "targeted": 2953,
      "corrupt": 2954,
      "thirty": 2955,
      "continued": 2956,
      "suspected": 2957,
      "brok": 2958,
      "rules": 2959,
      "ruling": 2960,
      "domestic": 2961,
      "returned": 2962,
      "arrived": 2963,
      "bringing": 2964,
      "discovery": 2965,
      "Administration": 2966,
      "777": 2967,
      "purch": 2968,
      "independence": 2969,
      "conducted": 2970,
      "problems": 2971,
      "technical": 2972,
      "performed": 2973,
      "property": 2974,
      "benefit": 2975,
      "Police": 2976,
      "girl": 2977,
      "Glasgow": 2978,
      "journalists": 2979,
      "designed": 2980,
      "products": 2981,
      "ceremony": 2982,
      "daughters": 2983,
      "session": 2984,
      "apping": 2985,
      "indicated": 2986,
      "Sunday": 2987,
      "figures": 2988,
      "document": 2989,
      "Transportation": 2990,
      "Disney": 2991,
      "habit": 2992,
      "described": 2993,
      "biometric": 2994,
      "Villiers": 2995,
      "kitten": 2996,
      "challeng": 2997,
      "avoid": 2998,
      "guidelines": 2999,
      "directly": 3000,
      "Royal": 3001,
      "favour": 3002,
      "gathered": 3003,
      "hacking": 3004,
      "outside": 3005,
      "probably": 3006,
      "possibility": 3007,
      "victims": 3008,
      "Obeid": 3009,
      "mobile": 3010,
      "management": 3011,
      "diplomatic": 3012,
      "significant": 3013,
      "Coulson": 3014,
      "Publ": 3015,
      "Turk": 3016,
      "establish": 3017,
      "speech": 3018,
      "destroy": 3019,
      "environment": 3020,
      "Daley": 3021,
      "Pakistan": 3022,
      "Patek": 3023,
      "circum": 3024,
      "psych": 3025,
      "espionage": 3026,
      "behavi": 3027,
      "missiles": 3028,
      "08": 3029,
      "120": 3030,
      "24": 3031,
      "53": 3032,
      "500": 3033,
      "Ano": 3034,
      "BC": 3035,
      "Broad": 3036,
      "CN": 3037,
      "Cr": 3038,
      "Coun": 3039,
      "Cable": 3040,
      "Day": 3041,
      "DRC": 3042,
      "Fore": 3043,
      "Jean": 3044,
      "Ka": 3045,
      "Last": 3046,
      "Mor": 3047,
      "Mid": 3048,
      "Move": 3049,
      "Maz": 3050,
      "Mean": 3051,
      "NS": 3052,
      "Os": 3053,
      "Over": 3054,
      "Other": 3055,
      "Pri": 3056,
      "Pass": 3057,
      "Paw": 3058,
      "Rw": 3059,
      "Rue": 3060,
      "Rog": 3061,
      "Sam": 3062,
      "Saf": 3063,
      "Sever": 3064,
      "Satur": 3065,
      "Te": 3066,
      "Tim": 3067,
      "Tex": 3068,
      "Twit": 3069,
      "Uk": 3070,
      "Yes": 3071,
      "Yet": 3072,
      "bing": 3073,
      "bid": 3074,
      "bul": 3075,
      "ball": 3076,
      "bum": 3077,
      "cil": 3078,
      "cair": 3079,
      "done": 3080,
      "danc": 3081,
      "dict": 3082,
      "east": 3083,
      "eight": 3084,
      "fif": 3085,
      "frequ": 3086,
      "gins": 3087,
      "har": 3088,
      "hol": 3089,
      "homes": 3090,
      "iant": 3091,
      "iated": 3092,
      "kind": 3093,
      "leng": 3094,
      "nine": 3095,
      "pal": 3096,
      "pain": 3097,
      "page": 3098,
      "rat": 3099,
      "rig": 3100,
      "rights": 3101,
      "sis": 3102,
      "ses": 3103,
      "sal": 3104,
      "sle": 3105,
      "sad": 3106,
      "tre": 3107,
      "tack": 3108,
      "uc": 3109,
      "uous": 3110,
      "via": 3111,
      "word": 3112,
      "wond": 3113,
      "wants": 3114,
      "ze": 3115,
      "zone": 3116,
      "thus": 3117,
      "inspe": 3118,
      "erc": 3119,
      "ern": 3120,
      "ense": 3121,
      "enab": 3122,
      "eness": 3123,
      "enge": 3124,
      "isk": 3125,
      "ality": 3126,
      "alleg": 3127,
      "album": 3128,
      "tool": 3129,
      "inge": 3130,
      "asse": 3131,
      "armed": 3132,
      "oul": 3133,
      "itte": 3134,
      "hearing": 3135,
      "stat": 3136,
      "lect": 3137,
      "entire": 3138,
      "ils": 3139,
      "ilt": 3140,
      "iled": 3141,
      "ilty": 3142,
      "iden": 3143,
      "becoming": 3144,
      "beaut": 3145,
      "secre": 3146,
      "separ": 3147,
      "ades": 3148,
      "forward": 3149,
      "olese": 3150,
      "whom": 3151,
      "vert": 3152,
      "owitz": 3153,
      "ceme": 3154,
      "democr": 3155,
      "determin": 3156,
      "trave": 3157,
      "conv": 3158,
      "const": 3159,
      "agno": 3160,
      "units": 3161,
      "unable": 3162,
      "results": 3163,
      "commer": 3164,
      "exist": 3165,
      "express": 3166,
      "frisk": 3167,
      "plat": 3168,
      "plowitz": 3169,
      "tebourg": 3170,
      "aints": 3171,
      "apart": 3172,
      "allerg": 3173,
      "loaded": 3174,
      "shock": 3175,
      "lling": 3176,
      "aud": 3177,
      "berg": 3178,
      "ordered": 3179,
      "door": 3180,
      "antage": 3181,
      "Institut": 3182,
      "acted": 3183,
      "actor": 3184,
      "worth": 3185,
      "ancell": 3186,
      "answ": 3187,
      "box": 3188,
      "cremation": 3189,
      "From": 3190,
      "account": 3191,
      "spy": 3192,
      "spread": 3193,
      "spending": 3194,
      "evol": 3195,
      "events": 3196,
      "disap": 3197,
      "disput": 3198,
      "raised": 3199,
      "Child": 3200,
      "Chief": 3201,
      "interference": 3202,
      "phys": 3203,
      "cars": 3204,
      "worked": 3205,
      "workers": 3206,
      "brand": 3207,
      "brings": 3208,
      "Stand": 3209,
      "minor": 3210,
      "2015": 3211,
      "counter": 3212,
      "Brig": 3213,
      "elected": 3214,
      "addiction": 3215,
      "regard": 3216,
      "built": 3217,
      "dram": 3218,
      "occas": 3219,
      "sche": 3220,
      "scale": 3221,
      "guilty": 3222,
      "specif": 3223,
      "showed": 3224,
      "genu": 3225,
      "object": 3226,
      "include": 3227,
      "needs": 3228,
      "investment": 3229,
      "founder": 3230,
      "Commun": 3231,
      "conditions": 3232,
      "knowing": 3233,
      "driver": 3234,
      "handle": 3235,
      "parts": 3236,
      "talks": 3237,
      "talking": 3238,
      "Former": 3239,
      "diagno": 3240,
      "fourth": 3241,
      "includes": 3242,
      "reporting": 3243,
      "trader": 3244,
      "Associ": 3245,
      "Nora": 3246,
      "capt": 3247,
      "capacity": 3248,
      "holds": 3249,
      "holding": 3250,
      "subs": 3251,
      "subur": 3252,
      "singer": 3253,
      "happen": 3254,
      "Montebourg": 3255,
      "buildings": 3256,
      "Malley": 3257,
      "corporate": 3258,
      "policies": 3259,
      "Ministry": 3260,
      "ological": 3261,
      "sentence": 3262,
      "meeting": 3263,
      "suspend": 3264,
      "advantage": 3265,
      "shares": 3266,
      "protected": 3267,
      "anga": 3268,
      "shops": 3269,
      "regulators": 3270,
      "regulator": 3271,
      "Congress": 3272,
      "Congolese": 3273,
      "Johns": 3274,
      "tails": 3275,
      "practice": 3276,
      "hospitals": 3277,
      "Off": 3278,
      "Series": 3279,
      "banks": 3280,
      "offering": 3281,
      "powerful": 3282,
      "Central": 3283,
      "Peter": 3284,
      "source": 3285,
      "expensive": 3286,
      "hostages": 3287,
      "terrorism": 3288,
      "steps": 3289,
      "friends": 3290,
      "successful": 3291,
      "schedule": 3292,
      "association": 3293,
      "grandmother": 3294,
      "reduced": 3295,
      "supplies": 3296,
      "Mayor": 3297,
      "clients": 3298,
      "ceremonies": 3299,
      "daughter": 3300,
      "voice": 3301,
      "fordable": 3302,
      "approach": 3303,
      "appropri": 3304,
      "Charles": 3305,
      "Dieu": 3306,
      "Edward": 3307,
      "hopes": 3308,
      "comedy": 3309,
      "pointed": 3310,
      "additional": 3311,
      "equipment": 3312,
      "Bowie": 3313,
      "yesterday": 3314,
      "manufactur": 3315,
      "spotted": 3316,
      "Senate": 3317,
      "focus": 3318,
      "theatre": 3319,
      "necessary": 3320,
      "ultimately": 3321,
      "genetic": 3322,
      "houses": 3323,
      "moment": 3324,
      "ticket": 3325,
      "clinics": 3326,
      "Christmas": 3327,
      "pharmac": 3328,
      "guarantee": 3329,
      "CEO": 3330,
      "HS2": 3331,
      "Nouri": 3332,
      "Scarborough": 3333,
      "finger": 3334,
      "arrested": 3335,
      "volunte": 3336,
      "Pitcair": 3337,
      "thousands": 3338,
      "emails": 3339,
      "crisis": 3340,
      "prepared": 3341,
      "corruption": 3342,
      "Public": 3343,
      "behaviour": 3344,
      "Another": 3345,
      "Foreign": 3346,
      "Kaplowitz": 3347,
      "Movement": 3348,
      "Mazanga": 3349,
      "Meanwhile": 3350,
      "Passengers": 3351,
      "Several": 3352,
      "Saturday": 3353,
      "Twitter": 3354,
      "Ukr": 3355,
      "length": 3356,
      "cemetery": 3357,
      "determined": 3358,
      "commercial": 3359,
      "Pitcairn": 3360,
      ".,": 3361,
      "47": 3362,
      "66": 3363,
      "700": 3364,
      "?\"": 3365,
      "Ben": 3366,
      "Bam": 3367,
      "Brown": 3368,
      "Biden": 3369,
      "Car": 3370,
      "Cit": 3371,
      "Col": 3372,
      "Cap": 3373,
      "Clin": 3374,
      "Cali": 3375,
      "Down": 3376,
      "Damas": 3377,
      "EC": 3378,
      "Em": 3379,
      "Ely": 3380,
      "Fl": 3381,
      "Further": 3382,
      "Gaul": 3383,
      "Green": 3384,
      "Hare": 3385,
      "Hence": 3386,
      "Kat": 3387,
      "King": 3388,
      "Lar": 3389,
      "Law": 3390,
      "Me": 3391,
      "NA": 3392,
      "Net": 3393,
      "Nev": 3394,
      "Naz": 3395,
      "Next": 3396,
      "Our": 3397,
      "Per": 3398,
      "Pat": 3399,
      "Phu": 3400,
      "Ro": 3401,
      "Sto": 3402,
      "Sil": 3403,
      "Str": 3404,
      "Sup": 3405,
      "Such": 3406,
      "Was": 3407,
      "aur": 3408,
      "bin": 3409,
      "base": 3410,
      "cin": 3411,
      "cig": 3412,
      "crow": 3413,
      "cultural": 3414,
      "ds": 3415,
      "ding": 3416,
      "dut": 3417,
      "fly": 3418,
      "fail": 3419,
      "festival": 3420,
      "glow": 3421,
      "gative": 3422,
      "jet": 3423,
      "jailed": 3424,
      "kil": 3425,
      "kid": 3426,
      "lby": 3427,
      "ming": 3428,
      "mut": 3429,
      "mist": 3430,
      "mult": 3431,
      "math": 3432,
      "migr": 3433,
      "nard": 3434,
      "named": 3435,
      "oath": 3436,
      "pan": 3437,
      "pair": 3438,
      "pounds": 3439,
      "ron": 3440,
      "rid": 3441,
      "rates": 3442,
      "rise": 3443,
      "rabies": 3444,
      "sk": 3445,
      "sl": 3446,
      "sw": 3447,
      "sÃ": 3448,
      "sof": 3449,
      "swe": 3450,
      "sop": 3451,
      "squ": 3452,
      "song": 3453,
      "scr": 3454,
      "tong": 3455,
      "tank": 3456,
      "uge": 3457,
      "wed": 3458,
      "west": 3459,
      "wall": 3460,
      "yn": 3461,
      "inde": 3462,
      "inte": 3463,
      "inard": 3464,
      "income": 3465,
      "ery": 3466,
      "ange": 3467,
      "repe": 3468,
      "reast": 3469,
      "reme": 3470,
      "refin": 3471,
      "review": 3472,
      "reference": 3473,
      "reason": 3474,
      "remember": 3475,
      "revenue": 3476,
      "ensure": 3477,
      "editor": 3478,
      "oring": 3479,
      "orse": 3480,
      "isi": 3481,
      "isations": 3482,
      "altit": 3483,
      "argu": 3484,
      "arms": 3485,
      "outhern": 3486,
      "ouinard": 3487,
      "icop": 3488,
      "icated": 3489,
      "ander": 3490,
      "andan": 3491,
      "hear": 3492,
      "heav": 3493,
      "stren": 3494,
      "stress": 3495,
      "stages": 3496,
      "stances": 3497,
      "stories": 3498,
      "oma": 3499,
      "oman": 3500,
      "ilar": 3501,
      "sec": 3502,
      "sees": 3503,
      "section": 3504,
      "accept": 3505,
      "fornia": 3506,
      "ayed": 3507,
      "version": 3508,
      "ceed": 3509,
      "ternal": 3510,
      "urt": 3511,
      "urch": 3512,
      "amer": 3513,
      "ambit": 3514,
      "otic": 3515,
      "imary": 3516,
      "imilar": 3517,
      "confront": 3518,
      "consum": 3519,
      "ager": 3520,
      "aging": 3521,
      "agreed": 3522,
      "negative": 3523,
      "aby": 3524,
      "abreast": 3525,
      "ung": 3526,
      "unit": 3527,
      "unched": 3528,
      "reserve": 3529,
      "haul": 3530,
      "wealth": 3531,
      "wearing": 3532,
      "etary": 3533,
      "opport": 3534,
      "oppos": 3535,
      "living": 3536,
      "likes": 3537,
      "exerc": 3538,
      "ples": 3539,
      "propos": 3540,
      "progress": 3541,
      "sud": 3542,
      "mode": 3543,
      "moder": 3544,
      "ours": 3545,
      "akes": 3546,
      "ainable": 3547,
      "estan": 3548,
      "appl": 3549,
      "atever": 3550,
      "rial": 3551,
      "noted": 3552,
      "lose": 3553,
      "loss": 3554,
      "looks": 3555,
      "shire": 3556,
      "essential": 3557,
      "iful": 3558,
      "ems": 3559,
      "acknow": 3560,
      "quot": 3561,
      "perform": 3562,
      "feat": 3563,
      "fected": 3564,
      "istics": 3565,
      "doz": 3566,
      "anted": 3567,
      "mean": 3568,
      "club": 3569,
      "cloud": 3570,
      "worst": 3571,
      "offers": 3572,
      "offered": 3573,
      "offences": 3574,
      "asser": 3575,
      "gry": 3576,
      "presents": 3577,
      "iel": 3578,
      "blue": 3579,
      "crew": 3580,
      "identification": 3581,
      "identify": 3582,
      "owned": 3583,
      "owners": 3584,
      "kept": 3585,
      "umes": 3586,
      "serve": 3587,
      "ounded": 3588,
      "cru": 3589,
      "disease": 3590,
      "coal": 3591,
      "novel": 3592,
      "parties": 3593,
      "encour": 3594,
      "Chen": 3595,
      "Chouinard": 3596,
      "phy": 3597,
      "precar": 3598,
      "content": 3599,
      "forecast": 3600,
      "lower": 3601,
      "strateg": 3602,
      "herself": 3603,
      "therefore": 3604,
      "Mrs": 3605,
      "surround": 3606,
      "marine": 3607,
      "someone": 3608,
      "landing": 3609,
      "2010": 3610,
      "count": 3611,
      "hoo": 3612,
      "typ": 3613,
      "achie": 3614,
      "enger": 3615,
      "provin": 3616,
      "provid": 3617,
      "Island": 3618,
      "USA": 3619,
      "izes": 3620,
      "fully": 3621,
      "Gerard": 3622,
      "2001": 3623,
      "2005": 3624,
      "2009": 3625,
      "versial": 3626,
      "passenger": 3627,
      "visit": 3628,
      "jected": 3629,
      "stopped": 3630,
      "heads": 3631,
      "closure": 3632,
      "closed": 3633,
      "officer": 3634,
      "laid": 3635,
      "insist": 3636,
      "ortion": 3637,
      "matic": 3638,
      "match": 3639,
      "Observ": 3640,
      "needed": 3641,
      "helicop": 3642,
      "everything": 3643,
      "Common": 3644,
      "condition": 3645,
      "explains": 3646,
      "located": 3647,
      "however": 3648,
      "covered": 3649,
      "warning": 3650,
      "throughout": 3651,
      "famous": 3652,
      "authorised": 3653,
      "Asia": 3654,
      "Nortel": 3655,
      "survey": 3656,
      "ficient": 3657,
      "testing": 3658,
      "Affordable": 3659,
      "Coen": 3660,
      "presidential": 3661,
      "families": 3662,
      "ledge": 3663,
      "learn": 3664,
      "structure": 3665,
      "Palliative": 3666,
      "voted": 3667,
      "issued": 3668,
      "study": 3669,
      "Exchange": 3670,
      "finding": 3671,
      "feeling": 3672,
      "Beau": 3673,
      "Beij": 3674,
      "standard": 3675,
      "towns": 3676,
      "filed": 3677,
      "Eng": 3678,
      "suspect": 3679,
      "refused": 3680,
      "aught": 3681,
      "claimed": 3682,
      "Bernard": 3683,
      "greater": 3684,
      "defend": 3685,
      "defence": 3686,
      "controversial": 3687,
      "appears": 3688,
      "appearance": 3689,
      "Renault": 3690,
      "ruled": 3691,
      "programs": 3692,
      "community": 3693,
      "arriving": 3694,
      "Moz": 3695,
      "Moore": 3696,
      "letter": 3697,
      "experts": 3698,
      "privile": 3699,
      "Organ": 3700,
      "practices": 3701,
      "criminals": 3702,
      "Offic": 3703,
      "witness": 3704,
      "technology": 3705,
      "believed": 3706,
      "musician": 3707,
      "Davis": 3708,
      "Without": 3709,
      "debate": 3710,
      "expand": 3711,
      "properties": 3712,
      "buried": 3713,
      "contribut": 3714,
      "histor": 3715,
      "history": 3716,
      "Canadian": 3717,
      "Abbot": 3718,
      "limit": 3719,
      "wait": 3720,
      "instead": 3721,
      "associated": 3722,
      "demanded": 3723,
      "Holland": 3724,
      "tablets": 3725,
      "reduce": 3726,
      "competition": 3727,
      "distance": 3728,
      "range": 3729,
      "sessions": 3730,
      "strike": 3731,
      "Pope": 3732,
      "blood": 3733,
      "figure": 3734,
      "levels": 3735,
      "documents": 3736,
      "graphy": 3737,
      "Iraqi": 3738,
      "radio": 3739,
      "points": 3740,
      "manager": 3741,
      "surprise": 3742,
      "musicals": 3743,
      "equipped": 3744,
      "Michaux": 3745,
      "suffering": 3746,
      "Georges": 3747,
      "smoking": 3748,
      "options": 3749,
      "completely": 3750,
      "Author": 3751,
      "Brother": 3752,
      "damage": 3753,
      "message": 3754,
      "assault": 3755,
      "constitutional": 3756,
      "Earlier": 3757,
      "Yahoo": 3758,
      "rushed": 3759,
      "shape": 3760,
      "width": 3761,
      "influ": 3762,
      "neighbour": 3763,
      "exhausted": 3764,
      "earnings": 3765,
      "initially": 3766,
      "abandoned": 3767,
      "Uganda": 3768,
      "division": 3769,
      "troops": 3770,
      "alleged": 3771,
      "sustainable": 3772,
      "estimated": 3773,
      "quickly": 3774,
      "Democratic": 3775,
      "introduced": 3776,
      "Delta": 3777,
      "Jonathan": 3778,
      "Jewish": 3779,
      "citiz": 3780,
      "slightly": 3781,
      "insurance": 3782,
      "seeking": 3783,
      "consumer": 3784,
      "mentioned": 3785,
      "FranÃ": 3786,
      "customer": 3787,
      "profession": 3788,
      "Turkestan": 3789,
      "circumstances": 3790,
      "psychiat": 3791,
      "Broadway": 3792,
      "CNN": 3793,
      "Pawlby": 3794,
      "Roger": 3795,
      "wonder": 3796,
      "allegations": 3797,
      "tools": 3798,
      "assets": 3799,
      "platform": 3800,
      "Institute": 3801,
      "Standard": 3802,
      "Association": 3803,
      "subsid": 3804,
      "suspended": 3805,
      "Johnson": 3806,
      "Office": 3807,
      "Clinton": 3808,
      "California": 3809,
      "ElysÃ": 3810,
      "Kingdom": 3811,
      "Nazi": 3812,
      "Phuket": 3813,
      "Stock": 3814,
      "cigaret": 3815,
      "tongue": 3816,
      "integr": 3817,
      "streng": 3818,
      "ambitious": 3819,
      "consumers": 3820,
      "precarious": 3821,
      "helicopter": 3822,
      "Beijing": 3823,
      "Abbott": 3824,
      "%,": 3825,
      "250": 3826,
      "325": 3827,
      "43": 3828,
      "96": 3829,
      "AP": 3830,
      "ABC": 3831,
      "Ban": 3832,
      "Bill": 3833,
      "Bul": 3834,
      "Bra": 3835,
      "Cre": 3836,
      "Cai": 3837,
      "CSeries": 3838,
      "DG": 3839,
      "Des": 3840,
      "DNA": 3841,
      "Fed": 3842,
      "Fle": 3843,
      "Four": 3844,
      "Flight": 3845,
      "Gree": 3846,
      "Great": 3847,
      "Hal": 3848,
      "Here": 3849,
      "High": 3850,
      "Horse": 3851,
      "IT": 3852,
      "Im": 3853,
      "Jose": 3854,
      "Jomb": 3855,
      "Ke": 3856,
      "Kiv": 3857,
      "Lat": 3858,
      "Lle": 3859,
      "Lac": 3860,
      "Let": 3861,
      "Mil": 3862,
      "Mur": 3863,
      "Mex": 3864,
      "Mary": 3865,
      "Many": 3866,
      "Max": 3867,
      "Nou": 3868,
      "Never": 3869,
      "Om": 3870,
      "Ot": 3871,
      "Old": 3872,
      "OPC": 3873,
      "PD": 3874,
      "PS": 3875,
      "Ph": 3876,
      "PÃ": 3877,
      "Par": 3878,
      "Paren": 3879,
      "Paul": 3880,
      "Prev": 3881,
      "Qu": 3882,
      "Qaid": 3883,
      "SS": 3884,
      "San": 3885,
      "Squ": 3886,
      "TC": 3887,
      "Tal": 3888,
      "Tas": 3889,
      "TSA": 3890,
      "Uigh": 3891,
      "Vatic": 3892,
      "Xinj": 3893,
      "Year": 3894,
      "afr": 3895,
      "bs": 3896,
      "bon": 3897,
      "bes": 3898,
      "bic": 3899,
      "bast": 3900,
      "burn": 3901,
      "bought": 3902,
      "blocks": 3903,
      "cou": 3904,
      "cot": 3905,
      "cies": 3906,
      "cable": 3907,
      "cave": 3908,
      "cross": 3909,
      "dou": 3910,
      "dig": 3911,
      "danger": 3912,
      "dressed": 3913,
      "dinner": 3914,
      "eal": 3915,
      "eas": 3916,
      "either": 3917,
      "eye": 3918,
      "fed": 3919,
      "fas": 3920,
      "flo": 3921,
      "fast": 3922,
      "fine": 3923,
      "fish": 3924,
      "freed": 3925,
      "gent": 3926,
      "gage": 3927,
      "grew": 3928,
      "hall": 3929,
      "hum": 3930,
      "hib": 3931,
      "iar": 3932,
      "iary": 3933,
      "iens": 3934,
      "ios": 3935,
      "jets": 3936,
      "ko": 3937,
      "lt": 3938,
      "lap": 3939,
      "lack": 3940,
      "luck": 3941,
      "mn": 3942,
      "nat": 3943,
      "nar": 3944,
      "nom": 3945,
      "ners": 3946,
      "ping": 3947,
      "pover": 3948,
      "pup": 3949,
      "pict": 3950,
      "path": 3951,
      "pipe": 3952,
      "ror": 3953,
      "rac": 3954,
      "rap": 3955,
      "rank": 3956,
      "rats": 3957,
      "rule": 3958,
      "spl": 3959,
      "sort": 3960,
      "south": 3961,
      "swit": 3962,
      "tor": 3963,
      "tip": 3964,
      "text": 3965,
      "uana": 3966,
      "van": 3967,
      "wag": 3968,
      "wake": 3969,
      "wise": 3970,
      "wyn": 3971,
      "yr": 3972,
      "yond": 3973,
      "zil": 3974,
      "zbol": 3975,
      "thod": 3976,
      "ina": 3977,
      "iny": 3978,
      "ints": 3979,
      "inary": 3980,
      "inno": 3981,
      "eration": 3982,
      "anony": 3983,
      "onto": 3984,
      "ongh": 3985,
      "renew": 3986,
      "rels": 3987,
      "replace": 3988,
      "replac": 3989,
      "recalls": 3990,
      "reporter": 3991,
      "ater": 3992,
      "edy": 3993,
      "educ": 3994,
      "island": 3995,
      "ala": 3996,
      "alive": 3997,
      "asts": 3998,
      "assu": 3999,
      "ara": 4000,
      "ouwe": 4001,
      "ites": 4002,
      "itors": 4003,
      "itics": 4004,
      "icitor": 4005,
      "stor": 4006,
      "stream": 4007,
      "stead": 4008,
      "ented": 4009,
      "entry": 4010,
      "iland": 4011,
      "seized": 4012,
      "acle": 4013,
      "accom": 4014,
      "ada": 4015,
      "ading": 4016,
      "rock": 4017,
      "chr": 4018,
      "cher": 4019,
      "chance": 4020,
      "olf": 4021,
      "whist": 4022,
      "whatever": 4023,
      "verse": 4024,
      "ira": 4025,
      "ird": 4026,
      "iry": 4027,
      "cepted": 4028,
      "tered": 4029,
      "Their": 4030,
      "ambi": 4031,
      "deep": 4032,
      "igious": 4033,
      "igade": 4034,
      "ots": 4035,
      "image": 4036,
      "impossible": 4037,
      "convers": 4038,
      "concept": 4039,
      "consecut": 4040,
      "agent": 4041,
      "users": 4042,
      "usual": 4043,
      "ctic": 4044,
      "ctive": 4045,
      "neither": 4046,
      "wasn": 4047,
      "abs": 4048,
      "abour": 4049,
      "abuse": 4050,
      "unve": 4051,
      "univers": 4052,
      "unlikely": 4053,
      "unusual": 4054,
      "reser": 4055,
      "compu": 4056,
      "compromised": 4057,
      "weight": 4058,
      "etro": 4059,
      "opin": 4060,
      "ulted": 4061,
      "liance": 4062,
      "lift": 4063,
      "export": 4064,
      "exposed": 4065,
      "exclus": 4066,
      "frame": 4067,
      "pled": 4068,
      "mod": 4069,
      "moving": 4070,
      "teach": 4071,
      "apparent": 4072,
      "note": 4073,
      "sher": 4074,
      "essor": 4075,
      "artists": 4076,
      "sole": 4077,
      "poor": 4078,
      "manner": 4079,
      "quite": 4080,
      "llion": 4081,
      "affect": 4082,
      "feed": 4083,
      "feet": 4084,
      "doctor": 4085,
      "method": 4086,
      "active": 4087,
      "actors": 4088,
      "clim": 4089,
      "clashes": 4090,
      "prices": 4091,
      "primary": 4092,
      "prints": 4093,
      "Then": 4094,
      "granted": 4095,
      "pression": 4096,
      "pressure": 4097,
      "ield": 4098,
      "blown": 4099,
      "Frank": 4100,
      "accur": 4101,
      "mones": 4102,
      "discharged": 4103,
      "airlin": 4104,
      "ureau": 4105,
      "udes": 4106,
      "elle": 4107,
      "wouldn": 4108,
      "raise": 4109,
      "raising": 4110,
      "encing": 4111,
      "encies": 4112,
      "interests": 4113,
      "phen": 4114,
      "preced": 4115,
      "pregn": 4116,
      "contained": 4117,
      "iang": 4118,
      "spect": 4119,
      "Hezbol": 4120,
      "strugg": 4121,
      "channel": 4122,
      "channels": 4123,
      "shell": 4124,
      "brain": 4125,
      "brigade": 4126,
      "ibility": 4127,
      "Star": 4128,
      "Street": 4129,
      "aval": 4130,
      "Under": 4131,
      "thanks": 4132,
      "governments": 4133,
      "attend": 4134,
      "providing": 4135,
      "adds": 4136,
      "Europeans": 4137,
      "formal": 4138,
      "regation": 4139,
      "chose": 4140,
      "choos": 4141,
      "oys": 4142,
      "drawn": 4143,
      "fled": 4144,
      "reading": 4145,
      "readers": 4146,
      "undergo": 4147,
      "tense": 4148,
      "decide": 4149,
      "lawmakers": 4150,
      "2002": 4151,
      "guard": 4152,
      "specified": 4153,
      "passing": 4154,
      "stood": 4155,
      "stored": 4156,
      "ashed": 4157,
      "uggl": 4158,
      "genital": 4159,
      "lax": 4160,
      "launched": 4161,
      "command": 4162,
      "memory": 4163,
      "Only": 4164,
      "198": 4165,
      "gests": 4166,
      "mator": 4167,
      "matern": 4168,
      "relev": 4169,
      "Anderson": 4170,
      "relations": 4171,
      "religious": 4172,
      "marked": 4173,
      "transition": 4174,
      "Comedy": 4175,
      "difference": 4176,
      "firefighters": 4177,
      "explos": 4178,
      "location": 4179,
      "officially": 4180,
      "drive": 4181,
      "warned": 4182,
      "requires": 4183,
      "Also": 4184,
      "supporters": 4185,
      "setting": 4186,
      "allowed": 4187,
      "allowing": 4188,
      "currencies": 4189,
      "included": 4190,
      "aimed": 4191,
      "tainment": 4192,
      "career": 4193,
      "holders": 4194,
      "numbers": 4195,
      "looked": 4196,
      "developed": 4197,
      "patched": 4198,
      "Affair": 4199,
      "ampion": 4200,
      "concern": 4201,
      "familiar": 4202,
      "helped": 4203,
      "Monde": 4204,
      "mitted": 4205,
      "voting": 4206,
      "targeting": 4207,
      "findings": 4208,
      "normal": 4209,
      "quarry": 4210,
      "quarters": 4211,
      "correct": 4212,
      "International": 4213,
      "closely": 4214,
      "Arab": 4215,
      "signs": 4216,
      "promise": 4217,
      "involve": 4218,
      "cards": 4219,
      "iversary": 4220,
      "solos": 4221,
      "solicitor": 4222,
      "confirm": 4223,
      "continuing": 4224,
      "Yorkshire": 4225,
      "wenty": 4226,
      "refuge": 4227,
      "advent": 4228,
      "advoc": 4229,
      "truction": 4230,
      "played": 4231,
      "planners": 4232,
      "violent": 4233,
      "Grouwe": 4234,
      "Marie": 4235,
      "brothers": 4236,
      "mandate": 4237,
      "records": 4238,
      "protection": 4239,
      "biggest": 4240,
      "listen": 4241,
      "listed": 4242,
      "angle": 4243,
      "shortly": 4244,
      "judges": 4245,
      "tracks": 4246,
      "Most": 4247,
      "dropped": 4248,
      "facilities": 4249,
      "running": 4250,
      "experim": 4251,
      "projects": 4252,
      "interesting": 4253,
      "appealing": 4254,
      "privacy": 4255,
      "recognised": 4256,
      "Shi": 4257,
      "balance": 4258,
      "civilians": 4259,
      "household": 4260,
      "summon": 4261,
      "Services": 4262,
      "postp": 4263,
      "distribut": 4264,
      "rebellion": 4265,
      "cardinal": 4266,
      "nicom": 4267,
      "represented": 4268,
      "immediate": 4269,
      "Abdel": 4270,
      "barrels": 4271,
      "limited": 4272,
      "chemicals": 4273,
      "response": 4274,
      "Class": 4275,
      "baggage": 4276,
      "candy": 4277,
      "journalist": 4278,
      "retire": 4279,
      "admitting": 4280,
      "confident": 4281,
      "discussions": 4282,
      "industrial": 4283,
      "effort": 4284,
      "collect": 4285,
      "Like": 4286,
      "funding": 4287,
      "twice": 4288,
      "surgeries": 4289,
      "Amiens": 4290,
      "Gazprom": 4291,
      "horse": 4292,
      "hormones": 4293,
      "termination": 4294,
      "assistance": 4295,
      "Guard": 4296,
      "hoping": 4297,
      "langu": 4298,
      "repair": 4299,
      "iticians": 4300,
      "speaking": 4301,
      "generally": 4302,
      "prevented": 4303,
      "biometrics": 4304,
      "Michael": 4305,
      "suffered": 4306,
      "Blair": 4307,
      "Georg": 4308,
      "Louis": 4309,
      "jobs": 4310,
      "massive": 4311,
      "animal": 4312,
      "asylum": 4313,
      "Republican": 4314,
      "wrongdoing": 4315,
      "participating": 4316,
      "hills": 4317,
      "ijuana": 4318,
      "pushing": 4319,
      "institution": 4320,
      "institutions": 4321,
      "servation": 4322,
      "conducting": 4323,
      "IMF": 4324,
      "Rockstar": 4325,
      "Spirit": 4326,
      "Social": 4327,
      "cabin": 4328,
      "beginning": 4329,
      "excited": 4330,
      "suggest": 4331,
      "suggests": 4332,
      "increasingly": 4333,
      "Africa": 4334,
      "African": 4335,
      "principle": 4336,
      "Motor": 4337,
      "Muller": 4338,
      "Moreover": 4339,
      "Mohamed": 4340,
      "brief": 4341,
      "bassy": 4342,
      "gunfire": 4343,
      "departure": 4344,
      "procedures": 4345,
      "Scottish": 4346,
      "Kenya": 4347,
      "Thailand": 4348,
      "governor": 4349,
      "screen": 4350,
      "recommended": 4351,
      "revolution": 4352,
      "detected": 4353,
      "shutdown": 4354,
      "interception": 4355,
      "scientists": 4356,
      "Lebanese": 4357,
      "purchase": 4358,
      "challenging": 4359,
      "destroyed": 4360,
      "Pakistani": 4361,
      "Council": 4362,
      "NSW": 4363,
      "Rwanda": 4364,
      "Techn": 4365,
      "Timber": 4366,
      "Texas": 4367,
      "dancers": 4368,
      "words": 4369,
      "beautiful": 4370,
      "secrets": 4371,
      "constantly": 4372,
      "apartment": 4373,
      "allergies": 4374,
      "ancellor": 4375,
      "dispute": 4376,
      "Children": 4377,
      "Brigitte": 4378,
      "dramatic": 4379,
      "pharmacists": 4380,
      "fingerprints": 4381,
      "volunteers": 4382,
      "Publicis": 4383,
      "Ukraine": 4384,
      "Bamford": 4385,
      "Carol": 4386,
      "Damascus": 4387,
      "Furthermore": 4388,
      "Gaulle": 4389,
      "Nevada": 4390,
      "maths": 4391,
      "panic": 4392,
      "sophist": 4393,
      "confrontation": 4394,
      "modern": 4395,
      "acknowled": 4396,
      "encourage": 4397,
      "England": 4398,
      "Mozambi": 4399,
      "privilege": 4400,
      "Bulg": 4401,
      "Brazil": 4402,
      "Cairo": 4403,
      "Flemish": 4404,
      "Joseph": 4405,
      "Jomba": 4406,
      "Kivu": 4407,
      "Llewyn": 4408,
      "Murphy": 4409,
      "Nevertheless": 4410,
      "Omnicom": 4411,
      "OPCW": 4412,
      "Qaida": 4413,
      "Square": 4414,
      "Tasman": 4415,
      "Vatican": 4416,
      "Xinjiang": 4417,
      "afraid": 4418,
      "poverty": 4419,
      "split": 4420,
      "anonym": 4421,
      "onghold": 4422,
      "accommod": 4423,
      "whistle": 4424,
      "consecutive": 4425,
      "Hezbollah": 4426,
      "genitalia": 4427,
      "maternity": 4428,
      "Grouwels": 4429,
      "Mozambique": 4430,
      "22": 4431,
      "27": 4432,
      "28": 4433,
      "44": 4434,
      "46": 4435,
      "65": 4436,
      "600": 4437,
      "83": 4438,
      "88": 4439,
      "95": 4440,
      "Apr": 4441,
      "App": 4442,
      "Avi": 4443,
      "Aude": 4444,
      "ARS": 4445,
      "Bf": 4446,
      "Bor": 4447,
      "Bay": 4448,
      "Bur": 4449,
      "Bus": 4450,
      "Bour": 4451,
      "Back": 4452,
      "Bash": 4453,
      "Bali": 4454,
      "CC": 4455,
      "CO": 4456,
      "Card": 4457,
      "Clar": 4458,
      "Chair": 4459,
      "Crown": 4460,
      "Dj": 4461,
      "Dan": 4462,
      "Den": 4463,
      "Dres": 4464,
      "Ell": 4465,
      "Edis": 4466,
      "Fo": 4467,
      "Face": 4468,
      "Fund": 4469,
      "Frel": 4470,
      "Gue": 4471,
      "GCS": 4472,
      "Goma": 4473,
      "Hot": 4474,
      "Hall": 4475,
      "Hero": 4476,
      "Hague": 4477,
      "Its": 4478,
      "Jim": 4479,
      "Jap": 4480,
      "Journal": 4481,
      "Kh": 4482,
      "Kins": 4483,
      "Ly": 4484,
      "Lad": 4485,
      "Lance": 4486,
      "Long": 4487,
      "Lanc": 4488,
      "Mill": 4489,
      "Matt": 4490,
      "Money": 4491,
      "Mub": 4492,
      "Mbuz": 4493,
      "NY": 4494,
      "Nic": 4495,
      "Nav": 4496,
      "Op": 4497,
      "Pam": 4498,
      "Perry": 4499,
      "Pliber": 4500,
      "Qass": 4501,
      "Run": 4502,
      "Rio": 4503,
      "Sk": 4504,
      "Sm": 4505,
      "Sur": 4506,
      "Sher": 4507,
      "Sho": 4508,
      "Sony": 4509,
      "Special": 4510,
      "Strip": 4511,
      "Tele": 4512,
      "Turn": 4513,
      "Tony": 4514,
      "Tues": 4515,
      "Vet": 4516,
      "Wil": 4517,
      "Wild": 4518,
      "ais": 4519,
      "awe": 4520,
      "aire": 4521,
      "aise": 4522,
      "bt": 4523,
      "bow": 4524,
      "bish": 4525,
      "batt": 4526,
      "bins": 4527,
      "bah": 4528,
      "baby": 4529,
      "cle": 4530,
      "cul": 4531,
      "caf": 4532,
      "core": 4533,
      "cular": 4534,
      "camer": 4535,
      "dance": 4536,
      "dered": 4537,
      "double": 4538,
      "eager": 4539,
      "fat": 4540,
      "fal": 4541,
      "fare": 4542,
      "fab": 4543,
      "fear": 4544,
      "fue": 4545,
      "fans": 4546,
      "gig": 4547,
      "gap": 4548,
      "gue": 4549,
      "gian": 4550,
      "giant": 4551,
      "hl": 4552,
      "hou": 4553,
      "hus": 4554,
      "hun": 4555,
      "hump": 4556,
      "ien": 4557,
      "jun": 4558,
      "jel": 4559,
      "jail": 4560,
      "kin": 4561,
      "lake": 4562,
      "limin": 4563,
      "laugh": 4564,
      "lights": 4565,
      "mes": 4566,
      "mou": 4567,
      "mic": 4568,
      "mph": 4569,
      "mort": 4570,
      "ni": 4571,
      "nate": 4572,
      "names": 4573,
      "oke": 4574,
      "ograp": 4575,
      "pts": 4576,
      "pony": 4577,
      "rare": 4578,
      "rant": 4579,
      "rum": 4580,
      "rick": 4581,
      "sat": 4582,
      "sco": 4583,
      "skill": 4584,
      "simple": 4585,
      "sized": 4586,
      "sides": 4587,
      "southern": 4588,
      "similar": 4589,
      "sung": 4590,
      "tes": 4591,
      "tender": 4592,
      "tiny": 4593,
      "twenty": 4594,
      "uce": 4595,
      "uct": 4596,
      "une": 4597,
      "ume": 4598,
      "uters": 4599,
      "vul": 4600,
      "vary": 4601,
      "vention": 4602,
      "wro": 4603,
      "wart": 4604,
      "wild": 4605,
      "wave": 4606,
      "wides": 4607,
      "wounded": 4608,
      "yle": 4609,
      "©,": 4610,
      "thin": 4611,
      "thold": 4612,
      "inqu": 4613,
      "insp": 4614,
      "inations": 4615,
      "incur": 4616,
      "inches": 4617,
      "inhabit": 4618,
      "inberg": 4619,
      "inappropri": 4620,
      "erite": 4621,
      "erged": 4622,
      "erature": 4623,
      "erotic": 4624,
      "ermou": 4625,
      "ano": 4626,
      "anx": 4627,
      "anz": 4628,
      "anal": 4629,
      "anistan": 4630,
      "angry": 4631,
      "onde": 4632,
      "refer": 4633,
      "reject": 4634,
      "rests": 4635,
      "reets": 4636,
      "removed": 4637,
      "relax": 4638,
      "enes": 4639,
      "attr": 4640,
      "orically": 4641,
      "isn": 4642,
      "isible": 4643,
      "alian": 4644,
      "tou": 4645,
      "toward": 4646,
      "tomor": 4647,
      "asks": 4648,
      "arak": 4649,
      "aria": 4650,
      "arrange": 4651,
      "argue": 4652,
      "arrests": 4653,
      "oured": 4654,
      "itarian": 4655,
      "items": 4656,
      "ications": 4657,
      "stal": 4658,
      "stability": 4659,
      "stuck": 4660,
      "stressed": 4661,
      "leases": 4662,
      "omen": 4663,
      "omos": 4664,
      "ilos": 4665,
      "ida": 4666,
      "idem": 4667,
      "beyond": 4668,
      "sek": 4669,
      "seas": 4670,
      "sector": 4671,
      "accompan": 4672,
      "veins": 4673,
      "adap": 4674,
      "adem": 4675,
      "administr": 4676,
      "adually": 4677,
      "adults": 4678,
      "advert": 4679,
      "rose": 4680,
      "forcing": 4681,
      "chain": 4682,
      "chore": 4683,
      "lyfish": 4684,
      "iring": 4685,
      "irmish": 4686,
      "urged": 4687,
      "amid": 4688,
      "ammed": 4689,
      "ambig": 4690,
      "ambul": 4691,
      "det": 4692,
      "deploy": 4693,
      "details": 4694,
      "ota": 4695,
      "imo": 4696,
      "imal": 4697,
      "imag": 4698,
      "imul": 4699,
      "ills": 4700,
      "areas": 4701,
      "train": 4702,
      "trust": 4703,
      "trib": 4704,
      "traged": 4705,
      "convic": 4706,
      "consequ": 4707,
      "construction": 4708,
      "agh": 4709,
      "agger": 4710,
      "agencies": 4711,
      "user": 4712,
      "neu": 4713,
      "negot": 4714,
      "abil": 4715,
      "absol": 4716,
      "abortion": 4717,
      "unted": 4718,
      "united": 4719,
      "resour": 4720,
      "resum": 4721,
      "haps": 4722,
      "compe": 4723,
      "oph": 4724,
      "opol": 4725,
      "opposed": 4726,
      "opened": 4727,
      "opposition": 4728,
      "save": 4729,
      "lif": 4730,
      "liver": 4731,
      "liqu": 4732,
      "exit": 4733,
      "extradition": 4734,
      "external": 4735,
      "plus": 4736,
      "hasa": 4737,
      "hasn": 4738,
      "prosecut": 4739,
      "prohib": 4740,
      "model": 4741,
      "ounde": 4742,
      "aking": 4743,
      "akia": 4744,
      "outcome": 4745,
      "approved": 4746,
      "riage": 4747,
      "notes": 4748,
      "load": 4749,
      "losing": 4750,
      "shir": 4751,
      "shif": 4752,
      "sharing": 4753,
      "ema": 4754,
      "emerged": 4755,
      "overhead": 4756,
      "pool": 4757,
      "posts": 4758,
      "pothold": 4759,
      "mann": 4760,
      "manip": 4761,
      "willing": 4762,
      "enders": 4763,
      "ques": 4764,
      "quet": 4765,
      "geon": 4766,
      "geoys": 4767,
      "poral": 4768,
      "porary": 4769,
      "affected": 4770,
      "bert": 4771,
      "fection": 4772,
      "felt": 4773,
      "ivity": 4774,
      "upd": 4775,
      "update": 4776,
      "Inc": 4777,
      "Inv": 4778,
      "Independ": 4779,
      "Intelligence": 4780,
      "Inside": 4781,
      "ghanistan": 4782,
      "meat": 4783,
      "acting": 4784,
      "actic": 4785,
      "actions": 4786,
      "actually": 4787,
      "assur": 4788,
      "iev": 4789,
      "ueMax": 4790,
      "bother": 4791,
      "boys": 4792,
      "blonde": 4793,
      "creating": 4794,
      "cremator": 4795,
      "kel": 4796,
      "keys": 4797,
      "aware": 4798,
      "accusing": 4799,
      "cry": 4800,
      "crack": 4801,
      "crude": 4802,
      "criter": 4803,
      "dispatched": 4804,
      "coast": 4805,
      "nobody": 4806,
      "partly": 4807,
      "partner": 4808,
      "uded": 4809,
      "myster": 4810,
      "Chris": 4811,
      "Church": 4812,
      "Chancellor": 4813,
      "cancer": 4814,
      "interven": 4815,
      "intervention": 4816,
      "philos": 4817,
      "Italian": 4818,
      "preh": 4819,
      "pread": 4820,
      "predict": 4821,
      "prelimin": 4822,
      "firm": 4823,
      "202": 4824,
      "dug": 4825,
      "itely": 4826,
      "unders": 4827,
      "orsese": 4828,
      "positions": 4829,
      "possession": 4830,
      "Head": 4831,
      "stronghold": 4832,
      "pubic": 4833,
      "Analy": 4834,
      "ipated": 4835,
      "changing": 4836,
      "comparis": 4837,
      "annes": 4838,
      "anniversary": 4839,
      "iban": 4840,
      "ulture": 4841,
      "Stream": 4842,
      "cking": 4843,
      "invisible": 4844,
      "ancy": 4845,
      "anced": 4846,
      "married": 4847,
      "margin": 4848,
      "marriage": 4849,
      "epidem": 4850,
      "backs": 4851,
      "couldn": 4852,
      "wherever": 4853,
      "Bruce": 4854,
      "attach": 4855,
      "attention": 4856,
      "proval": 4857,
      "provision": 4858,
      "pping": 4859,
      "missions": 4860,
      "choice": 4861,
      "links": 4862,
      "linked": 4863,
      "drink": 4864,
      "flat": 4865,
      "justified": 4866,
      "ictory": 4867,
      "fined": 4868,
      "finally": 4869,
      "tension": 4870,
      "decades": 4871,
      "ailing": 4872,
      "2004": 4873,
      "2006": 4874,
      "2007": 4875,
      "scenes": 4876,
      "destruction": 4877,
      "guit": 4878,
      "guerite": 4879,
      "specul": 4880,
      "passage": 4881,
      "passport": 4882,
      "personnel": 4883,
      "vised": 4884,
      "visiting": 4885,
      "intention": 4886,
      "store": 4887,
      "ashire": 4888,
      "closer": 4889,
      "closing": 4890,
      "officers": 4891,
      "memories": 4892,
      "cheer": 4893,
      "cheap": 4894,
      "inclus": 4895,
      "charging": 4896,
      "Once": 4897,
      "highly": 4898,
      "highway": 4899,
      "turning": 4900,
      "197": 4901,
      "matters": 4902,
      "Andrew": 4903,
      "pleas": 4904,
      "pleased": 4905,
      "related": 4906,
      "relative": 4907,
      "shouldn": 4908,
      "investors": 4909,
      "investments": 4910,
      "helmet": 4911,
      "Scorsese": 4912,
      "sexy": 4913,
      "direction": 4914,
      "explain": 4915,
      "Reg": 4916,
      "Reed": 4917,
      "Reuters": 4918,
      "knows": 4919,
      "risks": 4920,
      "cuts": 4921,
      "covering": 4922,
      "warrant": 4923,
      "productions": 4924,
      "supposed": 4925,
      "10am": 4926,
      "belius": 4927,
      "arena": 4928,
      "weekend": 4929,
      "operate": 4930,
      "profits": 4931,
      "Attack": 4932,
      "Airport": 4933,
      "League": 4934,
      "Sebelius": 4935,
      "paying": 4936,
      "payers": 4937,
      "thent": 4938,
      "maintain": 4939,
      "capable": 4940,
      "subsequ": 4941,
      "movements": 4942,
      "taxpayers": 4943,
      "patient": 4944,
      "testified": 4945,
      "Afghanistan": 4946,
      "killing": 4947,
      "lighting": 4948,
      "morph": 4949,
      "Bock": 4950,
      "welcome": 4951,
      "struct": 4952,
      "investigate": 4953,
      "investigations": 4954,
      "singing": 4955,
      "singers": 4956,
      "happens": 4957,
      "happened": 4958,
      "happening": 4959,
      "Monkeys": 4960,
      "economies": 4961,
      "freely": 4962,
      "votes": 4963,
      "write": 4964,
      "legis": 4965,
      "targets": 4966,
      "Malays": 4967,
      "breach": 4968,
      "breasts": 4969,
      "correspond": 4970,
      "50ft": 4971,
      "Army": 4972,
      "Arctic": 4973,
      "Behind": 4974,
      "nerable": 4975,
      "ologist": 4976,
      "activity": 4977,
      "activist": 4978,
      "activists": 4979,
      "Traffic": 4980,
      "solution": 4981,
      "employed": 4982,
      "profitable": 4983,
      "electric": 4984,
      "susp": 4985,
      "advance": 4986,
      "advances": 4987,
      "truth": 4988,
      "temporary": 4989,
      "telephone": 4990,
      "Grand": 4991,
      "Mark": 4992,
      "Marguerite": 4993,
      "literature": 4994,
      "powers": 4995,
      "defending": 4996,
      "protein": 4997,
      "umping": 4998,
      "controls": 4999,
      "restaur": 5000,
      "antibodies": 5001,
      "differences": 5002,
      "bankrupt": 5003,
      "pediat": 5004,
      "valid": 5005,
      "value": 5006,
      "researchers": 5007,
      "tracking": 5008,
      "Congo": 5009,
      "Congregation": 5010,
      "stayed": 5011,
      "examine": 5012,
      "interested": 5013,
      "Oracle": 5014,
      "Share": 5015,
      "civilian": 5016,
      "reveals": 5017,
      "dealer": 5018,
      "summer": 5019,
      "complex": 5020,
      "completed": 5021,
      "stops": 5022,
      "largely": 5023,
      "purpose": 5024,
      "remains": 5025,
      "seemed": 5026,
      "posted": 5027,
      "costumes": 5028,
      "Hispanic": 5029,
      "executives": 5030,
      "properly": 5031,
      "burgh": 5032,
      "representing": 5033,
      "representative": 5034,
      "contract": 5035,
      "amongst": 5036,
      "experienced": 5037,
      "sufficient": 5038,
      "grandfather": 5039,
      "committed": 5040,
      "campaigns": 5041,
      "457": 5042,
      "Glass": 5043,
      "bags": 5044,
      "initiated": 5045,
      "revelation": 5046,
      "supply": 5047,
      "discussion": 5048,
      "effective": 5049,
      "effectively": 5050,
      "designs": 5051,
      "collected": 5052,
      "Russian": 5053,
      "Project": 5054,
      "Rescue": 5055,
      "Valero": 5056,
      "ValueMax": 5057,
      "cliff": 5058,
      "funds": 5059,
      "tunnels": 5060,
      "voic": 5061,
      "Egyptian": 5062,
      "Corteen": 5063,
      "Corporal": 5064,
      "join": 5065,
      "secretary": 5066,
      "places": 5067,
      "assistant": 5068,
      "Charlie": 5069,
      "watchdog": 5070,
      "footage": 5071,
      "Evening": 5072,
      "Finally": 5073,
      "Financial": 5074,
      "aulty": 5075,
      "radical": 5076,
      "variety": 5077,
      "walk": 5078,
      "managing": 5079,
      "surprises": 5080,
      "describing": 5081,
      "Black": 5082,
      "Bowler": 5083,
      "kitch": 5084,
      "master": 5085,
      "massac": 5086,
      "mileage": 5087,
      "treatment": 5088,
      "instructions": 5089,
      "animals": 5090,
      "challenge": 5091,
      "improvement": 5092,
      "option": 5093,
      "quality": 5094,
      "guidance": 5095,
      "participate": 5096,
      "potentially": 5097,
      "333": 5098,
      "Assad": 5099,
      "Assange": 5100,
      "CSSS": 5101,
      "Steinberg": 5102,
      "filling": 5103,
      "messages": 5104,
      "threatened": 5105,
      "reforms": 5106,
      "audience": 5107,
      "genetics": 5108,
      "collap": 5109,
      "collabor": 5110,
      "Defense": 5111,
      "Huawe": 5112,
      "Society": 5113,
      "Yaounde": 5114,
      "bombing": 5115,
      "reinforce": 5116,
      "reasons": 5117,
      "ternative": 5118,
      "neighbor": 5119,
      "combined": 5120,
      "affairs": 5121,
      "Professor": 5122,
      "candidate": 5123,
      "candidates": 5124,
      "Alexander": 5125,
      "original": 5126,
      "principally": 5127,
      "Everything": 5128,
      "Merkel": 5129,
      "Motors": 5130,
      "Mohammed": 5131,
      "km2": 5132,
      "pumpkins": 5133,
      "sensitive": 5134,
      "analyst": 5135,
      "belonging": 5136,
      "safely": 5137,
      "procedure": 5138,
      "emotion": 5139,
      "anticipated": 5140,
      "India": 5141,
      "blower": 5142,
      "buza": 5143,
      "symbol": 5144,
      "parliamentary": 5145,
      "smartphones": 5146,
      "structionism": 5147,
      "Kenyan": 5148,
      "Chev": 5149,
      "Muslim": 5150,
      "budget": 5151,
      "broadcast": 5152,
      "grips": 5153,
      "honour": 5154,
      "murder": 5155,
      "murdered": 5156,
      "magic": 5157,
      "infringe": 5158,
      "chairman": 5159,
      "respectively": 5160,
      "comfortable": 5161,
      "weaker": 5162,
      "carrier": 5163,
      "carriers": 5164,
      "heroes": 5165,
      "Angela": 5166,
      "broken": 5167,
      "brokers": 5168,
      "777X": 5169,
      "Morris": 5170,
      "Middle": 5171,
      "Samsung": 5172,
      "Safety": 5173,
      "frequently": 5174,
      "holiday": 5175,
      "palliative": 5176,
      "sleep": 5177,
      "inspectors": 5178,
      "status": 5179,
      "separate": 5180,
      "democracy": 5181,
      "travelling": 5182,
      "answer": 5183,
      "disappointed": 5184,
      "physical": 5185,
      "occasion": 5186,
      "scheme": 5187,
      "genuine": 5188,
      "captured": 5189,
      "suburbs": 5190,
      "manufacturers": 5191,
      "Katie": 5192,
      "Silver": 5193,
      "Supreme": 5194,
      "crowd": 5195,
      "duty": 5196,
      "kidn": 5197,
      "migration": 5198,
      "songs": 5199,
      "index": 5200,
      "repeated": 5201,
      "opportunity": 5202,
      "exercise": 5203,
      "quoted": 5204,
      "meaning": 5205,
      "asserted": 5206,
      "provincial": 5207,
      "providers": 5208,
      "insisted": 5209,
      "Observatory": 5210,
      "Officer": 5211,
      "historic": 5212,
      "Hollande": 5213,
      "Authority": 5214,
      "allegedly": 5215,
      "psychiatrist": 5216,
      "wonderful": 5217,
      "platforms": 5218,
      "cigarette": 5219,
      "DGs": 5220,
      "Despite": 5221,
      "Keith": 5222,
      "Mexico": 5223,
      "Parliament": 5224,
      "Parents": 5225,
      "Taliban": 5226,
      "Uighur": 5227,
      "doubt": 5228,
      "easier": 5229,
      "natural": 5230,
      "pipeline": 5231,
      "rapid": 5232,
      "switch": 5233,
      "renewed": 5234,
      "chromos": 5235,
      "unveiled": 5236,
      "framework": 5237,
      "apparently": 5238,
      "accurate": 5239,
      "airliners": 5240,
      "choosing": 5241,
      "guarded": 5242,
      "uggling": 5243,
      "relevant": 5244,
      "experiment": 5245,
      "Shiite": 5246,
      "postpone": 5247,
      "retirement": 5248,
      "language": 5249,
      "Georgia": 5250,
      "Timberlake": 5251,
      "sophisticated": 5252,
      "April": 5253,
      "Aviation": 5254,
      "Audet": 5255,
      "BfV": 5256,
      "Business": 5257,
      "Bourgeoys": 5258,
      "Djermou": 5259,
      "Drescher": 5260,
      "Ellison": 5261,
      "Facebook": 5262,
      "Frelimo": 5263,
      "Guebuza": 5264,
      "GCSE": 5265,
      "Hotel": 5266,
      "Japan": 5267,
      "Khan": 5268,
      "Kinshasa": 5269,
      "Lancashire": 5270,
      "Mubarak": 5271,
      "Mbuzi": 5272,
      "NYPD": 5273,
      "Navy": 5274,
      "Plibersek": 5275,
      "Turner": 5276,
      "Tuesday": 5277,
      "Vettel": 5278,
      "false": 5279,
      "fabric": 5280,
      "husband": 5281,
      "humpback": 5282,
      "jellyfish": 5283,
      "satis": 5284,
      "vulnerable": 5285,
      "wrote": 5286,
      "widespread": 5287,
      "inspired": 5288,
      "analys": 5289,
      "tomorrow": 5290,
      "accompanied": 5291,
      "advertising": 5292,
      "choreograp": 5293,
      "ambiguous": 5294,
      "convicted": 5295,
      "negoti": 5296,
      "absolute": 5297,
      "resources": 5298,
      "shift": 5299,
      "potholders": 5300,
      "crematorium": 5301,
      "criteria": 5302,
      "preliminary": 5303,
      "Analysts": 5304,
      "comparison": 5305,
      "pediatric": 5306,
      "Huawei": 5307,
      "Djermoune": 5308,
      "130": 5309,
      "29": 5310,
      "37": 5311,
      "39": 5312,
      "350": 5313,
      "52": 5314,
      "55": 5315,
      "57": 5316,
      "59": 5317,
      "62": 5318,
      "63": 5319,
      "AC": 5320,
      "AM": 5321,
      "AS": 5322,
      "Ap": 5323,
      "Aren": 5324,
      "Abu": 5325,
      "Bi": 5326,
      "Bu": 5327,
      "Bat": 5328,
      "Bir": 5329,
      "Big": 5330,
      "Bild": 5331,
      "Border": 5332,
      "CH": 5333,
      "Cal": 5334,
      "Cir": 5335,
      "Clo": 5336,
      "Cred": 5337,
      "Cla": 5338,
      "Caring": 5339,
      "Civil": 5340,
      "Clive": 5341,
      "Cyr": 5342,
      "Cannes": 5343,
      "Di": 5344,
      "Don": 5345,
      "Did": 5346,
      "Dut": 5347,
      "Dies": 5348,
      "Dire": 5349,
      "Due": 5350,
      "Dawn": 5351,
      "Dhab": 5352,
      "DDo": 5353,
      "Double": 5354,
      "Dhl": 5355,
      "Ev": 5356,
      "Edu": 5357,
      "Ethan": 5358,
      "Each": 5359,
      "FM": 5360,
      "Fir": 5361,
      "Festival": 5362,
      "Gir": 5363,
      "Glo": 5364,
      "Gold": 5365,
      "Gender": 5366,
      "GPS": 5367,
      "HP": 5368,
      "Hy": 5369,
      "Hen": 5370,
      "Has": 5371,
      "Har": 5372,
      "Hom": 5373,
      "Hak": 5374,
      "Hist": 5375,
      "Hong": 5376,
      "Haw": 5377,
      "Hel": 5378,
      "Hyer": 5379,
      "HTC": 5380,
      "IS": 5381,
      "Jack": 5382,
      "James": 5383,
      "Jacqu": 5384,
      "Jagger": 5385,
      "Kr": 5386,
      "Kir": 5387,
      "Kam": 5388,
      "Kong": 5389,
      "Kamp": 5390,
      "Kiev": 5391,
      "LG": 5392,
      "Lt": 5393,
      "Les": 5394,
      "Land": 5395,
      "Lau": 5396,
      "Lib": 5397,
      "Los": 5398,
      "Labor": 5399,
      "Laval": 5400,
      "Ma": 5401,
      "Mc": 5402,
      "Mu": 5403,
      "Mis": 5404,
      "Mad": 5405,
      "Mem": 5406,
      "Meng": 5407,
      "Morgan": 5408,
      "Menton": 5409,
      "Ny": 5410,
      "NEC": 5411,
      "Out": 5412,
      "Omar": 5413,
      "Others": 5414,
      "Pre": 5415,
      "Pen": 5416,
      "Pas": 5417,
      "Pac": 5418,
      "Pres": 5419,
      "Phas": 5420,
      "Pia": 5421,
      "Port": 5422,
      "Press": 5423,
      "Plan": 5424,
      "Penn": 5425,
      "Qa": 5426,
      "RF": 5427,
      "Ron": 5428,
      "Rom": 5429,
      "Rad": 5430,
      "Rover": 5431,
      "Rep": 5432,
      "Rele": 5433,
      "Ros": 5434,
      "Rather": 5435,
      "Rights": 5436,
      "Revol": 5437,
      "Sou": 5438,
      "Spr": 5439,
      "Sier": 5440,
      "Sometimes": 5441,
      "Swed": 5442,
      "Sisi": 5443,
      "Ter": 5444,
      "Ten": 5445,
      "Tor": 5446,
      "Tun": 5447,
      "Tra": 5448,
      "Tian": 5449,
      "Tah": 5450,
      "UBS": 5451,
      "Va": 5452,
      "Vi": 5453,
      "Van": 5454,
      "Vir": 5455,
      "Vall": 5456,
      "Vice": 5457,
      "Vale": 5458,
      "Ville": 5459,
      "Wal": 5460,
      "Will": 5461,
      "Wik": 5462,
      "Ye": 5463,
      "Youn": 5464,
      "Zo": 5465,
      "Zeal": 5466,
      "ba": 5467,
      "bn": 5468,
      "bra": 5469,
      "bail": 5470,
      "bbed": 5471,
      "borders": 5472,
      "bureau": 5473,
      "cation": 5474,
      "cop": 5475,
      "cited": 5476,
      "cities": 5477,
      "coffee": 5478,
      "dd": 5479,
      "dies": 5480,
      "dress": 5481,
      "dumping": 5482,
      "ei": 5483,
      "eer": 5484,
      "eter": 5485,
      "ell": 5486,
      "eyes": 5487,
      "easy": 5488,
      "fre": 5489,
      "fis": 5490,
      "fate": 5491,
      "fant": 5492,
      "fold": 5493,
      "fier": 5494,
      "fond": 5495,
      "fix": 5496,
      "farm": 5497,
      "faulty": 5498,
      "gad": 5499,
      "gay": 5500,
      "gres": 5501,
      "gged": 5502,
      "gave": 5503,
      "hid": 5504,
      "harm": 5505,
      "hurt": 5506,
      "hsud": 5507,
      "ito": 5508,
      "iac": 5509,
      "iest": 5510,
      "ike": 5511,
      "iform": 5512,
      "iency": 5513,
      "iLe": 5514,
      "iences": 5515,
      "ju": 5516,
      "jur": 5517,
      "jam": 5518,
      "jour": 5519,
      "jack": 5520,
      "jured": 5521,
      "kie": 5522,
      "kids": 5523,
      "lion": 5524,
      "lus": 5525,
      "lord": 5526,
      "lick": 5527,
      "lantic": 5528,
      "lugg": 5529,
      "lvan": 5530,
      "labour": 5531,
      "mad": 5532,
      "mam": 5533,
      "mere": 5534,
      "moun": 5535,
      "mice": 5536,
      "mated": 5537,
      "mach": 5538,
      "ny": 5539,
      "nab": 5540,
      "none": 5541,
      "nav": 5542,
      "native": 5543,
      "nature": 5544,
      "oz": 5545,
      "oot": 5546,
      "obl": 5547,
      "ocr": 5548,
      "pH": 5549,
      "pto": 5550,
      "pit": 5551,
      "pir": 5552,
      "pers": 5553,
      "paw": 5554,
      "pays": 5555,
      "pace": 5556,
      "pian": 5557,
      "pages": 5558,
      "rout": 5559,
      "ride": 5560,
      "race": 5561,
      "ratt": 5562,
      "rang": 5563,
      "rural": 5564,
      "sn": 5565,
      "san": 5566,
      "sest": 5567,
      "sate": 5568,
      "sending": 5569,
      "sought": 5570,
      "til": 5571,
      "tab": 5572,
      "tific": 5573,
      "tasked": 5574,
      "tired": 5575,
      "tapping": 5576,
      "taught": 5577,
      "tasks": 5578,
      "tactic": 5579,
      "uff": 5580,
      "viv": 5581,
      "voc": 5582,
      "viously": 5583,
      "victory": 5584,
      "ware": 5585,
      "wich": 5586,
      "winter": 5587,
      "wish": 5588,
      "xic": 5589,
      "yo": 5590,
      "zed": 5591,
      "zhou": 5592,
      "ths": 5593,
      "throw": 5594,
      "thwart": 5595,
      "ining": 5596,
      "inch": 5597,
      "incon": 5598,
      "inau": 5599,
      "incent": 5600,
      "inced": 5601,
      "informed": 5602,
      "ineness": 5603,
      "inhum": 5604,
      "inologist": 5605,
      "inburgh": 5606,
      "erial": 5607,
      "erary": 5608,
      "erks": 5609,
      "thes": 5610,
      "theast": 5611,
      "thening": 5612,
      "onents": 5613,
      "reb": 5614,
      "reli": 5615,
      "recover": 5616,
      "recalled": 5617,
      "reaction": 5618,
      "remind": 5619,
      "reacts": 5620,
      "represents": 5621,
      "recru": 5622,
      "rejected": 5623,
      "reunited": 5624,
      "restruct": 5625,
      "encl": 5626,
      "enforce": 5627,
      "atz": 5628,
      "aters": 5629,
      "atically": 5630,
      "eda": 5631,
      "orida": 5632,
      "isd": 5633,
      "isto": 5634,
      "isse": 5635,
      "aling": 5636,
      "alty": 5637,
      "alternative": 5638,
      "tood": 5639,
      "touch": 5640,
      "toler": 5641,
      "toxic": 5642,
      "ingu": 5643,
      "aspect": 5644,
      "aries": 5645,
      "oust": 5646,
      "oubl": 5647,
      "itÃ": 5648,
      "itim": 5649,
      "itate": 5650,
      "itime": 5651,
      "ica": 5652,
      "icing": 5653,
      "icine": 5654,
      "icide": 5655,
      "icip": 5656,
      "icious": 5657,
      "icultural": 5658,
      "heat": 5659,
      "station": 5660,
      "stall": 5661,
      "stair": 5662,
      "stations": 5663,
      "stick": 5664,
      "stamp": 5665,
      "stret": 5666,
      "style": 5667,
      "stuff": 5668,
      "lets": 5669,
      "lease": 5670,
      "lected": 5671,
      "league": 5672,
      "omp": 5673,
      "omlion": 5674,
      "entered": 5675,
      "iles": 5676,
      "idge": 5677,
      "bel": 5678,
      "bele": 5679,
      "beef": 5680,
      "behalf": 5681,
      "becomes": 5682,
      "sea": 5683,
      "seiz": 5684,
      "accompl": 5685,
      "veter": 5686,
      "vell": 5687,
      "ado": 5688,
      "adays": 5689,
      "admis": 5690,
      "admission": 5691,
      "rol": 5692,
      "roof": 5693,
      "roles": 5694,
      "forb": 5695,
      "chi": 5696,
      "ching": 5697,
      "cham": 5698,
      "cheng": 5699,
      "olas": 5700,
      "olved": 5701,
      "olics": 5702,
      "lying": 5703,
      "verted": 5704,
      "versy": 5705,
      "verpool": 5706,
      "iris": 5707,
      "irac": 5708,
      "ceased": 5709,
      "uries": 5710,
      "amb": 5711,
      "amount": 5712,
      "dem": 5713,
      "deton": 5714,
      "defic": 5715,
      "defect": 5716,
      "deceased": 5717,
      "igation": 5718,
      "igger": 5719,
      "igara": 5720,
      "images": 5721,
      "impose": 5722,
      "illness": 5723,
      "tral": 5724,
      "trac": 5725,
      "trau": 5726,
      "trick": 5727,
      "trouble": 5728,
      "trapped": 5729,
      "troubl": 5730,
      "trigger": 5731,
      "coni": 5732,
      "concl": 5733,
      "consp": 5734,
      "consc": 5735,
      "concess": 5736,
      "conject": 5737,
      "conclus": 5738,
      "agents": 5739,
      "usations": 5740,
      "ussion": 5741,
      "neo": 5742,
      "abroad": 5743,
      "abuses": 5744,
      "union": 5745,
      "unions": 5746,
      "unless": 5747,
      "unclear": 5748,
      "university": 5749,
      "unique": 5750,
      "unpreced": 5751,
      "resto": 5752,
      "resist": 5753,
      "resign": 5754,
      "rescu": 5755,
      "resolved": 5756,
      "utions": 5757,
      "haise": 5758,
      "haven": 5759,
      "hauled": 5760,
      "withdraw": 5761,
      "comments": 5762,
      "compreh": 5763,
      "wear": 5764,
      "weigh": 5765,
      "mental": 5766,
      "optim": 5767,
      "opening": 5768,
      "ula": 5769,
      "ulfed": 5770,
      "bye": 5771,
      "saved": 5772,
      "lix": 5773,
      "lived": 5774,
      "explan": 5775,
      "extens": 5776,
      "extermination": 5777,
      "frust": 5778,
      "proposed": 5779,
      "proceed": 5780,
      "sual": 5781,
      "suits": 5782,
      "sured": 5783,
      "suicide": 5784,
      "tees": 5785,
      "tear": 5786,
      "tection": 5787,
      "tears": 5788,
      "ounced": 5789,
      "aks": 5790,
      "akama": 5791,
      "ainst": 5792,
      "outlets": 5793,
      "apers": 5794,
      "appoint": 5795,
      "approval": 5796,
      "earing": 5797,
      "rif": 5798,
      "rio": 5799,
      "rivers": 5800,
      "rival": 5801,
      "rique": 5802,
      "loans": 5803,
      "shown": 5804,
      "shine": 5805,
      "shoot": 5806,
      "ifi": 5807,
      "ifax": 5808,
      "emen": 5809,
      "emit": 5810,
      "emak": 5811,
      "embar": 5812,
      "embassy": 5813,
      "overhaul": 5814,
      "overseas": 5815,
      "soda": 5816,
      "pope": 5817,
      "manif": 5818,
      "manual": 5819,
      "endar": 5820,
      "endocr": 5821,
      "llow": 5822,
      "llite": 5823,
      "aume": 5824,
      "auction": 5825,
      "auster": 5826,
      "authent": 5827,
      "geopol": 5828,
      "porno": 5829,
      "perts": 5830,
      "perman": 5831,
      "permit": 5832,
      "perfect": 5833,
      "bervill": 5834,
      "feast": 5835,
      "ordinary": 5836,
      "doin": 5837,
      "dose": 5838,
      "upon": 5839,
      "upset": 5840,
      "uprising": 5841,
      "merger": 5842,
      "Injured": 5843,
      "mechan": 5844,
      "actly": 5845,
      "clar": 5846,
      "clays": 5847,
      "worry": 5848,
      "worried": 5849,
      "offices": 5850,
      "render": 5851,
      "Thom": 5852,
      "asses": 5853,
      "assass": 5854,
      "ouses": 5855,
      "grave": 5856,
      "gradually": 5857,
      "ored": 5858,
      "boo": 5859,
      "boat": 5860,
      "blame": 5861,
      "owner": 5862,
      "awa": 5863,
      "accoun": 5864,
      "accusations": 5865,
      "umbo": 5866,
      "portico": 5867,
      "spare": 5868,
      "spite": 5869,
      "spital": 5870,
      "spons": 5871,
      "spirit": 5872,
      "server": 5873,
      "monetary": 5874,
      "crat": 5875,
      "dismis": 5876,
      "disorder": 5877,
      "discrimin": 5878,
      "polls": 5879,
      "politan": 5880,
      "politics": 5881,
      "politicians": 5882,
      "airplanes": 5883,
      "code": 5884,
      "cook": 5885,
      "partial": 5886,
      "partners": 5887,
      "udies": 5888,
      "ChÃ": 5889,
      "Chic": 5890,
      "Chall": 5891,
      "Champion": 5892,
      "Chanz": 5893,
      "Chirac": 5894,
      "canines": 5895,
      "cannab": 5896,
      "interpre": 5897,
      "intercepted": 5898,
      "inding": 5899,
      "phr": 5900,
      "phin": 5901,
      "woke": 5902,
      "wood": 5903,
      "Italy": 5904,
      "prec": 5905,
      "prefer": 5906,
      "preci": 5907,
      "predomin": 5908,
      "aception": 5909,
      "dubbed": 5910,
      "itement": 5911,
      "contam": 5912,
      "contain": 5913,
      "contest": 5914,
      "context": 5915,
      "contains": 5916,
      "afterwards": 5917,
      "iana": 5918,
      "poses": 5919,
      "goal": 5920,
      "strict": 5921,
      "Anne": 5922,
      "iple": 5923,
      "overnight": 5924,
      "sheet": 5925,
      "worker": 5926,
      "surgeon": 5927,
      "ibly": 5928,
      "Still": 5929,
      "Stage": 5930,
      "Stacy": 5931,
      "Studies": 5932,
      "tai": 5933,
      "ualties": 5934,
      "anyway": 5935,
      "cked": 5936,
      "invited": 5937,
      "ancient": 5938,
      "marks": 5939,
      "margins": 5940,
      "marijuana": 5941,
      "maritime": 5942,
      "Union": 5943,
      "Until": 5944,
      "mining": 5945,
      "minimal": 5946,
      "epis": 5947,
      "effic": 5948,
      "backed": 5949,
      "backlog": 5950,
      "landings": 5951,
      "counting": 5952,
      "engine": 5953,
      "element": 5954,
      "electors": 5955,
      "elective": 5956,
      "adding": 5957,
      "format": 5958,
      "link": 5959,
      "comeback": 5960,
      "drone": 5961,
      "flu": 5962,
      "flag": 5963,
      "flights": 5964,
      "izz": 5965,
      "izing": 5966,
      "reader": 5967,
      "syn": 5968,
      "sylvan": 5969,
      "underground": 5970,
      "decor": 5971,
      "laws": 5972,
      "lawsuit": 5973,
      "science": 5974,
      "desk": 5975,
      "guy": 5976,
      "passed": 5977,
      "vise": 5978,
      "intent": 5979,
      "publicly": 5980,
      "publication": 5981,
      "headed": 5982,
      "heading": 5983,
      "closest": 5984,
      "genes": 5985,
      "observed": 5986,
      "obstructionism": 5987,
      "certific": 5988,
      "chef": 5989,
      "cheese": 5990,
      "cheaper": 5991,
      "checks": 5992,
      "larger": 5993,
      "enses": 5994,
      "ensus": 5995,
      "Ontar": 5996,
      "higher": 5997,
      "turns": 5998,
      "pressed": 5999,
      "pressing": 6000,
      "ortigara": 6001,
      "affil": 6002,
      "1970": 6003,
      "releasing": 6004,
      "follows": 6005,
      "relating": 6006,
      "relayed": 6007,
      "starting": 6008,
      "founding": 6009,
      "foundation": 6010,
      "thorough": 6011,
      "Howie": 6012,
      "Sciences": 6013,
      "transport": 6014,
      "transfer": 6015,
      "transparent": 6016,
      "transactions": 6017,
      "transmissions": 6018,
      "everyone": 6019,
      "ministers": 6020,
      "Commit": 6021,
      "denly": 6022,
      "denies": 6023,
      "denial": 6024,
      "firemen": 6025,
      "locations": 6026,
      "announcing": 6027,
      "Reports": 6028,
      "ctoral": 6029,
      "attacked": 6030,
      "handed": 6031,
      "parish": 6032,
      "warns": 6033,
      "requiring": 6034,
      "tells": 6035,
      "Alliance": 6036,
      "produce": 6037,
      "produced": 6038,
      "producing": 6039,
      "supports": 6040,
      "Forces": 6041,
      "injury": 6042,
      "injuries": 6043,
      "severance": 6044,
      "networks": 6045,
      "profile": 6046,
      "sett": 6047,
      "viewers": 6048,
      "Atlantic": 6049,
      "organised": 6050,
      "organisations": 6051,
      "authoritarian": 6052,
      "Lee": 6053,
      "Sea": 6054,
      "tonight": 6055,
      "Asian": 6056,
      "colours": 6057,
      "smile": 6058,
      "thoughts": 6059,
      "subtle": 6060,
      "taxi": 6061,
      "developers": 6062,
      "CAC": 6063,
      "CASA": 6064,
      "patent": 6065,
      "patter": 6066,
      "putting": 6067,
      "searched": 6068,
      "Both": 6069,
      "latter": 6070,
      "realise": 6071,
      "learned": 6072,
      "roads": 6073,
      "welcomed": 6074,
      "investigating": 6075,
      "markets": 6076,
      "helps": 6077,
      "Palace": 6078,
      "single": 6079,
      "Monetary": 6080,
      "parental": 6081,
      "writ": 6082,
      "studies": 6083,
      "legs": 6084,
      "legitim": 6085,
      "Execut": 6086,
      "Experts": 6087,
      "grown": 6088,
      "northern": 6089,
      "breast": 6090,
      "popul": 6091,
      "watched": 6092,
      "healthcare": 6093,
      "iminated": 6094,
      "extre": 6095,
      "extended": 6096,
      "extends": 6097,
      "fects": 6098,
      "feels": 6099,
      "feelings": 6100,
      "policemen": 6101,
      "Armed": 6102,
      "Because": 6103,
      "signed": 6104,
      "stands": 6105,
      "standup": 6106,
      "True": 6107,
      "casualties": 6108,
      "solid": 6109,
      "solutions": 6110,
      "confirms": 6111,
      "employment": 6112,
      "meetings": 6113,
      "files": 6114,
      "films": 6115,
      "midday": 6116,
      "mediation": 6117,
      "medium": 6118,
      "Baratz": 6119,
      "Barclays": 6120,
      "Enter": 6121,
      "Energy": 6122,
      "reflect": 6123,
      "truly": 6124,
      "truck": 6125,
      "telet": 6126,
      "supported": 6127,
      "Berlus": 6128,
      "GrÃ": 6129,
      "Marine": 6130,
      "broke": 6131,
      "broker": 6132,
      "caire": 6133,
      "caution": 6134,
      "lames": 6135,
      "topic": 6136,
      "define": 6137,
      "decline": 6138,
      "controlled": 6139,
      "controversy": 6140,
      "appearances": 6141,
      "listening": 6142,
      "programme": 6143,
      "foreigners": 6144,
      "30pm": 6145,
      "bankers": 6146,
      "valuation": 6147,
      "values": 6148,
      "returning": 6149,
      "arrival": 6150,
      "untary": 6151,
      "shopping": 6152,
      "regulation": 6153,
      "regulations": 6154,
      "regulatory": 6155,
      "Laur": 6156,
      "faced": 6157,
      "faces": 6158,
      "facing": 6159,
      "facility": 6160,
      "metres": 6161,
      "erospace": 6162,
      "examinations": 6163,
      "Adolf": 6164,
      "Oratory": 6165,
      "gym": 6166,
      "dealing": 6167,
      "summit": 6168,
      "accessories": 6169,
      "Constitut": 6170,
      "Conservation": 6171,
      "Service": 6172,
      "glasses": 6173,
      "lots": 6174,
      "pursu": 6175,
      "quarterly": 6176,
      "impact": 6177,
      "executed": 6178,
      "11am": 6179,
      "burst": 6180,
      "contractor": 6181,
      "classified": 6182,
      "Against": 6183,
      "barrel": 6184,
      "motiv": 6185,
      "instant": 6186,
      "starts": 6187,
      "experiencing": 6188,
      "Islamist": 6189,
      "Islamists": 6190,
      "Nov": 6191,
      "Nobody": 6192,
      "retired": 6193,
      "confess": 6194,
      "confusing": 6195,
      "confidence": 6196,
      "sooner": 6197,
      "ometrics": 6198,
      "discussed": 6199,
      "hopeful": 6200,
      "collection": 6201,
      "Catholics": 6202,
      "Liber": 6203,
      "Liverpool": 6204,
      "Prosecut": 6205,
      "Protection": 6206,
      "Reserve": 6207,
      "client": 6208,
      "distingu": 6209,
      "fundament": 6210,
      "silent": 6211,
      "twin": 6212,
      "tware": 6213,
      "irthaling": 6214,
      "responding": 6215,
      "Amirthaling": 6216,
      "Post": 6217,
      "Sunni": 6218,
      "bases": 6219,
      "joint": 6220,
      "municip": 6221,
      "titled": 6222,
      "virus": 6223,
      "attempted": 6224,
      "complaint": 6225,
      "complaints": 6226,
      "weapon": 6227,
      "placed": 6228,
      "measure": 6229,
      "assisted": 6230,
      "1992": 6231,
      "Transport": 6232,
      "football": 6233,
      "Diego": 6234,
      "Edinburgh": 6235,
      "NotW": 6236,
      "bottom": 6237,
      "flew": 6238,
      "fleet": 6239,
      "fighter": 6240,
      "penalty": 6241,
      "pawnshop": 6242,
      "pawnbrokers": 6243,
      "varies": 6244,
      "various": 6245,
      "wallet": 6246,
      "replied": 6247,
      "cells": 6248,
      "imported": 6249,
      "managers": 6250,
      "personalities": 6251,
      "generations": 6252,
      "preventing": 6253,
      "Does": 6254,
      "Doerks": 6255,
      "Parti": 6256,
      "Village": 6257,
      "winner": 6258,
      "instruction": 6259,
      "definition": 6260,
      "definitely": 6261,
      "manufacturing": 6262,
      "qualification": 6263,
      "fellow": 6264,
      "expectations": 6265,
      "consideration": 6266,
      "performances": 6267,
      "demonstration": 6268,
      "Aubervill": 6269,
      "CSRS": 6270,
      "Nowadays": 6271,
      "damaged": 6272,
      "fairly": 6273,
      "pushed": 6274,
      "theatres": 6275,
      "reforming": 6276,
      "assaulted": 6277,
      "necessity": 6278,
      "ultimate": 6279,
      "audiences": 6280,
      "possibly": 6281,
      "friendly": 6282,
      "motorist": 6283,
      "motorbi": 6284,
      "hotels": 6285,
      "Early": 6286,
      "RSCA": 6287,
      "Rocket": 6288,
      "cabins": 6289,
      "dreams": 6290,
      "eurozone": 6291,
      "housing": 6292,
      "moments": 6293,
      "sorts": 6294,
      "tickets": 6295,
      "village": 6296,
      "villages": 6297,
      "reinforced": 6298,
      "alongside": 6299,
      "advised": 6300,
      "advisers": 6301,
      "liberal": 6302,
      "excitement": 6303,
      "elsewhere": 6304,
      "pharmacy": 6305,
      "regularly": 6306,
      "guarantees": 6307,
      "consultant": 6308,
      "consultations": 6309,
      "requirement": 6310,
      "priority": 6311,
      "traditional": 6312,
      "subjects": 6313,
      "Everyone": 6314,
      "Justin": 6315,
      "Mulcaire": 6316,
      "Ugandan": 6317,
      "bassador": 6318,
      "funeral": 6319,
      "picked": 6320,
      "pickup": 6321,
      "pumpkin": 6322,
      "sensors": 6323,
      "analysts": 6324,
      "leaked": 6325,
      "entertainment": 6326,
      "departments": 6327,
      "lieue": 6328,
      "sustained": 6329,
      "estimates": 6330,
      "emotions": 6331,
      "assignment": 6332,
      "drawings": 6333,
      "sympto": 6334,
      "obtained": 6335,
      "consistory": 6336,
      "dominated": 6337,
      "deliveries": 6338,
      "pilots": 6339,
      "Hospital": 6340,
      "Joe": 6341,
      "Joel": 6342,
      "Suisse": 6343,
      "Thai": 6344,
      "budding": 6345,
      "grief": 6346,
      "yellow": 6347,
      "rectification": 6348,
      "tourist": 6349,
      "entrust": 6350,
      "entrance": 6351,
      "celebrated": 6352,
      "connect": 6353,
      "connected": 6354,
      "comfort": 6355,
      "criticised": 6356,
      "criticism": 6357,
      "heroin": 6358,
      "Angeles": 6359,
      "hoods": 6360,
      "occupants": 6361,
      "scandalous": 6362,
      "characteristics": 6363,
      "requested": 6364,
      "Lebanon": 6365,
      "environmental": 6366,
      "Prix": 6367,
      "Safira": 6368,
      "Yesterday": 6369,
      "fifth": 6370,
      "frequent": 6371,
      "harness": 6372,
      "sister": 6373,
      "treated": 6374,
      "tackle": 6375,
      "enables": 6376,
      "enabled": 6377,
      "travelled": 6378,
      "convinced": 6379,
      "existing": 6380,
      "existence": 6381,
      "expressed": 6382,
      "expressing": 6383,
      "minorities": 6384,
      "counterparts": 6385,
      "specifies": 6386,
      "specifically": 6387,
      "genuineness": 6388,
      "objects": 6389,
      "Communist": 6390,
      "Communications": 6391,
      "diagnosed": 6392,
      "diagnosis": 6393,
      "capture": 6394,
      "appropriate": 6395,
      "manufacturer": 6396,
      "Caprio": 6397,
      "ECB": 6398,
      "Florida": 6399,
      "Greenwich": 6400,
      "Larry": 6401,
      "Mehsud": 6402,
      "Network": 6403,
      "Patrick": 6404,
      "StrÃ": 6405,
      "cinema": 6406,
      "flying": 6407,
      "failure": 6408,
      "mingham": 6409,
      "mistakes": 6410,
      "multiple": 6411,
      "slide": 6412,
      "soft": 6413,
      "software": 6414,
      "refining": 6415,
      "altitude": 6416,
      "altitudes": 6417,
      "argued": 6418,
      "heavier": 6419,
      "secure": 6420,
      "opposing": 6421,
      "opposite": 6422,
      "proposal": 6423,
      "suddenly": 6424,
      "models": 6425,
      "essentially": 6426,
      "featuring": 6427,
      "dozen": 6428,
      "dozens": 6429,
      "coalition": 6430,
      "strategies": 6431,
      "surrounded": 6432,
      "surrounding": 6433,
      "typically": 6434,
      "Commonwealth": 6435,
      "Beaudoin": 6436,
      "standards": 6437,
      "expanded": 6438,
      "Brotherhood": 6439,
      "influence": 6440,
      "neighbouring": 6441,
      "citizen": 6442,
      "citizens": 6443,
      "professionals": 6444,
      "subsidiary": 6445,
      "strengthening": 6446,
      "APHP": 6447,
      "Banlieue": 6448,
      "Federation": 6449,
      "Greek": 6450,
      "Halifax": 6451,
      "Highway": 6452,
      "Latakia": 6453,
      "Lachaise": 6454,
      "Nouvel": 6455,
      "Otages": 6456,
      "Phil": 6457,
      "couples": 6458,
      "digital": 6459,
      "fasc": 6460,
      "floors": 6461,
      "narrow": 6462,
      "pupils": 6463,
      "pictures": 6464,
      "ranking": 6465,
      "innocent": 6466,
      "education": 6467,
      "storage": 6468,
      "rocket": 6469,
      "deeply": 6470,
      "absence": 6471,
      "reserves": 6472,
      "computer": 6473,
      "opinion": 6474,
      "exclusive": 6475,
      "teachers": 6476,
      "sheriff": 6477,
      "solemn": 6478,
      "methods": 6479,
      "phenomen": 6480,
      "struggle": 6481,
      "Affairs": 6482,
      "involvement": 6483,
      "summons": 6484,
      "confidential": 6485,
      "briefly": 6486,
      "Technical": 6487,
      "acknowledges": 6488,
      "Bulgaria": 6489,
      "Tasmania": 6490,
      "anonymity": 6491,
      "whistleblower": 6492,
      "Born": 6493,
      "Bashar": 6494,
      "Clarke": 6495,
      "Heroes": 6496,
      "Journalists": 6497,
      "Laden": 6498,
      "Miller": 6499,
      "Nicolas": 6500,
      "Qassam": 6501,
      "Runy": 6502,
      "Specialist": 6503,
      "Wilkie": 6504,
      "bishops": 6505,
      "battle": 6506,
      "cameras": 6507,
      "fears": 6508,
      "hunting": 6509,
      "junction": 6510,
      "micro": 6511,
      "thinks": 6512,
      "inquiry": 6513,
      "incursion": 6514,
      "inhabitants": 6515,
      "inappropriately": 6516,
      "anxious": 6517,
      "referring": 6518,
      "tough": 6519,
      "arrangement": 6520,
      "irmishes": 6521,
      "deployed": 6522,
      "imullah": 6523,
      "tragedy": 6524,
      "neutral": 6525,
      "resumption": 6526,
      "ophical": 6527,
      "liquid": 6528,
      "prohibited": 6529,
      "shirt": 6530,
      "manipulation": 6531,
      "Independent": 6532,
      "mystery": 6533,
      "philosophical": 6534,
      "understood": 6535,
      "epidemic": 6536,
      "inclusion": 6537,
      "1976": 6538,
      "pleasure": 6539,
      "relatively": 6540,
      "subsequently": 6541,
      "Malaysia": 6542,
      "breaches": 6543,
      "restaurant": 6544,
      "voicemails": 6545,
      "Blackburn": 6546,
      "collaboration": 6547,
      "symbols": 6548,
      "infringement": 6549,
      "Silverado": 6550,
      "kidnapp": 6551,
      "chromosomes": 6552,
      "Japanese": 6553,
      "absolutely": 6554,
      "Arena": 6555,
      "Biometrics": 6556,
      "Birmingham": 6557,
      "Credit": 6558,
      "Caringbah": 6559,
      "DiCaprio": 6560,
      "Dutton": 6561,
      "Dhabi": 6562,
      "DDoS": 6563,
      "Dhlakama": 6564,
      "Education": 6565,
      "First": 6566,
      "Golden": 6567,
      "Hydro": 6568,
      "Henri": 6569,
      "Hakimullah": 6570,
      "Historically": 6571,
      "Hawkins": 6572,
      "Hyeres": 6573,
      "Kampala": 6574,
      "Ltd": 6575,
      "Pacific": 6576,
      "Phase": 6577,
      "Pennsylvan": 6578,
      "Qaeda": 6579,
      "Radio": 6580,
      "Released": 6581,
      "Revolution": 6582,
      "Sierra": 6583,
      "Toronto": 6584,
      "Tunks": 6585,
      "Vaussion": 6586,
      "Viol": 6587,
      "Virgin": 6588,
      "Vallortigara": 6589,
      "WikiLe": 6590,
      "Yeah": 6591,
      "Zoomlion": 6592,
      "Zealand": 6593,
      "copy": 6594,
      "fiscal": 6595,
      "fierce": 6596,
      "gadgets": 6597,
      "gression": 6598,
      "hidden": 6599,
      "jurisd": 6600,
      "luggage": 6601,
      "merely": 6602,
      "piano": 6603,
      "ranging": 6604,
      "satellite": 6605,
      "warehouses": 6606,
      "thwarted": 6607,
      "inaug": 6608,
      "inhumation": 6609,
      "restructuring": 6610,
      "enclave": 6611,
      "istol": 6612,
      "iculturalism": 6613,
      "seizures": 6614,
      "unprecedented": 6615,
      "weighed": 6616,
      "frustr": 6617,
      "endocrinologist": 6618,
      "austerity": 6619,
      "partnership": 6620,
      "Chanzu": 6621,
      "cannabis": 6622,
      "efficiency": 6623,
      "Ontario": 6624,
      "Committee": 6625,
      "Berlusconi": 6626,
      "Amirthalinga": 6627,
      "municipal": 6628,
      "Doerksen": 6629,
      "Aubervilliers": 6630,
      "symptoms": 6631,
      "Pennsylvania": 6632,
      "WikiLeaks": 6633,
      "!\"": 6634,
      "%).": 6635,
      "'\"": 6636,
      "',": 6637,
      "(-": 6638,
      ",'\"": 6639,
      ".'": 6640,
      ".)": 6641,
      "01": 6642,
      "04": 6643,
      "06": 6644,
      "0s": 6645,
      "150": 6646,
      "140": 6647,
      "330": 6648,
      "360": 6649,
      "41": 6650,
      "49": 6651,
      "400": 6652,
      "58": 6653,
      "61": 6654,
      "68": 6655,
      "71": 6656,
      "73": 6657,
      "82": 6658,
      "89": 6659,
      "836": 6660,
      "855": 6661,
      "9am": 6662,
      "Are": 6663,
      "Ald": 6664,
      "Ali": 6665,
      "Aman": 6666,
      "Agr": 6667,
      "Aud": 6668,
      "Atom": 6669,
      "Amid": 6670,
      "Avenue": 6671,
      "AAP": 6672,
      "A350": 6673,
      "BI": 6674,
      "Bis": 6675,
      "Bes": 6676,
      "Bou": 6677,
      "Bot": 6678,
      "Bet": 6679,
      "Boun": 6680,
      "Blo": 6681,
      "Bast": 6682,
      "Bel": 6683,
      "Bund": 6684,
      "Bog": 6685,
      "BSA": 6686,
      "Baby": 6687,
      "Bureau": 6688,
      "Bagh": 6689,
      "Blames": 6690,
      "CI": 6691,
      "CR": 6692,
      "Ca": 6693,
      "Cur": 6694,
      "Chas": 6695,
      "Cry": 6696,
      "Coc": 6697,
      "Citing": 6698,
      "Carm": 6699,
      "Carri": 6700,
      "CDC": 6701,
      "Croll": 6702,
      "Close": 6703,
      "CBSA": 6704,
      "DP": 6705,
      "DS": 6706,
      "Dy": 6707,
      "Dent": 6708,
      "Dol": 6709,
      "Dri": 6710,
      "Dif": 6711,
      "Dem": 6712,
      "Dame": 6713,
      "Dog": 6714,
      "Divers": 6715,
      "Dub": 6716,
      "Detro": 6717,
      "ET": 6718,
      "Et": 6719,
      "Est": 6720,
      "Ele": 6721,
      "Eve": 6722,
      "Econom": 6723,
      "Ecu": 6724,
      "Either": 6725,
      "FO": 6726,
      "FX": 6727,
      "Fi": 6728,
      "Fil": 6729,
      "Fay": 6730,
      "Fun": 6731,
      "Five": 6732,
      "Fair": 6733,
      "Father": 6734,
      "FCA": 6735,
      "Folk": 6736,
      "Fitz": 6737,
      "Fern": 6738,
      "FBI": 6739,
      "GO": 6740,
      "Gy": 6741,
      "GÃ": 6742,
      "Gat": 6743,
      "Ges": 6744,
      "Gill": 6745,
      "Gest": 6746,
      "Gard": 6747,
      "Gra": 6748,
      "Gains": 6749,
      "GCH": 6750,
      "Gamb": 6751,
      "Gendar": 6752,
      "GDP": 6753,
      "Ha": 6754,
      "Her": 6755,
      "Hit": 6756,
      "Hid": 6757,
      "Hir": 6758,
      "Ham": 6759,
      "Hill": 6760,
      "Hab": 6761,
      "Hack": 6762,
      "Hard": 6763,
      "Hass": 6764,
      "Hans": 6765,
      "Home": 6766,
      "Hud": 6767,
      "Husse": 6768,
      "Having": 6769,
      "IL": 6770,
      "Ip": 6771,
      "Ire": 6772,
      "Isa": 6773,
      "Ill": 6774,
      "Iran": 6775,
      "ICAC": 6776,
      "JP": 6777,
      "Jil": 6778,
      "Jac": 6779,
      "Jet": 6780,
      "Jul": 6781,
      "Jud": 6782,
      "Jian": 6783,
      "Jenn": 6784,
      "Kid": 6785,
      "Kig": 6786,
      "Kore": 6787,
      "Kier": 6788,
      "Kids": 6789,
      "Kroll": 6790,
      "Kills": 6791,
      "LA": 6792,
      "Lo": 6793,
      "Liv": 6794,
      "Lown": 6795,
      "Lef": 6796,
      "Lank": 6797,
      "Larri": 6798,
      "Lights": 6799,
      "Lombard": 6800,
      "Luck": 6801,
      "Lars": 6802,
      "Life": 6803,
      "Linge": 6804,
      "Lisi": 6805,
      "Labour": 6806,
      "MO": 6807,
      "Mit": 6808,
      "Mun": 6809,
      "Map": 6810,
      "Mile": 6811,
      "Mog": 6812,
      "Math": 6813,
      "Mort": 6814,
      "Miss": 6815,
      "Mitte": 6816,
      "Maur": 6817,
      "MDGs": 6818,
      "Nu": 6819,
      "NÃ": 6820,
      "Nat": 6821,
      "Nar": 6822,
      "Nation": 6823,
      "Near": 6824,
      "None": 6825,
      "Nich": 6826,
      "NUS": 6827,
      "Nathan": 6828,
      "NRF": 6829,
      "Oli": 6830,
      "Oreg": 6831,
      "Oise": 6832,
      "Open": 6833,
      "Pa": 6834,
      "Pl": 6835,
      "Ps": 6836,
      "Pic": 6837,
      "Pont": 6838,
      "Pris": 6839,
      "Pump": 6840,
      "Play": 6841,
      "Petro": 6842,
      "QC": 6843,
      "Rh": 6844,
      "Red": 6845,
      "Row": 6846,
      "Ram": 6847,
      "Rab": 6848,
      "Ret": 6849,
      "Rich": 6850,
      "Rum": 6851,
      "Rel": 6852,
      "Rally": 6853,
      "Reven": 6854,
      "Raid": 6855,
      "Rabies": 6856,
      "Roman": 6857,
      "Sw": 6858,
      "Sof": 6859,
      "Sar": 6860,
      "Spe": 6861,
      "Sha": 6862,
      "Sri": 6863,
      "Song": 6864,
      "Sax": 6865,
      "Solic": 6866,
      "Slate": 6867,
      "Sark": 6868,
      "Saudi": 6869,
      "Saints": 6870,
      "Southern": 6871,
      "Similar": 6872,
      "SDGs": 6873,
      "Tu": 6874,
      "Tro": 6875,
      "Tam": 6876,
      "Top": 6877,
      "Tour": 6878,
      "Tok": 6879,
      "Tinto": 6880,
      "Teen": 6881,
      "Tales": 6882,
      "Toul": 6883,
      "Tijuana": 6884,
      "Taking": 6885,
      "Ul": 6886,
      "Up": 6887,
      "Uz": 6888,
      "UMP": 6889,
      "Usher": 6890,
      "UFO": 6891,
      "Ver": 6892,
      "Vision": 6893,
      "VIM": 6894,
      "Wi": 6895,
      "Work": 6896,
      "Wales": 6897,
      "Water": 6898,
      "Wearing": 6899,
      "Yard": 6900,
      "Yong": 6901,
      "Yves": 6902,
      "Yang": 6903,
      "aart": 6904,
      "aised": 6905,
      "aerospace": 6906,
      "bb": 6907,
      "bat": 6908,
      "bom": 6909,
      "bly": 6910,
      "bally": 6911,
      "bond": 6912,
      "bloc": 6913,
      "bolic": 6914,
      "babies": 6915,
      "bird": 6916,
      "binding": 6917,
      "cers": 6918,
      "cence": 6919,
      "cance": 6920,
      "cold": 6921,
      "cade": 6922,
      "coup": 6923,
      "categ": 6924,
      "cancell": 6925,
      "caught": 6926,
      "culture": 6927,
      "din": 6928,
      "dat": 6929,
      "ded": 6930,
      "dic": 6931,
      "dad": 6932,
      "dim": 6933,
      "dated": 6934,
      "dip": 6935,
      "daring": 6936,
      "dney": 6937,
      "divid": 6938,
      "dible": 6939,
      "eu": 6940,
      "eth": 6941,
      "eat": 6942,
      "eil": 6943,
      "eld": 6944,
      "eper": 6945,
      "echo": 6946,
      "eased": 6947,
      "easing": 6948,
      "ecot": 6949,
      "fi": 6950,
      "fur": 6951,
      "fere": 6952,
      "ffe": 6953,
      "flow": 6954,
      "field": 6955,
      "ffled": 6956,
      "flix": 6957,
      "ga": 6958,
      "git": 6959,
      "gle": 6960,
      "gall": 6961,
      "gency": 6962,
      "gross": 6963,
      "gained": 6964,
      "glit": 6965,
      "gaining": 6966,
      "games": 6967,
      "green": 6968,
      "greet": 6969,
      "hes": 6970,
      "hom": 6971,
      "hur": 6972,
      "hri": 6973,
      "hits": 6974,
      "hance": 6975,
      "hide": 6976,
      "hors": 6977,
      "hollow": 6978,
      "hunt": 6979,
      "hiding": 6980,
      "ias": 6981,
      "iam": 6982,
      "ius": 6983,
      "iet": 6984,
      "ihad": 6985,
      "iations": 6986,
      "iques": 6987,
      "jac": 6988,
      "jury": 6989,
      "jumbo": 6990,
      "jihad": 6991,
      "ku": 6992,
      "ken": 6993,
      "kers": 6994,
      "kne": 6995,
      "kno": 6996,
      "kland": 6997,
      "lon": 6998,
      "lic": 6999,
      "lbe": 7000,
      "lation": 7001,
      "lers": 7002,
      "lated": 7003,
      "lary": 7004,
      "lting": 7005,
      "lists": 7006,
      "lago": 7007,
      "lending": 7008,
      "labor": 7009,
      "lenders": 7010,
      "map": 7011,
      "mall": 7012,
      "mend": 7013,
      "mits": 7014,
      "mud": 7015,
      "mals": 7016,
      "mouth": 7017,
      "na": 7018,
      "nil": 7019,
      "nac": 7020,
      "nice": 7021,
      "nurs": 7022,
      "nick": 7023,
      "nik": 7024,
      "ngit": 7025,
      "oing": 7026,
      "ode": 7027,
      "ores": 7028,
      "ovaries": 7029,
      "pi": 7030,
      "py": 7031,
      "pun": 7032,
      "pess": 7033,
      "pits": 7034,
      "pie": 7035,
      "pound": 7036,
      "penc": 7037,
      "pile": 7038,
      "pix": 7039,
      "ponents": 7040,
      "papers": 7041,
      "ru": 7042,
      "rit": 7043,
      "rand": 7044,
      "rir": 7045,
      "ries": 7046,
      "rack": 7047,
      "rard": 7048,
      "rup": 7049,
      "rage": 7050,
      "rings": 7051,
      "rally": 7052,
      "rics": 7053,
      "rink": 7054,
      "raged": 7055,
      "rhy": 7056,
      "sch": 7057,
      "sam": 7058,
      "sli": 7059,
      "spr": 7060,
      "sight": 7061,
      "sound": 7062,
      "scept": 7063,
      "sided": 7064,
      "slam": 7065,
      "somet": 7066,
      "soften": 7067,
      "sounds": 7068,
      "skept": 7069,
      "sizes": 7070,
      "ti": 7071,
      "tu": 7072,
      "tÃ": 7073,
      "tly": 7074,
      "tur": 7075,
      "till": 7076,
      "tte": 7077,
      "tie": 7078,
      "tree": 7079,
      "tile": 7080,
      "tland": 7081,
      "tty": 7082,
      "tort": 7083,
      "twel": 7084,
      "tawa": 7085,
      "uto": 7086,
      "uing": 7087,
      "uit": 7088,
      "uations": 7089,
      "uating": 7090,
      "uade": 7091,
      "ubi": 7092,
      "uku": 7093,
      "vy": 7094,
      "von": 7095,
      "vre": 7096,
      "vas": 7097,
      "vation": 7098,
      "vag": 7099,
      "vies": 7100,
      "vard": 7101,
      "vious": 7102,
      "vier": 7103,
      "vacy": 7104,
      "wan": 7105,
      "wes": 7106,
      "wire": 7107,
      "wary": 7108,
      "wind": 7109,
      "xel": 7110,
      "xual": 7111,
      "yp": 7112,
      "yen": 7113,
      "yal": 7114,
      "yard": 7115,
      "ynes": 7116,
      "zi": 7117,
      "zan": 7118,
      "zon": 7119,
      "zes": 7120,
      "zing": 7121,
      "zek": 7122,
      "zomb": 7123,
      "zhu": 7124,
      "zero": 7125,
      "©-": 7126,
      "Ãª": 7127,
      "thm": 7128,
      "thy": 7129,
      "thony": 7130,
      "thrown": 7131,
      "ino": 7132,
      "inous": 7133,
      "inated": 7134,
      "incar": 7135,
      "infer": 7136,
      "inating": 7137,
      "inals": 7138,
      "intellig": 7139,
      "intel": 7140,
      "inois": 7141,
      "inrich": 7142,
      "intens": 7143,
      "inery": 7144,
      "infected": 7145,
      "inctive": 7146,
      "inaccurate": 7147,
      "eren": 7148,
      "erle": 7149,
      "eries": 7150,
      "erta": 7151,
      "thest": 7152,
      "theory": 7153,
      "theft": 7154,
      "theories": 7155,
      "anat": 7156,
      "anch": 7157,
      "anno": 7158,
      "anks": 7159,
      "angen": 7160,
      "anmen": 7161,
      "aniel": 7162,
      "oni": 7163,
      "oned": 7164,
      "oning": 7165,
      "oness": 7166,
      "onso": 7167,
      "onard": 7168,
      "onian": 7169,
      "onset": 7170,
      "onounced": 7171,
      "rey": 7172,
      "rese": 7173,
      "rely": 7174,
      "react": 7175,
      "reass": 7176,
      "revers": 7177,
      "republic": 7178,
      "recess": 7179,
      "restart": 7180,
      "reward": 7181,
      "remove": 7182,
      "rediscover": 7183,
      "retail": 7184,
      "remun": 7185,
      "reorganisation": 7186,
      "reporters": 7187,
      "reclin": 7188,
      "remix": 7189,
      "reacted": 7190,
      "reactor": 7191,
      "reintroduced": 7192,
      "reverse": 7193,
      "renegoti": 7194,
      "revise": 7195,
      "enor": 7196,
      "enne": 7197,
      "ension": 7198,
      "enker": 7199,
      "enhance": 7200,
      "atre": 7201,
      "atives": 7202,
      "eds": 7203,
      "edly": 7204,
      "edition": 7205,
      "ora": 7206,
      "orth": 7207,
      "oral": 7208,
      "orce": 7209,
      "orial": 7210,
      "orous": 7211,
      "orient": 7212,
      "orney": 7213,
      "istr": 7214,
      "isure": 7215,
      "isition": 7216,
      "isms": 7217,
      "esto": 7218,
      "esity": 7219,
      "escor": 7220,
      "esca": 7221,
      "ald": 7222,
      "algo": 7223,
      "alition": 7224,
      "alarms": 7225,
      "topped": 7226,
      "toster": 7227,
      "todd": 7228,
      "tocrat": 7229,
      "asso": 7230,
      "assure": 7231,
      "astru": 7232,
      "aron": 7233,
      "arche": 7234,
      "arily": 7235,
      "oux": 7236,
      "itly": 7237,
      "itiv": 7238,
      "itary": 7239,
      "iture": 7240,
      "itude": 7241,
      "itively": 7242,
      "icent": 7243,
      "icha": 7244,
      "icant": 7245,
      "icles": 7246,
      "icaid": 7247,
      "iculture": 7248,
      "icitly": 7249,
      "ando": 7250,
      "andy": 7251,
      "andro": 7252,
      "heir": 7253,
      "hell": 7254,
      "height": 7255,
      "stad": 7256,
      "stro": 7257,
      "stig": 7258,
      "stag": 7259,
      "stable": 7260,
      "stra": 7261,
      "stays": 7262,
      "stling": 7263,
      "stakes": 7264,
      "steal": 7265,
      "streets": 7266,
      "steer": 7267,
      "lecture": 7268,
      "leisure": 7269,
      "oms": 7270,
      "omy": 7271,
      "entity": 7272,
      "iling": 7273,
      "ilation": 7274,
      "bek": 7275,
      "beke": 7276,
      "beating": 7277,
      "begins": 7278,
      "sey": 7279,
      "seal": 7280,
      "sect": 7281,
      "seating": 7282,
      "sectors": 7283,
      "seize": 7284,
      "acce": 7285,
      "acare": 7286,
      "acular": 7287,
      "accepted": 7288,
      "academ": 7289,
      "aconian": 7290,
      "vets": 7291,
      "adle": 7292,
      "adol": 7293,
      "adow": 7294,
      "advice": 7295,
      "adjac": 7296,
      "rob": 7297,
      "robot": 7298,
      "ropolitan": 7299,
      "rosoft": 7300,
      "fort": 7301,
      "forget": 7302,
      "cht": 7303,
      "chÃ": 7304,
      "chau": 7305,
      "chmark": 7306,
      "church": 7307,
      "champion": 7308,
      "ayton": 7309,
      "ola": 7310,
      "olson": 7311,
      "verting": 7312,
      "verification": 7313,
      "verdict": 7314,
      "iries": 7315,
      "uration": 7316,
      "urgent": 7317,
      "urlbe": 7318,
      "Theatre": 7319,
      "amids": 7320,
      "amacare": 7321,
      "dep": 7322,
      "deme": 7323,
      "debut": 7324,
      "delight": 7325,
      "deleg": 7326,
      "deposed": 7327,
      "detail": 7328,
      "determ": 7329,
      "devote": 7330,
      "depreci": 7331,
      "devaluation": 7332,
      "iger": 7333,
      "igan": 7334,
      "igue": 7335,
      "igations": 7336,
      "oting": 7337,
      "imi": 7338,
      "imum": 7339,
      "immen": 7340,
      "imony": 7341,
      "improved": 7342,
      "imprison": 7343,
      "impression": 7344,
      "immigration": 7345,
      "illust": 7346,
      "illings": 7347,
      "illiant": 7348,
      "illaume": 7349,
      "peers": 7350,
      "traff": 7351,
      "trained": 7352,
      "tribut": 7353,
      "tractors": 7354,
      "conce": 7355,
      "constr": 7356,
      "conced": 7357,
      "conform": 7358,
      "confin": 7359,
      "contrad": 7360,
      "convent": 7361,
      "contemporary": 7362,
      "agon": 7363,
      "agers": 7364,
      "agged": 7365,
      "agues": 7366,
      "aggress": 7367,
      "usal": 7368,
      "cts": 7369,
      "ctuary": 7370,
      "ctives": 7371,
      "nell": 7372,
      "neuro": 7373,
      "wast": 7374,
      "waste": 7375,
      "abse": 7376,
      "abused": 7377,
      "absor": 7378,
      "abilities": 7379,
      "unal": 7380,
      "unts": 7381,
      "unities": 7382,
      "unbeliev": 7383,
      "unpublished": 7384,
      "unchanged": 7385,
      "unket": 7386,
      "unpopular": 7387,
      "undetermined": 7388,
      "unconstitutional": 7389,
      "unspecified": 7390,
      "unhurt": 7391,
      "uniform": 7392,
      "resort": 7393,
      "respected": 7394,
      "resulted": 7395,
      "resume": 7396,
      "utes": 7397,
      "eret": 7398,
      "haunted": 7399,
      "composition": 7400,
      "opÃ": 7401,
      "oped": 7402,
      "opponents": 7403,
      "ulate": 7404,
      "sake": 7405,
      "liers": 7406,
      "liked": 7407,
      "excess": 7408,
      "exports": 7409,
      "expression": 7410,
      "exactly": 7411,
      "frag": 7412,
      "plent": 7413,
      "plot": 7414,
      "plant": 7415,
      "plates": 7416,
      "plaint": 7417,
      "prow": 7418,
      "probe": 7419,
      "projected": 7420,
      "protesting": 7421,
      "progression": 7422,
      "sued": 7423,
      "subl": 7424,
      "mole": 7425,
      "moir": 7426,
      "modif": 7427,
      "moves": 7428,
      "movies": 7429,
      "tea": 7430,
      "teur": 7431,
      "teau": 7432,
      "tels": 7433,
      "ounce": 7434,
      "ainian": 7435,
      "ainting": 7436,
      "outbreak": 7437,
      "outperform": 7438,
      "outimi": 7439,
      "estone": 7440,
      "apa": 7441,
      "aped": 7442,
      "apper": 7443,
      "apology": 7444,
      "iests": 7445,
      "ategy": 7446,
      "ateboard": 7447,
      "earth": 7448,
      "earch": 7449,
      "rie": 7450,
      "rian": 7451,
      "rifle": 7452,
      "riff": 7453,
      "aller": 7454,
      "notices": 7455,
      "notified": 7456,
      "notably": 7457,
      "loo": 7458,
      "loan": 7459,
      "lore": 7460,
      "lovers": 7461,
      "loose": 7462,
      "loves": 7463,
      "loyal": 7464,
      "shame": 7465,
      "shots": 7466,
      "shrink": 7467,
      "shadow": 7468,
      "shillings": 7469,
      "ifying": 7470,
      "empt": 7471,
      "overall": 7472,
      "overcome": 7473,
      "overturn": 7474,
      "overhauled": 7475,
      "sos": 7476,
      "pock": 7477,
      "poison": 7478,
      "mant": 7479,
      "managed": 7480,
      "endations": 7481,
      "endanger": 7482,
      "quant": 7483,
      "quiet": 7484,
      "aux": 7485,
      "aude": 7486,
      "autom": 7487,
      "autop": 7488,
      "geome": 7489,
      "portra": 7490,
      "perhaps": 7491,
      "perverting": 7492,
      "aft": 7493,
      "afford": 7494,
      "feared": 7495,
      "feature": 7496,
      "fevre": 7497,
      "istÃ": 7498,
      "istair": 7499,
      "upgr": 7500,
      "mered": 7501,
      "merce": 7502,
      "merie": 7503,
      "Informer": 7504,
      "Instead": 7505,
      "ghes": 7506,
      "melting": 7507,
      "memoir": 7508,
      "actual": 7509,
      "actress": 7510,
      "clash": 7511,
      "worse": 7512,
      "icals": 7513,
      "offs": 7514,
      "offend": 7515,
      "offset": 7516,
      "prime": 7517,
      "prises": 7518,
      "praised": 7519,
      "pronounced": 7520,
      "priests": 7521,
      "rence": 7522,
      "rensen": 7523,
      "ThÃ": 7524,
      "Though": 7525,
      "Three": 7526,
      "Things": 7527,
      "Thier": 7528,
      "Thales": 7529,
      "Third": 7530,
      "Thurlbe": 7531,
      "assment": 7532,
      "grab": 7533,
      "grace": 7534,
      "ongoing": 7535,
      "ieux": 7536,
      "uel": 7537,
      "ometers": 7538,
      "boot": 7539,
      "boast": 7540,
      "boss": 7541,
      "newly": 7542,
      "newbor": 7543,
      "bling": 7544,
      "crete": 7545,
      "cremated": 7546,
      "owns": 7547,
      "Frances": 7548,
      "keen": 7549,
      "awi": 7550,
      "awak": 7551,
      "award": 7552,
      "accord": 7553,
      "accuse": 7554,
      "portion": 7555,
      "portable": 7556,
      "spied": 7557,
      "spouses": 7558,
      "spaniel": 7559,
      "eves": 7560,
      "evas": 7561,
      "evil": 7562,
      "evac": 7563,
      "medicine": 7564,
      "servers": 7565,
      "monarch": 7566,
      "monito": 7567,
      "crum": 7568,
      "crash": 7569,
      "craz": 7570,
      "cradle": 7571,
      "disks": 7572,
      "dissent": 7573,
      "discord": 7574,
      "discharge": 7575,
      "disadvantage": 7576,
      "discontent": 7577,
      "polling": 7578,
      "timel": 7579,
      "inee": 7580,
      "ineers": 7581,
      "ineau": 7582,
      "inephr": 7583,
      "airplane": 7584,
      "airbase": 7585,
      "airlif": 7586,
      "cooperating": 7587,
      "cooperate": 7588,
      "nowhere": 7589,
      "urely": 7590,
      "ela": 7591,
      "elite": 7592,
      "raid": 7593,
      "myths": 7594,
      "Change": 7595,
      "internet": 7596,
      "interns": 7597,
      "interior": 7598,
      "interfere": 7599,
      "phan": 7600,
      "center": 7601,
      "centure": 7602,
      "ideas": 7603,
      "premis": 7604,
      "prepar": 7605,
      "precoc": 7606,
      "prepaid": 7607,
      "prefects": 7608,
      "precaution": 7609,
      "predic": 7610,
      "pretty": 7611,
      "ishing": 7612,
      "firing": 7613,
      "otherwise": 7614,
      "ignore": 7615,
      "containing": 7616,
      "oded": 7617,
      "odes": 7618,
      "carving": 7619,
      "carbon": 7620,
      "cartels": 7621,
      "forex": 7622,
      "positive": 7623,
      "Heinrich": 7624,
      "gov": 7625,
      "goes": 7626,
      "strangen": 7627,
      "strategy": 7628,
      "Ann": 7629,
      "Anim": 7630,
      "Anten": 7631,
      "Anger": 7632,
      "Anwar": 7633,
      "Anti": 7634,
      "Anthony": 7635,
      "ippe": 7636,
      "oked": 7637,
      "okes": 7638,
      "oking": 7639,
      "sheep": 7640,
      "comply": 7641,
      "comparing": 7642,
      "surviv": 7643,
      "surrender": 7644,
      "brough": 7645,
      "bridge": 7646,
      "brilliant": 7647,
      "Staff": 7648,
      "tape": 7649,
      "anywhere": 7650,
      "anything": 7651,
      "cker": 7652,
      "invites": 7653,
      "illionaire": 7654,
      "marvell": 7655,
      "Unit": 7656,
      "Unpublished": 7657,
      "Unknown": 7658,
      "minster": 7659,
      "minute": 7660,
      "eping": 7661,
      "epinephr": 7662,
      "fering": 7663,
      "ptly": 7664,
      "EuroFirst": 7665,
      "efficient": 7666,
      "backwards": 7667,
      "background": 7668,
      "lands": 7669,
      "landed": 7670,
      "Weather": 7671,
      "counts": 7672,
      "council": 7673,
      "hole": 7674,
      "hosts": 7675,
      "mostly": 7676,
      "Bristol": 7677,
      "engined": 7678,
      "engulfed": 7679,
      "atting": 7680,
      "attorney": 7681,
      "provides": 7682,
      "elev": 7683,
      "electoral": 7684,
      "formula": 7685,
      "regions": 7686,
      "regime": 7687,
      "misled": 7688,
      "missing": 7689,
      "choices": 7690,
      "chosen": 7691,
      "buying": 7692,
      "buys": 7693,
      "bugged": 7694,
      "downstream": 7695,
      "drum": 7696,
      "drama": 7697,
      "draconian": 7698,
      "dragged": 7699,
      "draped": 7700,
      "flush": 7701,
      "flames": 7702,
      "justed": 7703,
      "justification": 7704,
      "USB": 7705,
      "syll": 7706,
      "undertake": 7707,
      "undertaken": 7708,
      "undertaking": 7709,
      "underlying": 7710,
      "financ": 7711,
      "finished": 7712,
      "finances": 7713,
      "tenance": 7714,
      "deciding": 7715,
      "fulfilling": 7716,
      "takers": 7717,
      "appearing": 7718,
      "Germain": 7719,
      "2000": 7720,
      "busy": 7721,
      "scared": 7722,
      "Where": 7723,
      "desc": 7724,
      "desire": 7725,
      "deserve": 7726,
      "despair": 7727,
      "guest": 7728,
      "speculation": 7729,
      "specify": 7730,
      "calling": 7731,
      "persons": 7732,
      "personally": 7733,
      "visa": 7734,
      "visas": 7735,
      "visual": 7736,
      "visibility": 7737,
      "jection": 7738,
      "jewell": 7739,
      "stoke": 7740,
      "stowed": 7741,
      "headphones": 7742,
      "statements": 7743,
      "monthly": 7744,
      "SAP": 7745,
      "planet": 7746,
      "planemak": 7747,
      "clothes": 7748,
      "osexual": 7749,
      "archite": 7750,
      "archives": 7751,
      "archipe": 7752,
      "genitals": 7753,
      "obesity": 7754,
      "tingling": 7755,
      "icking": 7756,
      "sibility": 7757,
      "chel": 7758,
      "charger": 7759,
      "Online": 7760,
      "cuses": 7761,
      "19th": 7762,
      "1950": 7763,
      "1945": 7764,
      "1980": 7765,
      "1966": 7766,
      "lasted": 7767,
      "lasting": 7768,
      "matised": 7769,
      "matically": 7770,
      "matches": 7771,
      "material": 7772,
      "Andy": 7773,
      "Anderle": 7774,
      "Obviously": 7775,
      "Obamacare": 7776,
      "plea": 7777,
      "plete": 7778,
      "please": 7779,
      "relates": 7780,
      "reluct": 7781,
      "founded": 7782,
      "helle": 7783,
      "consensus": 7784,
      "worldwide": 7785,
      "Dec": 7786,
      "Dead": 7787,
      "Death": 7788,
      "Howell": 7789,
      "Scient": 7790,
      "rald": 7791,
      "sexually": 7792,
      "amazing": 7793,
      "transmit": 7794,
      "transformation": 7795,
      "transgender": 7796,
      "transmitted": 7797,
      "translated": 7798,
      "ifications": 7799,
      "everyday": 7800,
      "ministry": 7801,
      "Coming": 7802,
      "Commerce": 7803,
      "Complete": 7804,
      "fired": 7805,
      "venience": 7806,
      "lesser": 7807,
      "exploring": 7808,
      "exploded": 7809,
      "Reich": 7810,
      "Reason": 7811,
      "knowledge": 7812,
      "rister": 7813,
      "cute": 7814,
      "coverage": 7815,
      "drives": 7816,
      "park": 7817,
      "parked": 7818,
      "parano": 7819,
      "talented": 7820,
      "warplanes": 7821,
      "warming": 7822,
      "requests": 7823,
      "000km2": 7824,
      "Almost": 7825,
      "Already": 7826,
      "Although": 7827,
      "Albert": 7828,
      "Alistair": 7829,
      "osity": 7830,
      "prize": 7831,
      "producers": 7832,
      "supporter": 7833,
      "10th": 7834,
      "diverted": 7835,
      "vio": 7836,
      "believer": 7837,
      "severe": 7838,
      "opera": 7839,
      "operators": 7840,
      "operator": 7841,
      "tarily": 7842,
      "allows": 7843,
      "views": 7844,
      "viewing": 7845,
      "Attor": 7846,
      "Airshow": 7847,
      "Airline": 7848,
      "Airways": 7849,
      "Aircraf": 7850,
      "organized": 7851,
      "organize": 7852,
      "authority": 7853,
      "authorisations": 7854,
      "perior": 7855,
      "Lead": 7856,
      "Leonard": 7857,
      "Lefevre": 7858,
      "Second": 7859,
      "aiming": 7860,
      "tons": 7861,
      "tains": 7862,
      "taining": 7863,
      "Assa": 7864,
      "Asked": 7865,
      "Asda": 7866,
      "Normand": 7867,
      "Northern": 7868,
      "mainly": 7869,
      "maintenance": 7870,
      "color": 7871,
      "careful": 7872,
      "captain": 7873,
      "capabilities": 7874,
      "holder": 7875,
      "smuggling": 7876,
      "smiling": 7877,
      "increases": 7878,
      "incredible": 7879,
      "submitted": 7880,
      "taxing": 7881,
      "developing": 7882,
      "developments": 7883,
      "Academ": 7884,
      "Accenture": 7885,
      "Accuses": 7886,
      "factors": 7887,
      "soldier": 7888,
      "testes": 7889,
      "testimony": 7890,
      "Scots": 7891,
      "Scotia": 7892,
      "Cost": 7893,
      "Coast": 7894,
      "Cooper": 7895,
      "Coalition": 7896,
      "moral": 7897,
      "muscle": 7898,
      "nedy": 7899,
      "sitting": 7900,
      "situations": 7901,
      "concerning": 7902,
      "presidents": 7903,
      "prevents": 7904,
      "Sydney": 7905,
      "reality": 7906,
      "realised": 7907,
      "medically": 7908,
      "struck": 7909,
      "investigated": 7910,
      "investigators": 7911,
      "investigator": 7912,
      "marketplace": 7913,
      "Paluku": 7914,
      "menarche": 7915,
      "senault": 7916,
      "sensual": 7917,
      "yourself": 7918,
      "aristocrat": 7919,
      "seconds": 7920,
      "Presidential": 7921,
      "bias": 7922,
      "economist": 7923,
      "milestone": 7924,
      "spoke": 7925,
      "writer": 7926,
      "studying": 7927,
      "studios": 7928,
      "legends": 7929,
      "builders": 7930,
      "Extra": 7931,
      "Except": 7932,
      "gesture": 7933,
      "northeast": 7934,
      "inism": 7935,
      "onesia": 7936,
      "Malko": 7937,
      "breath": 7938,
      "brewing": 7939,
      "corn": 7940,
      "popes": 7941,
      "seatbacks": 7942,
      "iminal": 7943,
      "extreme": 7944,
      "Intersex": 7945,
      "Interior": 7946,
      "goods": 7947,
      "goodbye": 7948,
      "Arsenault": 7949,
      "Bell": 7950,
      "signing": 7951,
      "standing": 7952,
      "ologists": 7953,
      "promin": 7954,
      "promot": 7955,
      "prompted": 7956,
      "promptly": 7957,
      "Trust": 7958,
      "Trude": 7959,
      "donated": 7960,
      "sentences": 7961,
      "solve": 7962,
      "confirmation": 7963,
      "society": 7964,
      "pointing": 7965,
      "mediators": 7966,
      "membership": 7967,
      "continuation": 7968,
      "continuity": 7969,
      "Baroness": 7970,
      "End": 7971,
      "gotten": 7972,
      "wheel": 7973,
      "refuse": 7974,
      "refusing": 7975,
      "refuses": 7976,
      "reflected": 7977,
      "refusal": 7978,
      "reaching": 7979,
      "playing": 7980,
      "telephones": 7981,
      "shareholders": 7982,
      "claiming": 7983,
      "ministries": 7984,
      "violated": 7985,
      "brother": 7986,
      "brooke": 7987,
      "greatest": 7988,
      "laments": 7989,
      "defended": 7990,
      "declar": 7991,
      "declare": 7992,
      "declined": 7993,
      "frontier": 7994,
      "bedside": 7995,
      "bigger": 7996,
      "listing": 7997,
      "angers": 7998,
      "onyi": 7999,
      "armband": 8000,
      "petrol": 8001,
      "nevertheless": 8002,
      "programmes": 8003,
      "shortage": 8004,
      "antibody": 8005,
      "traveling": 8006,
      "travelers": 8007,
      "30am": 8008,
      "judic": 8009,
      "arrive": 8010,
      "queuing": 8011,
      "Laun": 8012,
      "drove": 8013,
      "facts": 8014,
      "metropolitan": 8015,
      "staying": 8016,
      "letting": 8017,
      "ometres": 8018,
      "examination": 8019,
      "ships": 8020,
      "shipment": 8021,
      "appealed": 8022,
      "customary": 8023,
      "recognized": 8024,
      "Shop": 8025,
      "Should": 8026,
      "voluntary": 8027,
      "dealt": 8028,
      "succeed": 8029,
      "summar": 8030,
      "teams": 8031,
      "practical": 8032,
      "practically": 8033,
      "accessible": 8034,
      "financially": 8035,
      "Conference": 8036,
      "Serious": 8037,
      "Seriously": 8038,
      "lotte": 8039,
      "purposes": 8040,
      "remaining": 8041,
      "remainder": 8042,
      "techniques": 8043,
      "costing": 8044,
      "militants": 8045,
      "employee": 8046,
      "differently": 8047,
      "1850": 8048,
      "Shell": 8049,
      "Shetland": 8050,
      "impover": 8051,
      "lively": 8052,
      "expiry": 8053,
      "60s": 8054,
      "Poland": 8055,
      "Political": 8056,
      "Politicians": 8057,
      "Polynes": 8058,
      "burial": 8059,
      "cyber": 8060,
      "equival": 8061,
      "equality": 8062,
      "representation": 8063,
      "stepped": 8064,
      "chester": 8065,
      "contracts": 8066,
      "contraception": 8067,
      "classification": 8068,
      "Commissioner": 8069,
      "leadership": 8070,
      "Canadien": 8071,
      "Abou": 8072,
      "About": 8073,
      "DCNS": 8074,
      "Microsoft": 8075,
      "bars": 8076,
      "limits": 8077,
      "sixth": 8078,
      "instances": 8079,
      "instability": 8080,
      "associations": 8081,
      "stars": 8082,
      "demands": 8083,
      "demanding": 8084,
      "uptick": 8085,
      "grandson": 8086,
      "commitment": 8087,
      "commitments": 8088,
      "implementing": 8089,
      "implementation": 8090,
      "Club": 8091,
      "Clayton": 8092,
      "Clapper": 8093,
      "Glading": 8094,
      "Soon": 8095,
      "Sorensen": 8096,
      "Works": 8097,
      "tablet": 8098,
      "initi": 8099,
      "reduction": 8100,
      "restrict": 8101,
      "restraint": 8102,
      "competitors": 8103,
      "competitiv": 8104,
      "supplied": 8105,
      "suppliers": 8106,
      "discuss": 8107,
      "discussing": 8108,
      "productivity": 8109,
      "colleagues": 8110,
      "communicate": 8111,
      "Liby": 8112,
      "Research": 8113,
      "Trier": 8114,
      "dolphin": 8115,
      "distant": 8116,
      "distinctive": 8117,
      "hards": 8118,
      "hardly": 8119,
      "nonprofit": 8120,
      "silence": 8121,
      "striking": 8122,
      "commonly": 8123,
      "aircrafts": 8124,
      "railway": 8125,
      "interviewed": 8126,
      "indication": 8127,
      "indicate": 8128,
      "indicating": 8129,
      "responded": 8130,
      "1789": 8131,
      "Ambassador": 8132,
      "Cornell": 8133,
      "Kennedy": 8134,
      "Poor": 8135,
      "Sunshine": 8136,
      "blog": 8137,
      "blocked": 8138,
      "joined": 8139,
      "jostling": 8140,
      "munitions": 8141,
      "title": 8142,
      "viral": 8143,
      "attempts": 8144,
      "graph": 8145,
      "graphic": 8146,
      "Charlotte": 8147,
      "stronger": 8148,
      "strongly": 8149,
      "1991": 8150,
      "1998": 8151,
      "1990s": 8152,
      "watching": 8153,
      "footsteps": 8154,
      "judgement": 8155,
      "21st": 8156,
      "Finma": 8157,
      "FinistÃ": 8158,
      "Guang": 8159,
      "Guillaume": 8160,
      "Notre": 8161,
      "botched": 8162,
      "destined": 8163,
      "flex": 8164,
      "lantern": 8165,
      "penis": 8166,
      "pension": 8167,
      "pennil": 8168,
      "phase": 8169,
      "phases": 8170,
      "walked": 8171,
      "walker": 8172,
      "repainting": 8173,
      "cellphone": 8174,
      "cellphones": 8175,
      "delivery": 8176,
      "comedians": 8177,
      "accidental": 8178,
      "speaks": 8179,
      "surprising": 8180,
      "buyers": 8181,
      "generosity": 8182,
      "breaking": 8183,
      "Michaud": 8184,
      "Blunket": 8185,
      "Cambridge": 8186,
      "Westminster": 8187,
      "nuclear": 8188,
      "smoke": 8189,
      "smokers": 8190,
      "treaty": 8191,
      "winning": 8192,
      "instructed": 8193,
      "enjoys": 8194,
      "enjoyed": 8195,
      "enjoying": 8196,
      "enjoyable": 8197,
      "defined": 8198,
      "definitively": 8199,
      "abandons": 8200,
      "qualify": 8201,
      "contacted": 8202,
      "avoided": 8203,
      "certainly": 8204,
      "certainty": 8205,
      "expects": 8206,
      "expecting": 8207,
      "northwest": 8208,
      "considering": 8209,
      "participants": 8210,
      "demonstrated": 8211,
      "demonstrations": 8212,
      "demonstrators": 8213,
      "143": 8214,
      "Assist": 8215,
      "Brothers": 8216,
      "Brooks": 8217,
      "CGR": 8218,
      "Crossley": 8219,
      "Stephen": 8220,
      "birthday": 8221,
      "birthplace": 8222,
      "damages": 8223,
      "filled": 8224,
      "focused": 8225,
      "gathering": 8226,
      "layout": 8227,
      "layouts": 8228,
      "millenn": 8229,
      "threats": 8230,
      "assaults": 8231,
      "rooms": 8232,
      "constitutes": 8233,
      "probes": 8234,
      "specially": 8235,
      "launching": 8236,
      "Palestinians": 8237,
      "particularly": 8238,
      "motorists": 8239,
      "motorcade": 8240,
      "Defender": 8241,
      "Human": 8242,
      "Huerta": 8243,
      "Hughes": 8244,
      "Obeids": 8245,
      "Robin": 8246,
      "Spying": 8247,
      "cables": 8248,
      "diehards": 8249,
      "oiselle": 8250,
      "sorted": 8251,
      "sorry": 8252,
      "uxe": 8253,
      "wider": 8254,
      "inflation": 8255,
      "reassure": 8256,
      "reassured": 8257,
      "totaling": 8258,
      "advisory": 8259,
      "combat": 8260,
      "commissioned": 8261,
      "liberals": 8262,
      "excuse": 8263,
      "exhausting": 8264,
      "exhaustion": 8265,
      "mobiles": 8266,
      "logging": 8267,
      "automatic": 8268,
      "automatically": 8269,
      "Christian": 8270,
      "checked": 8271,
      "consultation": 8272,
      "diplomats": 8273,
      "traditionally": 8274,
      "foods": 8275,
      "questioned": 8276,
      "questioning": 8277,
      "candidacy": 8278,
      "relationships": 8279,
      "abandoning": 8280,
      "Alexei": 8281,
      "Justice": 8282,
      "Neo": 8283,
      "Neil": 8284,
      "Noury": 8285,
      "Scarbrough": 8286,
      "bribes": 8287,
      "calm": 8288,
      "calcul": 8289,
      "darkness": 8290,
      "fingers": 8291,
      "gunman": 8292,
      "hitting": 8293,
      "hammered": 8294,
      "slowly": 8295,
      "trot": 8296,
      "analyse": 8297,
      "leaks": 8298,
      "belonged": 8299,
      "acquire": 8300,
      "adoration": 8301,
      "supervision": 8302,
      "supervised": 8303,
      "teenager": 8304,
      "emotional": 8305,
      "Indonesia": 8306,
      "assigned": 8307,
      "assigning": 8308,
      "eventually": 8309,
      "addresses": 8310,
      "symbolic": 8311,
      "obtaining": 8312,
      "consisting": 8313,
      "smartphone": 8314,
      "humans": 8315,
      "dominate": 8316,
      "voluntarily": 8317,
      "delivering": 8318,
      "365": 8319,
      "80km": 8320,
      "Hoeil": 8321,
      "Jews": 8322,
      "Medical": 8323,
      "Medicaid": 8324,
      "Music": 8325,
      "Musicals": 8326,
      "PCs": 8327,
      "Suzan": 8328,
      "Superior": 8329,
      "broader": 8330,
      "citation": 8331,
      "honest": 8332,
      "lumines": 8333,
      "mixing": 8334,
      "richer": 8335,
      "tendency": 8336,
      "infring": 8337,
      "infrastru": 8338,
      "revolt": 8339,
      "sellers": 8340,
      "chairperson": 8341,
      "detectives": 8342,
      "igroup": 8343,
      "connection": 8344,
      "consume": 8345,
      "weakness": 8346,
      "extraordinary": 8347,
      "exception": 8348,
      "exceptional": 8349,
      "emphasis": 8350,
      "emphasised": 8351,
      "emphasises": 8352,
      "rently": 8353,
      "monitoring": 8354,
      "criticized": 8355,
      "occupation": 8356,
      "occupier": 8357,
      "scientific": 8358,
      "purchased": 8359,
      "documentation": 8360,
      "Disneyland": 8361,
      "challenges": 8362,
      "establishment": 8363,
      "establishments": 8364,
      "psychological": 8365,
      "Crump": 8366,
      "Criminal": 8367,
      "County": 8368,
      "Oscar": 8369,
      "Osama": 8370,
      "Oscars": 8371,
      "Privacy": 8372,
      "Rwandan": 8373,
      "Texan": 8374,
      "dancing": 8375,
      "fifty": 8376,
      "palm": 8377,
      "salary": 8378,
      "salaries": 8379,
      "sleeves": 8380,
      "statistics": 8381,
      "lectual": 8382,
      "beauty": 8383,
      "convince": 8384,
      "constant": 8385,
      "apartments": 8386,
      "allergic": 8387,
      "answered": 8388,
      "boxes": 8389,
      "spreading": 8390,
      "evolving": 8391,
      "disputes": 8392,
      "minority": 8393,
      "counterpart": 8394,
      "Brigades": 8395,
      "regarding": 8396,
      "dramatically": 8397,
      "occasions": 8398,
      "schemes": 8399,
      "objective": 8400,
      "suburban": 8401,
      "pharmacist": 8402,
      "volunteer": 8403,
      "Ukrainian": 8404,
      "Bendeme": 8405,
      "CitÃ": 8406,
      "Citigroup": 8407,
      "Capital": 8408,
      "Embassy": 8409,
      "Katy": 8410,
      "Lawrence": 8411,
      "Netflix": 8412,
      "Perhaps": 8413,
      "Road": 8414,
      "Silvio": 8415,
      "Supporters": 8416,
      "crowds": 8417,
      "duties": 8418,
      "kilometers": 8419,
      "kilometres": 8420,
      "mutual": 8421,
      "mutineers": 8422,
      "mistake": 8423,
      "multiculturalism": 8424,
      "ridic": 8425,
      "skaters": 8426,
      "skirmishes": 8427,
      "swapping": 8428,
      "sweets": 8429,
      "sweeping": 8430,
      "squad": 8431,
      "indeed": 8432,
      "repeat": 8433,
      "refined": 8434,
      "argument": 8435,
      "hearings": 8436,
      "stresses": 8437,
      "omaniac": 8438,
      "secured": 8439,
      "wealthy": 8440,
      "opportunities": 8441,
      "proposing": 8442,
      "application": 8443,
      "applicant": 8444,
      "losses": 8445,
      "features": 8446,
      "clubs": 8447,
      "asserts": 8448,
      "crews": 8449,
      "crucial": 8450,
      "novels": 8451,
      "forecasting": 8452,
      "strategic": 8453,
      "typical": 8454,
      "achieve": 8455,
      "achieved": 8456,
      "provinces": 8457,
      "provider": 8458,
      "conditional": 8459,
      "learnt": 8460,
      "Beaudet": 8461,
      "suspects": 8462,
      "Organised": 8463,
      "Organization": 8464,
      "witnesses": 8465,
      "contributing": 8466,
      "historian": 8467,
      "limitations": 8468,
      "bloodiest": 8469,
      "radioactive": 8470,
      "influenced": 8471,
      "cigarettes": 8472,
      "integrating": 8473,
      "strength": 8474,
      "964": 8475,
      "Greece": 8476,
      "Immigration": 8477,
      "Letta": 8478,
      "Military": 8479,
      "Maryland": 8480,
      "Ottawa": 8481,
      "PSG": 8482,
      "Previous": 8483,
      "Previously": 8484,
      "Quay": 8485,
      "bonne": 8486,
      "bastion": 8487,
      "cotics": 8488,
      "crossed": 8489,
      "digit": 8490,
      "dangerous": 8491,
      "humour": 8492,
      "laptop": 8493,
      "lacks": 8494,
      "lucky": 8495,
      "mnopÃ": 8496,
      "narcotics": 8497,
      "nomin": 8498,
      "nominee": 8499,
      "puppy": 8500,
      "picture": 8501,
      "tipped": 8502,
      "wagging": 8503,
      "yramids": 8504,
      "innovation": 8505,
      "replaced": 8506,
      "replacing": 8507,
      "educational": 8508,
      "assures": 8509,
      "assured": 8510,
      "storm": 8511,
      "steady": 8512,
      "conversation": 8513,
      "conversations": 8514,
      "universal": 8515,
      "universality": 8516,
      "computers": 8517,
      "opinions": 8518,
      "exclusively": 8519,
      "pledge": 8520,
      "teaching": 8521,
      "mannerisms": 8522,
      "Franklin": 8523,
      "pregnant": 8524,
      "pregnancy": 8525,
      "spectators": 8526,
      "struggled": 8527,
      "explosive": 8528,
      "explosions": 8529,
      "corrective": 8530,
      "Arabic": 8531,
      "adventures": 8532,
      "advocates": 8533,
      "distribution": 8534,
      "Classical": 8535,
      "collectively": 8536,
      "Socialist": 8537,
      "suggesting": 8538,
      "suggestion": 8539,
      "Motorola": 8540,
      "revolutionary": 8541,
      "Technology": 8542,
      "beautifully": 8543,
      "Carolines": 8544,
      "acknowledged": 8545,
      "Bulgarian": 8546,
      "Tasmanian": 8547,
      "anonymous": 8548,
      "accommodation": 8549,
      "accommodations": 8550,
      "Apple": 8551,
      "Baywatch": 8552,
      "Buried": 8553,
      "CCTV": 8554,
      "COVIM": 8555,
      "Cardiff": 8556,
      "Cardinals": 8557,
      "Chairperson": 8558,
      "Danse": 8559,
      "Daniel": 8560,
      "Fox": 8561,
      "Lyrique": 8562,
      "Mattis": 8563,
      "Opposition": 8564,
      "Pamela": 8565,
      "Skateboard": 8566,
      "Small": 8567,
      "Sheriff": 8568,
      "Sherbrooke": 8569,
      "Shooting": 8570,
      "Television": 8571,
      "Wildlife": 8572,
      "cafeter": 8573,
      "fatal": 8574,
      "fares": 8575,
      "fuel": 8576,
      "fuelled": 8577,
      "giants": 8578,
      "mphomaniac": 8579,
      "mortg": 8580,
      "scores": 8581,
      "skills": 8582,
      "skillfully": 8583,
      "testoster": 8584,
      "varying": 8585,
      "rejects": 8586,
      "relaxed": 8587,
      "adapt": 8588,
      "administrative": 8589,
      "administrator": 8590,
      "ambulances": 8591,
      "detention": 8592,
      "tribunal": 8593,
      "consequence": 8594,
      "consequences": 8595,
      "competing": 8596,
      "prosecutor": 8597,
      "loads": 8598,
      "quette": 8599,
      "updating": 8600,
      "Invest": 8601,
      "assurance": 8602,
      "assurances": 8603,
      "intervene": 8604,
      "intervened": 8605,
      "marginally": 8606,
      "attached": 8607,
      "guitar": 8608,
      "guitars": 8609,
      "Region": 8610,
      "maintained": 8611,
      "morphology": 8612,
      "legislat": 8613,
      "legislation": 8614,
      "correspondent": 8615,
      "suspicious": 8616,
      "bankruptcy": 8617,
      "kitchen": 8618,
      "kitchens": 8619,
      "massacre": 8620,
      "massacres": 8621,
      "Chevron": 8622,
      "broadcasting": 8623,
      "honouring": 8624,
      "sleeps": 8625,
      "GCSEs": 8626,
      "satisf": 8627,
      "analyses": 8628,
      "choreographic": 8629,
      "pediatrician": 8630,
      "130mph": 8631,
      "ASCOVIM": 8632,
      "Appe": 8633,
      "Buis": 8634,
      "Bataller": 8635,
      "Callie": 8636,
      "Circular": 8637,
      "Closes": 8638,
      "Claim": 8639,
      "Cyrille": 8640,
      "Director": 8641,
      "Evacuated": 8642,
      "Girls": 8643,
      "Homosexual": 8644,
      "Kramer": 8645,
      "Kirkland": 8646,
      "Kamau": 8647,
      "Laurent": 8648,
      "Muy": 8649,
      "Mission": 8650,
      "Nymphomaniac": 8651,
      "Pasteur": 8652,
      "Presse": 8653,
      "Ronk": 8654,
      "Romney": 8655,
      "Rosenker": 8656,
      "Sousa": 8657,
      "Springs": 8658,
      "Sweden": 8659,
      "Travel": 8660,
      "Tiananmen": 8661,
      "Tahrir": 8662,
      "William": 8663,
      "Younes": 8664,
      "bureaucr": 8665,
      "freak": 8666,
      "fantasy": 8667,
      "folding": 8668,
      "farmland": 8669,
      "juice": 8670,
      "journey": 8671,
      "mammals": 8672,
      "machinery": 8673,
      "navigation": 8674,
      "ozy": 8675,
      "obligations": 8676,
      "persuade": 8677,
      "pawning": 8678,
      "routes": 8679,
      "rattled": 8680,
      "inconvenience": 8681,
      "rebounded": 8682,
      "relieve": 8683,
      "recovery": 8684,
      "reminder": 8685,
      "recruit": 8686,
      "aspects": 8687,
      "ousted": 8688,
      "stairs": 8689,
      "accomplished": 8690,
      "admissible": 8691,
      "forbade": 8692,
      "chamber": 8693,
      "detonated": 8694,
      "deficit": 8695,
      "traces": 8696,
      "traumatised": 8697,
      "troubled": 8698,
      "concluded": 8699,
      "conspir": 8700,
      "consciously": 8701,
      "concessions": 8702,
      "conjectures": 8703,
      "restore": 8704,
      "resistant": 8705,
      "rescuers": 8706,
      "comprehensive": 8707,
      "optimism": 8708,
      "explanations": 8709,
      "extensive": 8710,
      "appointment": 8711,
      "rifying": 8712,
      "ifiable": 8713,
      "embarks": 8714,
      "manifesto": 8715,
      "manuals": 8716,
      "authentication": 8717,
      "geopolitical": 8718,
      "pornography": 8719,
      "permanently": 8720,
      "perfectly": 8721,
      "mechanism": 8722,
      "clarify": 8723,
      "Thomas": 8724,
      "boost": 8725,
      "dismissed": 8726,
      "discrimination": 8727,
      "Chicoutimi": 8728,
      "Challenge": 8729,
      "precise": 8730,
      "predominantly": 8731,
      "contamination": 8732,
      "episode": 8733,
      "fluores": 8734,
      "decorations": 8735,
      "certificates": 8736,
      "affiliated": 8737,
      "1970s": 8738,
      "parishes": 8739,
      "patterns": 8740,
      "written": 8741,
      "legitimate": 8742,
      "Executives": 8743,
      "extremis": 8744,
      "Entertainment": 8745,
      "Laurie": 8746,
      "Constitution": 8747,
      "pursue": 8748,
      "Nova": 8749,
      "confessions": 8750,
      "Liberties": 8751,
      "distinguished": 8752,
      "fundamental": 8753,
      "motorbike": 8754,
      "Nouvelle": 8755,
      "Philippe": 8756,
      "fascination": 8757,
      "narrower": 8758,
      "phenomenon": 8759,
      "Basharat": 8760,
      "Runyonyi": 8761,
      "kidnappers": 8762,
      "Virginia": 8763,
      "jurisdiction": 8764,
      "inauguration": 8765,
      "Alderson": 8766,
      "Amants": 8767,
      "Agriculture": 8768,
      "Atomica": 8769,
      "Besides": 8770,
      "Between": 8771,
      "Bounty": 8772,
      "Bastille": 8773,
      "Bogota": 8774,
      "Baghdad": 8775,
      "CIA": 8776,
      "CRTC": 8777,
      "Causes": 8778,
      "Currently": 8779,
      "Crystal": 8780,
      "Cocaine": 8781,
      "Carmicha": 8782,
      "Crolles": 8783,
      "DSD": 8784,
      "Dylan": 8785,
      "Driver": 8786,
      "Difficult": 8787,
      "DiversitÃ": 8788,
      "Dubai": 8789,
      "Detroit": 8790,
      "ETIM": 8791,
      "Ecuador": 8792,
      "Film": 8793,
      "Fitzback": 8794,
      "Fernando": 8795,
      "GymnopÃ": 8796,
      "Gatineau": 8797,
      "Gesves": 8798,
      "Gainsbourg": 8799,
      "GCHQ": 8800,
      "Gendarmerie": 8801,
      "Hitler": 8802,
      "Hidalgo": 8803,
      "Hirsch": 8804,
      "Hillary": 8805,
      "Hassan": 8806,
      "Hudgins": 8807,
      "Hussein": 8808,
      "Ipsos": 8809,
      "Ireland": 8810,
      "Isaac": 8811,
      "Illinois": 8812,
      "JPMorgan": 8813,
      "Jilin": 8814,
      "Jianzhu": 8815,
      "Jenny": 8816,
      "Kigali": 8817,
      "Kierzek": 8818,
      "Living": 8819,
      "Lowndes": 8820,
      "Left": 8821,
      "Larribe": 8822,
      "Lombardi": 8823,
      "Lucky": 8824,
      "MONUS": 8825,
      "Mitt": 8826,
      "Maputo": 8827,
      "Mileage": 8828,
      "Mogador": 8829,
      "Numerous": 8830,
      "Narbonne": 8831,
      "Nicholson": 8832,
      "Nathaniel": 8833,
      "Olivier": 8834,
      "Oregon": 8835,
      "Prism": 8836,
      "Richard": 8837,
      "Relations": 8838,
      "Revenue": 8839,
      "Swiss": 8840,
      "Sofala": 8841,
      "Speaking": 8842,
      "Solicitors": 8843,
      "Sarkozy": 8844,
      "Similarly": 8845,
      "Tuchel": 8846,
      "Tamar": 8847,
      "Tokyo": 8848,
      "Teenagers": 8849,
      "Toulon": 8850,
      "Verbeke": 8851,
      "Yongzhou": 8852,
      "Yangcheng": 8853,
      "battered": 8854,
      "cancelled": 8855,
      "couple": 8856,
      "datab": 8857,
      "ethical": 8858,
      "elder": 8859,
      "echoes": 8860,
      "ecotax": 8861,
      "gallon": 8862,
      "hesitate": 8863,
      "horses": 8864,
      "jihadists": 8865,
      "knee": 8866,
      "knocking": 8867,
      "laryngit": 8868,
      "nicknamed": 8869,
      "pessim": 8870,
      "piece": 8871,
      "pixie": 8872,
      "random": 8873,
      "racket": 8874,
      "rhythm": 8875,
      "slammed": 8876,
      "sometime": 8877,
      "softening": 8878,
      "skeptical": 8879,
      "twelve": 8880,
      "ubiqu": 8881,
      "western": 8882,
      "winds": 8883,
      "zombies": 8884,
      "infertile": 8885,
      "intelligent": 8886,
      "intellectual": 8887,
      "resem": 8888,
      "reassuring": 8889,
      "recession": 8890,
      "retailers": 8891,
      "remuneration": 8892,
      "reclining": 8893,
      "remixes": 8894,
      "enorm": 8895,
      "escape": 8896,
      "androgen": 8897,
      "stadium": 8898,
      "adoles": 8899,
      "adjacent": 8900,
      "delegation": 8901,
      "determine": 8902,
      "depreciation": 8903,
      "immense": 8904,
      "imprisonment": 8905,
      "trafficking": 8906,
      "tribute": 8907,
      "conceded": 8908,
      "aggressive": 8909,
      "unbelievable": 8910,
      "subliminated": 8911,
      "modified": 8912,
      "shrinking": 8913,
      "autopsy": 8914,
      "geometry": 8915,
      "portrait": 8916,
      "upgraded": 8917,
      "Thierry": 8918,
      "Thurlbeck": 8919,
      "newborns": 8920,
      "monitored": 8921,
      "crazy": 8922,
      "airlifted": 8923,
      "precocious": 8924,
      "strangeness": 8925,
      "Antenne": 8926,
      "marvellous": 8927,
      "epinephrine": 8928,
      "EuroFirst300": 8929,
      "Weatherup": 8930,
      "jewellery": 8931,
      "planemaker": 8932,
      "archipelago": 8933,
      "1950s": 8934,
      "Anderlecht": 8935,
      "Howells": 8936,
      "Scientists": 8937,
      "paranoia": 8938,
      "Attorney": 8939,
      "Aircraft": 8940,
      "Leonardo": 8941,
      "Normandin": 8942,
      "Academy": 8943,
      "Trudeau": 8944,
      "Polynesia": 8945,
      "equivalent": 8946,
      "Canadienne": 8947,
      "competitiveness": 8948,
      "penniless": 8949,
      "Blunkett": 8950,
      "millennium": 8951,
      "Hoeilaart": 8952,
      "Suzanne": 8953,
      "infrastructure": 8954,
      "Bendemeer": 8955,
      "testosterone": 8956,
      "ASCOVIME": 8957,
      "fluorescent": 8958,
      "Carmichael": 8959,
      "MONUSCO": 8960,
      "laryngitis": 8961
    },
    "merges": [
      [
        "t",
        "h"
      ],
      [
        "i",
        "n"
      ],
      [
        "e",
        "r"
      ],
      [
        "th",
        "e"
      ],
      [
        "a",
        "n"
      ],
      [
        "o",
        "n"
      ],
      [
        "r",
        "e"
      ],
      [
        "e",
        "n"
      ],
      [
        "a",
        "t"
      ],
      [
        "e",
        "d"
      ],
      [
        "o",
        "r"
      ],
      [
        "i",
        "s"
      ],
      [
        "e",
        "s"
      ],
      [
        "a",
        "l"
      ],
      [
        "t",
        "o"
      ],
      [
        "o",
        "f"
      ],
      [
        "in",
        "g"
      ],
      [
        "a",
        "s"
      ],
      [
        "a",
        "r"
      ],
      [
        "o",
        "u"
      ],
      [
        "i",
        "t"
      ],
      [
        "i",
        "c"
      ],
      [
        "an",
        "d"
      ],
      [
        "i",
        "on"
      ],
      [
        "h",
        "e"
      ],
      [
        "s",
        "t"
      ],
      [
        "l",
        "e"
      ],
      [
        "o",
        "m"
      ],
      [
        "en",
        "t"
      ],
      [
        "i",
        "l"
      ],
      [
        "i",
        "d"
      ],
      [
        "b",
        "e"
      ],
      [
        "s",
        "e"
      ],
      [
        "a",
        "c"
      ],
      [
        "v",
        "e"
      ],
      [
        "a",
        "d"
      ],
      [
        "r",
        "o"
      ],
      [
        "f",
        "or"
      ],
      [
        "c",
        "h"
      ],
      [
        "a",
        "y"
      ],
      [
        "o",
        "l"
      ],
      [
        "w",
        "h"
      ],
      [
        "l",
        "y"
      ],
      [
        "v",
        "er"
      ],
      [
        "i",
        "r"
      ],
      [
        "o",
        "w"
      ],
      [
        "c",
        "e"
      ],
      [
        "t",
        "er"
      ],
      [
        "u",
        "r"
      ],
      [
        "th",
        "at"
      ],
      [
        "T",
        "he"
      ],
      [
        "a",
        "m"
      ],
      [
        "at",
        "ion"
      ],
      [
        "d",
        "e"
      ],
      [
        "i",
        "g"
      ],
      [
        "o",
        "t"
      ],
      [
        "i",
        "m"
      ],
      [
        "il",
        "l"
      ],
      [
        "p",
        "e"
      ],
      [
        "a",
        "re"
      ],
      [
        "t",
        "r"
      ],
      [
        "c",
        "on"
      ],
      [
        "a",
        "g"
      ],
      [
        "u",
        "s"
      ],
      [
        "er",
        "s"
      ],
      [
        "c",
        "t"
      ],
      [
        "n",
        "e"
      ],
      [
        "w",
        "as"
      ],
      [
        "a",
        "b"
      ],
      [
        "u",
        "n"
      ],
      [
        "i",
        "th"
      ],
      [
        "re",
        "s"
      ],
      [
        "u",
        "t"
      ],
      [
        "er",
        "e"
      ],
      [
        "h",
        "a"
      ],
      [
        "w",
        "ith"
      ],
      [
        "c",
        "om"
      ],
      [
        "w",
        "e"
      ],
      [
        "m",
        "ent"
      ],
      [
        "e",
        "t"
      ],
      [
        "l",
        "d"
      ],
      [
        "o",
        "p"
      ],
      [
        "u",
        "l"
      ],
      [
        "b",
        "y"
      ],
      [
        "s",
        "a"
      ],
      [
        "l",
        "i"
      ],
      [
        "e",
        "x"
      ],
      [
        "f",
        "r"
      ],
      [
        "p",
        "l"
      ],
      [
        "h",
        "as"
      ],
      [
        "p",
        "ro"
      ],
      [
        "t",
        "s"
      ],
      [
        "s",
        "u"
      ],
      [
        "m",
        "o"
      ],
      [
        "t",
        "e"
      ],
      [
        "ou",
        "r"
      ],
      [
        "h",
        "is"
      ],
      [
        "ou",
        "n"
      ],
      [
        "a",
        "k"
      ],
      [
        "a",
        "in"
      ],
      [
        "ou",
        "t"
      ],
      [
        "sa",
        "id"
      ],
      [
        "es",
        "t"
      ],
      [
        "a",
        "p"
      ],
      [
        "i",
        "es"
      ],
      [
        "at",
        "e"
      ],
      [
        "e",
        "ar"
      ],
      [
        "r",
        "i"
      ],
      [
        "al",
        "l"
      ],
      [
        "n",
        "ot"
      ],
      [
        "th",
        "er"
      ],
      [
        "l",
        "o"
      ],
      [
        "ig",
        "h"
      ],
      [
        "ha",
        "ve"
      ],
      [
        "s",
        "h"
      ],
      [
        "es",
        "s"
      ],
      [
        ",",
        "\""
      ],
      [
        "i",
        "f"
      ],
      [
        "fr",
        "om"
      ],
      [
        "ou",
        "ld"
      ],
      [
        "ar",
        "t"
      ],
      [
        "e",
        "m"
      ],
      [
        "o",
        "ver"
      ],
      [
        "s",
        "o"
[...]
